<unk>	0
<s>	0
</s>	0
▁क	-0
▁स	-1
▁ह	-2
▁म	-3
▁प	-4
्र	-5
▁के	-6
ार	-7
ें	-8
ने	-9
▁है	-10
या	-11
▁ब	-12
▁ज	-13
▁अ	-14
▁व	-15
ों	-16
▁में	-17
▁द	-18
▁र	-19
▁ल	-20
▁की	-21
▁न	-22
र्	-23
ान	-24
▁उ	-25
▁को	-26
▁औ	-27
▁और	-28
▁कि	-29
ता	-30
▁कर	-31
▁आ	-32
▁इ	-33
्य	-34
▁ग	-35
▁त	-36
िक	-37
▁भ	-38
▁से	-39
▁का	-40
▁प्र	-41
ना	-42
▁ने	-43
▁पर	-44
स्	-45
▁ए	-46
ाल	-47
▁श	-48
क्	-49
िल	-50
ित	-51
▁य	-52
▁इस	-53
▁च	-54
हा	-55
िए	-56
▁हैं	-57
ही	-58
िय	-59
न्	-60
िया	-61
त्र	-62
▁हो	-63
वा	-64
ड़	-65
▁वि	-66
ाम	-67
▁फ	-68
▁थ	-69
ति	-70
ेश	-71
▁जा	-72
▁स्	-73
▁सं	-74
▁ख	-75
के	-76
ते	-77
▁लिए	-78
ाज	-79
▁एक	-80
ती	-81
ला	-82
से	-83
ंग	-84
हीं	-85
▁भी	-86
▁(	-87
ले	-88
्या	-89
री	-90
ोग	-91
सी	-92
▁सम	-93
रा	-94
▁सा	-95
▁किया	-96
क्ष	-97
▁नहीं	-98
▁बा	-99
त्	-100
्ट	-101
िस	-102
▁अप	-103
नी	-104
कार	-105
▁मु	-106
कि	-107
गा	-108
▁कहा	-109
का	-110
▁यह	-111
▁ट	-112
▁नि	-113
▁1	-114
ंत्र	-115
▁हु	-116
▁भार	-117
▁2	-118
्व	-119
▁हम	-120
कर	-121
ली	-122
्री	-123
ाय	-124
▁ड	-125
▁दे	-126
्म	-127
ुर	-128
▁करने	-129
ुल	-130
ंद	-131
न्ह	-132
ियों	-133
▁गया	-134
▁उन	-135
▁अध	-136
ां	-137
ाह	-138
की	-139
▁कार	-140
▁ले	-141
ारी	-142
▁राज	-143
▁उन्ह	-144
▁पह	-145
▁अन	-146
▁था	-147
ैं	-148
ास	-149
▁रह	-150
▁जो	-151
▁साथ	-152
▁उस	-153
▁ही	-154
मा	-155
दी	-156
रे	-157
्‍	-158
िन	-159
सा	-160
▁सि	-161
ष्ट	-162
ारा	-163
▁घ	-164
▁या	-165
दा	-166
▁तो	-167
देश	-168
ंत्री	-169
ंड	-170
भा	-171
ल्	-172
ुम	-173
▁लोग	-174
िव	-175
▁पू	-176
▁भारत	-177
ोंने	-178
द्	-179
▁सु	-180
िला	-181
िर	-182
ढ़	-183
ओं	-184
तर	-185
▁दो	-186
्ष	-187
▁सक	-188
स्त	-189
गी	-190
्रे	-191
था	-192
पी	-193
गे	-194
▁वाल	-195
में	-196
▁दिया	-197
स्ट	-198
भी	-199
▁सी	-200
▁उप	-201
▁सर	-202
्त	-203
▁रा	-204
वि	-205
▁20	-206
ोज	-207
्च	-208
▁उन्होंने	-209
टी	-210
▁।	-211
""	-212
▁ध	-213
ेल	-214
▁अपने	-215
धान	-216
▁वह	-217
जी	-218
ारे	-219
▁मह	-220
ंच	-221
वी	-222
▁बाद	-223
▁छ	-224
▁तक	-225
▁आप	-226
रो	-227
▁सरकार	-228
▁अधिक	-229
▁ला	-230
ंध	-231
▁बी	-232
▁पा	-233
▁रहे	-234
▁कु	-235
पा	-236
नों	-237
▁प्रति	-238
िश	-239
ेट	-240
▁दी	-241
▁हुए	-242
ूप	-243
▁ऐ	-244
▁पुल	-245
जा	-246
▁गई	-247
ये	-248
▁थी	-249
▁पुलिस	-250
ौर	-251
▁थे	-252
▁चु	-253
▁वे	-254
▁मो	-255
▁जिस	-256
▁माम	-257
ीन	-258
गर	-259
▁मे	-260
▁मा	-261
ार्	-262
▁निर्	-263
▁मिल	-264
▁चाह	-265
▁जी	-266
▁विश	-267
टर	-268
▁द्व	-269
▁मौ	-270
र्व	-271
▁लोगों	-272
▁बना	-273
ुप	-274
▁क्ष	-275
मंत्री	-276
▁देश	-277
▁जाए	-278
ाना	-279
00	-280
ूर	-281
▁रहा	-282
▁स्थ	-283
▁जब	-284
ानी	-285
खा	-286
िम	-287
▁राज्य	-288
▁रूप	-289
तीय	-290
बंध	-291
▁कुछ	-292
क्र	-293
ज़	-294
▁‘	-295
द्ध	-296
को	-297
▁वर्	-298
▁इन	-299
बी	-300
▁करते	-301
▁कोई	-302
्रीय	-303
▁रही	-304
एस	-305
क्षा	-306
▁अं	-307
▁कम	-308
▁3	-309
▁उत्	-310
▁कार्य	-311
▁मैं	-312
▁सब	-313
वर	-314
▁बात	-315
▁द्वारा	-316
कों	-317
ड़ा	-318
स्थ	-319
▁गए	-320
▁तर	-321
बर	-322
▁पी	-323
ाइ	-324
▁फिल	-325
▁बह	-326
द्र	-327
वं	-328
आई	-329
क्त	-330
शन	-331
ंह	-332
▁अनु	-333
▁बढ़	-334
▁तुम	-335
ूल	-336
▁विक	-337
मान	-338
▁इसके	-339
र्ट	-340
िंग	-341
योग	-342
▁भा	-343
्स	-344
ड़ी	-345
ेत्र	-346
▁भारतीय	-347
▁पहले	-348
▁उनके	-349
▁हि	-350
ंप	-351
िका	-352
र्म	-353
▁ऑ	-354
▁201	-355
▁सिंह	-356
▁मुख	-357
▁किसी	-358
च्च	-359
▁क्षेत्र	-360
धार	-361
चार	-362
किन	-363
▁श्री	-364
▁राष्ट	-365
▁बता	-366
▁दिल	-367
डी	-368
िप	-369
▁रुप	-370
▁साम	-371
ोक	-372
हां	-373
ूस	-374
▁अपनी	-375
▁वाले	-376
▁ओ	-377
ब्	-378
▁तथा	-379
िट	-380
▁लेकिन	-381
▁अम	-382
▁व्य	-383
ाप	-384
▁ये	-385
ुत	-386
▁जान	-387
हर	-388
▁बे	-389
▁कै	-390
▁लगा	-391
▁होने	-392
्यों	-393
▁काम	-394
▁फिल्म	-395
ोट	-396
ेंगे	-397
ोल	-398
▁एवं	-399
ार्ट	-400
▁टी	-401
▁'	-402
्यू	-403
ोड़	-404
एम	-405
वे	-406
िज	-407
▁सभी	-408
▁क्या	-409
्रेस	-410
▁करना	-411
सर	-412
▁हाल	-413
▁कह	-414
द्य	-415
र्थ	-416
बा	-417
▁5	-418
▁मंत्री	-419
ड़े	-420
▁उन्हें	-421
ुन	-422
▁रख	-423
ेर	-424
▁हुई	-425
▁प्रधान	-426
▁खिला	-427
▁हुआ	-428
▁सह	-429
▁मामले	-430
▁शाम	-431
ष्	-432
्ली	-433
▁अव	-434
▁जै	-435
▁तरह	-436
▁मुख्य	-437
▁शुर	-438
▁सू	-439
जे	-440
्छ	-441
▁4	-442
वाल	-443
्ल	-444
▁मै	-445
च्छ	-446
▁अभ	-447
ंट	-448
▁सो	-449
म्म	-450
र्ज	-451
▁देख	-452
▁मोदी	-453
ाई	-454
▁समय	-455
▁स्ट	-456
वार	-457
▁बै	-458
▁होगा	-459
दान	-460
ूर्	-461
▁दिन	-462
▁शामिल	-463
▁""	-464
्ञ	-465
▁सकता	-466
यर	-467
ृत	-468
▁लिया	-469
▁आई	-470
गत	-471
▁दिल्ली	-472
▁हर	-473
लों	-474
▁चाहिए	-475
▁पहु	-476
▁दौर	-477
मी	-478
▁आय	-479
▁मान	-480
▁प्रधानमंत्री	-481
▁कांग	-482
▁अन्य	-483
धी	-484
न्न	-485
▁किए	-486
ोजना	-487
▁कई	-488
ंस	-489
▁जाता	-490
ियम	-491
▁रुपये	-492
▁-	-493
▁संबंध	-494
ून	-495
▁बहुत	-496
▁बीच	-497
▁ई	-498
▁बार	-499
▁कांग्रेस	-500
▁आरो	-501
दि	-502
▁दोनों	-503
▁केंद	-504
▁उसके	-505
▁पि	-506
▁फिर	-507
▁ज़	-508
ुख	-509
लय	-510
▁हू	-511
▁सकते	-512
▁न्या	-513
▁ना	-514
▁गु	-515
▁करता	-516
▁दौरान	-517
जन	-518
▁बताया	-519
एं	-520
▁जाने	-521
▁वर्ष	-522
▁क्र	-523
▁पूर्व	-524
▁पास	-525
ालय	-526
दार	-527
जू	-528
▁जन	-529
▁दूस	-530
चा	-531
ंक	-532
▁खु	-533
ोन	-534
▁शिक	-535
स्प	-536
▁बारे	-537
भाव	-538
झे	-539
▁मंत्र	-540
▁ता	-541
▁पै	-542
▁इं	-543
क्ति	-544
▁पहुंच	-545
▁वा	-546
नाव	-547
ोर	-548
दर्	-549
▁कप	-550
▁उनकी	-551
▁6	-552
्‍य	-553
▁खिलाफ	-554
स्तान	-555
▁नाम	-556
▁शुरू	-557
▁प्रदेश	-558
▁क्यों	-559
वन	-560
▁बि	-561
णा	-562
फी	-563
▁विकास	-564
र्स	-565
▁लग	-566
्यक्ष	-567
▁सबसे	-568
क्रम	-569
ग्र	-570
स्‍	-571
िति	-572
▁जारी	-573
ज्ञ	-574
▁राष्ट्र	-575
क्स	-576
पर	-577
▁लि	-578
▁सुर	-579
ीड	-580
म्	-581
▁परिव	-582
ाने	-583
▁उसे	-584
शी	-585
▁दि	-586
▁करोड़	-587
▁जु	-588
दे	-589
क्ट	-590
ताओं	-591
पति	-592
आर	-593
रण	-594
हत	-595
▁ख़	-596
▁फै	-597
टना	-598
▁नी	-599
▁कंप	-600
त्व	-601
प्र	-602
▁जर	-603
चना	-604
▁जि	-605
वाद	-606
▁परि	-607
कारी	-608
▁लेकर	-609
▁होता	-610
ेष	-611
ूम	-612
▁स्व	-613
20	-614
▁इंड	-615
▁टीम	-616
▁कारण	-617
ाजपा	-618
ेड	-619
▁चल	-620
ोध	-621
▁पाकि	-622
▁बन	-623
▁आज	-624
▁ठ	-625
▁हा	-626
सार	-627
र्ड	-628
▁देने	-629
▁गां	-630
▁करें	-631
▁पार्ट	-632
▁जाएगा	-633
्ड	-634
▁पु	-635
▁बैं	-636
▁जांच	-637
ंब	-638
ानों	-639
ुक	-640
्रा	-641
वाई	-642
▁दर्ज	-643
ोर्ट	-644
ोष	-645
▁“	-646
ेज	-647
▁भाजपा	-648
▁झ	-649
वास	-650
▁यु	-651
▁19	-652
शत	-653
▁सद	-654
▁चुनाव	-655
▁प्रश	-656
▁महिला	-657
▁वाली	-658
▁हूं	-659
िये	-660
▁इससे	-661
▁ग्र	-662
▁अब	-663
▁7	-664
स्था	-665
▁अधिकार	-666
▁साल	-667
नि	-668
ध्य	-669
सभा	-670
▁निक	-671
मत	-672
▁करे	-673
▁विध	-674
▁प्रा	-675
न्‍	-676
▁बद	-677
्ह	-678
▁मंत्रालय	-679
▁तीन	-680
जर	-681
ियां	-682
ॉल	-683
▁ट्र	-684
ीस	-685
▁10	-686
▁ऐसा	-687
ैन	-688
▁इसमें	-689
▁आरोप	-690
▁स्वा	-691
▁पार्टी	-692
▁बैठ	-693
▁"	-694
▁एस	-695
ोह	-696
करण	-697
▁प्रतिशत	-698
▁अध्यक्ष	-699
..	-700
ाली	-701
▁अच्छ	-702
▁मुझे	-703
त्म	-704
माण	-705
▁यू	-706
▁आधार	-707
▁बो	-708
▁वै	-709
धिक	-710
▁तै	-711
▁अल	-712
▁हों	-713
पूर्	-714
ुक्त	-715
ेशन	-716
▁हमारे	-717
ेंद्र	-718
ियो	-719
▁8	-720
तिक	-721
्यादा	-722
द्योग	-723
▁जिन	-724
▁अपना	-725
दन	-726
▁लोक	-727
ची	-728
मुख	-729
▁योजना	-730
▁बच्च	-731
▁सेवा	-732
▁ऐसे	-733
▁पाकिस्तान	-734
ीर	-735
फ़	-736
ंत	-737
▁वित	-738
ष्ठ	-739
▁किस	-740
▁विशेष	-741
िकी	-742
टा	-743
▁विश्व	-744
▁जैसे	-745
श्च	-746
भाग	-747
▁समझ	-748
ुमार	-749
▁लाख	-750
▁मुख्यमंत्री	-751
▁गिर	-752
▁ओर	-753
-1	-754
▁एन	-755
पूर्ण	-756
िता	-757
▁इसे	-758
▁यहां	-759
ूत	-760
दों	-761
▁तुम्ह	-762
▁पिछ	-763
▁मन	-764
▁बु	-765
▁गो	-766
पुर	-767
▁ऊ	-768
ाप्त	-769
हम	-770
▁आर	-771
▁टे	-772
▁होगी	-773
▁अमेर	-774
धा	-775
▁इस्	-776
▁ली	-777
स्ता	-778
वल	-779
▁अग	-780
एल	-781
▁घटना	-782
यी	-783
▁मौत	-784
▁अंतर	-785
ीय	-786
▁जबकि	-787
▁हमें	-788
क्षण	-789
▁कॉ	-790
म्मी	-791
ांकि	-792
▁अभी	-793
लाह	-794
▁न्याया	-795
सं	-796
ैंड	-797
वर्	-798
▁राष्ट्रीय	-799
त्रा	-800
ुनिया	-801
▁सच	-802
▁अला	-803
▁सुन	-804
▁सुरक्षा	-805
▁हालांकि	-806
श्य	-807
▁उम्मी	-808
▁विभ	-809
▁”	-810
▁ऑफ	-811
▁राह	-812
▁क्योंकि	-813
ख्या	-814
▁दा	-815
▁पं	-816
▁बैंक	-817
▁नई	-818
▁जिसमें	-819
▁उठ	-820
▁राष्ट्रपति	-821
▁उम्मीद	-822
▁आए	-823
▁काफी	-824
▁प्रमुख	-825
▁अलावा	-826
यन	-827
▁अगर	-828
क़	-829
एन	-830
▁शिक्ष	-831
▁मद	-832
),	-833
▁कुमार	-834
▁:	-835
ांच	-836
ियन	-837
धि	-838
ेंट	-839
ताल	-840
हार	-841
▁स्प	-842
▁9	-843
▁पद	-844
▁परी	-845
▁केंद्र	-846
▁छा	-847
▁डी	-848
▁जानकारी	-849
▁ज्यादा	-850
▁तैय	-851
वेश	-852
▁मौजू	-853
▁होती	-854
लिए	-855
इन	-856
बाज	-857
▁डि	-858
न्द	-859
▁खान	-860
▁उपल	-861
ायर	-862
▁दु	-863
फ्त	-864
एफ	-865
▁12	-866
▁ची	-867
▁महा	-868
▁पिछले	-869
▁घर	-870
▁गांधी	-871
▁ब्र	-872
्यालय	-873
▁सदस	-874
▁तहत	-875
▁कार्यक्रम	-876
▁मांग	-877
▁व्या	-878
▁कृ	-879
श्म	-880
क्‍	-881
▁वहीं	-882
तों	-883
▁आगे	-884
▁दर	-885
▁फैस	-886
▁स्क	-887
नल	-888
▁चे	-889
िन्न	-890
▁हिस्	-891
▁करेंगे	-892
▁उसकी	-893
▁बल्	-894
र्ष	-895
▁मदद	-896
▁प्रदर्	-897
िले	-898
▁पर्	-899
▁ख़ु	-900
ंबर	-901
त्य	-902
▁पुर	-903
▁बैठक	-904
ार्थ	-905
▁खा	-906
▁कान	-907
▁परिवार	-908
▁पूरी	-909
▁भाग	-910
▁कंपनी	-911
▁अनुसार	-912
इट	-913
▁नेता	-914
▁बनाने	-915
तम	-916
▁मूल	-917
▁खेल	-918
▁आयोज	-919
णी	-920
ाया	-921
पाल	-922
▁इंडिया	-923
्ला	-924
▁घोष	-925
▁अस	-926
▁सम्म	-927
ेन	-928
▁डॉ	-929
▁मैच	-930
▁इसका	-931
▁निय	-932
▁उत्तर	-933
▁अधिकारी	-934
▁अस्प	-935
▁मार	-936
▁एम	-937
बाद	-938
ियर	-939
▁आव	-940
▁व्यक्ति	-941
▁रो	-942
त्या	-943
▁विभाग	-944
कृत	-945
ाला	-946
▁नर	-947
ताब	-948
▁चौ	-949
तन	-950
▁स्‍	-951
▁विचार	-952
▁भूम	-953
▁सकती	-954
▁हमने	-955
▁इसलिए	-956
▁उपलब्	-957
▁तब	-958
क्टर	-959
रि	-960
▁उनका	-961
▁चार	-962
▁प्रो	-963
▁प्राप्त	-964
000	-965
in	-966
चित	-967
▁बड़ी	-968
तु	-969
▁योग	-970
तार	-971
ूट	-972
▁दूसरे	-973
▁अर	-974
▁शर्	-975
▁सीट	-976
▁बेह	-977
▁मिले	-978
▁रिप	-979
ेंस	-980
प्	-981
▁उच्च	-982
फल	-983
▁लॉ	-984
▁कुल	-985
▁शु	-986
र्क	-987
▁केंद्रीय	-988
न्द्र	-989
▁जहां	-990
▁मत	-991
▁तैयार	-992
▁बॉ	-993
दारी	-994
शा	-995
बल	-996
िकेट	-997
।"	-998
▁स्थिति	-999
▁कल	-1000
▁विदेश	-1001
▁संख्या	-1002
शल	-1003
यान	-1004
▁संग	-1005
▁ढ	-1006
▁तौर	-1007
▁दिखा	-1008
टन	-1009
▁जीत	-1010
▁सूचना	-1011
ामी	-1012
▁मेरे	-1013
ंगे	-1014
▁ख़ुदा	-1015
▁दिए	-1016
लो	-1017
▁अभि	-1018
▁करी	-1019
▁उत्पा	-1020
▁उसने	-1021
▁जीवन	-1022
▁अल्	-1023
▁दुनिया	-1024
▁रेल	-1025
▁उपलब्ध	-1026
▁पहली	-1027
यास	-1028
▁आने	-1029
▁प्रभाव	-1030
▁संय	-1031
▁नए	-1032
चे	-1033
▁मज	-1034
▁गिरफ्त	-1035
▁उपयोग	-1036
▁पत्र	-1037
▁प्रकार	-1038
श्मीर	-1039
▁मामला	-1040
▁कीमत	-1041
▁फ़	-1042
▁आत	-1043
▁लिये	-1044
▁याद	-1045
ूरत	-1046
▁15	-1047
▁सर्व	-1048
ज्ञान	-1049
▁प्रदान	-1050
मेंट	-1051
▁अस्पताल	-1052
ोवा	-1053
▁मीड	-1054
▁विभिन्न	-1055
▁अलग	-1056
रिक	-1057
▁शे	-1058
▁राम	-1059
मेश	-1060
स्थ्य	-1061
वान	-1062
▁जाना	-1063
दम	-1064
▁पार	-1065
▁पो	-1066
▁पेश	-1067
▁फीस	-1068
▁अवसर	-1069
▁शाह	-1070
▁शा	-1071
▁रिपोर्ट	-1072
on	-1073
▁आस	-1074
▁मीडिया	-1075
धन	-1076
गार	-1077
▁पूरा	-1078
▁आम	-1079
▁होंगे	-1080
▁व्यव	-1081
▁सामने	-1082
श्यक	-1083
▁देशों	-1084
▁बड़ा	-1085
ासन	-1086
▁स्थित	-1087
▁बंद	-1088
▁मार्	-1089
▁पढ़	-1090
▁वाला	-1091
▁सहयोग	-1092
हाय	-1093
▁स्वास्थ्य	-1094
▁बाज	-1095
ंबई	-1096
▁मौके	-1097
▁न्यायालय	-1098
ायल	-1099
ेक	-1100
▁केवल	-1101
ूह	-1102
▁करती	-1103
▁जल	-1104
▁इसी	-1105
▁इसकी	-1106
▁महत्व	-1107
्वी	-1108
रल	-1109
▁आपको	-1110
▁जग	-1111
स्थान	-1112
▁पंजा	-1113
क्रिया	-1114
▁क़	-1115
▁शिक्षा	-1116
▁छात्र	-1117
वाह	-1118
▁पता	-1119
▁प्रदर्शन	-1120
▁क्रिकेट	-1121
▁निर्माण	-1122
श्व	-1123
▁हे	-1124
▁पांच	-1125
▁लड़	-1126
ष्ट्र	-1127
▁आवश्यक	-1128
▁जाती	-1129
▁यदि	-1130
▁200	-1131
▁पड़	-1132
▁श्र	-1133
ेस	-1134
ल्ड	-1135
जय	-1136
▁कोर्ट	-1137
काश	-1138
्क	-1139
ाइल	-1140
माल	-1141
पित	-1142
र्फ	-1143
▁शर्मा	-1144
यू	-1145
▁होते	-1146
डा	-1147
▁बढ़ा	-1148
▁यहोवा	-1149
▁सहाय	-1150
▁मौजूद	-1151
▁स्म	-1152
▁कभी	-1153
▁शहर	-1154
हाँ	-1155
▁‘‘	-1156
▁स्तर	-1157
▁नजर	-1158
▁नरेंद्र	-1159
वरी	-1160
▁अनुम	-1161
▁गै	-1162
▁सौ	-1163
▁अधिकारियों	-1164
an	-1165
▁भर	-1166
कृ	-1167
▁11	-1168
भव	-1169
जेपी	-1170
▁पश्च	-1171
▁विधान	-1172
▁सके	-1173
टक	-1174
▁निर्देश	-1175
▁अंत	-1176
ायत	-1177
▁मुंबई	-1178
▁पंजाब	-1179
जार	-1180
▁ते	-1181
▁’	-1182
▁कर्म	-1183
▁व्याप	-1184
▁स्थान	-1185
त्री	-1186
▁समर्थ	-1187
्यान	-1188
▁S	-1189
▁उद्	-1190
▁ऐसी	-1191
ात	-1192
▁सचिव	-1193
▁वो	-1194
नाथ	-1195
▁परीक्षा	-1196
▁डे	-1197
▁आया	-1198
▁नौ	-1199
काल	-1200
षा	-1201
▁फोन	-1202
▁मिला	-1203
्ले	-1204
▁लाभ	-1205
▁अद	-1206
ुट	-1207
हन	-1208
▁दक्ष	-1209
▁राजनी	-1210
▁न्याय	-1211
▁आग	-1212
▁सेना	-1213
▁चि	-1214
षण	-1215
कर्	-1216
ठन	-1217
▁बस	-1218
▁अफ	-1219
▁बड़े	-1220
▁अमेरिका	-1221
▁शी	-1222
▁कौ	-1223
▁प्रक्रिया	-1224
ियोजना	-1225
डे	-1226
▁नागर	-1227
▁राहुल	-1228
बंधन	-1229
▁प्रयास	-1230
▁मुद्	-1231
भार	-1232
▁न्यू	-1233
▁दर्	-1234
यों	-1235
द्धि	-1236
▁जाएगी	-1237
तंत्र	-1238
▁मामलों	-1239
▁जवा	-1240
ar	-1241
मता	-1242
▁वृ	-1243
▁हमारी	-1244
▁मही	-1245
▁परियोजना	-1246
▁बीजेपी	-1247
▁गिरफ्तार	-1248
ष्‍	-1249
ंगा	-1250
er	-1251
षि	-1252
ग्रह	-1253
▁कपूर	-1254
ूरी	-1255
▁माल	-1256
भग	-1257
,000	-1258
▁दिव	-1259
▁जल्	-1260
▁सदस्य	-1261
▁मध्य	-1262
▁.	-1263
हरा	-1264
▁अति	-1265
▁करके	-1266
लि	-1267
▁बाहर	-1268
ष्ट्रीय	-1269
लिया	-1270
इस	-1271
ुद	-1272
▁देते	-1273
जह	-1274
▁करेगा	-1275
▁धारा	-1276
ेंद	-1277
▁छोड़	-1278
▁क्षेत्रों	-1279
▁जिसके	-1280
▁भे	-1281
ृह	-1282
▁R	-1283
▁चर्	-1284
▁गा	-1285
ालन	-1286
▁पत्	-1287
▁पूछ	-1288
ुष	-1289
▁बर	-1290
ायक	-1291
▁वीड	-1292
वीर	-1293
ुआ	-1294
▁कैसे	-1295
▁उसका	-1296
▁नागरिक	-1297
ंका	-1298
▁चला	-1299
र्थिक	-1300
▁बयान	-1301
▁I	-1302
▁ताकि	-1303
▁परमेश	-1304
▁संप	-1305
▁ध्यान	-1306
तेमाल	-1307
गू	-1308
▁संबंधित	-1309
▁गं	-1310
▁जे	-1311
ैल	-1312
al	-1313
िनियम	-1314
▁विरो	-1315
▁मैंने	-1316
्प	-1317
िक्स	-1318
▁राज्यों	-1319
▁लगभग	-1320
▁वजह	-1321
▁लेने	-1322
▁तरफ	-1323
▁उम्मीदवार	-1324
▁रहने	-1325
▁दक्षि	-1326
ांत	-1327
▁होना	-1328
▁करीब	-1329
ंदी	-1330
▁आतंक	-1331
▁प्रण	-1332
▁स्था	-1333
▁14	-1334
▁नियम	-1335
▁रे	-1336
▁स्कूल	-1337
▁आयोग	-1338
▁चीन	-1339
▁गयी	-1340
सम	-1341
▁फर	-1342
▁आदेश	-1343
बार	-1344
ल्प	-1345
▁रोक	-1346
▁13	-1347
▁पीएम	-1348
▁जिले	-1349
▁फैसला	-1350
▁रुपए	-1351
▁C	-1352
▁शेयर	-1353
▁P	-1354
▁तेल	-1355
▁जगह	-1356
▁कार्र	-1357
▁वीडियो	-1358
▁भूमिका	-1359
▁A	-1360
▁फीसदी	-1361
▁संघ	-1362
व्य	-1363
रात	-1364
्‍वर	-1365
▁अधिनियम	-1366
▁निवेश	-1367
गढ़	-1368
▁दूर	-1369
▁सहित	-1370
▁महत्वपूर्ण	-1371
▁बोर्ड	-1372
▁अल्लाह	-1373
िक्ष	-1374
▁आर्थिक	-1375
तना	-1376
▁सीमा	-1377
▁रन	-1378
▁माध्य	-1379
▁मिली	-1380
िशा	-1381
▁लिख	-1382
▁विधानसभा	-1383
▁रखा	-1384
▁18	-1385
▁मं	-1386
▁कार्रवाई	-1387
▁जिसे	-1388
▁बाजार	-1389
विड	-1390
▁इस्तेमाल	-1391
▁कोश	-1392
▁वित्त	-1393
at	-1394
▁मृत	-1395
▁दिनों	-1396
मिक	-1397
▁अर्थ	-1398
▁टेस्ट	-1399
▁पानी	-1400
फा	-1401
▁सुवि	-1402
भीर	-1403
▁मजब	-1404
ुड	-1405
▁पूर्	-1406
द्यालय	-1407
▁कृषि	-1408
▁कानून	-1409
▁शिव	-1410
्टी	-1411
ंदर	-1412
िस्ट	-1413
▁रक्षा	-1414
▁मिश	-1415
ित्र	-1416
▁सफल	-1417
शि	-1418
▁तरी	-1419
es	-1420
्न	-1421
▁विष	-1422
चान	-1423
▁खे	-1424
ोस	-1425
▁चुके	-1426
▁आरोपी	-1427
त्‍	-1428
▁बनाए	-1429
िटी	-1430
▁जवाब	-1431
शु	-1432
▁महारा	-1433
▁इला	-1434
र्च	-1435
▁घायल	-1436
म्मू	-1437
▁25	-1438
▁समूह	-1439
▁गति	-1440
▁2019	-1441
▁सिर्फ	-1442
▁उद्योग	-1443
▁रखने	-1444
▁बनाया	-1445
सल	-1446
▁वरि	-1447
▁कर्	-1448
ताबिक	-1449
▁दल	-1450
▁अदाल	-1451
▁हिस्सा	-1452
त्मक	-1453
▁अहम	-1454
▁आयोजित	-1455
▁आद	-1456
▁बच्चों	-1457
▁मुताबिक	-1458
▁हाथ	-1459
▁सामान	-1460
तियों	-1461
▁जिससे	-1462
▁जिन्ह	-1463
त्ता	-1464
▁सुधार	-1465
▁पश्चिम	-1466
क्षित	-1467
▁लगाया	-1468
▁खरी	-1469
▁खुद	-1470
▁डाल	-1471
जों	-1472
ील	-1473
▁हास	-1474
बीआई	-1475
▁बिल	-1476
▁एज	-1477
▁वहां	-1478
झा	-1479
▁समा	-1480
▁समिति	-1481
▁जाते	-1482
▁पक्ष	-1483
▁जम्मू	-1484
▁गंभीर	-1485
ेट्र	-1486
▁कश्मीर	-1487
▁यात्रा	-1488
िश्च	-1489
▁चुन	-1490
▁पूरे	-1491
▁चाहते	-1492
▁चर्चा	-1493
स्थित	-1494
▁सुविधा	-1495
▁सार	-1496
▁जनता	-1497
िरा	-1498
▁परमेश्‍वर	-1499
▁सड़	-1500
▁रोज	-1501
▁संयुक्त	-1502
▁बेट	-1503
ख़	-1504
हरी	-1505
▁गृह	-1506
▁अभिने	-1507
▁देता	-1508
▁2020	-1509
सेना	-1510
▁लागू	-1511
रों	-1512
...	-1513
▁16	-1514
▁जरूरत	-1515
धिकार	-1516
▁धन	-1517
▁एयर	-1518
▁डा	-1519
▁गुज	-1520
ंभ	-1521
▁हासिल	-1522
▁मेरी	-1523
▁मंद	-1524
▁समर्थन	-1525
▁ट्रे	-1526
वरण	-1527
हास	-1528
मे	-1529
▁बंग	-1530
ष्‍ट	-1531
▁वाप	-1532
ानि	-1533
▁संस	-1534
▁कैम	-1535
▁अच्छा	-1536
▁थीं	-1537
▁स्वी	-1538
▁दृ	-1539
▁दक्षिण	-1540
▁लक्ष	-1541
▁महाराष्ट्र	-1542
▁बज	-1543
भर	-1544
स्या	-1545
टे	-1546
▁संभाव	-1547
▁शिकायत	-1548
▁कदम	-1549
▁अदालत	-1550
▁इंटर	-1551
▁धर्म	-1552
▁दौ	-1553
▁अप्र	-1554
▁वरिष्ठ	-1555
▁जल्द	-1556
▁फ्र	-1557
हाल	-1558
्तान	-1559
▁लिखा	-1560
र्जी	-1561
▁"""	-1562
▁बल्कि	-1563
▁दें	-1564
▁व्यक्त	-1565
िवार	-1566
प्री	-1567
▁सांस	-1568
▁पोस्ट	-1569
▁वायर	-1570
▁तुम्हारे	-1571
िम्म	-1572
▁महीने	-1573
त्ति	-1574
▁रस	-1575
-19	-1576
▁कहना	-1577
वादी	-1578
वीं	-1579
ियान	-1580
ण्ड	-1581
▁घोषणा	-1582
▁माध्यम	-1583
▁जिला	-1584
▁M	-1585
ियाणा	-1586
वेदन	-1587
सत	-1588
कट	-1589
तिम	-1590
र्गत	-1591
▁लोकसभा	-1592
ीक	-1593
▁नीति	-1594
▁मंदिर	-1595
णाम	-1596
ज़ा	-1597
▁किसानों	-1598
▁सहायता	-1599
ष्टि	-1600
▁सरकारी	-1601
▁रण	-1602
लाई	-1603
▁30	-1604
ल्स	-1605
▁सें	-1606
▁१	-1607
काब	-1608
क्ता	-1609
▁प्रौ	-1610
▁B	-1611
ॉन	-1612
▁बेहतर	-1613
्वास	-1614
▁बल	-1615
▁हजार	-1616
▁समस्या	-1617
्‍या	-1618
▁अन्	-1619
राज	-1620
▁प्रकाश	-1621
स्ताव	-1622
ंडी	-1623
"""	-1624
ांस	-1625
▁कोशिश	-1626
र्जा	-1627
▁हरियाणा	-1628
तरी	-1629
एच	-1630
99	-1631
देशक	-1632
▁उल्	-1633
▁हत्या	-1634
तिहास	-1635
▁गेंद	-1636
▁परिणाम	-1637
वुड	-1638
▁प्रस्ताव	-1639
मु	-1640
बे	-1641
▁एंड	-1642
.5	-1643
▁तीस	-1644
▁पिता	-1645
मन	-1646
▁सवाल	-1647
▁पैदा	-1648
िश्चित	-1649
▁दूसरी	-1650
▁प्रौद्योग	-1651
▁निर्ण	-1652
▁वेब	-1653
▁एक्स	-1654
▁0	-1655
▁बदल	-1656
▁संब	-1657
िकल	-1658
▁तम	-1659
▁देखा	-1660
बू	-1661
▁50	-1662
▁सै	-1663
▁गुजरात	-1664
▁बिहार	-1665
▁समाज	-1666
गल	-1667
ांति	-1668
नीय	-1669
ोप	-1670
मर	-1671
▁मी	-1672
अप	-1673
▁पहचान	-1674
▁लगे	-1675
कृति	-1676
▁बचा	-1677
कल	-1678
▁संर	-1679
▁2018	-1680
ेम	-1681
▁आपके	-1682
शोध	-1683
विद्यालय	-1684
▁क्षमता	-1685
▁बदला	-1686
र्ग	-1687
▁भेज	-1688
▁यही	-1689
स्ट्रे	-1690
▁तस्	-1691
ूर्ति	-1692
▁यून	-1693
▁पे	-1694
▁ज़र	-1695
▁विरोध	-1696
▁वृद्धि	-1697
▁पुन	-1698
▁रै	-1699
▁गये	-1700
▁कोविड	-1701
ेद	-1702
ांड	-1703
or	-1704
▁उठा	-1705
▁प्रयोग	-1706
ग्	-1707
पन	-1708
ंद्र	-1709
▁युवा	-1710
▁शुरुआ	-1711
▁चुकी	-1712
▁पर्या	-1713
▁कंपन	-1714
ंडल	-1715
स्तव	-1716
विष	-1717
▁कहते	-1718
▁मुकाब	-1719
▁24	-1720
▁पीछ	-1721
▁गल	-1722
▁2017	-1723
▁रि	-1724
▁अतिरिक	-1725
▁सम्मान	-1726
▁मार्ग	-1727
तरा	-1728
▁वी	-1729
▁भु	-1730
▁करो	-1731
▁अच्छी	-1732
▁उनसे	-1733
▁विप	-1734
▁बिना	-1735
▁17	-1736
लीवुड	-1737
en	-1738
स्ट्रेलिया	-1739
▁संस्	-1740
▁ठीक	-1741
▁सोशल	-1742
▁भाई	-1743
ायी	-1744
▁चिक	-1745
▁एल	-1746
फोन	-1747
सीसी	-1748
▁वन	-1749
लू	-1750
▁ट्वी	-1751
ग्री	-1752
▁उद	-1753
▁गुर	-1754
▁सही	-1755
▁आदि	-1756
चन	-1757
▁गांव	-1758
ेशा	-1759
▁देना	-1760
▁अमेरिकी	-1761
किंग	-1762
ॉलर	-1763
▁पट	-1764
▁—	-1765
▁व्यवस्था	-1766
▁रिक	-1767
▁प्रशासन	-1768
▁सैन	-1769
अल	-1770
▁लगता	-1771
मो	-1772
ानीय	-1773
▁भारी	-1774
ब्द	-1775
▁महिलाओं	-1776
▁वाह	-1777
▁सार्व	-1778
ंगल	-1779
तृ	-1780
▁जय	-1781
▁ट्वीट	-1782
▁भविष	-1783
िम्मे	-1784
▁वाय	-1785
▁मॉ	-1786
शिया	-1787
▁प्रत्य	-1788
नेट	-1789
▁अवधि	-1790
▁क्ल	-1791
▁पहला	-1792
▁लॉन्	-1793
▁कमी	-1794
▁सिद्ध	-1795
▁हूँ	-1796
▁निश	-1797
▁नोट	-1798
▁चुका	-1799
▁कोरो	-1800
▁प्रौद्योगिकी	-1801
चल	-1802
▁अर्	-1803
▁पत्नी	-1804
▁भाषा	-1805
▁बाइ	-1806
ंसा	-1807
▁लगातार	-1808
▁अगले	-1809
▁उससे	-1810
▁स्पष्ट	-1811
▁N	-1812
वाले	-1813
▁विषय	-1814
शनल	-1815
▁हमले	-1816
ाजिक	-1817
▁उसी	-1818
▁नियंत्र	-1819
▁सुनिश्चित	-1820
▁बने	-1821
▁खबर	-1822
▁कोह	-1823
▁हमेशा	-1824
▁इनमें	-1825
खंड	-1826
सान	-1827
बाजी	-1828
ेंड	-1829
▁आधारित	-1830
▁चाल	-1831
▁बिज	-1832
▁बंगाल	-1833
▁राजनीतिक	-1834
▁बल्ले	-1835
▁संगठन	-1836
ार्म	-1837
चीत	-1838
सित	-1839
लाइन	-1840
▁एड	-1841
क्शन	-1842
▁मजबूत	-1843
▁हाई	-1844
ic	-1845
▁दिशा	-1846
ुओं	-1847
साह	-1848
▁शि	-1849
▁ऊर्जा	-1850
चिका	-1851
▁रेलवे	-1852
▁छात्रों	-1853
▁बातचीत	-1854
तमान	-1855
▁निर्णय	-1856
िली	-1857
▁समुद	-1858
▁सल	-1859
एँ	-1860
▁(1	-1861
▁ईमान	-1862
▁भाव	-1863
▁किये	-1864
साइट	-1865
▁ऋ	-1866
जनिक	-1867
▁ज्ञ	-1868
▁सलाह	-1869
▁चिकित	-1870
▁अंतिम	-1871
ार्ड	-1872
▁अपरा	-1873
रीज	-1874
▁स्मार्ट	-1875
▁छोट	-1876
र्ती	-1877
रिया	-1878
▁डॉलर	-1879
▁बाल	-1880
▁भविष्य	-1881
ारोह	-1882
▁लाल	-1883
▁सामाजिक	-1884
▁सामान्य	-1885
▁विस्त	-1886
डल	-1887
▁वास्तव	-1888
▁कोरोना	-1889
▁निजी	-1890
लब	-1891
▁उद्देश	-1892
▁खास	-1893
▁प्रणाली	-1894
उस	-1895
▁समारोह	-1896
ेलन	-1897
▁कार्ड	-1898
▁भू	-1899
▁बच	-1900
न्म	-1901
▁संभावना	-1902
▁एफ	-1903
▁विमान	-1904
▁तेज	-1905
निर्	-1906
▁अतिरिक्त	-1907
▁चाहता	-1908
▁ती	-1909
▁सड़क	-1910
▁विद्य	-1911
▁रिज	-1912
▁बॉलीवुड	-1913
▁यादव	-1914
▁प्रभावित	-1915
ूब	-1916
ौती	-1917
▁स्थानीय	-1918
र्न	-1919
सि	-1920
ेत	-1921
वें	-1922
▁सार्वजनिक	-1923
▁वालों	-1924
▁लॉन्च	-1925
▁विकेट	-1926
▁याचिका	-1927
▁कराया	-1928
▁प्रतिनि	-1929
▁समझौ	-1930
ंख	-1931
पट	-1932
▁व्यापार	-1933
▁लौ	-1934
मैं	-1935
▁नगर	-1936
राब	-1937
मित	-1938
▁समान	-1939
्ब	-1940
▁विश्वविद्यालय	-1941
विध	-1942
▁विरा	-1943
कृतिक	-1944
▁अभियान	-1945
पू	-1946
▁पर्य	-1947
▁पीछे	-1948
ॉय	-1949
▁सुप्री	-1950
▁विधायक	-1951
उन	-1952
घा	-1953
▁गठ	-1954
▁शव	-1955
तः	-1956
▁पुरस्	-1957
▁भर्ती	-1958
▁हाद	-1959
▁तस्वीर	-1960
▁हिंद	-1961
▁तुल	-1962
चर	-1963
▁वर्तमान	-1964
▁दुर्	-1965
▁मना	-1966
▁करा	-1967
▁चरण	-1968
▁शरी	-1969
▁100	-1970
▁अंक	-1971
ब्ल	-1972
▁विज्ञान	-1973
▁चा	-1974
ियल	-1975
▁तेजी	-1976
▁राजस्थान	-1977
सू	-1978
मार	-1979
ड्ड	-1980
ोजन	-1981
▁,	-1982
▁कोहली	-1983
▁नया	-1984
फ्	-1985
शील	-1986
▁कप्तान	-1987
▁प्रशिक्ष	-1988
▁जम	-1989
▁केस	-1990
▁पेट्र	-1991
▁संशोध	-1992
.0	-1993
▁सित	-1994
जल	-1995
ामीण	-1996
▁साह	-1997
तक	-1998
▁मार्च	-1999
▁अंग	-2000
▁सूची	-2001
▁वर्ग	-2002
फर	-2003
▁उत्पादन	-2004
▁पस	-2005
▁मिलने	-2006
▁मेरा	-2007
दीप	-2008
.1	-2009
सन	-2010
▁ब्ल	-2011
म्प	-2012
▁जिसका	-2013
▁परिवर्	-2014
▁तला	-2015
▁वापस	-2016
▁प्रबंधन	-2017
ौल	-2018
▁अप्रैल	-2019
▁आवश्यकता	-2020
▁मुला	-2021
ाज़	-2022
▁बच्चे	-2023
▁नेताओं	-2024
▁विन	-2025
ड़ों	-2026
▁आश	-2027
▁मोह	-2028
▁मि	-2029
और	-2030
▁प्रत्येक	-2031
▁मानव	-2032
▁पुरस्कार	-2033
▁फोट	-2034
ंज	-2035
है	-2036
▁एक्ट	-2037
▁जून	-2038
▁वेबसाइट	-2039
▁धो	-2040
राष्ट्रीय	-2041
▁उनमें	-2042
पना	-2043
▁निभा	-2044
▁गण	-2045
▁आवेदन	-2046
बद्ध	-2047
बह	-2048
लैंड	-2049
▁फिलहाल	-2050
▁संबोध	-2051
लेख	-2052
▁सुप्रीम	-2053
▁ग्रामीण	-2054
न्‍ह	-2055
▁बढ़ाने	-2056
ट्ट	-2057
▁इल	-2058
▁रसूल	-2059
▁शै	-2060
▁कौन	-2061
त्त	-2062
▁कारो	-2063
▁देव	-2064
▁एच	-2065
▁परिष	-2066
▁श्रे	-2067
▁जमा	-2068
करी	-2069
▁21	-2070
▁मंजू	-2071
▁गिरा	-2072
▁पेट्रोल	-2073
यक	-2074
ोड	-2075
ोरे	-2076
▁मल	-2077
▁तकनी	-2078
▁राय	-2079
न्स	-2080
▁अमित	-2081
▁नेतृ	-2082
वासी	-2083
▁हमला	-2084
ॉप	-2085
▁आध	-2086
▁वार	-2087
▁बोल	-2088
▁पृ	-2089
नाटक	-2090
▁सांसद	-2091
▁तुलना	-2092
▁वक्त	-2093
▁मर	-2094
▁आन	-2095
▁आयोजन	-2096
ंगी	-2097
▁संबंधी	-2098
▁कैमरा	-2099
▁शीर्ष	-2100
▁कंपनियों	-2101
▁निर्धार	-2102
▁विवाद	-2103
▁वही	-2104
धीश	-2105
राह	-2106
▁त्र	-2107
▁पाया	-2108
▁मगर	-2109
▁अध्य	-2110
▁राशि	-2111
▁शांति	-2112
▁घोषित	-2113
▁विकसित	-2114
▁करेगी	-2115
▁शुरुआत	-2116
▁प्रव	-2117
्यु	-2118
यह	-2119
क्‍त	-2120
ेंसी	-2121
▁अपराध	-2122
गम	-2123
▁सात	-2124
ब्र	-2125
▁स्वीकार	-2126
▁दावा	-2127
▁देखते	-2128
▁दिख	-2129
फ्ट	-2130
▁मंजूरी	-2131
र्य	-2132
▁संस्था	-2133
िद	-2134
▁जुड़े	-2135
▁ड्र	-2136
▁अली	-2137
201	-2138
▁सामना	-2139
▁नुक	-2140
▁प्रत	-2141
▁दिवस	-2142
▁जाएंगे	-2143
▁खरीद	-2144
ैक	-2145
यात	-2146
▁तू	-2147
ॉर्ड	-2148
▁रोग	-2149
▁सदस्यों	-2150
▁कर्नाटक	-2151
▁गुण	-2152
▁अधीन	-2153
कात	-2154
▁संच	-2155
▁कला	-2156
▁पड़ा	-2157
▁देखने	-2158
▁तय	-2159
क्षी	-2160
▁विश्वास	-2161
ंदा	-2162
मारी	-2163
▁संवि	-2164
▁सोच	-2165
▁शो	-2166
▁जिम्मे	-2167
▁नंबर	-2168
▁तरीके	-2169
ित्य	-2170
▁जरिए	-2171
ंतर	-2172
▁यहाँ	-2173
▁रेड	-2174
▁निश्च	-2175
वधान	-2176
▁ति	-2177
▁अनुमति	-2178
▁शान	-2179
▁आरोपियों	-2180
▁पक	-2181
वस्था	-2182
▁स्थापित	-2183
ियाँ	-2184
खिल	-2185
di	-2186
▁नेतृत्व	-2187
▁बदलाव	-2188
▁जता	-2189
न्तु	-2190
▁आतंकवाद	-2191
ion	-2192
▁समी	-2193
▁ऑन	-2194
▁शादी	-2195
▁निदेशक	-2196
त्रों	-2197
▁सम्मेलन	-2198
▁घंट	-2199
▁आख	-2200
▁ऊपर	-2201
▁बेटे	-2202
▁यी	-2203
▁संसद	-2204
▁फाइ	-2205
▁विदेशी	-2206
ित्व	-2207
▁अथ	-2208
▁शक्ति	-2209
▁स्वतंत्र	-2210
स्क	-2211
▁सीटों	-2212
▁फैसले	-2213
▁छह	-2214
▁T	-2215
वाला	-2216
▁तमिल	-2217
श्विक	-2218
ॉक	-2219
▁रहते	-2220
तान	-2221
▁तुम्हें	-2222
.2	-2223
कर्ता	-2224
▁खिलाड़ी	-2225
▁बनी	-2226
▁अने	-2227
▁राज्‍य	-2228
स्ल	-2229
▁संसा	-2230
▁आंक	-2231
▁किलो	-2232
▁अंतर्गत	-2233
▁हमारा	-2234
▁बारिश	-2235
▁अनुर	-2236
▁मां	-2237
ुस	-2238
▁प्ल	-2239
▁समेत	-2240
▁लेख	-2241
▁उन्‍ह	-2242
लेज	-2243
रु	-2244
▁माना	-2245
▁जिनमें	-2246
▁लगाने	-2247
िमिट	-2248
ठी	-2249
▁मूल्य	-2250
▁नुकसान	-2251
डु	-2252
▁यीशु	-2253
▁अच्छे	-2254
▁जन्म	-2255
▁रंग	-2256
▁22	-2257
▁इंग	-2258
▁रात	-2259
टल	-2260
▁मुक	-2261
st	-2262
▁वैश्विक	-2263
.3	-2264
संधान	-2265
▁आत्म	-2266
्यता	-2267
ूबर	-2268
फे	-2269
▁नरे	-2270
ट्र	-2271
▁सीबीआई	-2272
▁नीचे	-2273
▁जनवरी	-2274
एसटी	-2275
▁ऑस्ट्रेलिया	-2276
▁निकाल	-2277
▁न्यायाधीश	-2278
साथ	-2279
रीब	-2280
ोम	-2281
वै	-2282
▁पाए	-2283
.4	-2284
▁ब्रिट	-2285
ॉट	-2286
▁प्राथ	-2287
ोत्	-2288
▁पड़े	-2289
वट	-2290
▁अनुसंधान	-2291
▁कराने	-2292
▁लक्ष्य	-2293
it	-2294
▁रोह	-2295
▁मेगा	-2296
▁पहल	-2297
▁अरब	-2298
▁दिस	-2299
ग़	-2300
इड	-2301
▁दोष	-2302
▁विश्‍	-2303
▁जैसा	-2304
▁रखते	-2305
▁भुगत	-2306
▁समुदाय	-2307
▁अंतर्रा	-2308
ाहरण	-2309
कत	-2310
ूं	-2311
▁कार्यालय	-2312
पोर्ट	-2313
▁मुश	-2314
▁इतिहास	-2315
न्व	-2316
▁अध्ययन	-2317
▁परिषद	-2318
▁चीज़	-2319
▁मिलेगा	-2320
▁रज	-2321
▁उनको	-2322
▁पूर्ण	-2323
▁क्व	-2324
िमिटेड	-2325
▁फी	-2326
▁उपस्थित	-2327
▁कोल	-2328
▁प्रार	-2329
▁जैसी	-2330
तनी	-2331
▁अनेक	-2332
▁मुलाकात	-2333
▁G	-2334
▁प्रेर	-2335
▁बेहद	-2336
▁एशिया	-2337
▁अंतरराष्ट्रीय	-2338
▁मसी	-2339
▁बिक	-2340
▁लाने	-2341
▁तारी	-2342
यं	-2343
▁ट्रंप	-2344
कर्म	-2345
▁राष्‍ट	-2346
▁संस्थान	-2347
▁मई	-2348
र्श	-2349
▁टै	-2350
▁प्रवेश	-2351
▁इले	-2352
▁केन्द्र	-2353
▁संविधान	-2354
▁उम	-2355
▁डेट	-2356
▁जेल	-2357
ंघ	-2358
▁युद्ध	-2359
▁सच्च	-2360
स्ते	-2361
्वर	-2362
▁बढ़ावा	-2363
▁संक्रम	-2364
िकों	-2365
▁नियंत्रण	-2366
्‍त	-2367
स्त्र	-2368
▁–	-2369
▁पहुंचे	-2370
▁बिजली	-2371
्तीय	-2372
▁हार	-2373
▁वर्षों	-2374
▁केरल	-2375
▁विराट	-2376
एक	-2377
▁भेजा	-2378
▁कट	-2379
▁जानते	-2380
▁बध	-2381
▁2016	-2382
ामा	-2383
▁इंस्ट	-2384
ताह	-2385
▁हादसे	-2386
▁दूसरा	-2387
मीटर	-2388
ूक	-2389
▁बेटी	-2390
50	-2391
▁मुद्दे	-2392
▁चलते	-2393
िड	-2394
▁उदाहरण	-2395
▁हित	-2396
▁स्मार्टफोन	-2397
कारा	-2398
बाइल	-2399
▁होकर	-2400
▁प्रतिक	-2401
िटल	-2402
▁मौजूदा	-2403
▁परीक्षण	-2404
▁उत्पाद	-2405
▁इलाज	-2406
पक	-2407
▁किताब	-2408
▁किसान	-2409
▁पंच	-2410
धिकारिक	-2411
व्यवस्था	-2412
म्मद	-2413
▁नम	-2414
▁अक्ष	-2415
ार्क	-2416
▁सभा	-2417
▁पीड़	-2418
नर	-2419
पूर्व	-2420
▁माह	-2421
▁नव	-2422
GB	-2423
न्द्रीय	-2424
▁वित्तीय	-2425
▁योगदान	-2426
▁उद्देश्य	-2427
▁पति	-2428
▁जुलाई	-2429
▁अपील	-2430
▁संबोधित	-2431
▁कहीं	-2432
▁प्रशिक्षण	-2433
▁गैर	-2434
▁ठा	-2435
▁इंग्ल	-2436
कर्ताओं	-2437
▁करवा	-2438
▁भुगतान	-2439
▁आधिकारिक	-2440
▁जोर	-2441
▁विधि	-2442
▁वायरस	-2443
▁छोटे	-2444
▁सत्र	-2445
▁बधाई	-2446
▁निर	-2447
▁गौर	-2448
ाइम	-2449
▁28	-2450
.7	-2451
▁मू	-2452
▁H	-2453
▁फाय	-2454
▁सोन	-2455
सों	-2456
▁तत्	-2457
▁सीरीज	-2458
▁केन्द्रीय	-2459
▁परिवर्तन	-2460
▁कैं	-2461
▁सफलता	-2462
▁सर्	-2463
भाल	-2464
▁प्रस्त	-2465
▁23	-2466
जूद	-2467
▁फोटो	-2468
▁फॉ	-2469
▁कठ	-2470
चारियों	-2471
ष्ण	-2472
▁टा	-2473
▁लड़ा	-2474
▁लगी	-2475
▁प्य	-2476
▁उत्‍	-2477
▁निकल	-2478
▁31	-2479
▁उसमें	-2480
-2	-2481
▁वायु	-2482
ड़ियों	-2483
▁रु	-2484
स्व	-2485
▁चयन	-2486
▁मिस	-2487
क्ट्र	-2488
▁प्रिय	-2489
दू	-2490
▁40	-2491
▁अनुभव	-2492
▁युव	-2493
▁भूमि	-2494
विंद	-2495
▁अनुमान	-2496
▁अग्र	-2497
बि	-2498
ज़र	-2499
▁सां	-2500
▁प्रतिनिध	-2501
▁घा	-2502
▁सलमान	-2503
▁परेश	-2504
ड़ने	-2505
▁अभिनेता	-2506
▁वस्त	-2507
am	-2508
▁सुना	-2509
फ्र	-2510
काम	-2511
▁संपर्क	-2512
▁संभव	-2513
ोद	-2514
.6	-2515
▁प्रचार	-2516
le	-2517
▁रिश	-2518
▁1,	-2519
ँच	-2520
▁साइ	-2521
▁प्रभ	-2522
▁लिमिटेड	-2523
▁जरूरी	-2524
▁साफ	-2525
▁सुनवाई	-2526
▁इन्	-2527
▁हिस्से	-2528
▁दू	-2529
म्बर	-2530
▁अफ्री	-2531
नियर	-2532
कारों	-2533
▁पहुंची	-2534
▁निपट	-2535
▁गलत	-2536
▁असम	-2537
▁वोट	-2538
कम	-2539
▁भ्र	-2540
▁प्ले	-2541
प्ताह	-2542
जो	-2543
▁चिकित्	-2544
▁जिन्होंने	-2545
्याण	-2546
▁कथ	-2547
▁खुश	-2548
गो	-2549
▁मिलकर	-2550
▁संदेश	-2551
▁नेट	-2552
न्होंने	-2553
▁विजय	-2554
▁बाव	-2555
ro	-2556
▁लो	-2557
कश्मीर	-2558
.8	-2559
जीत	-2560
▁चिं	-2561
▁बजट	-2562
▁कर्मचारियों	-2563
▁डाय	-2564
▁मोबाइल	-2565
▁शानदार	-2566
िरी	-2567
▁इनकार	-2568
जरी	-2569
ार्ज	-2570
ed	-2571
▁विल	-2572
▁जित	-2573
▁कारोबार	-2574
▁बाइबल	-2575
▁मुकाबले	-2576
▁बजे	-2577
▁मेड	-2578
▁बांग	-2579
िलों	-2580
▁विधे	-2581
िक्सल	-2582
कु	-2583
गन	-2584
▁D	-2585
यल	-2586
▁अथवा	-2587
▁आईपी	-2588
▁इका	-2589
▁सुरक्षित	-2590
▁हवाई	-2591
साय	-2592
ॉम	-2593
▁उल्लेख	-2594
▁उपाय	-2595
बीर	-2596
कर्ष	-2597
▁रिली	-2598
▁कल्याण	-2599
▁बल्लेबाज	-2600
जु	-2601
▁फरवरी	-2602
▁जाये	-2603
टरी	-2604
▁सत	-2605
रेलू	-2606
▁जिसने	-2607
▁प्राथमिक	-2608
▁अर्थव्यवस्था	-2609
▁प्रग	-2610
▁आठ	-2611
▁विस्तार	-2612
तने	-2613
▁जस्ट	-2614
▁राजनीति	-2615
स्लिम	-2616
▁जिन्हें	-2617
थम	-2618
क्षक	-2619
केट	-2620
▁निर्धारित	-2621
▁26	-2622
दर्भ	-2623
▁प्रवक्ता	-2624
▁राजा	-2625
▁पढ़ें	-2626
▁सुबह	-2627
▁लागत	-2628
▁महान	-2629
त्मा	-2630
राबाद	-2631
▁संशोधन	-2632
▁घरेलू	-2633
▁संग्रह	-2634
्ता	-2635
ुल्क	-2636
ँव	-2637
▁इंग्लैंड	-2638
ांक	-2639
▁दिखाई	-2640
▁लंब	-2641
▁लें	-2642
त्रियों	-2643
▁पाठ	-2644
▁बावजूद	-2645
▁धर	-2646
उट	-2647
▁शुभ	-2648
▁यूरो	-2649
▁स्वयं	-2650
पान	-2651
▁डर	-2652
▁नदी	-2653
▁सुपर	-2654
▁मिशन	-2655
▁चुनौती	-2656
साद	-2657
▁रोजगार	-2658
ख्त	-2659
वत	-2660
सूस	-2661
▁ग़	-2662
▁परिज	-2663
ियोग	-2664
▁ऑनलाइन	-2665
▁समीक्षा	-2666
ंकी	-2667
▁रहेगा	-2668
्रिय	-2669
▁पुरुष	-2670
▁आता	-2671
▁अगस्त	-2672
▁खर्च	-2673
▁इलाके	-2674
खर	-2675
बित	-2676
क्षर	-2677
▁पसंद	-2678
▁रू	-2679
▁साझा	-2680
▁जनरल	-2681
▁अश	-2682
▁ट्रेन	-2683
।"""	-2684
▁परवर	-2685
▁प्रेम	-2686
▁खो	-2687
▁सीएम	-2688
▁शब्द	-2689
▁अंतर्राष्ट्रीय	-2690
ेंज	-2691
▁डॉक्टर	-2692
▁27	-2693
िफ	-2694
त्ती	-2695
▁समाधान	-2696
्रिया	-2697
▁बनने	-2698
ियार	-2699
▁जीबी	-2700
मैन	-2701
▁गिरावट	-2702
धे	-2703
▁विधेयक	-2704
▁हालत	-2705
उंट	-2706
▁मिलेगी	-2707
हान	-2708
▁हिंसा	-2709
प्त	-2710
▁हैद	-2711
▁कानू	-2712
▁सप्ताह	-2713
थि	-2714
▁दिसंबर	-2715
▁गतिविध	-2716
ायद	-2717
▁गठबंधन	-2718
▁गैस	-2719
दु	-2720
▁छो	-2721
▁उपचार	-2722
▁भवन	-2723
▁बढ़कर	-2724
▁चिकित्सा	-2725
▁माइ	-2726
घाटन	-2727
▁तु	-2728
▁रोहित	-2729
▁उन्‍होंने	-2730
▁संजय	-2731
▁पर्यावरण	-2732
ग्राम	-2733
▁अका	-2734
्रो	-2735
पु	-2736
▁जस्टिस	-2737
▁टिप	-2738
उंड	-2739
▁सारे	-2740
▁/	-2741
▁राहत	-2742
▁रहेंगे	-2743
वंबर	-2744
▁ज्ञान	-2745
यु	-2746
राने	-2747
स्तानी	-2748
ंजी	-2749
बारी	-2750
ापन	-2751
▁मुस्लिम	-2752
न्ध	-2753
रान	-2754
▁खत्म	-2755
▁चाहे	-2756
▁खुला	-2757
▁नेशनल	-2758
▁समाप्त	-2759
▁भावना	-2760
्रीन	-2761
▁किलोमीटर	-2762
पे	-2763
▁पटेल	-2764
▁उम्मीदवारों	-2765
वाही	-2766
▁मश	-2767
▁२	-2768
▁मौसम	-2769
▁प्रगति	-2770
स्ती	-2771
▁प्यार	-2772
▁व्यापक	-2773
्लादेश	-2774
▁आंध	-2775
▁भग	-2776
िंद	-2777
▁सक्रिय	-2778
▁दोस्त	-2779
न्‍न	-2780
▁अन्त	-2781
▁निष्	-2782
िमंडल	-2783
▁नार	-2784
▁वैज्ञान	-2785
दिगार	-2786
▁माता	-2787
▁खूब	-2788
▁सितंबर	-2789
गु	-2790
▁पीठ	-2791
▁लै	-2792
▁मतलब	-2793
रासत	-2794
िको	-2795
▁37	-2796
▁खाद्य	-2797
▁तलाश	-2798
▁किर	-2799
▁संत	-2800
▁हिरासत	-2801
▁सेवाओं	-2802
▁महसूस	-2803
▁प्रस्तुत	-2804
▁परवरदिगार	-2805
▁चुना	-2806
▁निम्	-2807
ार्थियों	-2808
▁कब्	-2809
िंट	-2810
▁लं	-2811
▁परिवहन	-2812
▁मुद्दों	-2813
▁पालन	-2814
ख्	-2815
▁कॉलेज	-2816
▁202	-2817
टो	-2818
फार	-2819
▁प्रसार	-2820
जब	-2821
द्द	-2822
▁फा	-2823
▁फ्ल	-2824
▁री	-2825
▁खंड	-2826
▁डिज	-2827
नाडु	-2828
▁नवंबर	-2829
▁हॉ	-2830
▁F	-2831
▁उद्य	-2832
▁मारे	-2833
▁चंद्र	-2834
om	-2835
ज्	-2836
▁रिकॉर्ड	-2837
▁हट	-2838
▁उद्घाटन	-2839
▁श्रद्ध	-2840
▁बर्	-2841
▁मतदान	-2842
▁संरक्षण	-2843
दर्श	-2844
▁करनी	-2845
\\	-2846
▁देगा	-2847
पि	-2848
▁शरीर	-2849
मार्ट	-2850
▁ज़्यादा	-2851
▁नवा	-2852
▁तीसरे	-2853
▁भीतर	-2854
▁भरो	-2855
▁बिक्री	-2856
उन्होंने	-2857
ंटी	-2858
▁2014	-2859
▁विकल्प	-2860
▁इंडियन	-2861
▁s	-2862
विल	-2863
▁वाहन	-2864
▁संदर्भ	-2865
▁चोट	-2866
▁नरेन्द्र	-2867
पास	-2868
▁संके	-2869
▁प्रतिबंध	-2870
▁हैदराबाद	-2871
▁जिसकी	-2872
▁रव	-2873
▁डेटा	-2874
▁इच्छ	-2875
▁सजा	-2876
ूड	-2877
्‍म	-2878
जाम	-2879
▁परिस	-2880
स्‍थ	-2881
▁इस्ल	-2882
▁प्रियंका	-2883
▁अध्यक्षता	-2884
▁प्रमाण	-2885
▁अभिनेत्री	-2886
▁आपकी	-2887
▁सुश	-2888
▁मृत्यु	-2889
▁स्थापना	-2890
ामद	-2891
▁अर्ज	-2892
▁संसाधन	-2893
▁निगम	-2894
▁तुर	-2895
▁प्री	-2896
▁बातें	-2897
▁अफ्रीका	-2898
▁गर्	-2899
▁हस्ता	-2900
▁देंगे	-2901
जरीवाल	-2902
▁in	-2903
पात	-2904
अलग	-2905
▁तमिलनाडु	-2906
▁बांग्लादेश	-2907
▁आइ	-2908
▁ऋण	-2909
▁उपकरण	-2910
▁परियोजनाओं	-2911
सीआई	-2912
▁खोज	-2913
▁पर्यटन	-2914
मार्	-2915
▁भागी	-2916
ब्ल्यू	-2917
▁अत्य	-2918
▁साबित	-2919
▁(2	-2920
ल्ट	-2921
क्सी	-2922
▁उचित	-2923
▁एजेंसी	-2924
▁शायद	-2925
▁मॉडल	-2926
▁दबा	-2927
▁अंदर	-2928
▁संगठ	-2929
▁प्रभा	-2930
▁चिंता	-2931
▁टन	-2932
▁E	-2933
▁चले	-2934
ेप	-2935
▁गाँव	-2936
▁रहता	-2937
▁सिल	-2938
▁शहरी	-2939
▁हेतु	-2940
▁टिक	-2941
▁थो	-2942
णिज	-2943
▁नै	-2944
▁बरा	-2945
▁इस्ती	-2946
▁पुस्त	-2947
▁ट्व	-2948
▁उत्तरा	-2949
त्साह	-2950
▁लगाए	-2951
▁शास	-2952
▁इलेक्ट्र	-2953
▁उपभ	-2954
▁प्रावधान	-2955
्रेट	-2956
▁कड़ी	-2957
घटना	-2958
▁केजरीवाल	-2959
चारी	-2960
▁सूत्रों	-2961
कोर्ट	-2962
गाह	-2963
िटर	-2964
▁लेते	-2965
च्छेद	-2966
ताव	-2967
ारिज	-2968
▁जर्म	-2969
▁मेडिकल	-2970
दारों	-2971
ूंगा	-2972
▁उत्प	-2973
▁मेगाप	-2974
▁पारी	-2975
▁2015	-2976
."	-2977
▁घट	-2978
▁अमरी	-2979
▁पृथ	-2980
ांश	-2981
▁''	-2982
▁इंत	-2983
ध्यक्ष	-2984
▁32	-2985
भारत	-2986
्रेड	-2987
.9	-2988
▁नती	-2989
▁प्रोत्साह	-2990
▁आदमी	-2991
▁29	-2992
▁राजधान	-2993
▁प्रथम	-2994
▁टिप्प	-2995
▁निर्मा	-2996
▁जिलों	-2997
▁टीवी	-2998
▁ताप	-2999
िब	-3000
▁यानी	-3001
▁In	-3002
च्‍	-3003
▁प्रबंध	-3004
▁लाइ	-3005
▁कथित	-3006
▁पोर्ट	-3007
▁सुझा	-3008
▁संवाद	-3009
▁हथ	-3010
▁निर्यात	-3011
▁प्रदर्श	-3012
▁डिग्री	-3013
▁ओवर	-3014
▁दश	-3015
ोरी	-3016
▁नागरिकों	-3017
▁पुष्टि	-3018
▁प्रतिक्रिया	-3019
▁क्रम	-3020
re	-3021
▁बनाई	-3022
धर	-3023
▁पदक	-3024
▁आंध्र	-3025
▁खुशी	-3026
▁दिला	-3027
▁सुल	-3028
▁इतना	-3029
▁वार्	-3030
▁उपा	-3031
रिए	-3032
▁मोहम्मद	-3033
ुनिक	-3034
▁नवी	-3035
▁दुर्घटना	-3036
▁राजधानी	-3037
फारिश	-3038
ठा	-3039
▁मस	-3040
र्ण	-3041
▁लौट	-3042
▁बें	-3043
▁असर	-3044
▁हल	-3045
▁स्वच्छ	-3046
▁हरा	-3047
▁बरामद	-3048
ंखला	-3049
▁199	-3050
▁आवा	-3051
▁परिजनों	-3052
▁उड़	-3053
खित	-3054
▁प्राधिक	-3055
▁दुख	-3056
▁हटा	-3057
मीन	-3058
▁रखी	-3059
माने	-3060
▁खारिज	-3061
▁वाणिज	-3062
▁गुप	-3063
शाला	-3064
▁मेगापिक्सल	-3065
▁सिफारिश	-3066
▁मैदान	-3067
▁आपूर्ति	-3068
▁सोम	-3069
ैर	-3070
▁अनुप	-3071
वर्क	-3072
▁पल	-3073
▁ग्राह	-3074
▁तैना	-3075
▁झू	-3076
▁शोध	-3077
▁पाकिस्तानी	-3078
▁देखें	-3079
▁अरु	-3080
▁निर्वा	-3081
▁विशि	-3082
▁कौशल	-3083
▁O	-3084
▁गी	-3085
▁उद्यम	-3086
▁तारीख	-3087
्ति	-3088
▁जेट	-3089
▁गुरु	-3090
▁मुश्क	-3091
▁संबंधों	-3092
▁शुल्क	-3093
▁शासन	-3094
ोरेज	-3095
▁दम	-3096
▁आते	-3097
▁तत्काल	-3098
▁रिलीज	-3099
दर	-3100
▁कोच	-3101
देन	-3102
▁शिवसेना	-3103
▁K	-3104
▁विशेषज्ञ	-3105
▁संगी	-3106
▁स्वर	-3107
शिप	-3108
ंडा	-3109
▁गोली	-3110
काता	-3111
मण	-3112
कू	-3113
पत्र	-3114
▁शुक्र	-3115
▁दस	-3116
▁निगर	-3117
▁मुद्र	-3118
▁बैंकों	-3119
▁वकी	-3120
▁c	-3121
el	-3122
ोलन	-3123
▁राज्यपाल	-3124
▁यूपी	-3125
▁निधन	-3126
्राम	-3127
राष्ट्र	-3128
▁सहायक	-3129
▁आयु	-3130
▁सुझाव	-3131
▁गठन	-3132
▁पाने	-3133
क्षीय	-3134
▁मात्रा	-3135
▁सीख	-3136
▁सश	-3137
िल्म	-3138
▁उम्र	-3139
ज्ञा	-3140
▁घंटे	-3141
स्टम	-3142
th	-3143
▁जानता	-3144
▁प्रसाद	-3145
ार्मिक	-3146
ृंखला	-3147
▁L	-3148
मोह	-3149
▁धार्मिक	-3150
ंदन	-3151
▁मैचों	-3152
लेट	-3153
▁अय	-3154
▁सिक	-3155
्डी	-3156
ंतु	-3157
▁मक	-3158
थी	-3159
▁निगरानी	-3160
लंका	-3161
▁दर्श	-3162
ul	-3163
▁तुरंत	-3164
▁स्टोरेज	-3165
ेह	-3166
▁स्वागत	-3167
णे	-3168
▁समु	-3169
▁प्रेरित	-3170
▁माँ	-3171
▁स्वतंत्रता	-3172
धारा	-3173
▁रहती	-3174
▁सेट	-3175
▁रूस	-3176
चीन	-3177
▁देकर	-3178
द्दी	-3179
स्टर	-3180
▁चालक	-3181
▁प्रती	-3182
▁हिंदू	-3183
▁गुणव	-3184
द्व	-3185
▁नो	-3186
वालों	-3187
▁संस्कृति	-3188
▁फिल्मों	-3189
▁जीएसटी	-3190
▁35	-3191
मार्ग	-3192
▁चेन्न	-3193
ra	-3194
्याज	-3195
▁रैम	-3196
हित	-3197
▁अंग्रे	-3198
▁रोकने	-3199
क्षम	-3200
▁दस्ता	-3201
िवर्स	-3202
▁गेंदबाज	-3203
▁स्टेशन	-3204
सिक	-3205
▁भरोसा	-3206
जिए	-3207
▁पूछता	-3208
▁मनो	-3209
▁चीनी	-3210
▁पॉ	-3211
▁कोलकाता	-3212
▁कब	-3213
▁निश्चित	-3214
चु	-3215
▁60	-3216
▁प्रतियोग	-3217
▁बुनिया	-3218
▁’’	-3219
यम	-3220
▁ऊंच	-3221
▁बुरा	-3222
▁अनुरोध	-3223
▁अनुच्छेद	-3224
▁इलाकों	-3225
न्हें	-3226
▁आनंद	-3227
क्टूबर	-3228
▁दौरे	-3229
नतम	-3230
▁हालात	-3231
▁बहु	-3232
▁श्रीलंका	-3233
▁नाय	-3234
▁शहरों	-3235
▁रब	-3236
▁करार	-3237
▁बाकी	-3238
▁प्रभावी	-3239
▁व्यक्तियों	-3240
▁उपभो	-3241
▁मौका	-3242
▁दवा	-3243
▁देती	-3244
▁हिंदी	-3245
▁बेश	-3246
▁चंडी	-3247
▁U	-3248
▁नियुक्त	-3249
शाली	-3250
▁गतिविधियों	-3251
▁उसको	-3252
ाब	-3253
▁जाय	-3254
▁चीज	-3255
ing	-3256
दाताओं	-3257
▁रॉय	-3258
हरे	-3259
▁सकें	-3260
▁समझौता	-3261
▁आशा	-3262
▁उठाए	-3263
▁मिलता	-3264
दिन	-3265
▁मुश्किल	-3266
▁तीनों	-3267
▁हाईकोर्ट	-3268
▁डिजिटल	-3269
▁पहुंचा	-3270
▁कॉल	-3271
▁मनुष	-3272
ंकर	-3273
ct	-3274
un	-3275
▁रखना	-3276
us	-3277
▁आंद	-3278
▁आसान	-3279
▁खराब	-3280
▁गरीब	-3281
▁जीव	-3282
▁स्थानों	-3283
▁जिनके	-3284
▁प्रारंभ	-3285
▁प्रयासों	-3286
▁वाणिज्य	-3287
युक्त	-3288
स्थिति	-3289
▁क्षेत्रीय	-3290
सगढ़	-3291
नगर	-3292
▁V	-3293
ाचार	-3294
▁पैसे	-3295
▁गौ	-3296
▁पाल	-3297
दाता	-3298
▁राजनाथ	-3299
मार्टम	-3300
्वा	-3301
▁सन्	-3302
▁अपे	-3303
▁सत्ता	-3304
्यूट	-3305
एसपी	-3306
▁सक्षम	-3307
ेगा	-3308
हो	-3309
▁अफग	-3310
▁[	-3311
▁नियमों	-3312
▁औद्योग	-3313
▁फुट	-3314
▁किरदार	-3315
▁पर्याप्त	-3316
▁ठहरा	-3317
▁तकनीकी	-3318
▁होनी	-3319
▁अक्टूबर	-3320
▁इंजी	-3321
▁संकट	-3322
पथ	-3323
म्ब	-3324
▁दाय	-3325
▁पीड़ित	-3326
कारात्मक	-3327
▁प्रतिबद्ध	-3328
▁दीप	-3329
▁प्राकृतिक	-3330
स्थानों	-3331
वाली	-3332
30	-3333
न्‍द्र	-3334
▁आपका	-3335
आईटी	-3336
▁विशिष्ट	-3337
रिएंट	-3338
▁बातों	-3339
▁झार	-3340
▁जिम्मेदारी	-3341
▁डो	-3342
▁टिकट	-3343
▁उच्चतम	-3344
▁मानना	-3345
▁आवास	-3346
▁कहानी	-3347
मती	-3348
▁सीटें	-3349
प्ट	-3350
वेद	-3351
▁हिमा	-3352
▁दस्तावे	-3353
कल्प	-3354
डू	-3355
▁पोस्टमार्टम	-3356
त्कार	-3357
▁पव	-3358
▁इज	-3359
▁साझे	-3360
▁अक्	-3361
▁आतंकी	-3362
▁कहने	-3363
▁लेना	-3364
▁कार्यों	-3365
▁संकेत	-3366
▁सेंसर	-3367
▁जाति	-3368
▁पूछताछ	-3369
▁वायरल	-3370
ot	-3371
▁श्रेणी	-3372
▁चंडीगढ़	-3373
▁प्रकाशित	-3374
▁खोल	-3375
▁बराबर	-3376
▁मंगल	-3377
▁डीजल	-3378
संग	-3379
▁संस्थानों	-3380
▁रणनी	-3381
िनी	-3382
▁स्टी	-3383
▁शूट	-3384
▁खिलाड़ियों	-3385
▁चेन्नई	-3386
▁नेटवर्क	-3387
▁जापान	-3388
▁भगवान	-3389
▁ग्राम	-3390
सीय	-3391
▁मीटर	-3392
▁फाइनल	-3393
न्ना	-3394
वासियों	-3395
▁लड़ाई	-3396
▁अनिल	-3397
▁मिन	-3398
मूर्ति	-3399
▁टाटा	-3400
▁सुनी	-3401
▁घाय	-3402
वां	-3403
▁दायर	-3404
ोषण	-3405
▁बीमा	-3406
लंघ	-3407
▁कॉन्	-3408
श्रे	-3409
▁कार्या	-3410
▁रहें	-3411
ेंशन	-3412
▁कर्मचारी	-3413
▁छूट	-3414
▁स्टार	-3415
▁मुद्रा	-3416
▁इनके	-3417
▁W	-3418
▁सरकारों	-3419
▁अध्या	-3420
▁सफ	-3421
▁दौरा	-3422
▁नये	-3423
▁बुला	-3424
▁फरार	-3425
▁पूर्वी	-3426
▁बेशक	-3427
▁बुनियादी	-3428
सलमान	-3429
▁घायलों	-3430
▁सिस्टम	-3431
▁एक्सप	-3432
▁क्रिया	-3433
नेस	-3434
▁विवाह	-3435
आईआर	-3436
▁छत्ती	-3437
स्कृतिक	-3438
मति	-3439
प्रदेश	-3440
▁अक्षय	-3441
▁मुझ	-3442
▁संगठनों	-3443
▁संगीत	-3444
धरी	-3445
▁औद्योगिक	-3446
▁मिलियन	-3447
ol	-3448
▁ब्रिटेन	-3449
कता	-3450
▁राजी	-3451
▁ट्विटर	-3452
▁परन्तु	-3453
▁लीटर	-3454
▁सामग्री	-3455
▁दाम	-3456
्यो	-3457
▁लंबे	-3458
▁गुणवत्ता	-3459
कुर	-3460
▁पंजी	-3461
बाल	-3462
▁संक्रमण	-3463
▁कुर	-3464
▁सृ	-3465
▁वास्तविक	-3466
▁हिमाचल	-3467
▁आती	-3468
▁उल	-3469
▁198	-3470
as	-3471
▁रोड	-3472
▁समझौते	-3473
▁विधाय	-3474
ज़ी	-3475
▁परिच	-3476
▁रोल	-3477
▁हस्ताक्षर	-3478
रीन	-3479
फोट	-3480
साइ	-3481
▁गुना	-3482
लंघन	-3483
▁इंस	-3484
▁अज	-3485
▁फेस	-3486
▁मुखर्जी	-3487
नाएं	-3488
▁तापमान	-3489
▁यात्रियों	-3490
अन	-3491
▁सराह	-3492
▁इंद	-3493
▁मुकाबला	-3494
▁श्रृंखला	-3495
▁पाई	-3496
▁हथियार	-3497
▁वहाँ	-3498
▁खुदा	-3499
कां	-3500
▁महामारी	-3501
िखित	-3502
ch	-3503
राष्ट्रपति	-3504
▁व्‍य	-3505
सव	-3506
▁फ़िल्म	-3507
▁समर्	-3508
िक्र	-3509
तीश	-3510
▁फायदा	-3511
▁नयी	-3512
▁छत्तीसगढ़	-3513
▁कैंसर	-3514
▁सहमति	-3515
▁बिग	-3516
▁दबाव	-3517
▁नक	-3518
et	-3519
ेड़	-3520
▁टेली	-3521
▁आकर्ष	-3522
ैट	-3523
▁इंजन	-3524
▁व्यवहार	-3525
्ते	-3526
न्त	-3527
ज़ाब	-3528
▁झारखंड	-3529
▁पूछा	-3530
कोर	-3531
▁प्रार्थ	-3532
डीपी	-3533
▁तनाव	-3534
▁कही	-3535
▁चाहती	-3536
▁सैन्य	-3537
▁मंच	-3538
कीय	-3539
▁सांस्कृतिक	-3540
▁जाकर	-3541
तें	-3542
एसएस	-3543
ent	-3544
▁पड़ता	-3545
▁राव	-3546
▁आदित्य	-3547
▁ज़मीन	-3548
▁डायरे	-3549
▁रद्द	-3550
ाइड	-3551
▁धोनी	-3552
▁सौंप	-3553
▁सोमवार	-3554
नाक	-3555
is	-3556
▁भ्रष्ट	-3557
▁भाषण	-3558
नै	-3559
ोग्राम	-3560
200	-3561
तिहासिक	-3562
▁कहता	-3563
▁ग्रह	-3564
सीपी	-3565
▁जुड़ी	-3566
▁सिर	-3567
▁तुम्हारी	-3568
▁वॉ	-3569
▁बनाना	-3570
▁विजे	-3571
सच	-3572
▁सेल	-3573
प्रिय	-3574
धारण	-3575
▁आगामी	-3576
▁कक्षा	-3577
मक	-3578
▁जमीन	-3579
▁आउट	-3580
▁आजा	-3581
▁प्रश्न	-3582
रद	-3583
दाबाद	-3584
▁चैन	-3585
,5	-3586
▁सर्वश्रे	-3587
▁कंट	-3588
▁वनडे	-3589
▁उल्लंघन	-3590
▁टिप्पणी	-3591
▁J	-3592
राव	-3593
▁महानि	-3594
▁70	-3595
▁एडम	-3596
ूँ	-3597
▁आतंकवादी	-3598
ंव	-3599
▁आलो	-3600
▁रहना	-3601
▁वकील	-3602
▁चेयर	-3603
▁फ्रांस	-3604
▁सर्वे	-3605
▁संपत्ति	-3606
▁मित्र	-3607
िपक्षीय	-3608
ंजन	-3609
▁प्रार्थना	-3610
ानिस्तान	-3611
▁न्यायमूर्ति	-3612
भाष	-3613
▁मंत्रिमंडल	-3614
्हा	-3615
▁आंदोलन	-3616
▁फंड	-3617
▁प्रेस	-3618
▁दृष्ट	-3619
▁शुभकाम	-3620
क्‍ति	-3621
▁चुनावों	-3622
्रम	-3623
▁अन्तर्गत	-3624
ैंप	-3625
▁योजनाओं	-3626
▁स्थिर	-3627
िसू	-3628
▁चढ़	-3629
ीप	-3630
▁मस्	-3631
▁दलों	-3632
▁जहाँ	-3633
▁संचालन	-3634
▁यूनिवर्स	-3635
▁एप	-3636
▁मसीह	-3637
▁मध	-3638
विश	-3639
▁इमर	-3640
▁कने	-3641
▁मिट	-3642
थे	-3643
ौन	-3644
▁जानी	-3645
▁80	-3646
▁नही	-3647
▁हस्त	-3648
▁लड़की	-3649
▁शब्	-3650
ंगाना	-3651
निस	-3652
▁फल	-3653
▁खुल	-3654
▁वेस्ट	-3655
▁इस्तीफा	-3656
▁कानूनी	-3657
णन	-3658
▁निपटने	-3659
रू	-3660
▁संघर्ष	-3661
▁तैनात	-3662
बुक	-3663
▁चौधरी	-3664
▁राज्यसभा	-3665
▁जरूर	-3666
▁अक	-3667
▁दोषी	-3668
▁देर	-3669
▁छोड़कर	-3670
▁सेवाएं	-3671
▁इंजीनियर	-3672
ॉस	-3673
▁स्टेट	-3674
एसई	-3675
▁तोड़	-3676
▁वार्ता	-3677
बत	-3678
▁शख	-3679
▁युवाओं	-3680
▁निकट	-3681
▁लु	-3682
▁पुस्तक	-3683
वर्ती	-3684
▁सम्ब	-3685
सीटी	-3686
दूर	-3687
नलिखित	-3688
▁समाचार	-3689
लम	-3690
▁आग्रह	-3691
ड्डा	-3692
▁हाउस	-3693
▁सिविल	-3694
क्रो	-3695
▁बचाव	-3696
▁ऑफिस	-3697
▁सिवा	-3698
▁जाएँ	-3699
▁सत्य	-3700
▁शपथ	-3701
खी	-3702
▁रिजल्ट	-3703
▁रिट	-3704
पाद	-3705
▁राष्‍ट्रीय	-3706
▁भागीदारी	-3707
जीलैंड	-3708
ियत	-3709
▁मोटर	-3710
▁इकाई	-3711
▁जला	-3712
▁बच्चन	-3713
▁धरती	-3714
दीय	-3715
हाद	-3716
्यास	-3717
▁बहन	-3718
तरे	-3719
▁अनिवार	-3720
▁धी	-3721
▁अक्सर	-3722
▁शुक्रवार	-3723
कै	-3724
िकोण	-3725
सीए	-3726
▁जोड़	-3727
▁सवार	-3728
कूल	-3729
जीव	-3730
▁नियमित	-3731
▁आखिरी	-3732
ब्‍	-3733
ारों	-3734
▁सोनिया	-3735
▁शख्स	-3736
▁खाते	-3737
▁ऐतिहासिक	-3738
▁उठाया	-3739
▁प्राप	-3740
ूद	-3741
▁सारी	-3742
▁आसपास	-3743
स्‍ट	-3744
▁इन्हें	-3745
▁लॉक	-3746
▁सर्वश्रेष्ठ	-3747
▁दाखिल	-3748
▁ओल	-3749
▁धार	-3750
दो	-3751
▁युवक	-3752
▁नायडू	-3753
बो	-3754
▁2013	-3755
▁विधायकों	-3756
▁लाए	-3757
▁बाढ़	-3758
▁तैयारी	-3759
▁कोरिया	-3760
▁विनिर्	-3761
▁तेलंगाना	-3762
▁चित्र	-3763
▁रखता	-3764
▁आखिर	-3765
▁अभिन	-3766
ाले	-3767
▁डिजा	-3768
▁जहा	-3769
फो	-3770
▁शही	-3771
▁गोल	-3772
▁न्यायिक	-3773
▁मिलती	-3774
▁अधिकांश	-3775
▁काउ	-3776
▁कब्जे	-3777
▁आयात	-3778
▁ईरान	-3779
▁इच्छा	-3780
▁गोवा	-3781
▁पूंजी	-3782
▁लेंगे	-3783
▁चोप	-3784
▁सारा	-3785
▁जवान	-3786
गें	-3787
▁टूर्	-3788
▁ओड	-3789
▁द्विपक्षीय	-3790
▁एक्ट्रेस	-3791
▁आएंगे	-3792
ोने	-3793
घु	-3794
▁परमाण	-3795
▁अजय	-3796
▁वैज्ञानिक	-3797
्षिक	-3798
▁किन	-3799
रुद्ध	-3800
▁कराई	-3801
▁पहुँ	-3802
▁परेशान	-3803
▁सीधे	-3804
ार्द	-3805
शे	-3806
▁जेटली	-3807
▁वाहनों	-3808
▁मुक्त	-3809
▁64	-3810
ोतरी	-3811
▁शुरूआ	-3812
▁भोजन	-3813
ay	-3814
▁रोम	-3815
मानत	-3816
▁छोटी	-3817
,4	-3818
▁दृष्टि	-3819
▁नौसेना	-3820
▁घरों	-3821
▁डिप	-3822
▁अखिल	-3823
▁ठाकुर	-3824
▁प्राधिकरण	-3825
▁झु	-3826
फॉ	-3827
il	-3828
▁रजिस्ट	-3829
▁आधुनिक	-3830
▁समक्ष	-3831
▁कीमतों	-3832
▁रखे	-3833
▁चोपड़ा	-3834
बान	-3835
▁नियु	-3836
▁प्लान	-3837
्‍ली	-3838
▁v	-3839
निक	-3840
सीसीआई	-3841
ालित	-3842
नामेंट	-3843
▁आरोपों	-3844
▁सका	-3845
ुरु	-3846
▁प्रतिष्ठ	-3847
बिनेट	-3848
▁बलों	-3849
▁पृथ्वी	-3850
▁खुलासा	-3851
रेट	-3852
▁सेक्टर	-3853
▁पूजा	-3854
▁शूटिंग	-3855
कुल	-3856
▁राजीव	-3857
▁सम्मानित	-3858
▁500	-3859
MP	-3860
सचिव	-3861
▁जीता	-3862
इयों	-3863
▁लोकतंत्र	-3864
▁अधिसू	-3865
▁|	-3866
डब्ल्यू	-3867
▁उत्पन्न	-3868
राज्य	-3869
▁इंस्टा	-3870
▁टूर्नामेंट	-3871
▁नेपाल	-3872
▁अशोक	-3873
▁बीमारी	-3874
डीए	-3875
बादी	-3876
▁अनिवार्य	-3877
▁चीफ	-3878
ov	-3879
▁बजाय	-3880
▁राजमार्ग	-3881
▁विवरण	-3882
▁चर	-3883
ंश	-3884
▁सोने	-3885
क्षेप	-3886
▁यूनिवर्सिटी	-3887
▁इरा	-3888
iv	-3889
लान	-3890
फ्रेंस	-3891
▁सूच	-3892
▁उन्	-3893
▁परमाणु	-3894
▁डाला	-3895
▁मरी	-3896
▁कार्यक्रमों	-3897
खन	-3898
जोर	-3899
▁खड़े	-3900
पादन	-3901
वर्धन	-3902
▁वेरिएंट	-3903
पीएफ	-3904
▁तुम्हारा	-3905
▁उपबंध	-3906
▁बेंगल	-3907
▁कारणों	-3908
▁बुध	-3909
▁निर्वाचन	-3910
भाषा	-3911
▁मिलते	-3912
टका	-3913
दृ	-3914
▁तस्वीरें	-3915
▁सराहना	-3916
▁वितरण	-3917
▁सप	-3918
क्कर	-3919
वह	-3920
▁स्थल	-3921
मोहन	-3922
▁फ्रंट	-3923
▁लोकप्रिय	-3924
डाउन	-3925
▁दिये	-3926
▁2012	-3927
सिद्ध	-3928
श्वर	-3929
▁नोटिस	-3930
▁कोय	-3931
▁हवा	-3932
▁निर्भर	-3933
मह	-3934
▁सुख	-3935
▁स्रो	-3936
▁ग्रुप	-3937
,99	-3938
ढ़ी	-3939
▁अहमद	-3940
किल	-3941
▁नज़र	-3942
भू	-3943
छा	-3944
▁पौ	-3945
▁ड्राइ	-3946
▁शासित	-3947
▁प्रदू	-3948
चि	-3949
▁सेंटर	-3950
▁अधिकतम	-3951
जर्स	-3952
▁इंटरनेट	-3953
▁फैला	-3954
▁197	-3955
▁संसदीय	-3956
▁दीपिका	-3957
▁मुसलमान	-3958
▁p	-3959
▁चै	-3960
रुख	-3961
▁योग्य	-3962
▁प्रतियोगिता	-3963
▁48	-3964
▁अंतरिक्ष	-3965
▁दंड	-3966
ठे	-3967
▁मनी	-3968
दाय	-3969
▁बढ़ोतरी	-3970
▁आरंभ	-3971
▁दिखाया	-3972
▁न्यूनतम	-3973
▁पहा	-3974
▁पवित्र	-3975
▁अफगानिस्तान	-3976
▁टाइ	-3977
▁पारित	-3978
देव	-3979
▁प्रत्या	-3980
▁विद्यार्थियों	-3981
िएशन	-3982
▁कैबिनेट	-3983
▁कार्यकर्ताओं	-3984
▁रहेगी	-3985
▁लाया	-3986
न्‍य	-3987
▁सौर	-3988
▁अरविंद	-3989
▁रिल	-3990
▁इस्लाम	-3991
▁पश्चिमी	-3992
▁डिजाइन	-3993
▁वार्षिक	-3994
▁लीग	-3995
,1	-3996
-0	-3997
्लो	-3998
▁विश्‍वास	-3999
▁इंस्टाग्राम	-4000
▁न्यूजीलैंड	-4001
▁पावर	-4002
▁दूरी	-4003
डि	-4004
स्म	-4005
▁उठाने	-4006
▁2011	-4007
ल्ल	-4008
▁36	-4009
▁एचडी	-4010
▁निशाना	-4011
▁पां	-4012
▁चक्र	-4013
▁जागर	-4014
▁ब्याज	-4015
न्या	-4016
)।	-4017
▁शब्दों	-4018
टिल	-4019
▁चेक	-4020
▁सम्	-4021
▁प्रभु	-4022
ir	-4023
ार्थी	-4024
▁आईपीएल	-4025
▁90	-4026
▁पाक	-4027
▁योगी	-4028
▁तथ	-4029
▁विज्ञ	-4030
▁कमांड	-4031
स्‍त	-4032
ाये	-4033
▁व्यक्तिगत	-4034
▁निर्माता	-4035
ad	-4036
▁उत्पादों	-4037
न्वयन	-4038
फान	-4039
▁मंगलवार	-4040
▁प्राचीन	-4041
▁रैली	-4042
म्‍	-4043
ww	-4044
▁काल	-4045
▁निरा	-4046
▁जताई	-4047
▁जर्मनी	-4048
पूर्वक	-4049
▁गईं	-4050
▁पदार्थ	-4051
▁सीमित	-4052
▁ताकत	-4053
▁विरुद्ध	-4054
▁चलता	-4055
बारा	-4056
▁सलाहकार	-4057
ांज	-4058
नो	-4059
▁इमरान	-4060
▁बुधवार	-4061
द्दीन	-4062
▁देवी	-4063
▁संह	-4064
▁होंगी	-4065
▁बाय	-4066
▁अज़ाब	-4067
▁भीड़	-4068
▁लाइन	-4069
▁शाहरुख	-4070
▁निम्नलिखित	-4071
▁शुभकामनाएं	-4072
▁चेयरमैन	-4073
▁लक्षण	-4074
▁तंत्र	-4075
▁तत्व	-4076
▁आईटी	-4077
▁अके	-4078
▁जाह	-4079
▁धन्य	-4080
▁जीतने	-4081
▁45	-4082
▁महासचिव	-4083
▁जाएं	-4084
▁राष्‍ट्र	-4085
खे	-4086
ation	-4087
▁चुनौ	-4088
▁बढ़ती	-4089
▁उपराष्ट्रपति	-4090
ंपिक	-4091
▁बताते	-4092
▁गर्म	-4093
▁कार्यकारी	-4094
▁रिजर्व	-4095
▁डिस्प	-4096
▁हिन्द	-4097
ुरा	-4098
▁पेंशन	-4099
विक	-4100
ांतर	-4101
▁अब्द	-4102
▁बेहत	-4103
▁समृ	-4104
▁भट्ट	-4105
पो	-4106
▁भ्रष्टाचार	-4107
▁आयुक्त	-4108
▁जिम्मेदार	-4109
▁इंच	-4110
िना	-4111
न्हा	-4112
ult	-4113
▁सिंध	-4114
ur	-4115
▁स्कूलों	-4116
▁शिखर	-4117
▁आकाश	-4118
ोत्तर	-4119
▁किंग	-4120
▁संहिता	-4121
▁परिवारों	-4122
▁मैन	-4123
ड्र	-4124
▁अर्था	-4125
▁सिंग	-4126
▁छुट	-4127
ाइन	-4128
ॉजी	-4129
▁अल्प	-4130
▁चलने	-4131
▁आह	-4132
▁पर्व	-4133
▁आपने	-4134
▁जरिये	-4135
▁बीमार	-4136
▁मनुष्य	-4137
कश	-4138
▁सकेगा	-4139
एमसी	-4140
भूत	-4141
नाम	-4142
▁ओडिशा	-4143
▁अंड	-4144
▁विस्तृत	-4145
-20	-4146
▁अंब	-4147
▁ओपन	-4148
▁मूसा	-4149
▁बैटरी	-4150
▁लिखित	-4151
▁लंबी	-4152
dia	-4153
वानों	-4154
▁जाओ	-4155
▁राजप	-4156
खिम	-4157
▁गाय	-4158
▁भंड	-4159
▁कमा	-4160
▁गिरफ्तारी	-4161
रीय	-4162
▁सदन	-4163
▁नौकरी	-4164
संख	-4165
▁विरोधी	-4166
▁समस्याओं	-4167
▁मैने	-4168
.201	-4169
▁यात्री	-4170
▁लॉकडाउन	-4171
▁गुप्ता	-4172
पीड	-4173
▁पकड़	-4174
▁श्रीमती	-4175
▁मंत्रियों	-4176
▁औसत	-4177
▁रखें	-4178
▁थाना	-4179
▁हफ्	-4180
▁अपेक्षा	-4181
▁वीर	-4182
▁दृष्टिकोण	-4183
्मा	-4184
▁पुराने	-4185
▁ट्रै	-4186
र्द	-4187
▁बढ़ने	-4188
▁प्रोसे	-4189
▁हिस्सों	-4190
००	-4191
▁बेच	-4192
▁खतरा	-4193
▁विज	-4194
रत	-4195
▁विपक्ष	-4196
सेज	-4197
▁संरचना	-4198
▁जमानत	-4199
घ्र	-4200
▁सर्वो	-4201
▁अनुसू	-4202
▁सख्त	-4203
▁फे	-4204
▁बुरी	-4205
मल	-4206
▁गोयल	-4207
डर	-4208
नन	-4209
गज	-4210
कियों	-4211
▁रियर	-4212
▁विश्‍व	-4213
▁दया	-4214
▁मेह	-4215
्मी	-4216
▁इतनी	-4217
पीय	-4218
▁बल्लेबाजी	-4219
▁तट	-4220
▁कमजोर	-4221
▁नाग	-4222
▁स्क्रीन	-4223
दूस	-4224
पीसी	-4225
ृति	-4226
▁रिस	-4227
▁खेला	-4228
िताभ	-4229
▁आलोचना	-4230
सु	-4231
▁m	-4232
चर्स	-4233
▁जोखिम	-4234
मर्श	-4235
▁वेतन	-4236
▁हिस	-4237
▁वर्षीय	-4238
▁वस्तु	-4239
▁साक्ष	-4240
कप	-4241
वेट	-4242
▁लंदन	-4243
्कुल	-4244
▁दुक	-4245
▁वापसी	-4246
xa	-4247
▁उद्ध	-4248
▁आकार	-4249
जनक	-4250
▁गहरा	-4251
▁अकाउंट	-4252
लर	-4253
रक	-4254
’’	-4255
▁समुद्र	-4256
▁जिंद	-4257
▁अर्जुन	-4258
▁क्लिक	-4259
▁X	-4260
▁हफ्ते	-4261
▁एजेंस	-4262
▁अवै	-4263
▁आबादी	-4264
and	-4265
दमा	-4266
▁बनाम	-4267
▁33	-4268
वाणी	-4269
▁अभिय	-4270
▁१९	-4271
▁प्राथमिकता	-4272
रप	-4273
▁डाउ	-4274
क्का	-4275
मुझे	-4276
▁कर्ज	-4277
▁मिनट	-4278
▁कवि	-4279
▁गंगा	-4280
▁निवासी	-4281
▁नागरिकता	-4282
▁आपदा	-4283
▁रैं	-4284
वायु	-4285
▁शन	-4286
दिष्ट	-4287
▁Re	-4288
▁पुनर्	-4289
▁फो	-4290
स्ट्री	-4291
▁दिल्‍ली	-4292
ाजन	-4293
तो	-4294
आप	-4295
▁विशाल	-4296
राम	-4297
▁पहुंचने	-4298
▁ऐप	-4299
▁बढ	-4300
▁शौ	-4301
▁फेसबुक	-4302
▁समर्पित	-4303
▁जल्दी	-4304
लाइ	-4305
▁मान्यता	-4306
▁सेंट	-4307
एफसी	-4308
▁प्रय	-4309
तावनी	-4310
नाल्ड	-4311
▁सिन्हा	-4312
▁t	-4313
▁जाया	-4314
▁बनाकर	-4315
▁अरुण	-4316
▁शुरूआत	-4317
▁नित	-4318
▁बहुम	-4319
▁सेक	-4320
िशन	-4321
▁निकाय	-4322
एससी	-4323
▁इंतजार	-4324
ृत्ति	-4325
▁अमिताभ	-4326
हैया	-4327
▁मेल	-4328
हे	-4329
▁ग्रहण	-4330
▁विश्ले	-4331
▁यक़	-4332
▁चेतावनी	-4333
▁हर्ष	-4334
▁निशान	-4335
,6	-4336
▁बनर्जी	-4337
ुति	-4338
▁बोले	-4339
▁उपाध्यक्ष	-4340
ाजी	-4341
▁एसोस	-4342
▁साझेदारी	-4343
▁दूसरों	-4344
▁वें	-4345
▁34	-4346
▁स्वस्थ	-4347
▁परिसर	-4348
▁अब्दुल	-4349
▁बिल्कुल	-4350
▁हल्	-4351
▁दास	-4352
लीय	-4353
▁सचिन	-4354
▁अह	-4355
id	-4356
▁ग्रे	-4357
▁अगली	-4358
▁शनिवार	-4359
▁किन्तु	-4360
▁चौहान	-4361
,3	-4362
ॉर्क	-4363
▁विस्	-4364
▁अंग्रेजी	-4365
नलोड	-4366
▁बौ	-4367
ia	-4368
▁सोना	-4369
▁तकनीक	-4370
▁वर्ल्ड	-4371
▁अवैध	-4372
▁महीनों	-4373
▁स्‍वा	-4374
▁देखभाल	-4375
▁रविवार	-4376
▁ज़रूरत	-4377
▁मनाया	-4378
ंपरा	-4379
▁भेजे	-4380
▁ब्रिटिश	-4381
▁डिस्प्ले	-4382
िग	-4383
▁मेट्र	-4384
कंप	-4385
▁रचना	-4386
ig	-4387
▁प्लेट	-4388
,7	-4389
▁महत्	-4390
थर	-4391
▁रेट	-4392
▁शाखा	-4393
▁मिश्रा	-4394
▁नाइ	-4395
स्ट्र	-4396
▁नियुक्ति	-4397
▁छि	-4398
▁लेन	-4399
▁धन्यवाद	-4400
देह	-4401
▁गड	-4402
▁वचन	-4403
▁कहां	-4404
▁मुहैया	-4405
पै	-4406
▁ऐलान	-4407
▁डाउनलोड	-4408
▁196	-4409
▁होम	-4410
▁बढ़त	-4411
▁लगने	-4412
र्प	-4413
्यूटर	-4414
▁पदों	-4415
▁अतः	-4416
▁माहौल	-4417
▁मसीही	-4418
ट्स	-4419
ण्डल	-4420
एगा	-4421
▁खड़ा	-4422
साई	-4423
माही	-4424
पिता	-4425
▁शीघ्र	-4426
ेंडर	-4427
कुमार	-4428
िन्‍न	-4429
▁)	-4430
▁""""	-4431
▁सुनील	-4432
्टर	-4433
▁बीसीसीआई	-4434
▁प्रदूषण	-4435
▁महानिदेशक	-4436
▁सिटी	-4437
▁प्रसिद्ध	-4438
रोध	-4439
▁मुकदमा	-4440
▁एक्टर	-4441
▁संचार	-4442
▁सहयोगी	-4443
▁कम्प	-4444
▁रूपये	-4445
▁उत्तरी	-4446
स्वा	-4447
▁जानें	-4448
▁उड़ान	-4449
▁सौं	-4450
▁मरीजों	-4451
▁मेहन	-4452
धानिक	-4453
▁लगाई	-4454
कॉम	-4455
▁स्टूड	-4456
▁संक्रमित	-4457
▁मानते	-4458
▁तह	-4459
▁स्‍थ	-4460
▁मुद्दा	-4461
बिल	-4462
▁सैनिकों	-4463
▁पेट्रोलियम	-4464
वरूप	-4465
▁खाने	-4466
चारिक	-4467
▁गेंदबाजी	-4468
▁राजस्व	-4469
,8	-4470
▁चार्ज	-4471
▁सकारात्मक	-4472
▁दर्द	-4473
▁जुट	-4474
▁प्राइ	-4475
▁टाइम	-4476
▁परंपरा	-4477
▁जनजा	-4478
esult	-4479
करे	-4480
▁बीते	-4481
▁मालिक	-4482
▁अनुकूल	-4483
▁आत्मा	-4484
▁75	-4485
▁मण	-4486
▁निरंतर	-4487
▁सुशांत	-4488
▁आसमान	-4489
▁जलवायु	-4490
स्थल	-4491
ंती	-4492
ेक्ट	-4493
▁खेले	-4494
▁आवं	-4495
▁ग्राहकों	-4496
▁निश्चय	-4497
▁मनमोहन	-4498
धीन	-4499
▁ममता	-4500
▁साध	-4501
▁2010	-4502
▁चारों	-4503
▁प्रभार	-4504
सैन	-4505
न्दी	-4506
▁आंकड़ों	-4507
ूली	-4508
▁निदेश	-4509
▁मानसिक	-4510
▁अना	-4511
▁बेहतरीन	-4512
▁खुले	-4513
हत्या	-4514
▁पृष्ठ	-4515
▁शहीद	-4516
▁प्रकट	-4517
ंटर	-4518
▁विस्फोट	-4519
▁सुविधाओं	-4520
▁पटना	-4521
▁ऑटो	-4522
▁मछ	-4523
▁शेष	-4524
▁थाने	-4525
र्या	-4526
कांक	-4527
र्धा	-4528
▁किश	-4529
▁द्वीप	-4530
▁ओलंपिक	-4531
▁n	-4532
▁ज्यादातर	-4533
▁जायेगा	-4534
▁पूर्वोत्तर	-4535
ेटी	-4536
▁टैक्स	-4537
▁परिस्थित	-4538
▁विविध	-4539
कारियों	-4540
▁मज़	-4541
पत	-4542
वती	-4543
▁पड़ी	-4544
▁कार्यवाही	-4545
▁राजपूत	-4546
त्‍व	-4547
क्या	-4548
▁पाठ्य	-4549
ज्ञात	-4550
दर्शन	-4551
\""	-4552
▁जुड़ा	-4553
आरसी	-4554
▁ढंग	-4555
बंदी	-4556
▁टीमों	-4557
▁वास्ते	-4558
▁विजेता	-4559
▁बदले	-4560
▁सूचकांक	-4561
श्‍	-4562
▁उत्तराखंड	-4563
ईओ	-4564
ेंट्स	-4565
▁पराम	-4566
▁जमकर	-4567
▁आदर्श	-4568
▁गवर्	-4569
▁विवे	-4570
▁बीएस	-4571
▁सड़कों	-4572
▁एक्सप्रेस	-4573
▁कपिल	-4574
▁अस्थ	-4575
ंधन	-4576
▁कहती	-4577
▁क्षति	-4578
▁धम	-4579
▁ढांच	-4580
▁साहित्य	-4581
▁इंसान	-4582
▁हाथों	-4583
ंडीज	-4584
ीकरण	-4585
▁सर्वा	-4586
▁आसानी	-4587
▁खेलों	-4588
पल	-4589
▁सीतार	-4590
▁कमेटी	-4591
,9	-4592
▁जोड़ी	-4593
▁पहुँच	-4594
ग्ध	-4595
▁पॉल	-4596
▁सबूत	-4597
▁जागरूक	-4598
▁दोबारा	-4599
भूम	-4600
▁गुम	-4601
▁स्वामी	-4602
फॉर्म	-4603
▁रणवीर	-4604
कालीन	-4605
▁स्वर्ण	-4606
▁अधिकारों	-4607
तौर	-4608
ाँ	-4609
▁खेलने	-4610
्यूल	-4611
▁रोज़	-4612
▁फैल	-4613
▁पेज	-4614
ष्का	-4615
ोलॉजी	-4616
▁नील	-4617
श्‍य	-4618
▁कठिन	-4619
▁विचारों	-4620
▁o	-4621
▁सॉ	-4622
▁कच्च	-4623
▁समझा	-4624
ि‍	-4625
▁बाग	-4626
▁शोक	-4627
▁सपोर्ट	-4628
▁रिश्ते	-4629
▁दोहरा	-4630
वरों	-4631
▁गू	-4632
▁2021	-4633
▁श्रम	-4634
▁पुत्र	-4635
▁अभिष	-4636
दियों	-4637
▁राजद	-4638
▁पत्रकार	-4639
त्मिक	-4640
▁प्रोड	-4641
ायंस	-4642
▁रास्ते	-4643
▁विद्युत	-4644
▁पशु	-4645
▁काबू	-4646
▁जिनका	-4647
▁छात्रा	-4648
▁व्याव	-4649
▁पोल	-4650
▁मशीन	-4651
▁वाई	-4652
▁भौ	-4653
▁टेक्	-4654
▁धवन	-4655
me	-4656
▁किमी	-4657
▁ब्रे	-4658
▁गठित	-4659
▁रेड्डी	-4660
ce	-4661
▁टक्कर	-4662
दूसरे	-4663
▁आमंत्र	-4664
▁हड़	-4665
ंकन	-4666
▁वस्तुओं	-4667
▁उत्साह	-4668
मेर	-4669
▁प्रतिनिधि	-4670
▁कृष्ण	-4671
▁वर्मा	-4672
10	-4673
ारण	-4674
▁पुलिसकर्म	-4675
ोरम	-4676
▁तुमसे	-4677
▁फार्म	-4678
▁पक्षों	-4679
▁कामया	-4680
▁प्रशासनिक	-4681
कान	-4682
▁पवार	-4683
▁ट्रांस	-4684
▁कार्यकर्ता	-4685
▁सिने	-4686
▁प्रतिभा	-4687
▁कटौती	-4688
▁रुख	-4689
▁सर्वेक्षण	-4690
ौम	-4691
डम	-4692
▁लघु	-4693
▁मेहनत	-4694
वेयर	-4695
▁महिलाएं	-4696
बीन	-4697
संख्य	-4698
▁जॉ	-4699
▁व्हा	-4700
▁सकेंगे	-4701
,2	-4702
▁मालूम	-4703
▁मास	-4704
▁अन्‍य	-4705
▁संस्करण	-4706
ायण	-4707
▁संकल्प	-4708
▁प्रदेशों	-4709
▁कितना	-4710
▁ट्रक	-4711
▁पुणे	-4712
▁f	-4713
टीआई	-4714
▁स्थायी	-4715
फिर	-4716
▁आध्या	-4717
▁सिद्धांत	-4718
▁प्ला	-4719
▁वैसे	-4720
फिक	-4721
▁लखन	-4722
▁ढांचे	-4723
▁2009	-4724
▁सर्वोच्च	-4725
ांजलि	-4726
▁चैंप	-4727
▁घटनाओं	-4728
क्म	-4729
अपने	-4730
▁प्रदर्शित	-4731
▁पड़ेगा	-4732
िज़	-4733
▁सन	-4734
▁छोटा	-4735
लोक	-4736
▁संभाल	-4737
नेशनल	-4738
pp	-4739
▁प्रकृति	-4740
▁केंद्रित	-4741
▁जॉन	-4742
▁मनोहर	-4743
▁क्रमश	-4744
▁तीसरा	-4745
्यूब	-4746
▁रक्त	-4747
सब	-4748
▁पैर	-4749
▁यूरोप	-4750
▁परामर्श	-4751
▁थोड़ा	-4752
▁फसल	-4753
▁करीना	-4754
▁चली	-4755
तियां	-4756
▁डोनाल्ड	-4757
▁बू	-4758
▁विपक्षी	-4759
ख़िर	-4760
ेन्द्र	-4761
्रेडिट	-4762
▁इनकी	-4763
▁नेहर	-4764
▁माध	-4765
▁हिम	-4766
▁पार्क	-4767
▁बैठे	-4768
▁घोट	-4769
▁फीचर्स	-4770
,999	-4771
▁फॉर	-4772
▁पौल	-4773
मात्र	-4774
ांकन	-4775
▁जिंदगी	-4776
▁काट	-4777
राग	-4778
▁कां	-4779
▁तभी	-4780
क्के	-4781
टिंग	-4782
▁शिल	-4783
▁निर्देशन	-4784
लाल	-4785
-3	-4786
प्रीत	-4787
न्दर	-4788
▁कितनी	-4789
▁सपा	-4790
▁अनुरूप	-4791
द्या	-4792
▁तिमाही	-4793
▁आध्यात्मिक	-4794
▁a	-4795
ोई	-4796
▁सिखा	-4797
ंतरिक	-4798
▁देखकर	-4799
▁क्ला	-4800
ैंस	-4801
▁चिकित्स	-4802
पचारिक	-4803
▁एंड्र	-4804
▁सेव	-4805
राधिक	-4806
ाइयों	-4807
▁रवि	-4808
▁साथी	-4809
धिकारी	-4810
▁प्रोत्साहित	-4811
▁पौलुस	-4812
▁अनुष्का	-4813
▁समूहों	-4814
बरा	-4815
ेश्वर	-4816
ार्दिक	-4817
▁प्राय	-4818
▁मजदूर	-4819
कोट	-4820
▁प्रत्यक्ष	-4821
न्‍द	-4822
44	-4823
▁करियर	-4824
▁जाम	-4825
▁तरीका	-4826
▁बदलने	-4827
मेल	-4828
▁नामक	-4829
▁सेल्	-4830
कीन	-4831
ितीय	-4832
▁हटाने	-4833
▁लीड	-4834
▁सिक्	-4835
▁कैमरे	-4836
कलन	-4837
▁दिग्	-4838
ब्लिक	-4839
▁मोहन	-4840
▁लिस्ट	-4841
▁सिख	-4842
▁पायल	-4843
▁मानक	-4844
▁अधि	-4845
ोरेट	-4846
▁...	-4847
▁अभ्यास	-4848
▁विषयों	-4849
▁निर्मित	-4850
▁प्रतिनिधित्व	-4851
▁तिथि	-4852
▁प्रस्तावित	-4853
एसआई	-4854
▁प्रोज	-4855
--	-4856
फेसर	-4857
एसएम	-4858
▁नीतीश	-4859
▁सुंदर	-4860
▁अमरीकी	-4861
▁150	-4862
▁जवानों	-4863
▁रिलायंस	-4864
▁विभिन्‍न	-4865
▁अदा	-4866
▁गुल	-4867
▁पांडे	-4868
▁हार्दिक	-4869
▁दिलच	-4870
भूमि	-4871
▁हिस्सेदारी	-4872
▁प्रजा	-4873
ज़ार	-4874
▁आएगा	-4875
▁नतीजे	-4876
मंत्र	-4877
▁चलाने	-4878
▁Pro	-4879
▁लिंक	-4880
ॉर्ट	-4881
▁क्रेडिट	-4882
▁छाप	-4883
▁हिसाब	-4884
स्य	-4885
▁बाइक	-4886
गण	-4887
▁कौर	-4888
▁तुमको	-4889
▁अगु	-4890
▁पैसा	-4891
▁प्रसारण	-4892
पीएस	-4893
▁आंतरिक	-4894
▁आस्ट्रेलिया	-4895
▁निर्देशक	-4896
▁एकता	-4897
▁फायर	-4898
▁रिया	-4899
दय	-4900
जिट	-4901
▁यौन	-4902
स्वरूप	-4903
▁करवाया	-4904
▁संयंत्र	-4905
▁दान	-4906
▁प्रीम	-4907
▁b	-4908
ध्या	-4909
फाइ	-4910
▁कमल	-4911
▁मस्ज	-4912
▁इमार	-4913
▁वादा	-4914
ाफ	-4915
▁शुरुआती	-4916
▁गर्व	-4917
▁दशक	-4918
▁स्कोर	-4919
▁जिनकी	-4920
,0	-4921
▁एजेंसियों	-4922
▁कायम	-4923
▁प्रस	-4924
▁व्यवसाय	-4925
▁अट	-4926
तलब	-4927
▁हुक्म	-4928
संद	-4929
म्भ	-4930
▁बला	-4931
स्‍था	-4932
▁लखनऊ	-4933
▁मेट्रो	-4934
▁जंग	-4935
▁फिट	-4936
इंडीज	-4937
▁तुमने	-4938
▁?	-4939
▁उत	-4940
द्दा	-4941
▁अध्‍य	-4942
▁एशियाई	-4943
▁चुनावी	-4944
▁डाटा	-4945
▁एक्	-4946
▁शराब	-4947
▁भिन्न	-4948
▁३	-4949
▁सच्चाई	-4950
ारीरिक	-4951
▁दोप	-4952
▁(3	-4953
▁संचालित	-4954
िथ	-4955
▁धा	-4956
▁तीसरी	-4957
▁नज	-4958
▁साक्षी	-4959
▁प्रवर्	-4960
▁रेखा	-4961
▁चिद	-4962
▁आत्महत्या	-4963
▁उल्लेखनीय	-4964
▁चुनौतियों	-4965
▁बचाने	-4966
▁बहस	-4967
▁इस्रा	-4968
▁खाना	-4969
▁व्‍या	-4970
यां	-4971
कोण	-4972
▁खतर	-4973
▁फाइल	-4974
▁पाठ्यक्रम	-4975
▁हद	-4976
▁आतंकवादियों	-4977
▁रॉ	-4978
▁तमाम	-4979
▁उतर	-4980
▁कर्मियों	-4981
▁रास्ता	-4982
▁दावे	-4983
▁निल	-4984
▁यूरोपीय	-4985
▁मद्	-4986
▁अश्व	-4987
▁गवाह	-4988
▁अहमदाबाद	-4989
▁इतने	-4990
▁आदित्यनाथ	-4991
▁तृ	-4992
▁vs	-4993
मूल	-4994
▁मरने	-4995
▁डॉक्टरों	-4996
▁प्रोसेसर	-4997
स्वी	-4998
▁सीजन	-4999
क्षेत्र	-5000
▁ब्लैक	-5001
बु	-5002
पार	-5003
▁इंजीनियरिंग	-5004
डेट	-5005
आईए	-5006
▁प्रणब	-5007
mi	-5008
▁करण	-5009
▁बढ़ाया	-5010
एंगे	-5011
▁ज़रूर	-5012
▁मण्डल	-5013
▁दर्शन	-5014
▁195	-5015
▁आये	-5016
▁दूध	-5017
▁सहमत	-5018
▁दर्शा	-5019
न्यास	-5020
तालों	-5021
▁प्रतिस्प	-5022
▁नमू	-5023
▁नेहरू	-5024
▁लेखक	-5025
▁प्रोफेसर	-5026
▁42	-5027
▁देखी	-5028
▁गडकरी	-5029
▁मिश्र	-5030
वानी	-5031
▁तर्क	-5032
ज्ज	-5033
▁ठाकरे	-5034
▁खतरे	-5035
▁चोरी	-5036
▁स्रोत	-5037
▁विद्यालय	-5038
▁2008	-5039
12	-5040
ेडियम	-5041
SE	-5042
▁इलेक्ट्रॉन	-5043
▁हिंदु	-5044
▁एह	-5045
▁शक	-5046
ब्दी	-5047
▁370	-5048
▁होटल	-5049
▁मांगी	-5050
▁जू	-5051
▁गिल	-5052
▁मुख्यालय	-5053
▁देखना	-5054
▁पेट	-5055
▁एसोसिएशन	-5056
▁क्रिकेटर	-5057
▁कना	-5058
रानी	-5059
▁शारीरिक	-5060
▁कीजिए	-5061
▁लड़ने	-5062
▁क़ौम	-5063
▁घंटों	-5064
▁घाटी	-5065
▁नाथ	-5066
▁आलिया	-5067
▁उपभोक्ता	-5068
▁जयंती	-5069
▁एफआईआर	-5070
▁भड़	-5071
▁सागर	-5072
▁यूजर्स	-5073
ंत्रिक	-5074
ोगे	-5075
▁धोखा	-5076
▁रहीं	-5077
मला	-5078
▁ढां	-5079
▁शतक	-5080
▁अधिकतर	-5081
▁स्वच्छता	-5082
▁38	-5083
▁राजन	-5084
▁मद्देन	-5085
ल्पना	-5086
▁सालों	-5087
▁निंदा	-5088
ुलकर	-5089
▁परेशानी	-5090
▁संभावित	-5091
कीम	-5092
तायात	-5093
▁फॉर्म	-5094
ठभ	-5095
▁मंज	-5096
▁चैनल	-5097
▁महात्मा	-5098
िंदगी	-5099
▁बोली	-5100
▁मुख्‍य	-5101
मै	-5102
▁कार्यकाल	-5103
करार	-5104
▁पैमाने	-5105
▁पेशे	-5106
▁आफ	-5107
▁अड्ड	-5108
▁मृतक	-5109
▁गांवों	-5110
▁वेस्टइंडीज	-5111
▁सुरेश	-5112
▁कोविंद	-5113
▁भारती	-5114
▁माफी	-5115
▁श्रद्धांजलि	-5116
▁प्राइम	-5117
▁माय	-5118
▁अज्ञात	-5119
▁सर्वाधिक	-5120
▁44	-5121
▁लाखों	-5122
os	-5123
राइ	-5124
णु	-5125
्वान	-5126
▁300	-5127
▁आपराधिक	-5128
सीबी	-5129
▁भूल	-5130
▁जोशी	-5131
▁वक्‍त	-5132
▁मुठभ	-5133
न्ट	-5134
▁जताया	-5135
▁कोयला	-5136
▁सिलस	-5137
▁पायलट	-5138
▁पहुँचा	-5139
▁दर्शकों	-5140
▁शैतान	-5141
ेंगी	-5142
श्त	-5143
▁अधिव	-5144
▁आयुष	-5145
▁एकमात्र	-5146
ांसी	-5147
▁इंडस्ट्री	-5148
▁शिकार	-5149
▁यातायात	-5150
▁अमर	-5151
▁आशी	-5152
न्‍द्रीय	-5153
▁अत्या	-5154
-201	-5155
▁#	-5156
▁गौरतलब	-5157
▁इसको	-5158
्श	-5159
▁सीबी	-5160
▁मिसाल	-5161
▁माइक्रो	-5162
एनएस	-5163
▁रकम	-5164
▁हक	-5165
▁खाता	-5166
▁आमिर	-5167
▁स्टेडियम	-5168
▁49	-5169
▁जगत	-5170
▁राष्‍ट्रपति	-5171
▁आज्ञा	-5172
वंत	-5173
िकाओं	-5174
▁उतार	-5175
▁अमरीका	-5176
▁बढ़ते	-5177
पेट	-5178
▁लिखे	-5179
▁शुद्ध	-5180
▁जानिए	-5181
▁प्रोत्साहन	-5182
▁दीपक	-5183
▁प्रभारी	-5184
▁आमंत्रित	-5185
▁भारतीयों	-5186
▁ज्ञापन	-5187
▁बहुमत	-5188
▁पूछे	-5189
संच	-5190
▁वाक	-5191
हीन	-5192
▁आईसीसी	-5193
▁गीत	-5194
▁बढ़ाकर	-5195
▁रमेश	-5196
▁गाड़ी	-5197
▁सिनेमा	-5198
वैधानिक	-5199
▁कितने	-5200
▁पंचायत	-5201
▁तेरे	-5202
तुम	-5203
▁रनों	-5204
▁सूचित	-5205
▁खाली	-5206
▁फें	-5207
सीआर	-5208
▁साउ	-5209
▁परिचालन	-5210
ायन	-5211
▁बंदर	-5212
स्टिक	-5213
▁बाज़	-5214
▁आकर	-5215
▁रणनीति	-5216
सद	-5217
▁यूनिट	-5218
ंबरम	-5219
▁इंटरनेशनल	-5220
▁संशोधित	-5221
▁संसाध	-5222
▁दस्तावेज	-5223
▁यक़ीन	-5224
ोरेशन	-5225
ापुर	-5226
▁केन्‍द्रीय	-5227
▁तिर	-5228
▁आर्	-5229
▁नाज़	-5230
▁फीसद	-5231
▁नितिन	-5232
▁परंतु	-5233
▁वायुसेना	-5234
▁स्‍व	-5235
▁मनोज	-5236
▁सीईओ	-5237
र्डर	-5238
▁समुद्री	-5239
वर्ष	-5240
▁धमकी	-5241
40	-5242
क्टिव	-5243
▁टेक्न	-5244
▁सम्प	-5245
▁सावधान	-5246
▁इसने	-5247
▁फायदे	-5248
ंगिक	-5249
▁उन्न	-5250
▁स्‍ट	-5251
▁सम्बन्ध	-5252
▁गूगल	-5253
▁डेब	-5254
▁साज	-5255
▁जियो	-5256
फ्टी	-5257
▁केंद्रों	-5258
▁परिस्थितियों	-5259
▁फ्री	-5260
▁सैनिक	-5261
विमर्श	-5262
▁दुकान	-5263
▁लाइस	-5264
▁शरीफ	-5265
▁कंपनियां	-5266
ग्रहण	-5267
▁तेंद	-5268
▁43	-5269
ग्न	-5270
▁हाँ	-5271
▁गृहमंत्री	-5272
▁अग्रवाल	-5273
▁बॉक्स	-5274
▁चौथे	-5275
▁अंकों	-5276
ैंक	-5277
▁पादु	-5278
▁आह्वान	-5279
▁बीज	-5280
▁भाषाओं	-5281
परेशन	-5282
▁मुठभेड़	-5283
▁गाने	-5284
▁ठोस	-5285
कृष्ट	-5286
▁सीसीटी	-5287
▁चिदंबरम	-5288
्यांकन	-5289
▁रणबीर	-5290
▁सेल्फी	-5291
▁पथ	-5292
दल	-5293
▁जानने	-5294
▁त्य	-5295
▁विभागों	-5296
वीय	-5297
▁हालाँ	-5298
स्त्री	-5299
▁हालाँकि	-5300
▁i	-5301
पीए	-5302
▁वाज	-5303
▁चैंपियन	-5304
▁काफ़	-5305
पक्ष	-5306
▁संदि	-5307
▁हृ	-5308
▁39	-5309
कांग	-5310
▁कोष	-5311
▁मंड	-5312
कप्तान	-5313
▁राज्‍यों	-5314
▁अस्पतालों	-5315
▁ढांचा	-5316
▁अधिसूचना	-5317
डीआर	-5318
▁दिग्गज	-5319
घर	-5320
▁देशभर	-5321
ारक	-5322
सील	-5323
▁गुजर	-5324
ियस	-5325
▁उपलब्‍	-5326
80	-5327
▁बादल	-5328
▁लंबा	-5329
भाग्य	-5330
ोसी	-5331
▁समझने	-5332
▁ऑल	-5333
नाइट	-5334
ृत्त	-5335
▁पादुकोण	-5336
ोध्या	-5337
▁आशंका	-5338
▁पीड़िता	-5339
क्षणिक	-5340
▁रहो	-5341
ंथ	-5342
▁पढ़ाई	-5343
मंडल	-5344
▁स्ट्र	-5345
हल	-5346
▁ब्यू	-5347
िने	-5348
श्	-5349
▁कृत	-5350
▁पोर्टल	-5351
▁अनुसूचित	-5352
▁मुना	-5353
▁65	-5354
▁एकल	-5355
पीएम	-5356
▁फर्	-5357
▁जिक्र	-5358
▁हक़	-5359
▁कैप	-5360
▁उपलब्‍ध	-5361
ंबित	-5362
▁हेड	-5363
▁h	-5364
ैस	-5365
▁एयरपोर्ट	-5366
▁अल्पसंख्य	-5367
19	-5368
▁भय	-5369
▁किल	-5370
▁वर्षा	-5371
▁मद्देनजर	-5372
▁ध्व	-5373
▁आपात	-5374
▁कुशल	-5375
दंड	-5376
▁विफल	-5377
धारकों	-5378
▁नियंत्रित	-5379
▁चालू	-5380
▁दोपहर	-5381
▁कार्यान्वयन	-5382
▁निधि	-5383
▁सीसीटीवी	-5384
▁आंख	-5385
▁समन्व	-5386
स्को	-5387
▁पैनल	-5388
▁बौद्ध	-5389
▁उपायों	-5390
डि़	-5391
▁काउंस	-5392
पालिका	-5393
▁शिक्षक	-5394
▁कारोबारी	-5395
मतौर	-5396
▁कॉरप	-5397
▁देगी	-5398
▁सीतारमण	-5399
▁श्रीनगर	-5400
बरी	-5401
▁बताई	-5402
▁जुर्म	-5403
▁प्रशंसा	-5404
▁सृजन	-5405
▁सशक्त	-5406
▁इंट	-5407
▁चीजें	-5408
▁d	-5409
60	-5410
ax	-5411
असल	-5412
▁कलाकार	-5413
▁प्रोट	-5414
▁Result	-5415
▁लिहा	-5416
▁बेटा	-5417
्‍स	-5418
▁एंट	-5419
▁कलर	-5420
▁लाइसेंस	-5421
▁क्रिस	-5422
▁श्रमिक	-5423
▁धीरे	-5424
▁युग	-5425
▁सरल	-5426
िपुर	-5427
▁गुरुवार	-5428
▁बैंकिंग	-5429
▁ज़रूरी	-5430
▁ज़िंदगी	-5431
▁भो	-5432
▁डेविड	-5433
आईएम	-5434
▁संतोष	-5435
▁आयकर	-5436
किस्तान	-5437
▁संदिग्ध	-5438
▁हितों	-5439
▁डु	-5440
▁निच	-5441
▁एकत्र	-5442
▁मात्र	-5443
▁शिविर	-5444
▁पार्	-5445
▁उपस्थिति	-5446
तरीय	-5447
▁Red	-5448
▁आइए	-5449
▁मंडल	-5450
▁स्पेश	-5451
स्‍थ्‍य	-5452
श्री	-5453
▁खेती	-5454
▁एसपी	-5455
▁संसार	-5456
्‍यू	-5457
सेक्स	-5458
▁टॉप	-5459
▁लिखी	-5460
ीट	-5461
one	-5462
▁पंजीकरण	-5463
▁मस्जिद	-5464
-18	-5465
▁55	-5466
▁इम	-5467
▁तल	-5468
▁सुविधाएं	-5469
▁कंप्यूटर	-5470
ab	-5471
ut	-5472
▁सुष	-5473
▁पुरानी	-5474
▁द्र	-5475
्रोल	-5476
हमने	-5477
▁आना	-5478
▁घुस	-5479
▁वाणिज्यिक	-5480
▁शुभार	-5481
▁संसाधनों	-5482
▁प्रत्याशी	-5483
ग्रस्त	-5484
▁प्रोजेक्ट	-5485
▁झूठ	-5486
▁सेमी	-5487
▁हवाले	-5488
▁खरीदने	-5489
▁भेद	-5490
▁अयोध्या	-5491
चक	-5492
णियों	-5493
▁दिवसीय	-5494
▁रोगियों	-5495
em	-5496
▁बैक	-5497
▁जाहिर	-5498
▁प्रतिबद्धता	-5499
BI	-5500
▁वाइ	-5501
क्चर	-5502
टकों	-5503
▁आईए	-5504
▁खूबस	-5505
▁सदी	-5506
▁सीआर	-5507
संख्या	-5508
▁सकी	-5509
▁आएगी	-5510
वेदनशील	-5511
▁निकाला	-5512
रन	-5513
▁India	-5514
▁सीए	-5515
▁चंद	-5516
▁बाजारों	-5517
▁टू	-5518
रीत	-5519
▁चुने	-5520
▁रवाना	-5521
र्मी	-5522
▁बॉस	-5523
▁क्लब	-5524
▁इश	-5525
▁झग	-5526
▁कच्चे	-5527
▁पेशकश	-5528
▁आपस	-5529
▁प्रता	-5530
▁जौ	-5531
्तों	-5532
▁सैम	-5533
▁किरा	-5534
इंट	-5535
यामत	-5536
▁कनाडा	-5537
▁नाज़िल	-5538
▁पंड	-5539
▁गोल्ड	-5540
▁स्टॉक	-5541
▁कैप्ट	-5542
▁पिछली	-5543
▁भरा	-5544
▁सर्विस	-5545
-17	-5546
▁यातना	-5547
▁आमतौर	-5548
▁चाहिये	-5549
▁जज	-5550
▁बलात्कार	-5551
▁तिव	-5552
▁Redmi	-5553
▁महेंद्र	-5554
▁लड़कियों	-5555
▁निर्मला	-5556
▁नामांकन	-5557
िंगटन	-5558
▁समझते	-5559
▁बंदरगाह	-5560
▁दक्षिणी	-5561
▁टूट	-5562
▁आवाज	-5563
िंस	-5564
▁रैंकिंग	-5565
ुता	-5566
▁कुलदीप	-5567
▁प्राइवेट	-5568
▁विंड	-5569
▁स्पिन	-5570
वों	-5571
▁128	-5572
▁एक्सच	-5573
▁प्रयोगशाला	-5574
खण्ड	-5575
▁विरासत	-5576
आईसी	-5577
▁कमाई	-5578
▁तिवारी	-5579
क्ताओं	-5580
▁अभिव	-5581
art	-5582
▁डाक	-5583
▁बसपा	-5584
▁सेल्स	-5585
▁शेयरों	-5586
रूप	-5587
▁जस	-5588
▁इस्राएल	-5589
▁विनिर्माण	-5590
▁गेम	-5591
▁अध्‍यक्ष	-5592
▁दौड़	-5593
▁आंकड़े	-5594
कुछ	-5595
▁रिसर्च	-5596
▁मुक़	-5597
त्न	-5598
▁कैसा	-5599
▁बैरल	-5600
▁पत्थर	-5601
▁नारे	-5602
लील	-5603
चानक	-5604
▁बुद्ध	-5605
▁स्‍वास्‍थ्‍य	-5606
▁उपयुक्त	-5607
▁मूल्यांकन	-5608
डीएस	-5609
▁प्रदर्शनकारियों	-5610
सिया	-5611
▁लेता	-5612
▁जगहों	-5613
्ज	-5614
ंपरिक	-5615
फिया	-5616
▁बढ़े	-5617
▁मेघ	-5618
▁एंटी	-5619
▁तथ्य	-5620
ितों	-5621
्रीट	-5622
▁मुआ	-5623
▁कोर	-5624
▁दरअसल	-5625
ोजित	-5626
ड़न	-5627
िंद्रा	-5628
▁हजारों	-5629
11	-5630
▁नॉ	-5631
▁बाधा	-5632
▁भूकंप	-5633
▁मोर्	-5634
▁देखिए	-5635
टर्स	-5636
▁वाता	-5637
ard	-5638
▁उर्व	-5639
ew	-5640
प्शन	-5641
किम	-5642
प्पा	-5643
▁कॉन्फ्रेंस	-5644
▁ज़िले	-5645
कालिक	-5646
▁बम	-5647
▁इकट	-5648
▁खिता	-5649
केज	-5650
हूर	-5651
▁बिंद	-5652
▁अचानक	-5653
िंटन	-5654
▁इनका	-5655
डियो	-5656
▁आकलन	-5657
▁ब्रांड	-5658
गैर	-5659
▁शुरु	-5660
▁सरदार	-5661
▁प्रेरणा	-5662
▁परमेश्वर	-5663
▁खी	-5664
▁हुईं	-5665
▁मलिक	-5666
▁अभिषेक	-5667
हाबाद	-5668
▁हराया	-5669
▁दुष्	-5670
▁समग्र	-5671
▁बनाये	-5672
▁विपरीत	-5673
▁दरवा	-5674
▁परिप	-5675
▁बरकरार	-5676
▁स्ना	-5677
पण	-5678
▁&	-5679
वानिव	-5680
▁मणिपुर	-5681
आईपी	-5682
▁बनाते	-5683
ुदा	-5684
संचार	-5685
एमएस	-5686
▁इट	-5687
▁घटनास्थल	-5688
▁यश	-5689
▁इकट्	-5690
▁बांध	-5691
▁इंदिरा	-5692
▁निवेशकों	-5693
▁एका	-5694
ीकृत	-5695
▁करूंगा	-5696
▁जागरूकता	-5697
ूती	-5698
▁बिता	-5699
▁फं	-5700
▁निरी	-5701
प्रति	-5702
▁वातावरण	-5703
od	-5704
सिंह	-5705
▁अंश	-5706
▁g	-5707
सायिक	-5708
▁ज़िम्मे	-5709
▁भेजने	-5710
ाजित	-5711
▁प्रतिनिधियों	-5712
▁आर्ट	-5713
▁आंकड़ा	-5714
▁अपमान	-5715
ब्ब	-5716
▁आजादी	-5717
▁छान	-5718
▁न्यायालयों	-5719
▁शिम	-5720
▁पात्र	-5721
▁महिंद्रा	-5722
ुली	-5723
नेश	-5724
वो	-5725
ियंस	-5726
▁अधी	-5727
स्वामी	-5728
म्स	-5729
▁अटल	-5730
▁टीमें	-5731
▁मरा	-5732
▁निर्धारण	-5733
▁मरीज	-5734
पया	-5735
▁बढ़ी	-5736
▁प्रसं	-5737
यत	-5738
▁कंट्रोल	-5739
▁मध्यम	-5740
▁IP	-5741
▁महत्‍व	-5742
ri	-5743
▁चीजों	-5744
▁उपकरणों	-5745
▁शिक्षकों	-5746
▁शैक्षणिक	-5747
अर	-5748
सेट	-5749
▁धूम	-5750
▁प्रारंभिक	-5751
▁ताल	-5752
▁चांदी	-5753
▁शाहिद	-5754
▁स्मृति	-5755
▁उभर	-5756
▁उत्कृष्ट	-5757
▁तेंदुलकर	-5758
गित	-5759
कांत	-5760
▁बाहरी	-5761
जै	-5762
्वे	-5763
▁कैप्टन	-5764
▁योग्यता	-5765
व्र	-5766
▁अकेले	-5767
स्कर	-5768
▁कवर	-5769
▁महार	-5770
एनए	-5771
फाइनल	-5772
▁वायदा	-5773
▁सच्चे	-5774
▁मुसलमानों	-5775
दर्शी	-5776
▁भले	-5777
▁हृदय	-5778
गांव	-5779
▁जयपुर	-5780
▁46	-5781
▁सफाई	-5782
▁पारंपरिक	-5783
▁शरण	-5784
्‍प	-5785
ंदाज	-5786
▁शरद	-5787
▁अनुश	-5788
▁ख़बर	-5789
▁डायरेक्टर	-5790
▁पहुंचाने	-5791
▁एग्	-5792
▁महत्त्व	-5793
कीपर	-5794
▁ओब	-5795
▁औपचारिक	-5796
▁जीते	-5797
िडी	-5798
▁जिम	-5799
हाई	-5800
up	-5801
ॉड	-5802
▁ज़ि	-5803
▁इंस्टीट	-5804
▁शता	-5805
▁ईंधन	-5806
▁आरबीआई	-5807
वेज	-5808
▁अख	-5809
▁कोड	-5810
▁सम्मिल	-5811
िप्त	-5812
ुसार	-5813
est	-5814
▁52	-5815
▁ऑपरेशन	-5816
▁भाइयों	-5817
▁विश्लेषण	-5818
▁टुक	-5819
▁प्रवाह	-5820
▁सैफ	-5821
दास	-5822
▁जोड़ा	-5823
▁दिखाने	-5824
▁शिर	-5825
▁उद्योगों	-5826
▁अंध	-5827
▁कानूनों	-5828
▁नौकर	-5829
▁संतुल	-5830
▁पेर	-5831
▁त्या	-5832
▁पड़ोसी	-5833
▁दह	-5834
▁स्वर्ग	-5835
▁पाप	-5836
▁आख़िर	-5837
ष्‍ट्रीय	-5838
▁47	-5839
▁गुनाह	-5840
▁आवश्‍य	-5841
▁मुह	-5842
▁मौल	-5843
िशियल	-5844
▁ऑफर	-5845
▁निम्न	-5846
▁उत्‍पादन	-5847
-4	-5848
िसी	-5849
▁ठहराया	-5850
वीस	-5851
एनयू	-5852
पश्च	-5853
▁उधर	-5854
▁हिन्दी	-5855
द्दाख	-5856
▁मुझसे	-5857
▁तहसील	-5858
▁एक्सचेंज	-5859
▁चम	-5860
▁अर्थात्	-5861
धित	-5862
ैनिक	-5863
त्तर	-5864
टीय	-5865
्‍यों	-5866
ांतों	-5867
▁पत्रकारों	-5868
गीय	-5869
▁साउथ	-5870
▁गवर्नर	-5871
▁प्रशंस	-5872
वेल	-5873
जात	-5874
रेन	-5875
टेल	-5876
केश	-5877
▁पाय	-5878
▁2019:	-5879
▁छु	-5880
▁कंग	-5881
▁यहू	-5882
▁स्मिथ	-5883
▁अत्यधिक	-5884
▁जीवित	-5885
ुरू	-5886
▁जह	-5887
▁हाइ	-5888
लिंग	-5889
▁आपसी	-5890
▁किलोग्राम	-5891
िकेशन	-5892
▁सिंगापुर	-5893
▁जोड़ने	-5894
▁हस्तक्षेप	-5895
ात्	-5896
▁नीर	-5897
▁दीर्	-5898
▁प्राप्‍त	-5899
▁मशहूर	-5900
▁असफल	-5901
▁मुंह	-5902
▁मृतकों	-5903
▁स्वि	-5904
च्‍छ	-5905
झी	-5906
▁क्षमा	-5907
▁संदेह	-5908
▁वैज्ञानिकों	-5909
साम	-5910
।""	-5911
▁संग्रहण	-5912
ट्रिक	-5913
▁ब्रह	-5914
▁सबको	-5915
▁करेंगी	-5916
ऊदी	-5917
सेस	-5918
▁स्वराज	-5919
फाई	-5920
▁मार्केट	-5921
▁194	-5922
▁कॉम	-5923
▁शक्त	-5924
har	-5925
▁गह	-5926
▁नजदी	-5927
र्की	-5928
▁(1)	-5929
शाह	-5930
▁आजाद	-5931
▁निस्	-5932
मुख्य	-5933
स्टार	-5934
▁नवीन	-5935
▁फ़ाइल	-5936
▁माने	-5937
आइ	-5938
रीबी	-5939
▁व्याख्या	-5940
▁दायरे	-5941
नम	-5942
▁जनसंख्या	-5943
हीम	-5944
▁बाप	-5945
▁निर्देशित	-5946
▁सांसदों	-5947
▁भेंट	-5948
▁सेंसेक्स	-5949
ेयर	-5950
▁बिजनेस	-5951
▁पुरुषों	-5952
स्तर	-5953
्रीम	-5954
▁थोड़ी	-5955
▁पहन	-5956
▁ग्लो	-5957
▁जीतकर	-5958
▁तौ	-5959
ाहिर	-5960
▁आकर्षित	-5961
▁तरीकों	-5962
▁मजबूती	-5963
▁फूल	-5964
▁प्रतीक	-5965
िमा	-5966
▁झटका	-5967
▁जोन	-5968
▁दृढ़	-5969
▁सूक्ष	-5970
▁मिलेंगे	-5971
टीएम	-5972
▁बन्	-5973
चुनाव	-5974
▁जाएंगी	-5975
▁विशेषज्ञों	-5976
ैश	-5977
▁लेखा	-5978
▁संस्थाओं	-5979
▁उपधारा	-5980
▁सम्मिलित	-5981
▁तारीफ	-5982
▁मिलाकर	-5983
▁गौतम	-5984
▁लम्	-5985
▁स्टाफ	-5986
▁अंजाम	-5987
▁पाते	-5988
▁खिताब	-5989
▁नीतियों	-5990
▁संवेदनशील	-5991
▁स्त्री	-5992
अगर	-5993
तल	-5994
▁मिट्टी	-5995
▁प्रारूप	-5996
मैंने	-5997
दमी	-5998
▁झुठ	-5999
▁यक़ीनन	-6000
▁रामनाथ	-6001
▁प्रोग्राम	-6002
▁हरी	-6003
▁ब्यूरो	-6004
▁पहुंचाया	-6005
▁एनसीपी	-6006
▁जितना	-6007
▁डिव	-6008
फेल	-6009
ate	-6010
▁उक्त	-6011
▁वित्‍त	-6012
पेयी	-6013
▁मेजब	-6014
▁लद्दाख	-6015
▁पुनः	-6016
▁सुषमा	-6017
▁41	-6018
▁दत्त	-6019
इंड	-6020
ंचाई	-6021
▁सुभाष	-6022
▁बेंगलुरु	-6023
▁झुठला	-6024
▁त्रिप	-6025
बॉल	-6026
▁आँ	-6027
▁बुल	-6028
▁स्वरूप	-6029
▁खासकर	-6030
कला	-6031
▁मध्यप्रदेश	-6032
न्ड	-6033
▁51	-6034
▁फैंस	-6035
संदेह	-6036
ag	-6037
▁बोला	-6038
▁सॉफ्ट	-6039
▁बलि	-6040
▁रवी	-6041
द्यपि	-6042
ोदय	-6043
▁मारा	-6044
▁सिद्धार्थ	-6045
शिंगटन	-6046
निर्देश	-6047
li	-6048
वली	-6049
ूहिक	-6050
ter	-6051
▁दोस्तों	-6052
रित	-6053
▁शुभारंभ	-6054
▁दूरसंचार	-6055
ेशनों	-6056
डीएम	-6057
▁हां	-6058
रोज	-6059
ूंकि	-6060
▁पीढ़ी	-6061
▁स्पेशल	-6062
▁आतंकियों	-6063
▁लगाते	-6064
▁टक	-6065
▁निर्द	-6066
▁छानबीन	-6067
▁राजेश	-6068
इंग	-6069
um	-6070
लोग	-6071
▁अत	-6072
▁आयी	-6073
▁सऊदी	-6074
▁उत्स	-6075
▁स्‍था	-6076
▁फार	-6077
▁पोषण	-6078
▁दृश्य	-6079
▁प्रवासी	-6080
▁अंबानी	-6081
▁आश्वास	-6082
▁प्रांत	-6083
हैं	-6084
ुक्‍त	-6085
▁प्लस	-6086
्रेशन	-6087
▁कराए	-6088
▁\""	-6089
▁वारदा	-6090
▁पैकेज	-6091
▁नवाचार	-6092
▁साधारण	-6093
बीसी	-6094
▁परिवर्त	-6095
▁साथियों	-6096
भाजपा	-6097
▁ख्या	-6098
संघ	-6099
ाजत	-6100
▁बांट	-6101
▁गोलीबारी	-6102
मंद	-6103
▁औष	-6104
खल	-6105
▁अस्त	-6106
▁ग्राहक	-6107
▁इसल	-6108
▁जटिल	-6109
▁गंभीरता	-6110
▁शर्म	-6111
▁सोचा	-6112
▁सुश्री	-6113
▁चैम्प	-6114
▁बोझ	-6115
तांत्रिक	-6116
▁कर्त	-6117
▁परिणामस्वरूप	-6118
▁सीनियर	-6119
▁इकाइयों	-6120
▁एकीकृत	-6121
▁मनोर	-6122
▁भोपाल	-6123
एसए	-6124
▁दीवार	-6125
ap	-6126
णों	-6127
ढ़ा	-6128
▁उन्हीं	-6129
ूनी	-6130
▁साइट	-6131
▁सूर्य	-6132
जि	-6133
कन	-6134
▁खतरनाक	-6135
▁जाएँगे	-6136
▁मनीष	-6137
▁छोड़ने	-6138
्‍मी	-6139
▁ढेर	-6140
▁गार	-6141
▁गोर	-6142
▁गार्ड	-6143
▁जन्मदिन	-6144
▁माया	-6145
▁प्रसन्न	-6146
▁निभाई	-6147
▁देरी	-6148
▁बच्ची	-6149
▁खूबसूरत	-6150
▁अधीक्षक	-6151
▁गलती	-6152
▁सामूहिक	-6153
▁(19	-6154
▁सर्ज	-6155
▁हड़ताल	-6156
▁बेस	-6157
▁अनुवाद	-6158
ऊद	-6159
ायतों	-6160
▁सतर्क	-6161
जान	-6162
ल्थ	-6163
▁शैली	-6164
▁स्त	-6165
▁नैतिक	-6166
▁54	-6167
▁बुलाया	-6168
▁आरएसएस	-6169
▁जुर्माना	-6170
▁निफ्टी	-6171
▁आदान	-6172
▁कठोर	-6173
▁वैध	-6174
▁of	-6175
▁अमे	-6176
▁सब्स	-6177
▁पेय	-6178
▁द्वार	-6179
वर्ड	-6180
▁सज़ा	-6181
व्यू	-6182
हारी	-6183
▁सेन	-6184
▁लालू	-6185
फ्तार	-6186
▁पद्ध	-6187
▁रियल	-6188
ग़म्बर	-6189
▁गुस्	-6190
▁न्यूज	-6191
वाड़ा	-6192
▁जुड़	-6193
▁यकीन	-6194
▁रानी	-6195
▁पढ़ने	-6196
▁अगुवाई	-6197
▁ईश्वर	-6198
▁आपत्ति	-6199
▁लंबित	-6200
▁किशोर	-6201
▁हिन्दू	-6202
टों	-6203
▁भरे	-6204
▁आरक्षण	-6205
▁न्यूय	-6206
▁टो	-6207
क्तूबर	-6208
▁समृद्ध	-6209
कभी	-6210
िड़	-6211
▁जहाज	-6212
्यूज	-6213
▁नष्ट	-6214
▁+	-6215
ak	-6216
▁अध्याय	-6217
▁मकसद	-6218
▁आश्वासन	-6219
नैप	-6220
र्र	-6221
ष्णा	-6222
त्तियों	-6223
▁निलंबित	-6224
णाचल	-6225
▁बंध	-6226
▁त्रिपुरा	-6227
▁सेहत	-6228
ऊँ	-6229
▁प्रावधानों	-6230
यिक	-6231
▁दिक	-6232
▁संवैधानिक	-6233
▁ड्राइवर	-6234
▁सदस्यीय	-6235
▁कल्पना	-6236
▁इंस्टीट्यूट	-6237
डीसी	-6238
▁400	-6239
▁लड़के	-6240
▁सुनने	-6241
▁यद्यपि	-6242
ेट्टी	-6243
▁कामों	-6244
▁यूनियन	-6245
▁स्वीकृति	-6246
णित	-6247
ायती	-6248
▁अत्यंत	-6249
▁ऑप	-6250
▁यो	-6251
▁जैव	-6252
▁चिंत	-6253
▁लाइफ	-6254
▁w	-6255
▁मुफ्त	-6256
ोड़े	-6257
▁2007	-6258
स्‍तान	-6259
▁चलाया	-6260
▁जब्त	-6261
▁फिल्‍म	-6262
▁कमान	-6263
▁कामक	-6264
▁नरेन्‍द्र	-6265
धारी	-6266
▁नसी	-6267
▁पवन	-6268
▁नारायण	-6269
▁दायित्व	-6270
▁अर्ध	-6271
▁प्रे	-6272
चार्ज	-6273
▁फ़र	-6274
▁निया	-6275
▁स्तरीय	-6276
▁कृपया	-6277
▁रिम	-6278
वित	-6279
ष्‍ठ	-6280
▁प्रतिदिन	-6281
▁जाँच	-6282
▁एडमिट	-6283
▁स्कीम	-6284
▁मिसाइल	-6285
राई	-6286
▁उड़ा	-6287
ुमान	-6288
▁बुद्धि	-6289
▁काले	-6290
▁देखे	-6291
▁कैद	-6292
▁तेलु	-6293
▁करीबी	-6294
यो	-6295
्रल	-6296
▁मार्क	-6297
▁द्वितीय	-6298
जुट	-6299
▁स्‍तर	-6300
▁शताब्दी	-6301
▁स्पेस	-6302
▁राजकुमार	-6303
▁रावत	-6304
▁भरी	-6305
▁कामयाब	-6306
▁अभिनय	-6307
▁मार्गदर्शन	-6308
▁अतिथि	-6309
▁यथा	-6310
▁सूत्र	-6311
▁संबोधन	-6312
▁उन्‍हें	-6313
▁मुकेश	-6314
▁इस्‍	-6315
िकरण	-6316
▁गरीबी	-6317
ुरी	-6318
▁महज	-6319
▁जवाहर	-6320
पुट	-6321
▁उनपर	-6322
▁इंटरनल	-6323
▁मुज	-6324
▁खींच	-6325
▁हुसैन	-6326
▁व्यय	-6327
▁56	-6328
▁अड्डे	-6329
▁भागों	-6330
▁संस्कृत	-6331
ेबल	-6332
जेंसी	-6333
▁व्यक्‍ति	-6334
▁दर्जा	-6335
जित	-6336
▁जाल	-6337
▁सेमीफाइनल	-6338
▁गें	-6339
▁अक्तूबर	-6340
▁प्राइमरी	-6341
▁लूट	-6342
▁खबरों	-6343
पीड़न	-6344
▁दैनिक	-6345
▁प्रको	-6346
▁टीका	-6347
ँह	-6348
▁बेस्ट	-6349
पूर	-6350
▁पीयू	-6351
▁गिरोह	-6352
▁जुटी	-6353
▁पड़ने	-6354
ईडी	-6355
▁निराश	-6356
▁रिकार्ड	-6357
▁रेप	-6358
▁संस्‍थ	-6359
▁व्यावसायिक	-6360
▁पश्चात	-6361
बॉ	-6362
साइड	-6363
▁डालने	-6364
▁एकजुट	-6365
▁मुआव	-6366
▁सीधा	-6367
▁2017-18	-6368
▁प्रतिष्ठित	-6369
र्त	-6370
▁निकालने	-6371
▁मूल्यों	-6372
▁पत्रिका	-6373
▁पर्स	-6374
्तिक	-6375
▁इस्पात	-6376
▁किनारे	-6377
ट्टर	-6378
विधि	-6379
▁2000	-6380
▁जबरद	-6381
▁मारुति	-6382
ंजा	-6383
▁केन्‍द्र	-6384
▁फेर	-6385
▁समाजवादी	-6386
▁फीचर	-6387
ंदे	-6388
डन	-6389
माश	-6390
▁(4	-6391
रुण	-6392
क्की	-6393
han	-6394
-16	-6395
हमें	-6396
▁सालाना	-6397
▁गौरव	-6398
▁पेड़	-6399
▁प्रमो	-6400
▁अवस्था	-6401
▁अपडेट	-6402
▁सोल	-6403
▁गहरी	-6404
▁अनंत	-6405
▁शेट्टी	-6406
▁ऑफ़	-6407
ख्‍या	-6408
II	-6409
▁आएंगी	-6410
▁मूर्	-6411
▁भौतिक	-6412
▁काउंसिल	-6413
www	-6414
▁कार्ब	-6415
▁संभ	-6416
ers	-6417
लेस	-6418
....	-6419
▁हंग	-6420
▁कैफ	-6421
▁शौच	-6422
ांकित	-6423
▁चूंकि	-6424
og	-6425
ric	-6426
▁मचा	-6427
▁चेहरे	-6428
▁राजदूत	-6429
▁छवि	-6430
▁भरने	-6431
▁संवेद	-6432
''	-6433
▁वजन	-6434
▁अंडर	-6435
▁सुनाई	-6436
प्ति	-6437
▁खोलने	-6438
▁संबद्ध	-6439
▁विनियम	-6440
काया	-6441
कृष्ण	-6442
▁दाऊद	-6443
▁अकादमी	-6444
पता	-6445
ेशिया	-6446
▁रेडियो	-6447
▁हर्षवर्धन	-6448
▁पलट	-6449
▁नाराज	-6450
▁जैन	-6451
बैक	-6452
▁राफेल	-6453
▁ज़ाहिर	-6454
▁अपर	-6455
▁बेल	-6456
भूति	-6457
▁स्टील	-6458
▁फिल्में	-6459
एडा	-6460
▁उपलब्धि	-6461
▁पश्चात्	-6462
▁जौहर	-6463
▁स्टूडेंट्स	-6464
▁चर्च	-6465
▁दरों	-6466
▁रोका	-6467
▁सेवानिव	-6468
ढ़े	-6469
लाइट	-6470
▁लुक	-6471
ुलर	-6472
▁संपूर्ण	-6473
▁ईडी	-6474
▁ग्रीन	-6475
▁सिद्धू	-6476
ख़ुदा	-6477
▁बेन	-6478
वस्‍था	-6479
▁हमलों	-6480
रेज	-6481
▁सौंपा	-6482
▁प्रवर्तन	-6483
डोर	-6484
▁बचत	-6485
▁उपक्रम	-6486
▁दब	-6487
हमारे	-6488
▁एथ	-6489
▁फाइन	-6490
▁नग	-6491
▁वरुण	-6492
▁अधिग्रहण	-6493
ाराण	-6494
▁बुर	-6495
▁दिमा	-6496
▁ट्रेड	-6497
▁फाउंड	-6498
उप	-6499
▁भूप	-6500
▁अनुबंध	-6501
शिक	-6502
रचना	-6503
▁मजबूर	-6504
▁वर्गों	-6505
▁अखिलेश	-6506
▁वीजा	-6507
▁संस्थापक	-6508
▁४	-6509
▁निर्दिष्ट	-6510
बूत	-6511
रियर	-6512
▁तीव्र	-6513
▁लैस	-6514
▁रंजन	-6515
।।	-6516
▁हुये	-6517
▁छुट्टी	-6518
▁खड़ी	-6519
▁ज्यो	-6520
▁व्हाइट	-6521
▁इलाहाबाद	-6522
."""	-6523
वामा	-6524
▁अभिव्य	-6525
सनीय	-6526
ne	-6527
▁छिपा	-6528
▁राकेश	-6529
बुल	-6530
▁दिक्क	-6531
▁देवेंद्र	-6532
▁मकान	-6533
ाराणसी	-6534
खों	-6535
▁घोटाले	-6536
सागर	-6537
▁पहलू	-6538
धड़ी	-6539
▁शत्र	-6540
▁दीन	-6541
सून	-6542
▁सूक्ष्म	-6543
▁निष्कर्ष	-6544
▁आराम	-6545
▁संवाददाताओं	-6546
ोनेशिया	-6547
▁प्रतिनिधिमंडल	-6548
ामक	-6549
▁तूफान	-6550
▁संदीप	-6551
▁दशा	-6552
▁इजाजत	-6553
▁ब्लॉक	-6554
▁घटकर	-6555
▁मोड	-6556
alme	-6557
▁अवगत	-6558
क्‍स	-6559
▁बाबा	-6560
▁वर्णन	-6561
ैग	-6562
▁सभ	-6563
▁इमारत	-6564
िकर	-6565
▁रणनीतिक	-6566
टीन	-6567
प्रदान	-6568
▁ज्‍या	-6569
सेल	-6570
ंगुली	-6571
▁क्वाल	-6572
▁डिस्	-6573
▁पुकार	-6574
▁निवास	-6575
▁शिवराज	-6576
▁सिंचाई	-6577
एआई	-6578
▁शेख	-6579
▁ऊंचाई	-6580
ोंग	-6581
▁विद्व	-6582
ment	-6583
▁मारने	-6584
ष्क	-6585
hi	-6586
▁माँग	-6587
▁फ्ला	-6588
▁स्थगित	-6589
िपल	-6590
▁धमा	-6591
ोग्रा	-6592
्यूशन	-6593
▁उपास	-6594
▁ख़ास	-6595
सीन	-6596
▁कॉर्प	-6597
▁स्नैप	-6598
▁बिलकुल	-6599
▁ज्‍यादा	-6600
▁अरो	-6601
▁करनेवाले	-6602
▁नीलामी	-6603
▁काला	-6604
ॉयड	-6605
ून्य	-6606
▁ताजा	-6607
▁देखो	-6608
एनजी	-6609
णवीस	-6610
▁बोलने	-6611
न्दगी	-6612
थाम	-6613
▁प्रका	-6614
▁फि	-6615
पानी	-6616
केल	-6617
मिन	-6618
▁सफर	-6619
▁रॉयल	-6620
▁हता	-6621
▁साजिश	-6622
▁पहलुओं	-6623
▁विशेषकर	-6624
▁पार्टियों	-6625
▁67	-6626
▁बचने	-6627
▁पब्लिक	-6628
दिल	-6629
▁इटली	-6630
▁वारदात	-6631
▁आवंटन	-6632
नाश	-6633
▁घटा	-6634
▁गरीबों	-6635
क्टिविटी	-6636
ानियों	-6637
▁72	-6638
▁डाले	-6639
▁संग्रहालय	-6640
▁भूषण	-6641
▁खरीदा	-6642
▁लोकतांत्रिक	-6643
▁मिज	-6644
▁घूम	-6645
स्‍ता	-6646
▁अवश्य	-6647
▁अग्रिम	-6648
▁साक्षा	-6649
▁असल	-6650
▁सशस्त्र	-6651
▁पीने	-6652
▁अनुदान	-6653
▁अवसरों	-6654
▁विविधता	-6655
▁गणराज्य	-6656
▁लैंड	-6657
▁किंग्स	-6658
पीट	-6659
▁बनना	-6660
▁नोएडा	-6661
▁प्रतिस्पर्धा	-6662
▁सिलसिले	-6663
▁स्थानांतर	-6664
▁फस	-6665
▁पर्यटकों	-6666
क्षिक	-6667
▁जर्मन	-6668
▁बोलते	-6669
▁पाएंगे	-6670
▁बख्	-6671
्वीप	-6672
▁एचडीएफसी	-6673
▁ग्रा	-6674
ंडे	-6675
▁रफ्तार	-6676
जीबी	-6677
▁पुलवामा	-6678
व्या	-6679
▁रीति	-6680
▁प्लेटफॉर्म	-6681
▁53	-6682
▁लगाकर	-6683
▁श्रेय	-6684
▁व्यस्त	-6685
▁अखबार	-6686
▁इलेक्ट्रिक	-6687
▁IPL	-6688
▁मांस	-6689
▁कीमतें	-6690
▁वाजपेयी	-6691
▁शास्त्र	-6692
▁अधिकारिता	-6693
▁टॉस	-6694
बई	-6695
▁इसलिये	-6696
▁66	-6697
▁ट्रेलर	-6698
▁कव	-6699
▁Realme	-6700
▁गढ़	-6701
र्देश	-6702
▁मोटरसाइ	-6703
ूष	-6704
ासित	-6705
▁रौ	-6706
▁किंतु	-6707
▁महेश	-6708
▁विवेक	-6709
▁प्रिंट	-6710
▁वाराणसी	-6711
▁बहनों	-6712
▁विपणन	-6713
▁अमृत	-6714
▁फर्जी	-6715
▁उपचुनाव	-6716
ैक्ट	-6717
शक्ति	-6718
▁मेहर	-6719
▁विज्ञापन	-6720
जिन	-6721
▁निदेशालय	-6722
▁संयुक्‍त	-6723
▁झा	-6724
विज्ञान	-6725
▁सवालों	-6726
स्पर	-6727
▁उमर	-6728
▁चरणों	-6729
स्पी	-6730
▁कड़ा	-6731
▁सत्या	-6732
▁स्पीड	-6733
▁गांगुली	-6734
▁उत्पीड़न	-6735
परी	-6736
बली	-6737
पाकिस्तान	-6738
काने	-6739
▁रजत	-6740
▁दिना	-6741
▁बतौर	-6742
▁गेट	-6743
▁विशेषता	-6744
▁लोन	-6745
▁फांसी	-6746
▁दोषियों	-6747
्यूस	-6748
▁मेन	-6749
बर्ग	-6750
▁तुर्की	-6751
▁ज्योति	-6752
ल्डर	-6753
▁टेलीवि	-6754
▁सैक	-6755
फाइल	-6756
ृत्य	-6757
▁सेटअप	-6758
अपनी	-6759
मुख्यमंत्री	-6760
▁आईं	-6761
▁कविता	-6762
▁ट्रस्ट	-6763
पश्चिम	-6764
▁हिद	-6765
▁सबके	-6766
▁टेल	-6767
प्रधान	-6768
▁इंटरव्यू	-6769
▁तकली	-6770
,500	-6771
त्रि	-6772
▁पीयूष	-6773
▁मुँह	-6774
▁आईआईटी	-6775
▁निस्संदेह	-6776
▁गिन	-6777
▁टर्म	-6778
▁जेएनयू	-6779
जीवन	-6780
▁कामना	-6781
एसएमई	-6782
▁कली	-6783
▁मानने	-6784
▁सेंट्रल	-6785
शोधन	-6786
▁भलाई	-6787
▁माननीय	-6788
ha	-6789
गंज	-6790
▁बर्फ	-6791
▁भजन	-6792
▁धोखाधड़ी	-6793
▁जलाश	-6794
▁हिदायत	-6795
▁कपड़े	-6796
▁अधिकरण	-6797
▁लू	-6798
मानी	-6799
ID	-6800
▁ओबामा	-6801
▁एक्टिव	-6802
िस्ट्रेट	-6803
▁ट्रेनों	-6804
▁हज	-6805
▁हॉल	-6806
▁कंगना	-6807
▁ईरानी	-6808
▁स्टैंड	-6809
▁कार्तिक	-6810
▁महत्‍वपूर्ण	-6811
▁तत्कालीन	-6812
ूसु	-6813
▁रखो	-6814
ction	-6815
द्रोह	-6816
▁त्रुट	-6817
▁बहा	-6818
▁जहन्न	-6819
25	-6820
▁त्योह	-6821
▁सिम	-6822
▁आशीष	-6823
▁निवार	-6824
▁बताने	-6825
▁संख्‍या	-6826
▁उतारा	-6827
ग्रा	-6828
▁ब्लू	-6829
▁न्यायाधीशों	-6830
▁श्रद्धा	-6831
▁दोग	-6832
वायर	-6833
▁शुक्	-6834
▁चैम्पियन	-6835
▁कले	-6836
सो	-6837
▁ड्यू	-6838
▁अवि	-6839
▁पुरी	-6840
▁लेफ्ट	-6841
णमूल	-6842
▁गेह	-6843
ानिया	-6844
▁मंत्रालयों	-6845
▁इजा	-6846
▁संपाद	-6847
▁समावेश	-6848
मेरे	-6849
हरण	-6850
▁मॉड	-6851
▁शिमला	-6852
▁भला	-6853
▁कनेक्टिविटी	-6854
▁घे	-6855
▁बदमाश	-6856
▁खून	-6857
▁डिफ	-6858
▁अमरि	-6859
▁विलियम	-6860
ेडकर	-6861
▁इक्	-6862
▁जाव	-6863
वाधिकार	-6864
▁एक्शन	-6865
▁सतत	-6866
वारी	-6867
लोत	-6868
▁फुल	-6869
▁बिन	-6870
▁विद्यार्थी	-6871
▁परम	-6872
▁2020:	-6873
▁इंडोनेशिया	-6874
▁विश्वविद्यालयों	-6875
▁नज़	-6876
ोत्सव	-6877
▁फाउंडेशन	-6878
धव	-6879
वाहा	-6880
ोलिक	-6881
▁सुम	-6882
चित्र	-6883
▁जिसको	-6884
▁खुफिया	-6885
▁टेक्नोलॉजी	-6886
टेक	-6887
ार्टर	-6888
▁58	-6889
▁बढ़ता	-6890
▁प्रसंस्	-6891
वाया	-6892
▁कामकाज	-6893
▁अपराधों	-6894
▁2022	-6895
▁अपनाने	-6896
▁कलाकारों	-6897
▁खेली	-6898
▁प्रदर्शनी	-6899
ालियों	-6900
▁आनन्द	-6901
▁संप्र	-6902
▁संपन्न	-6903
ज़न	-6904
▁गोपाल	-6905
▁मानकों	-6906
ec	-6907
▁कराना	-6908
▁सम्‍म	-6909
70	-6910
ity	-6911
▁250	-6912
भाषित	-6913
▁असली	-6914
ैगन	-6915
अमेर	-6916
न्दा	-6917
▁एसबीआई	-6918
▁कार्यशाला	-6919
िमान	-6920
ैया	-6921
▁अता	-6922
▁अनुपात	-6923
▁तटीय	-6924
विश्वास	-6925
▁कं	-6926
▁सीपी	-6927
▁समानता	-6928
गारों	-6929
▁ज़रिए	-6930
1)	-6931
▁पदा	-6932
ाज्य	-6933
▁साक्ष्य	-6934
िनेंट	-6935
▁शिक्षण	-6936
स्थापित	-6937
▁63	-6938
▁लाइव	-6939
▁बच्चा	-6940
▁डब्ल्यू	-6941
यदि	-6942
▁नबी	-6943
▁लाइट	-6944
▁तीर्थ	-6945
▁ग्लोबल	-6946
▁समन्वय	-6947
▁पंजीकृत	-6948
हु	-6949
झाने	-6950
जिटिव	-6951
▁हॉकी	-6952
▁कमरे	-6953
▁सेल्सियस	-6954
▁PM	-6955
▁नवीकरण	-6956
▁अत्यन्त	-6957
संगत	-6958
▁सोनम	-6959
आउट	-6960
▁हादसा	-6961
▁पढ़े	-6962
▁मंजूर	-6963
िर्	-6964
▁सॉफ्टवेयर	-6965
▁साहिब	-6966
15	-6967
हादुर	-6968
▁शून्य	-6969
टित	-6970
▁चौक	-6971
▁तरफ़	-6972
▁त्रि	-6973
सास	-6974
▁बट	-6975
▁निकले	-6976
▁गेंदों	-6977
-12	-6978
▁1000	-6979
▁ब्रा	-6980
JP	-6981
▁मैक्स	-6982
▁बजा	-6983
▁प्रकाशन	-6984
ट्	-6985
▁फरमा	-6986
▁सौदे	-6987
▁रिटर्न	-6988
▁विमानों	-6989
सीएस	-6990
▁सतह	-6991
▁सीखने	-6992
▁शह	-6993
▁तृणमूल	-6994
ंगत	-6995
ॉफ	-6996
▁आड	-6997
▁विभाजन	-6998
▁असा	-6999
नाइटेड	-7000
▁सदस्‍	-7001
).	-7002
▁अग्रणी	-7003
▁इकट्ठा	-7004
▁मूल्‍य	-7005
▁फेड	-7006
▁ख़िला	-7007
▁स्टार्ट	-7008
▁मानवाधिकार	-7009
,‘	-7010
▁आयतों	-7011
lus	-7012
▁बचे	-7013
▁गहलोत	-7014
▁भेजी	-7015
▁भरपूर	-7016
▁मलेशिया	-7017
▁समृद्धि	-7018
भाई	-7019
▁फ़ैस	-7020
▁दोगु	-7021
▁पॉजिटिव	-7022
▁फंसे	-7023
▁मसीहियों	-7024
शंकर	-7025
▁उत्तम	-7026
▁गर	-7027
▁दुष्कर्म	-7028
▁खनन	-7029
▁दीर्घ	-7030
▁74	-7031
▁जमी	-7032
▁डायरेक्ट	-7033
▁अब्दुल्ला	-7034
▁नाकाम	-7035
▁स्पोर्ट	-7036
वने	-7037
ेंच	-7038
ालैंड	-7039
▁समापन	-7040
▁85	-7041
▁इत्या	-7042
▁जोड़े	-7043
SC	-7044
▁सूर	-7045
▁रोकथाम	-7046
▁छू	-7047
▁दिमाग	-7048
▁नाते	-7049
▁गारंटी	-7050
एसडी	-7051
धारित	-7052
▁दिनेश	-7053
▁कैश	-7054
▁रखती	-7055
▁उत्तराखण्ड	-7056
▁ढूं	-7057
▁प्राप्ति	-7058
एँगे	-7059
▁छेड़	-7060
▁निरीक्षण	-7061
▁नाबाल	-7062
▁उपलब्धता	-7063
▁५	-7064
▁अमल	-7065
▁समाप	-7066
▁कठिना	-7067
▁आदम	-7068
▁करु	-7069
जिस	-7070
▁कमांडर	-7071
▁झील	-7072
र्इ	-7073
दिव	-7074
नीत	-7075
ल्‍	-7076
▁फड	-7077
▁रसायन	-7078
▁बनाता	-7079
▁पठ	-7080
▁बुक	-7081
▁माप	-7082
▁इच्छुक	-7083
▁प्रक्रियाओं	-7084
ंथी	-7085
्मण	-7086
▁बारी	-7087
▁परीक्षाओं	-7088
लत	-7089
स्पति	-7090
▁सपना	-7091
▁राज्यमंत्री	-7092
▁120	-7093
▁सत्	-7094
निर्भर	-7095
▁स्टो	-7096
▁बलिदान	-7097
▁चिट	-7098
पुल	-7099
▁जाधव	-7100
▁ठिक	-7101
▁समुदायों	-7102
▁अवॉर्ड	-7103
▁एकड़	-7104
▁सुदृ	-7105
▁ट्रॉ	-7106
▁सिया	-7107
▁उपग्रह	-7108
▁मामूली	-7109
▁शैक्षिक	-7110
चरण	-7111
ल्ला	-7112
▁उद्धव	-7113
▁पेपर	-7114
▁राणा	-7115
▁पुलिसकर्मी	-7116
▁परा	-7117
▁मौजूदगी	-7118
CI	-7119
▁ऑफिशियल	-7120
स्‍प	-7121
▁गवाही	-7122
▁उत्‍तर	-7123
▁महत्त्वपूर्ण	-7124
कॉ	-7125
▁पोस्टर	-7126
ist	-7127
▁वंश	-7128
▁सिक्किम	-7129
बलों	-7130
धारणा	-7131
▁पढ़ा	-7132
▁हिंदुस्तान	-7133
फ्रा	-7134
▁गणना	-7135
▁प्रताप	-7136
44.	-7137
राय	-7138
▁खन	-7139
▁ख्याल	-7140
▁साक्षियों	-7141
चंद्र	-7142
▁नर्स	-7143
▁स्वदेश	-7144
▁फेंक	-7145
▁अरोड़ा	-7146
चार्य	-7147
%),	-7148
एक्स	-7149
▁वाक़	-7150
▁सिद्धांतों	-7151
▁एससी	-7152
▁खबरें	-7153
▁Gal	-7154
▁मुर	-7155
ड़प	-7156
▁कब्जा	-7157
▁दवाओं	-7158
▁निकलने	-7159
▁कार्म	-7160
▁दुर	-7161
वाने	-7162
▁इंकार	-7163
▁नकदी	-7164
io	-7165
▁राइ	-7166
दर्शिता	-7167
▁सम्‍मेलन	-7168
बंद	-7169
ंगों	-7170
▁नवाज	-7171
भारतीय	-7172
▁#44.	-7173
▁शर्त	-7174
▁देखता	-7175
▁2006	-7176
▁यूसु	-7177
▁मायावती	-7178
भु	-7179
axy	-7180
रेशन	-7181
▁पांड	-7182
शास्त्र	-7183
बन	-7184
▁इर	-7185
त्ते	-7186
सीएम	-7187
▁सांप	-7188
▁महाराज	-7189
▁57	-7190
▁सज	-7191
▁करवाने	-7192
▁जबरदस्त	-7193
समय	-7194
▁अभ्य	-7195
▁अल्पसंख्यक	-7196
▁युक्त	-7197
िक्	-7198
संरचना	-7199
▁अरुणाचल	-7200
ख्तर	-7201
▁स्थिरता	-7202
▁स्पेन	-7203
▁मनोरंजन	-7204
रज़	-7205
▁कच	-7206
▁पन	-7207
▁डीजी	-7208
▁पैग़म्बर	-7209
▁2016-17	-7210
क्‍ट	-7211
क्रमण	-7212
▁सीएस	-7213
▁लोह	-7214
यद	-7215
भूषण	-7216
▁लाह	-7217
▁भेदभाव	-7218
▁भावनाओं	-7219
▁परियोजनाएं	-7220
hone	-7221
▁बेचने	-7222
▁इत्यादि	-7223
शीलता	-7224
▁एनआरसी	-7225
▁परस्पर	-7226
▁फडणवीस	-7227
्यिकी	-7228
ET	-7229
बर्ट	-7230
आन	-7231
▁एव	-7232
▁कस	-7233
▁तलाक	-7234
तीत	-7235
▁इलेक्ट्रॉनिक	-7236
ड्रैगन	-7237
बड़ी	-7238
▁तस	-7239
▁जरूरतों	-7240
▁सलामी	-7241
कैया	-7242
▁निर्माताओं	-7243
▁लॉग	-7244
ष्‍ट्र	-7245
▁बहादुर	-7246
नैतिक	-7247
▁सीआरपीएफ	-7248
-5	-7249
▁कैंप	-7250
▁हेली	-7251
▁मज़बूत	-7252
▁जायेगी	-7253
छाड़	-7254
▁पैन	-7255
ेय	-7256
""""	-7257
च्‍च	-7258
▁डेन	-7259
▁हसन	-7260
अब	-7261
▁68	-7262
▁रूट	-7263
▁Galaxy	-7264
ST	-7265
▁आयर	-7266
ित्रा	-7267
▁अस्तित्व	-7268
्‍यम	-7269
▁विट	-7270
▁इजाफा	-7271
▁कृष्णा	-7272
▁e	-7273
▁जख	-7274
▁बैंड	-7275
▁लाना	-7276
▁परिणामों	-7277
ma	-7278
▁लिहाज	-7279
▁उद्देश्‍य	-7280
ंचित	-7281
▁रेस	-7282
ैम	-7283
▁सेकेंड	-7284
▁अख्तर	-7285
▁डेब्यू	-7286
ैव	-7287
▁59	-7288
▁आईडी	-7289
जनों	-7290
▁इंदौर	-7291
▁चौथा	-7292
▁आईसीआई	-7293
▁स्मारक	-7294
▁62	-7295
▁अनुप्र	-7296
▁क्यू	-7297
▁रोगी	-7298
▁नकारात्मक	-7299
▁विमानन	-7300
वाज	-7301
▁नाबालिग	-7302
▁स्टेशनों	-7303
▁दिनांक	-7304
धिकारियों	-7305
▁कुम	-7306
▁प्रसंस्करण	-7307
▁अंदाज	-7308
▁घु	-7309
▁कप्त	-7310
▁हमसे	-7311
▁बुराई	-7312
▁भंडारण	-7313
▁अंतर्राष्‍ट्रीय	-7314
गेट	-7315
मोरी	-7316
▁शिश	-7317
▁आवेद	-7318
▁पदार्थों	-7319
▁St	-7320
▁डिवा	-7321
▁(5	-7322
न्‍ना	-7323
▁उदार	-7324
▁पेशेवर	-7325
▁स्टोर	-7326
म्‍बर	-7327
▁साक्षात्कार	-7328
रार	-7329
▁125	-7330
▁संल	-7331
▁मजदूरों	-7332
▁खातों	-7333
▁ओम	-7334
स्ड	-7335
▁लगाना	-7336
▁लगेगा	-7337
पेक्ष	-7338
▁2005	-7339
▁नाश	-7340
▁लगते	-7341
▁प्रशांत	-7342
▁Y	-7343
▁मजा	-7344
▁हराकर	-7345
▁अफसर	-7346
▁स्पी	-7347
▁मैनेज	-7348
▁मेहता	-7349
डिया	-7350
▁कांस	-7351
▁मांगा	-7352
वनेश्वर	-7353
▁वितरित	-7354
चुअल	-7355
▁अजी	-7356
▁वाद	-7357
▁डेवल	-7358
▁2018-19	-7359
▁कलीसिया	-7360
ow	-7361
▁मछली	-7362
▁पर्यटक	-7363
▁छोड़ा	-7364
▁टेनिस	-7365
▁न्यूयॉर्क	-7366
▁बुरे	-7367
▁त्व	-7368
▁हिस्‍	-7369
▁73	-7370
▁गोग	-7371
▁मजिस्ट्रेट	-7372
▁उतना	-7373
▁दर्शाता	-7374
▁शांत	-7375
▁99	-7376
▁दिखाता	-7377
वाना	-7378
बहुत	-7379
▁हैंड	-7380
▁कू	-7381
ाजील	-7382
▁अर्पित	-7383
▁मतदाता	-7384
▁रेख	-7385
▁हवाला	-7386
▁फुटबॉल	-7387
▁तुझे	-7388
▁धारणा	-7389
▁मेघालय	-7390
▁जनजातीय	-7391
▁ग्रामीणों	-7392
ess	-7393
▁एयरटेल	-7394
ोरेंस	-7395
▁ग्रो	-7396
▁कानपुर	-7397
▁रखेंगे	-7398
कांग्रेस	-7399
▁कहेंगे	-7400
▁सोनी	-7401
▁अनुमानित	-7402
न्ध्र	-7403
▁शवों	-7404
▁इब्र	-7405
▁दिलों	-7406
ह्न	-7407
िफिकेशन	-7408
▁जीती	-7409
▁लापता	-7410
▁शेर	-7411
▁नाटक	-7412
▁ब्रह्म	-7413
▁पाइ	-7414
▁सदस्यता	-7415
ासा	-7416
▁चाय	-7417
▁हानि	-7418
▁ईश	-7419
▁धातु	-7420
यें	-7421
▁आश्च	-7422
वादियों	-7423
▁टेलीविजन	-7424
▁अश्विन	-7425
▁अधिसूचित	-7426
▁भूट	-7427
▁ख़ुद	-7428
▁हितधारकों	-7429
▁फसलों	-7430
▁अभियुक्त	-7431
▁ट्रैक	-7432
▁मास्क	-7433
▁विद्या	-7434
▁तोमर	-7435
▁पहुंचकर	-7436
र्जन	-7437
ंबा	-7438
ote	-7439
सरण	-7440
▁बृह	-7441
▁आईसीआईसीआई	-7442
आईएस	-7443
तावास	-7444
▁यहीं	-7445
▁लल	-7446
▁बाग़	-7447
▁सुधारों	-7448
▁लांच	-7449
पीठ	-7450
विर	-7451
▁चतु	-7452
▁जैक	-7453
▁साधन	-7454
डीओ	-7455
स्तरीय	-7456
▁कनेक्शन	-7457
▁दुर्भाग्य	-7458
ंतिम	-7459
पीपी	-7460
ालिम	-7461
▁संजीव	-7462
▁व्‍यापार	-7463
▁साइंस	-7464
▁उम्‍मी	-7465
पह	-7466
ुदाय	-7467
▁विलय	-7468
▁चावल	-7469
▁बहाल	-7470
▁अर्थात	-7471
▁प्रच	-7472
क्क	-7473
क्सीन	-7474
ामिन	-7475
▁लोगो	-7476
थल	-7477
▁उपयोगी	-7478
▁सफलतापूर्वक	-7479
पुरी	-7480
▁हथियारों	-7481
▁तार	-7482
▁भुवनेश्वर	-7483
किट	-7484
▁शांतिपूर्ण	-7485
▁कारा	-7486
▁मुकदम	-7487
▁आन्ध्र	-7488
▁टाइम्स	-7489
▁सचिवालय	-7490
बानी	-7491
▁चौथी	-7492
▁कथा	-7493
-21	-7494
▁स्नैपड्रैगन	-7495
▁मिजोरम	-7496
▁प्लास्टिक	-7497
▁प्रतिमा	-7498
▁सब्सिडी	-7499
▁मोटरसाइकिल	-7500
▁जिनसे	-7501
▁मतदाताओं	-7502
वाट	-7503
▁दलील	-7504
फ़ा	-7505
▁बीमारियों	-7506
-15	-7507
▁प्रत्‍	-7508
▁कन्न	-7509
▁नृत्य	-7510
▁रहमान	-7511
▁एनडीए	-7512
▁जेम्स	-7513
▁तलाशी	-7514
▁दूतावास	-7515
▁आर्मी	-7516
▁आडवाणी	-7517
▁हरे	-7518
ान्	-7519
ौदा	-7520
▁प्रीमियर	-7521
▁1.5	-7522
ओसी	-7523
ोजक	-7524
▁देवगन	-7525
▁युवकों	-7526
▁त्याग	-7527
▁शमी	-7528
▁गि	-7529
ूर्ण	-7530
▁आश्चर्य	-7531
पद	-7532
Ah	-7533
▁एबी	-7534
▁मसले	-7535
हि	-7536
▁राधा	-7537
▁फास्ट	-7538
▁अंतरिम	-7539
▁मीटिंग	-7540
यूवी	-7541
▁जादू	-7542
▁परिभाषित	-7543
चंद	-7544
▁सुर्	-7545
▁भंडार	-7546
▁सीमाओं	-7547
कांक्षा	-7548
▁धु	-7549
▁मानी	-7550
▁पुरूष	-7551
▁एग्जाम	-7552
वेस्ट	-7553
लेम	-7554
▁193	-7555
▁उम्‍मीद	-7556
▁मेक	-7557
ड्डी	-7558
▁बाबत	-7559
क्‍ता	-7560
▁डिस्क	-7561
▁हुड्डा	-7562
▁ऊँ	-7563
▁वेंकैया	-7564
▁हॉस्प	-7565
▁चैल	-7566
▁विनोद	-7567
थन	-7568
▁क़ुर	-7569
▁बनकर	-7570
▁वर्क	-7571
▁अलर्ट	-7572
):	-7573
▁तथापि	-7574
▁संवाददाता	-7575
▁हेल	-7576
टके	-7577
▁टाइप	-7578
▁सूरत	-7579
स्वतंत्र	-7580
▁विवादित	-7581
तू	-7582
▁सई	-7583
▁माफ	-7584
▁किरण	-7585
▁सहकारी	-7586
ुमराह	-7587
ुकेशन	-7588
▁दुश्म	-7589
िनल	-7590
▁रिहा	-7591
▁हेल्थ	-7592
▁डिप्टी	-7593
▁दशकों	-7594
av	-7595
▁क्ली	-7596
▁मासिक	-7597
विटी	-7598
▁पद्धति	-7599
▁%	-7600
▁अकबर	-7601
कल्पिक	-7602
▁मायने	-7603
बूल	-7604
िएट	-7605
▁झेल	-7606
मान्य	-7607
कर्मियों	-7608
▁रूसी	-7609
▁दुआ	-7610
▁उर्वरक	-7611
इए	-7612
▁श्रद्धाल	-7613
▁कक्ष	-7614
▁वर	-7615
बाह	-7616
▁दिश	-7617
▁कदमों	-7618
▁जूनियर	-7619
▁नोटबंदी	-7620
िवारिक	-7621
▁खाड़ी	-7622
▁पड़ती	-7623
▁दिव्या	-7624
▁ब्राजील	-7625
▁वैकल्पिक	-7626
▁रुक	-7627
▁सीरिया	-7628
▁उत्सव	-7629
2)	-7630
▁चिन्ह	-7631
बस	-7632
िश्न	-7633
▁मूर्ति	-7634
▁अधिवक्ता	-7635
▁पुलिसकर्मियों	-7636
▁समित	-7637
▁बेरोज	-7638
▁स्थलों	-7639
▁>	-7640
90	-7641
▁उछ	-7642
▁मानवीय	-7643
▁अनुसरण	-7644
▁लाई	-7645
▁लिखने	-7646
▁बढ़ाना	-7647
▁खुली	-7648
्‍च	-7649
▁	-7650
ा	-7651
क	-7652
र	-7653
े	-7654
्	-7655
ि	-7656
न	-7657
स	-7658
ी	-7659
ं	-7660
ह	-7661
म	-7662
त	-7663
ल	-7664
ो	-7665
य	-7666
प	-7667
व	-7668
द	-7669
ज	-7670
ब	-7671
ग	-7672
ै	-7673
ु	-7674
ए	-7675
ट	-7676
श	-7677
।	-7678
अ	-7679
च	-7680
भ	-7681
,	-7682
ड	-7683
ू	-7684
इ	-7685
ध	-7686
आ	-7687
थ	-7688
उ	-7689
औ	-7690
ख	-7691
ष	-7692
़	-7693
फ	-7694
ई	-7695
.	-7696
ण	-7697
0	-7698
1	-7699
2	-7700
ौ	-7701
-	-7702
छ	-7703
(	-7704
)	-7705
‍	-7706
ॉ	-7707
"	-7708
ओ	-7709
ठ	-7710
घ	-7711
ृ	-7712
5	-7713
3	-7714
9	-7715
ढ	-7716
4	-7717
झ	-7718
a	-7719
6	-7720
8	-7721
7	-7722
e	-7723
:	-7724
i	-7725
ऐ	-7726
ँ	-7727
'	-7728
‘	-7729
n	-7730
o	-7731
t	-7732
r	-7733
s	-7734
ऑ	-7735
?	-7736
’	-7737
l	-7738
ञ	-7739
d	-7740
ऊ	-7741
c	-7742
u	-7743
m	-7744
S	-7745
h	-7746
I	-7747
“	-7748
/	-7749
P	-7750
C	-7751
”	-7752
A	-7753
p	-7754
B	-7755
M	-7756
ः	-7757
g	-7758
R	-7759
T	-7760
G	-7761
y	-7762
E	-7763
N	-7764
v	-7765
D	-7766
!	-7767
१	-7768
%	-7769
b	-7770
\	-7771
w	-7772
f	-7773
k	-7774
O	-7775
०	-7776
L	-7777
ऋ	-7778
—	-7779
x	-7780
H	-7781
F	-7782
V	-7783
U	-7784
–	-7785
|	-7786
२	-7787
K	-7788
W	-7789
J	-7790
९	-7791
]	-7792
[	-7793
X	-7794
३	-7795
५	-7796
४	-7797
+	-7798
ॅ	-7799
j	-7800
८	-7801
६	-7802
७	-7803
z	-7804
#	-7805
&	-7806
_	-7807
ॆ	-7808
>	-7809
Y	-7810
Z	-7811
@	-7812
ऩ	-7813
ऱ	-7814
q	-7815
Q	-7816
॰	-7817
ï	-7818
ङ	-7819
$	-7820
;	-7821
=	-7822
}	-7823
*	-7824
{	-7825
×	-7826
»	-7827
ॊ	-7828
ا	-7829
□	-7830
ऍ	-7831
Ó	-7832
°	-7833
ऎ	-7834
ل	-7835
`	-7836
▪	-7837
م	-7838
ر	-7839
→	-7840
~	-7841
☻	-7842
€	-7843
₹	-7844
·	-7845
•	-7846
ن	-7847
॥	-7848
া	-7849
▫	-7850
ळ	-7851
॑	-7852
ي	-7853
ب	-7854
و	-7855
د	-7856
س	-7857
<	-7858
é	-7859
а	-7860
ی	-7861
μ	-7862
♪	-7863
α	-7864
£	-7865
ت	-7866
ة	-7867
ح	-7868
ল	-7869
্	-7870
É	-7871
ˈ	-7872
⁄	-7873
ॢ	-7874
ه	-7875
ع	-7876
ج	-7877
র	-7878
и	-7879
ি	-7880
о	-7881
ऽ	-7882
−	-7883
β	-7884
′	-7885
^	-7886
í	-7887
ব	-7888
р	-7889
н	-7890
ə	-7891
л	-7892
­	-7893
ف	-7894
◆	-7895
ق	-7896
►	-7897
ন	-7898
â	-7899
с	-7900
ā	-7901
е	-7902
்	-7903
॒	-7904
ك	-7905
ک	-7906
λ	-7907
к	-7908
জ	-7909
π	-7910
ش	-7911
§	-7912
ρ	-7913
á	-7914
σ	-7915
ে	-7916
ম	-7917
♫	-7918
ς	-7919
❑	-7920
ক	-7921
̈	-7922
в	-7923
ó	-7924
у	-7925
ː	-7926
ॐ	-7927
γ	-7928
า	-7929
¶	-7930
দ	-7931
ɪ	-7932
ν	-7933
ο	-7934
т	-7935
¡	-7936
ö	-7937
δ	-7938
ॄ	-7939
স	-7940
ü	-7941
ু	-7942
ز	-7943
	-7944
َ	-7945
♦	-7946
ι	-7947
ల	-7948
®	-7949
τ	-7950
్	-7951
à	-7952
ऌ	-7953
ী	-7954
Þ	-7955
ä	-7956
è	-7957
	-7958
«	-7959
য	-7960
	-7961
́	-7962
ہ	-7963
أ	-7964
©	-7965
ε	-7966
پ	-7967
গ	-7968
›	-7969
☺	-7970
Â	-7971
θ	-7972
ِ	-7973
น	-7974
ʹ	-7975
ص	-7976
ط	-7977
ా	-7978
്	-7979
φ	-7980
خ	-7981
ī	-7982
š	-7983
й	-7984
়	-7985
ి	-7986
ы	-7987
æ	-7988
ਾ	-7989
ñ	-7990
ç	-7991
κ	-7992
ত	-7993
হ	-7994
শ	-7995
க	-7996
ி	-7997
±	-7998
б	-7999
‐	-8000
প	-8001
گ	-8002
ு	-8003
м	-8004
я	-8005
Δ	-8006
п	-8007
ُ	-8008
ˌ	-8009
غ	-8010
த	-8011
ப	-8012
ர	-8013
ɛ	-8014
י	-8015
ى	-8016
ॠ	-8017
̃	-8018
آ	-8019
ō	-8020
η	-8021
ό	-8022
ь	-8023
ா	-8024
ย	-8025
ί	-8026
ω	-8027
ظ	-8028
г	-8029
д	-8030
چ	-8031
È	-8032
С	-8033
ા	-8034
་	-8035
‡	-8036
Ô	-8037
ਰ	-8038
ம	-8039
ర	-8040
ض	-8041
ـ	-8042
ট	-8043
อ	-8044
ú	-8045
Α	-8046
ά	-8047
ה	-8048
إ	-8049
ھ	-8050
ং	-8051
≥	-8052
ʊ	-8053
ו	-8054
ਸ	-8055
ง	-8056
ท	-8057
○	-8058
ŋ	-8059
Ω	-8060
ো	-8061
∆	-8062
ş	-8063
ئ	-8064
ऒ	-8065
॔	-8066
ட	-8067
ɑ	-8068
Θ	-8069
χ	-8070
ْ	-8071
ৰ	-8072
జ	-8073
ക	-8074
ē	-8075
υ	-8076
ّ	-8077
ٹ	-8078
ิ	-8079
ò	-8080
ɔ	-8081
ˊ	-8082
К	-8083
ר	-8084
ਿ	-8085
வ	-8086
ര	-8087
ต	-8088
ุ	-8089
่	-8090
■	-8091
★	-8092
ū	-8093
ذ	-8094
চ	-8095
ô	-8096
ţ	-8097
ʃ	-8098
Ο	-8099
ல	-8100
ห	-8101
်	-8102
ő	-8103
̋	-8104
ॣ	-8105
ன	-8106
ി	-8107
ช	-8108
ร	-8109
ᱟ	-8110
中	-8111
日	-8112
ù	-8113
ı	-8114
ɡ	-8115
ա	-8116
ל	-8117
ء	-8118
ভ	-8119
ર	-8120
క	-8121
√	-8122
国	-8123
本	-8124
ň	-8125
ή	-8126
ψ	-8127
ц	-8128
ড	-8129
ਜ	-8130
⁡	-8131
❍	-8132
ー	-8133
ɒ	-8134
Б	-8135
א	-8136
מ	-8137
ٱ	-8138
ধ	-8139
ਤ	-8140
మ	-8141
ు	-8142
ന	-8143
ാ	-8144
ා	-8145
ม	-8146
แ	-8147
း	-8148
‚	-8149
✔	-8150
¤	-8151
ì	-8152
ð	-8153
х	-8154
আ	-8155
ਬ	-8156
ਲ	-8157
ੀ	-8158
ત	-8159
న	-8160
వ	-8161
ನ	-8162
ಿ	-8163
್	-8164
ก	-8165
မ	-8166
西	-8167
	-8168
¬	-8169
Ö	-8170
ɐ	-8171
̇	-8172
έ	-8173
ώ	-8174
А	-8175
М	-8176
П	-8177
Т	-8178
ז	-8179
વ	-8180
ે	-8181
ழ	-8182
ం	-8183
గ	-8184
ರ	-8185
ല	-8186
ശ	-8187
เ	-8188
⦁	-8189
北	-8190
Ê	-8191
̧	-8192
Ν	-8193
з	-8194
ө	-8195
ֺ	-8196
਼	-8197
ી	-8198
ச	-8199
ప	-8200
්	-8201
⇒	-8202
￼	-8203
Ñ	-8204
ø	-8205
ζ	-8206
ث	-8207
ই	-8208
ঞ	-8209
ষ	-8210
ਪ	-8211
ു	-8212
ර	-8213
้	-8214
†	-8215
海	-8216
¥	-8217
Ü	-8218
å	-8219
Ÿ	-8220
Ч	-8221
ֹ	-8222
খ	-8223
ঙ	-8224
ਦ	-8225
ਹ	-8226
త	-8227
ద	-8228
ತ	-8229
ം	-8230
ട	-8231
പ	-8232
ང	-8233
ရ	-8234
ု	-8235
∞	-8236
≤	-8237
⏎	-8238
❤	-8239
南	-8240
️	-8241
ê	-8242
ł	-8243
ś	-8244
ʁ	-8245
ˇ	-8246
Р	-8247
ч	-8248
ն	-8249
ऴ	-8250
ঁ	-8251
থ	-8252
ਨ	-8253
જ	-8254
સ	-8255
ய	-8256
ಮ	-8257
ಾ	-8258
മ	-8259
യ	-8260
ข	-8261
พ	-8262
ล	-8263
ั	-8264
ํ	-8265
州	-8266
þ	-8267
ů	-8268
Ž	-8269
ɨ	-8270
ʌ	-8271
Κ	-8272
Σ	-8273
И	-8274
ш	-8275
פ	-8276
ٰ	-8277
ও	-8278
ੰ	-8279
ુ	-8280
્	-8281
ந	-8282
ை	-8283
డ	-8284
ಕ	-8285
ိ	-8286
ᆬ	-8287
ᱚ	-8288
ḥ	-8289
―	-8290
∑	-8291
●	-8292
字	-8293
	-8294
ë	-8295
÷	-8296
ą	-8297
Ĺ	-8298
ž	-8299
ʒ	-8300
Π	-8301
ж	-8302
ф	-8303
ի	-8304
ש	-8305
ڑ	-8306
ە	-8307
ਆ	-8308
ਕ	-8309
ਮ	-8310
ક	-8311
ન	-8312
ય	-8313
િ	-8314
ண	-8315
ள	-8316
ూ	-8317
ె	-8318
ು	-8319
വ	-8320
ක	-8321
ය	-8322
ල	-8323
ි	-8324
ค	-8325
ว	-8326
โ	-8327
ོ	-8328
က	-8329
្	-8330
ᱨ	-8331
ん	-8332
ン	-8333
人	-8334
動	-8335
國	-8336
子	-8337
山	-8338
拳	-8339
新	-8340
武	-8341
江	-8342
自	-8343
	-8344
🙏	-8345
Í	-8346
ć	-8347
đ	-8348
ě	-8349
Ş	-8350
Š	-8351
ɕ	-8352
ɹ	-8353
ɾ	-8354
̯	-8355
Г	-8356
У	-8357
Ф	-8358
э	-8359
ր	-8360
ְ	-8361
ד	-8362
ח	-8363
উ	-8364
ণ	-8365
ফ	-8366
ਅ	-8367
ੇ	-8368
દ	-8369
ோ	-8370
బ	-8371
స	-8372
ത	-8373
ള	-8374
ු	-8375
န	-8376
ာ	-8377
ồ	-8378
≈	-8379
❏	-8380
京	-8381
家	-8382
	-8383
¢	-8384
Ç	-8385
Û	-8386
ã	-8387
î	-8388
č	-8389
ĺ	-8390
Ň	-8391
ƒ	-8392
ǔ	-8393
Ε	-8394
ύ	-8395
Н	-8396
О	-8397
Х	-8398
ю	-8399
ե	-8400
ո	-8401
ָ	-8402
כ	-8403
נ	-8404
،	-8405
এ	-8406
ঠ	-8407
ਂ	-8408
ਖ	-8409
ਵ	-8410
੍	-8411
ੱ	-8412
ગ	-8413
મ	-8414
య	-8415
ೆ	-8416
േ	-8417
ග	-8418
ත	-8419
ම	-8420
ව	-8421
ด	-8422
บ	-8423
ག	-8424
ར	-8425
ြ	-8426
„	-8427
₱	-8428
←	-8429
∅	-8430
∈	-8431
∠	-8432
⋯	-8433
七	-8434
大	-8435
姫	-8436
市	-8437
成	-8438
東	-8439
社	-8440
	-8441
	-8442
	-8443
À	-8444
Ð	-8445
û	-8446
Ć	-8447
Ę	-8448
ɫ	-8449
Τ	-8450
ξ	-8451
қ	-8452
ב	-8453
ג	-8454
ں	-8455
ਗ	-8456
પ	-8457
લ	-8458
அ	-8459
ங	-8460
ే	-8461
ಂ	-8462
ಜ	-8463
ಟ	-8464
ಸ	-8465
ഷ	-8466
න	-8467
ད	-8468
ས	-8469
င	-8470
တ	-8471
ေ	-8472
္	-8473
ᱦ	-8474
ᱽ	-8475
ṭ	-8476
ẹ	-8477
ἀ	-8478
∂	-8479
☃	-8480
❖	-8481
カ	-8482
デ	-8483
会	-8484
华	-8485
和	-8486
夕	-8487
民	-8488
湖	-8489
漢	-8490
車	-8491
関	-8492
	-8493
	-8494
	-8495
Á	-8496
Æ	-8497
ư	-8498
ǎ	-8499
ǐ	-8500
ʼ	-8501
ʿ	-8502
͡	-8503
Β	-8504
Д	-8505
З	-8506
Я	-8507
і	-8508
Қ	-8509
Ө	-8510
հ	-8511
ן	-8512
ס	-8513
ؤ	-8514
ے	-8515
ঝ	-8516
ূ	-8517
ৱ	-8518
ੁ	-8519
ੂ	-8520
હ	-8521
ି	-8522
ற	-8523
ெ	-8524
ದ	-8525
ಳ	-8526
ർ	-8527
ප	-8528
ะ	-8529
ื	-8530
ู	-8531
མ	-8532
ུ	-8533
ပ	-8534
ျ	-8535
ᐅ	-8536
ត	-8537
រ	-8538
ា	-8539
ᱜ	-8540
ᱡ	-8541
ᴜ	-8542
ṣ	-8543
ῖ	-8544
‟	-8545
‪	-8546
⋆	-8547
◇	-8548
ⴰ	-8549
、	-8550
に	-8551
イ	-8552
ス	-8553
ッ	-8554
ト	-8555
レ	-8556
内	-8557
地	-8558
外	-8559
天	-8560
寺	-8561
島	-8562
年	-8563
式	-8564
手	-8565
株	-8566
水	-8567
秦	-8568
精	-8569
道	-8570
青	-8571
젓	-8572
	-8573
	-8574
	-8575
	-8576
Ã	-8577
Ø	-8578
ß	-8579
ý	-8580
Ā	-8581
ă	-8582
Đ	-8583
ř	-8584
ʔ	-8585
ʝ	-8586
ʻ	-8587
Γ	-8588
Λ	-8589
Μ	-8590
Л	-8591
ъ	-8592
ү	-8593
Ս	-8594
ւ	-8595
ּ	-8596
ׁ	-8597
ט	-8598
ם	-8599
ק	-8600
ً	-8601
॓	-8602
ॡ	-8603
ॽ	-8604
ঘ	-8605
ঢ	-8606
৳	-8607
ਡ	-8608
ਣ	-8609
ં	-8610
ડ	-8611
ભ	-8612
ା	-8613
உ	-8614
ீ	-8615
ூ	-8616
చ	-8617
ట	-8618
భ	-8619
ಗ	-8620
ಪ	-8621
ಬ	-8622
ಯ	-8623
ಲ	-8624
ീ	-8625
ද	-8626
ළ	-8627
ී	-8628
จ	-8629
ส	-8630
ี	-8631
ไ	-8632
ງ	-8633
ນ	-8634
ວ	-8635
ན	-8636
ལ	-8637
ེ	-8638
ྫ	-8639
ယ	-8640
သ	-8641
ှ	-8642
᠎	-8643
ᱛ	-8644
ᱥ	-8645
ᱱ	-8646
ᱵ	-8647
‹	-8648
↓	-8649
⇨	-8650
≠	-8651
⊙	-8652
▶	-8653
◌	-8654
の	-8655
り	-8656
サ	-8657
タ	-8658
ラ	-8659
ロ	-8660
三	-8661
代	-8662
共	-8663
县	-8664
司	-8665
安	-8666
川	-8667
府	-8668
度	-8669
方	-8670
星	-8671
木	-8672
李	-8673
林	-8674
河	-8675
洛	-8676
浦	-8677
清	-8678
田	-8679
織	-8680
羽	-8681
都	-8682
金	-8683
龍	-8684
자	-8685
전	-8686
	-8687
	-8688
	-8689
	-8690
🇮	-8691
👉	-8692
🚩	-8693
Å	-8694
Î	-8695
õ	-8696
ę	-8697
Ś	-8698
ơ	-8699
ǫ	-8700
ɦ	-8701
ɽ	-8702
ʀ	-8703
ʏ	-8704
ʜ	-8705
ʟ	-8706
ʾ	-8707
ˀ	-8708
̄	-8709
Ι	-8710
Υ	-8711
Χ	-8712
Ϸ	-8713
Э	-8714
ғ	-8715
Ա	-8716
զ	-8717
կ	-8718
յ	-8719
տ	-8720
ֵ	-8721
ַ	-8722
ע	-8723
ת	-8724
ٌ	-8725
ټ	-8726
ڈ	-8727
ډ	-8728
ڠ	-8729
ڭ	-8730
ۇ	-8731
۠	-8732
ঃ	-8733
অ	-8734
ৌ	-8735
ਉ	-8736
ਊ	-8737
ਚ	-8738
ਥ	-8739
ੜ	-8740
ણ	-8741
થ	-8742
બ	-8743
શ	-8744
ૃ	-8745
ો	-8746
ஷ	-8747
ே	-8748
ொ	-8749
ణ	-8750
హ	-8751
ొ	-8752
ಚ	-8753
ങ	-8754
ച	-8755
റ	-8756
സ	-8757
ൂ	-8758
െ	-8759
ං	-8760
ඩ	-8761
ස	-8762
ผ	-8763
ภ	-8764
์	-8765
ັ	-8766
ི	-8767
ྱ	-8768
ྲ	-8769
ခ	-8770
ည	-8771
ဘ	-8772
လ	-8773
ე	-8774
ᑦ	-8775
ᓄ	-8776
ᓇ	-8777
ᛀ	-8778
ទ	-8779
ប	-8780
ស	-8781
ᱤ	-8782
ᱷ	-8783
ᴀ	-8784
ᴏ	-8785
ṃ	-8786
Ṣ	-8787
ằ	-8788
ế	-8789
ờ	-8790
ἔ	-8791
‬	-8792
↔	-8793
∘	-8794
∙	-8795
➣	-8796
ⵉ	-8797
ⵏ	-8798
き	-8799
こ	-8800
さ	-8801
た	-8802
な	-8803
ま	-8804
ら	-8805
ア	-8806
ィ	-8807
キ	-8808
ジ	-8809
世	-8810
义	-8811
使	-8812
倭	-8813
分	-8814
力	-8815
台	-8816
唐	-8817
園	-8818
圓	-8819
太	-8820
定	-8821
寿	-8822
尔	-8823
巻	-8824
帝	-8825
德	-8826
族	-8827
明	-8828
月	-8829
検	-8830
楚	-8831
死	-8832
灣	-8833
画	-8834
畿	-8835
皇	-8836
神	-8837
祭	-8838
紫	-8839
能	-8840
華	-8841
表	-8842
解	-8843
試	-8844
近	-8845
阳	-8846
音	-8847
験	-8848
龙	-8849
강	-8850
	-8851
	-8852
	-8853
	-8854
	-8855
	-8856
	-8857
	-8858
	-8859
	-8860
	-8861
	-8862
🇳	-8863
Ò	-8864
Ú	-8865
ė	-8866
ğ	-8867
į	-8868
İ	-8869
ľ	-8870
Ō	-8871
Œ	-8872
ŕ	-8873
ũ	-8874
Ż	-8875
ż	-8876
Ɵ	-8877
ǒ	-8878
ɖ	-8879
ɯ	-8880
ɲ	-8881
ʈ	-8882
ʋ	-8883
ʎ	-8884
ʕ	-8885
˂	-8886
˧	-8887
̞	-8888
̨	-8889
̩	-8890
ͧ	-8891
Ρ	-8892
Φ	-8893
Ц	-8894
Ш	-8895
Ю	-8896
ў	-8897
Մ	-8898
թ	-8899
լ	-8900
ծ	-8901
ղ	-8902
ճ	-8903
շ	-8904
օ	-8905
ֶ	-8906
ڌ	-8907
ژ	-8908
ڙ	-8909
ښ	-8910
ګ	-8911
ێ	-8912
ܕ	-8913
ަ	-8914
ऺ	-8915
ॹ	-8916
ঈ	-8917
ছ	-8918
ৃ	-8919
ৈ	-8920
০	-8921
ਘ	-8922
ਟ	-8923
ੋ	-8924
છ	-8925
ળ	-8926
ନ	-8927
ପ	-8928
ର	-8929
ଳ	-8930
େ	-8931
୍	-8932
ஈ	-8933
ஸ	-8934
ఆ	-8935
ధ	-8936
శ	-8937
ష	-8938
ీ	-8939
ಅ	-8940
ವ	-8941
ಹ	-8942
ೀ	-8943
ജ	-8944
ദ	-8945
ധ	-8946
ൃ	-8947
ൈ	-8948
ോ	-8949
අ	-8950
ජ	-8951
ට	-8952
ණ	-8953
ශ	-8954
හ	-8955
ො	-8956
ฉ	-8957
ญ	-8958
ป	-8959
ศ	-8960
ษ	-8961
ฺ	-8962
฿	-8963
ใ	-8964
็	-8965
ຈ	-8966
ພ	-8967
ຫ	-8968
ູ	-8969
ຽ	-8970
ཏ	-8971
ཐ	-8972
ཕ	-8973
བ	-8974
ཞ	-8975
ཡ	-8976
ྐ	-8977
ဂ	-8978
စ	-8979
ဒ	-8980
ီ	-8981
ူ	-8982
့	-8983
ွ	-8984
ა	-8985
ი	-8986
რ	-8987
ს	-8988
ᓗ	-8989
ᕗ	-8990
ᖅ	-8991
គ	-8992
ន	-8993
យ	-8994
ល	-8995
ុ	-8996
េ	-8997
ᠴ	-8998
ᱠ	-8999
ᱩ	-9000
ᱫ	-9001
ᱮ	-9002
ᱯ	-9003
ᱴ	-9004
ᱹ	-9005
ᴇ	-9006
ᴋ	-9007
ḍ	-9008
ḭ	-9009
ḷ	-9010
ṛ	-9011
Ṭ	-9012
ả	-9013
ắ	-9014
ề	-9015
ệ	-9016
ἁ	-9017
ἄ	-9018
ὀ	-9019
Ὀ	-9020
ὼ	-9021
ᾶ	-9022
ῆ	-9023
ῦ	-9024
‰	-9025
₣	-9026
⇩	-9027
∝	-9028
∨	-9029
∪	-9030
≡	-9031
⋅	-9032
⌊	-9033
⌋	-9034
─	-9035
█	-9036
▸	-9037
☞	-9038
♥	-9039
⚡	-9040
➖	-9041
➡	-9042
➢	-9043
➤	-9044
⟩	-9045
ⵢ	-9046
う	-9047
ご	-9048
し	-9049
ち	-9050
っ	-9051
て	-9052
ほ	-9053
ぽ	-9054
み	-9055
ろ	-9056
ウ	-9057
エ	-9058
ク	-9059
シ	-9060
パ	-9061
ペ	-9062
ポ	-9063
ミ	-9064
メ	-9065
ュ	-9066
ヨ	-9067
ル	-9068
上	-9069
不	-9070
东	-9071
争	-9072
事	-9073
二	-9074
仏	-9075
体	-9076
保	-9077
信	-9078
光	-9079
党	-9080
公	-9081
兰	-9082
冊	-9083
功	-9084
十	-9085
印	-9086
口	-9087
合	-9088
名	-9089
城	-9090
基	-9091
士	-9092
女	-9093
孫	-9094
宁	-9095
小	-9096
少	-9097
幌	-9098
广	-9099
库	-9100
彭	-9101
慕	-9102
戦	-9103
所	-9104
才	-9105
扎	-9106
技	-9107
政	-9108
朝	-9109
札	-9110
機	-9111
正	-9112
步	-9113
殉	-9114
気	-9115
汉	-9116
泉	-9117
法	-9118
浜	-9119
港	-9120
渾	-9121
滕	-9122
滴	-9123
演	-9124
漫	-9125
澤	-9126
濃	-9127
率	-9128
王	-9129
珍	-9130
班	-9131
現	-9132
百	-9133
直	-9134
県	-9135
短	-9136
石	-9137
空	-9138
糸	-9139
經	-9140
総	-9141
羅	-9142
舞	-9143
航	-9144
色	-9145
蠡	-9146
術	-9147
記	-9148
証	-9149
語	-9150
諸	-9151
路	-9152
阿	-9153
隸	-9154
霞	-9155
马	-9156
骨	-9157
體	-9158
高	-9159
鬼	-9160
齊	-9161
남	-9162
대	-9163
삼	-9164
새	-9165
성	-9166
스	-9167
액	-9168
업	-9169
에	-9170
우	-9171
치	-9172
타	-9173
트	-9174
한	-9175
	-9176
	-9177
	-9178
	-9179
	-9180
	-9181
	-9182
	-9183
	-9184
	-9185
	-9186
	-9187
	-9188
	-9189
	-9190
	-9191
🏻	-9192
👍	-9193
💋	-9194
💐	-9195
😂	-9196
🙂	-9197
🤭	-9198
¿	-9199
Ä	-9200
Ï	-9201
Ē	-9202
Ė	-9203
Ě	-9204
ĝ	-9205
ħ	-9206
ĩ	-9207
ĸ	-9208
Ł	-9209
œ	-9210
ŷ	-9211
Ź	-9212
Ǥ	-9213
Ǻ	-9214
ɜ	-9215
ɢ	-9216
ɴ	-9217
ɵ	-9218
ʂ	-9219
ˆ	-9220
̀	-9221
̊	-9222
̮	-9223
Η	-9224
Ѕ	-9225
І	-9226
В	-9227
Ж	-9228
щ	-9229
ё	-9230
ң	-9231
ӣ	-9232
ӯ	-9233
Գ	-9234
Ե	-9235
Հ	-9236
Յ	-9237
Վ	-9238
բ	-9239
գ	-9240
դ	-9241
է	-9242
մ	-9243
ռ	-9244
ս	-9245
վ	-9246
ց	-9247
֦	-9248
ִ	-9249
׃	-9250
צ	-9251
ٺ	-9252
ٽ	-9253
ڀ	-9254
ڪ	-9255
ڬ	-9256
ۂ	-9257
ۃ	-9258
ۍ	-9259
ې	-9260
۱	-9261
۹	-9262
ܐ	-9263
ܝ	-9264
ܢ	-9265
ܩ	-9266
ܪ	-9267
ހ	-9268
މ	-9269
ލ	-9270
ް	-9271
ࠀ	-9272
ॱ	-9273
ॲ	-9274
ঔ	-9275
ৎ	-9276
২	-9277
৮	-9278
৯	-9279
৹	-9280
ਝ	-9281
ਠ	-9282
ਯ	-9283
ੌ	-9284
੦	-9285
੯	-9286
ઃ	-9287
અ	-9288
આ	-9289
ઈ	-9290
એ	-9291
ખ	-9292
ઝ	-9293
ટ	-9294
ઠ	-9295
ધ	-9296
ફ	-9297
ષ	-9298
ૂ	-9299
ଉ	-9300
କ	-9301
ଖ	-9302
ଗ	-9303
ଛ	-9304
ଝ	-9305
ଡ	-9306
ଦ	-9307
ଧ	-9308
ଲ	-9309
଼	-9310
இ	-9311
ஏ	-9312
ஒ	-9313
ஜ	-9314
ஶ	-9315
ஹ	-9316
ః	-9317
ఇ	-9318
ఉ	-9319
ఊ	-9320
ఖ	-9321
ై	-9322
ో	-9323
౹	-9324
౺	-9325
౻	-9326
౼	-9327
౽	-9328
౾	-9329
ಉ	-9330
ಡ	-9331
ಥ	-9332
ಭ	-9333
ೂ	-9334
ೇ	-9335
ೈ	-9336
ೋ	-9337
ആ	-9338
ഉ	-9339
ഗ	-9340
ണ	-9341
ഥ	-9342
ബ	-9343
ഴ	-9344
ഹ	-9345
ൻ	-9346
ධ	-9347
භ	-9348
ෑ	-9349
ූ	-9350
ณ	-9351
ถ	-9352
ธ	-9353
๥	-9354
ຄ	-9355
ຍ	-9356
ບ	-9357
ລ	-9358
ອ	-9359
ະ	-9360
ຼ	-9361
ເ	-9362
້	-9363
།	-9364
ཁ	-9365
ཆ	-9366
པ	-9367
ཚ	-9368
འ	-9369
ཤ	-9370
ཧ	-9371
ྔ	-9372
ྡ	-9373
ྤ	-9374
ྩ	-9375
ྭ	-9376
ဏ	-9377
ထ	-9378
ဖ	-9379
ဠ	-9380
အ	-9381
ါ	-9382
ဲ	-9383
დ	-9384
ვ	-9385
ზ	-9386
თ	-9387
ლ	-9388
ნ	-9389
ო	-9390
პ	-9391
ტ	-9392
ქ	-9393
ᅳ	-9394
ላ	-9395
ሐ	-9396
ሪ	-9397
ቅ	-9398
ታ	-9399
ና	-9400
ይ	-9401
ጣ	-9402
ᐃ	-9403
ᐊ	-9404
ᑖ	-9405
ᑭ	-9406
ᒃ	-9407
ᒡ	-9408
ᓯ	-9409
ᕿ	-9410
ក	-9411
ខ	-9412
ឃ	-9413
ង	-9414
ច	-9415
ជ	-9416
ព	-9417
ម	-9418
វ	-9419
អ	-9420
ៃ	-9421
ោ	-9422
ះ	-9423
័	-9424
ᠠ	-9425
ᠨ	-9426
ᠩ	-9427
ᡠ	-9428
ᨯ	-9429
ᱞ	-9430
ᱪ	-9431
ᱭ	-9432
ᱶ	-9433
ᱸ	-9434
ᴄ	-9435
ᴊ	-9436
ᴘ	-9437
ᴠ	-9438
ᷫ	-9439
Ḥ	-9440
ṟ	-9441
ṯ	-9442
ạ	-9443
ẵ	-9444
Ọ	-9445
ọ	-9446
ố	-9447
ộ	-9448
ớ	-9449
ừ	-9450
ỳ	-9451
ỹ	-9452
ἐ	-9453
Ἔ	-9454
ἢ	-9455
Ἢ	-9456
ἰ	-9457
ἴ	-9458
ἵ	-9459
Ἵ	-9460
ὅ	-9461
ὑ	-9462
ὰ	-9463
ὴ	-9464
ὶ	-9465
ᾱ	-9466
‒	-9467
‱	-9468
‵	-9469
₩	-9470
₮	-9471
⃗	-9472
↲	-9473
⇔	-9474
∇	-9475
∕	-9476
≫	-9477
⊂	-9478
⊆	-9479
⊕	-9480
⊖	-9481
⏺	-9482
☀	-9483
☆	-9484
☬	-9485
♎	-9486
♯	-9487
⚜	-9488
⚥	-9489
⚧	-9490
✌	-9491
✍	-9492
✲	-9493
✵	-9494
❣	-9495
➎	-9496
➧	-9497
➾	-9498
⟨	-9499
⠀	-9500
⭐	-9501
ⱳ	-9502
ⴱ	-9503
ⴹ	-9504
ⴼ	-9505
ⵇ	-9506
ⵍ	-9507
ⵎ	-9508
ⵔ	-9509
ⵕ	-9510
ⵡ	-9511
》	-9512
い	-9513
お	-9514
が	-9515
ぎ	-9516
く	-9517
せ	-9518
で	-9519
ど	-9520
は	-9521
ば	-9522
ひ	-9523
び	-9524
や	-9525
わ	-9526
ェ	-9527
ケ	-9528
コ	-9529
ゴ	-9530
セ	-9531
ゼ	-9532
ソ	-9533
ダ	-9534
チ	-9535
ド	-9536
ナ	-9537
ノ	-9538
ハ	-9539
ビ	-9540
プ	-9541
ボ	-9542
ム	-9543
モ	-9544
ャ	-9545
リ	-9546
ヶ	-9547
一	-9548
为	-9549
主	-9550
乌	-9551
乐	-9552
乗	-9553
九	-9554
乞	-9555
云	-9556
亭	-9557
什	-9558
仙	-9559
佐	-9560
何	-9561
侠	-9562
備	-9563
傲	-9564
働	-9565
儒	-9566
儲	-9567
元	-9568
克	-9569
內	-9570
关	-9571
兵	-9572
典	-9573
凰	-9574
切	-9575
券	-9576
創	-9577
加	-9578
包	-9579
匯	-9580
区	-9581
區	-9582
千	-9583
卐	-9584
原	-9585
厳	-9586
叉	-9587
发	-9588
取	-9589
叶	-9590
含	-9591
周	-9592
品	-9593
哈	-9594
喜	-9595
器	-9596
囊	-9597
四	-9598
回	-9599
土	-9600
圧	-9601
坂	-9602
坡	-9603
垣	-9604
域	-9605
場	-9606
塔	-9607
增	-9608
墨	-9609
壮	-9610
壹	-9611
夏	-9612
多	-9613
夜	-9614
央	-9615
失	-9616
套	-9617
奠	-9618
妞	-9619
始	-9620
宋	-9621
宗	-9622
实	-9623
宮	-9624
密	-9625
富	-9626
寒	-9627
屏	-9628
岗	-9629
岛	-9630
岡	-9631
工	-9632
巧	-9633
常	-9634
干	-9635
幼	-9636
庄	-9637
庙	-9638
庭	-9639
康	-9640
开	-9641
弁	-9642
引	-9643
後	-9644
微	-9645
心	-9646
忠	-9647
快	-9648
怡	-9649
性	-9650
恭	-9651
慧	-9652
战	-9653
戰	-9654
户	-9655
拉	-9656
持	-9657
指	-9658
捨	-9659
放	-9660
文	-9661
旗	-9662
无	-9663
旭	-9664
时	-9665
昆	-9666
春	-9667
普	-9668
智	-9669
曲	-9670
更	-9671
杏	-9672
材	-9673
杭	-9674
极	-9675
桂	-9676
桜	-9677
械	-9678
棚	-9679
業	-9680
楼	-9681
横	-9682
樺	-9683
殿	-9684
毒	-9685
比	-9686
毫	-9687
池	-9688
沈	-9689
治	-9690
泰	-9691
洋	-9692
洞	-9693
派	-9694
浄	-9695
浅	-9696
浪	-9697
浮	-9698
液	-9699
淑	-9700
淡	-9701
済	-9702
渓	-9703
湘	-9704
滨	-9705
潭	-9706
灯	-9707
為	-9708
焉	-9709
無	-9710
熱	-9711
爱	-9712
牙	-9713
物	-9714
特	-9715
玉	-9716
球	-9717
理	-9718
琉	-9719
琛	-9720
瑜	-9721
生	-9722
産	-9723
用	-9724
由	-9725
疆	-9726
病	-9727
症	-9728
皮	-9729
盆	-9730
相	-9731
省	-9732
真	-9733
瞳	-9734
知	-9735
磁	-9736
示	-9737
祝	-9738
祿	-9739
禁	-9740
福	-9741
秋	-9742
科	-9743
秒	-9744
稚	-9745
稲	-9746
立	-9747
章	-9748
竹	-9749
筑	-9750
箱	-9751
節	-9752
篪	-9753
簾	-9754
籠	-9755
米	-9756
紀	-9757
経	-9758
統	-9759
維	-9760
網	-9761
縣	-9762
约	-9763
纪	-9764
纳	-9765
线	-9766
组	-9767
经	-9768
绿	-9769
网	-9770
罗	-9771
羊	-9772
美	-9773
耆	-9774
聚	-9775
股	-9776
育	-9777
胖	-9778
腺	-9779
膏	-9780
臣	-9781
船	-9782
良	-9783
苔	-9784
范	-9785
草	-9786
荷	-9787
莊	-9788
菠	-9789
菩	-9790
菱	-9791
营	-9792
萨	-9793
葛	-9794
葬	-9795
蒙	-9796
蒲	-9797
薩	-9798
薫	-9799
藤	-9800
蘇	-9801
蘭	-9802
蘿	-9803
蛛	-9804
蜇	-9805
蜘	-9806
血	-9807
行	-9808
裁	-9809
裂	-9810
製	-9811
角	-9812
話	-9813
読	-9814
調	-9815
謝	-9816
论	-9817
话	-9818
说	-9819
谱	-9820
谷	-9821
豊	-9822
財	-9823
财	-9824
赛	-9825
走	-9826
越	-9827
踊	-9828
身	-9829
运	-9830
迦	-9831
送	-9832
逆	-9833
逸	-9834
遊	-9835
遠	-9836
邏	-9837
邑	-9838
邮	-9839
郎	-9840
郑	-9841
鄂	-9842
鄰	-9843
里	-9844
釦	-9845
鈕	-9846
鈴	-9847
銀	-9848
銅	-9849
錢	-9850
鎮	-9851
钦	-9852
钱	-9853
铜	-9854
银	-9855
镇	-9856
長	-9857
长	-9858
門	-9859
開	-9860
間	-9861
閣	-9862
關	-9863
间	-9864
阎	-9865
陕	-9866
陰	-9867
陳	-9868
陽	-9869
隋	-9870
雄	-9871
集	-9872
雨	-9873
雪	-9874
零	-9875
電	-9876
震	-9877
露	-9878
静	-9879
韩	-9880
韶	-9881
頁	-9882
順	-9883
顔	-9884
项	-9885
顺	-9886
食	-9887
館	-9888
馆	-9889
首	-9890
馬	-9891
駐	-9892
驻	-9893
骄	-9894
骑	-9895
魯	-9896
鮫	-9897
鲁	-9898
鳥	-9899
鳳	-9900
鸭	-9901
黃	-9902
黑	-9903
ꆈ	-9904
ꌠ	-9905
꫰	-9906
갓	-9907
개	-9908
계	-9909
공	-9910
과	-9911
관	-9912
광	-9913
국	-9914
김	-9915
동	-9916
록	-9917
리	-9918
만	-9919
멸	-9920
명	-9921
모	-9922
민	-9923
반	-9924
백	-9925
사	-9926
실	-9927
압	-9928
양	-9929
왕	-9930
원	-9931
은	-9932
의	-9933
일	-9934
장	-9935
절	-9936
정	-9937
제	-9938
차	-9939
찬	-9940
평	-9941
풀	-9942
풍	-9943
핵	-9944
행	-9945
험	-9946
현	-9947
화	-9948
휴	-9949
	-9950
	-9951
	-9952
	-9953
	-9954
	-9955
	-9956
	-9957
	-9958
	-9959
	-9960
	-9961
	-9962
	-9963
	-9964
	-9965
	-9966
	-9967
	-9968
	-9969
	-9970
	-9971
	-9972
	-9973
	-9974
	-9975
	-9976
	-9977
	-9978
	-9979
	-9980
	-9981
	-9982
	-9983
￸	-9984
𐡃	-9985
𐡅	-9986
𐡌	-9987
𐡓	-9988
𐡕	-9989
𒂍	-9990
𒅍	-9991
𒅎	-9992
𒋼	-9993
🇱	-9994
🌰	-9995
🌵	-9996
