<unk>	0
<s>	0
</s>	0
▁t	-0
he	-1
▁a	-2
in	-3
re	-4
▁the	-5
on	-6
er	-7
nd	-8
▁s	-9
at	-10
▁o	-11
is	-12
▁w	-13
en	-14
▁c	-15
ed	-16
an	-17
or	-18
ar	-19
it	-20
es	-21
▁p	-22
▁f	-23
▁of	-24
▁b	-25
▁in	-26
al	-27
ing	-28
as	-29
▁to	-30
▁and	-31
▁h	-32
ou	-33
ion	-34
ic	-35
▁d	-36
▁m	-37
il	-38
▁S	-39
ent	-40
▁T	-41
ro	-42
le	-43
▁A	-44
▁I	-45
▁th	-46
id	-47
▁M	-48
▁re	-49
▁be	-50
ve	-51
ct	-52
▁C	-53
st	-54
ad	-55
▁n	-56
om	-57
▁P	-58
▁is	-59
▁e	-60
▁l	-61
▁The	-62
am	-63
ur	-64
▁g	-65
▁for	-66
ation	-67
ol	-68
ay	-69
ot	-70
▁B	-71
▁on	-72
ver	-73
ter	-74
im	-75
ir	-76
▁R	-77
el	-78
et	-79
ut	-80
ce	-81
▁H	-82
ill	-83
▁st	-84
▁D	-85
ra	-86
us	-87
ly	-88
ment	-89
ig	-90
ch	-91
▁al	-92
ow	-93
▁he	-94
▁that	-95
▁N	-96
ak	-97
""	-98
▁G	-99
ith	-100
res	-101
▁K	-102
ri	-103
ul	-104
ist	-105
od	-106
▁wh	-107
un	-108
▁Ind	-109
ia	-110
and	-111
ers	-112
▁with	-113
▁as	-114
▁1	-115
▁y	-116
▁has	-117
▁con	-118
▁was	-119
▁pro	-120
▁de	-121
ate	-122
▁an	-123
▁ha	-124
hi	-125
▁W	-126
os	-127
ere	-128
▁2	-129
▁are	-130
▁(	-131
▁at	-132
est	-133
▁it	-134
her	-135
th	-136
ab	-137
▁by	-138
▁sa	-139
▁will	-140
▁se	-141
op	-142
ld	-143
▁J	-144
ag	-145
ain	-146
our	-147
▁have	-148
▁v	-149
art	-150
um	-151
▁com	-152
pp	-153
rom	-154
if	-155
▁F	-156
▁said	-157
ice	-158
▁from	-159
▁not	-160
ort	-161
ies	-162
ity	-163
nt	-164
▁L	-165
em	-166
ess	-167
ha	-168
so	-169
ac	-170
▁ex	-171
▁su	-172
▁India	-173
pe	-174
ud	-175
▁E	-176
▁this	-177
iv	-178
▁u	-179
ant	-180
ht	-181
▁ne	-182
▁r	-183
ive	-184
▁O	-185
▁U	-186
ction	-187
▁or	-188
se	-189
ore	-190
ong	-191
ister	-192
qu	-193
ial	-194
har	-195
▁also	-196
ure	-197
▁been	-198
▁le	-199
▁Min	-200
▁go	-201
ard	-202
cc	-203
▁you	-204
▁his	-205
ust	-206
ry	-207
▁k	-208
all	-209
▁sh	-210
▁In	-211
ould	-212
▁20	-213
ian	-214
oc	-215
▁He	-216
han	-217
ress	-218
ther	-219
▁were	-220
▁wor	-221
are	-222
▁pol	-223
ap	-224
ated	-225
vern	-226
▁ag	-227
▁all	-228
ast	-229
▁we	-230
▁inc	-231
▁Th	-232
▁V	-233
ric	-234
ident	-235
ary	-236
ime	-237
ef	-238
▁Minister	-239
▁pl	-240
ok	-241
▁""	-242
ep	-243
ge	-244
ire	-245
▁had	-246
ous	-247
ff	-248
ich	-249
▁their	-250
00	-251
▁per	-252
ight	-253
▁res	-254
vernment	-255
rou	-256
ind	-257
ount	-258
▁Ra	-259
ost	-260
ome	-261
▁ad	-262
ase	-263
▁j	-264
ear	-265
▁Pr	-266
▁comp	-267
nder	-268
▁which	-269
li	-270
▁me	-271
▁ab	-272
▁who	-273
age	-274
te	-275
▁part	-276
one	-277
port	-278
▁off	-279
ik	-280
ew	-281
▁pe	-282
▁Ch	-283
▁can	-284
av	-285
▁they	-286
▁im	-287
ber	-288
▁St	-289
out	-290
ru	-291
▁them	-292
ell	-293
ide	-294
▁3	-295
ect	-296
▁do	-297
ult	-298
ations	-299
▁up	-300
ah	-301
▁It	-302
ople	-303
orm	-304
wo	-305
du	-306
ence	-307
▁en	-308
ord	-309
og	-310
fter	-311
▁us	-312
▁acc	-313
▁whe	-314
▁Y	-315
ans	-316
ition	-317
."	-318
▁un	-319
▁app	-320
▁dis	-321
ance	-322
vel	-323
▁other	-324
ue	-325
ake	-326
ical	-327
pt	-328
ctor	-329
ile	-330
▁Indian	-331
▁Al	-332
▁under	-333
pl	-334
▁int	-335
▁cont	-336
per	-337
▁Sing	-338
ov	-339
▁man	-340
▁people	-341
▁Rs	-342
gh	-343
▁its	-344
▁-	-345
ach	-346
▁again	-347
ine	-348
▁out	-349
very	-350
ays	-351
ational	-352
▁201	-353
▁reg	-354
▁sp	-355
▁Singh	-356
▁police	-357
hed	-358
ank	-359
▁ar	-360
ish	-361
ose	-362
ree	-363
▁one	-364
ack	-365
ates	-366
ail	-367
▁over	-368
▁te	-369
ame	-370
▁As	-371
▁cl	-372
▁Sh	-373
ign	-374
▁government	-375
▁This	-376
▁count	-377
ass	-378
ath	-379
able	-380
iz	-381
ub	-382
ions	-383
▁sc	-384
mit	-385
ade	-386
▁am	-387
▁so	-388
red	-389
ace	-390
day	-391
ang	-392
▁there	-393
▁state	-394
▁against	-395
▁ch	-396
esh	-397
▁We	-398
▁5	-399
▁rec	-400
▁"	-401
ater	-402
▁but	-403
▁two	-404
JP	-405
ens	-406
▁work	-407
▁fir	-408
form	-409
▁fil	-410
hief	-411
▁tr	-412
▁4	-413
▁pres	-414
me	-415
▁any	-416
▁after	-417
ib	-418
▁Go	-419
▁Del	-420
▁year	-421
▁about	-422
▁him	-423
erv	-424
▁new	-425
ious	-426
▁BJP	-427
ted	-428
▁would	-429
con	-430
▁Delhi	-431
ered	-432
▁Mod	-433
▁no	-434
▁qu	-435
ourt	-436
aw	-437
uring	-438
now	-439
ip	-440
iss	-441
ash	-442
▁"""	-443
old	-444
we	-445
ings	-446
▁ev	-447
▁dec	-448
▁her	-449
▁Un	-450
▁cent	-451
▁ro	-452
ever	-453
oin	-454
▁case	-455
ities	-456
▁first	-457
▁lead	-458
▁inv	-459
ove	-460
▁our	-461
erson	-462
lic	-463
ket	-464
▁'	-465
lud	-466
▁Com	-467
▁Wh	-468
▁Modi	-469
▁time	-470
mer	-471
ual	-472
ces	-473
▁min	-474
igh	-475
▁Cong	-476
▁your	-477
cted	-478
▁De	-479
ild	-480
▁All	-481
▁pre	-482
tern	-483
rit	-484
▁Congress	-485
▁spe	-486
),	-487
aj	-488
▁Raj	-489
▁And	-490
oy	-491
▁offic	-492
▁bet	-493
ob	-494
▁Se	-495
▁country	-496
ced	-497
ents	-498
▁ra	-499
ook	-500
▁film	-501
▁prov	-502
oll	-503
▁includ	-504
▁cro	-505
velop	-506
ital	-507
istan	-508
▁pr	-509
▁lik	-510
ied	-511
▁An	-512
reat	-513
ased	-514
man	-515
ise	-516
▁6	-517
▁should	-518
▁dist	-519
▁more	-520
▁add	-521
ite	-522
▁being	-523
▁ind	-524
oun	-525
cial	-526
ren	-527
▁bec	-528
ely	-529
rict	-530
hip	-531
stit	-532
ward	-533
ory	-534
ged	-535
vers	-536
ram	-537
amil	-538
aus	-539
▁know	-540
▁tak	-541
ks	-542
20	-543
tain	-544
▁19	-545
ai	-546
▁Ar	-547
▁when	-548
act	-549
ject	-550
▁Su	-551
▁into	-552
▁rel	-553
ie	-554
ple	-555
ndra	-556
▁tra	-557
▁person	-558
ife	-559
▁Pak	-560
▁made	-561
ya	-562
▁ele	-563
▁Prime	-564
▁mar	-565
ood	-566
▁such	-567
▁On	-568
ments	-569
▁Pol	-570
emb	-571
cy	-572
oth	-573
▁rem	-574
▁mat	-575
rib	-576
ound	-577
▁these	-578
ma	-579
ral	-580
arn	-581
▁med	-582
▁what	-583
▁iss	-584
eng	-585
ution	-586
▁some	-587
▁Man	-588
▁comm	-589
urn	-590
▁cons	-591
▁How	-592
▁ac	-593
▁my	-594
▁co	-595
▁But	-596
▁Pakistan	-597
▁only	-598
adesh	-599
▁act	-600
▁att	-601
der	-602
▁ass	-603
ating	-604
▁during	-605
oh	-606
▁7	-607
own	-608
ci	-609
hen	-610
ons	-611
▁10	-612
ana	-613
▁meet	-614
▁get	-615
ission	-616
ower	-617
▁There	-618
▁Chief	-619
▁Shri	-620
eral	-621
resident	-622
ween	-623
med	-624
ctions	-625
fere	-626
rough	-627
▁if	-628
▁ter	-629
▁Government	-630
ict	-631
▁God	-632
▁report	-633
▁between	-634
▁ph	-635
fore	-636
▁Re	-637
▁fe	-638
ision	-639
▁like	-640
led	-641
▁need	-642
▁stud	-643
akh	-644
▁Police	-645
▁than	-646
used	-647
▁supp	-648
gan	-649
▁invest	-650
ting	-651
ised	-652
▁They	-653
▁sub	-654
▁three	-655
ck	-656
▁8	-657
▁play	-658
ug	-659
▁through	-660
les	-661
end	-662
▁President	-663
▁Pro	-664
▁New	-665
▁those	-666
▁far	-667
elf	-668
row	-669
way	-670
▁while	-671
▁ent	-672
ited	-673
alth	-674
ors	-675
▁then	-676
ific	-677
ures	-678
ally	-679
▁develop	-680
istry	-681
▁State	-682
▁day	-683
ful	-684
ured	-685
ont	-686
▁mon	-687
ause	-688
ret	-689
▁Ad	-690
umb	-691
▁very	-692
ats	-693
ax	-694
als	-695
▁present	-696
ved	-697
▁world	-698
▁she	-699
ked	-700
ata	-701
▁giv	-702
ases	-703
▁em	-704
ph	-705
olog	-706
▁crore	-707
▁wom	-708
get	-709
ars	-710
cess	-711
▁district	-712
eh	-713
▁pos	-714
▁bl	-715
▁did	-716
▁cap	-717
▁produ	-718
▁official	-719
umar	-720
▁fl	-721
▁serv	-722
▁last	-723
ness	-724
▁fin	-725
▁imp	-726
osp	-727
ublic	-728
▁dire	-729
vi	-730
-1	-731
▁Pradesh	-732
000	-733
round	-734
▁set	-735
arli	-736
▁how	-737
pect	-738
▁sec	-739
ters	-740
ollow	-741
▁hel	-742
▁Khan	-743
..	-744
other	-745
▁where	-746
ix	-747
oor	-748
▁Ma	-749
▁take	-750
▁famil	-751
hes	-752
▁inform	-753
ative	-754
▁So	-755
ati	-756
ts	-757
ible	-758
"""	-759
▁well	-760
▁here	-761
▁today	-762
▁En	-763
▁call	-764
▁dif	-765
▁may	-766
▁good	-767
▁start	-768
arendra	-769
und	-770
▁Court	-771
▁exam	-772
▁minister	-773
ility	-774
ues	-775
▁Gand	-776
,""	-777
▁Kumar	-778
amp	-779
▁accused	-780
▁Bh	-781
▁years	-782
▁every	-783
▁court	-784
▁soc	-785
▁Narendra	-786
ran	-787
wn	-788
▁say	-789
▁taken	-790
▁eff	-791
▁Cent	-792
▁many	-793
▁see	-794
ices	-795
▁Allah	-796
▁For	-797
▁loc	-798
uth	-799
ody	-800
▁9	-801
rest	-802
up	-803
ss	-804
▁la	-805
ink	-806
air	-807
▁dem	-808
ble	-809
▁12	-810
ven	-811
ospital	-812
▁chan	-813
xt	-814
▁Comm	-815
▁exp	-816
▁help	-817
ries	-818
ft	-819
▁num	-820
ool	-821
▁team	-822
ural	-823
uk	-824
▁inj	-825
▁sy	-826
▁var	-827
▁child	-828
min	-829
ants	-830
).	-831
ared	-832
▁trans	-833
▁des	-834
cond	-835
▁before	-836
▁ann	-837
eep	-838
▁post	-839
ey	-840
▁US	-841
▁party	-842
▁Shar	-843
ided	-844
▁She	-845
▁ser	-846
ism	-847
▁Gandhi	-848
▁Gu	-849
tend	-850
▁Ministry	-851
▁incident	-852
▁You	-853
▁National	-854
▁right	-855
ning	-856
▁could	-857
▁Sha	-858
▁shall	-859
▁&	-860
▁life	-861
ond	-862
▁Ex	-863
its	-864
The	-865
▁just	-866
cer	-867
ives	-868
ather	-869
▁vis	-870
▁vi	-871
▁follow	-872
ular	-873
ty	-874
▁make	-875
▁rep	-876
▁number	-877
▁Act	-878
aking	-879
▁cur	-880
uss	-881
chn	-882
rol	-883
▁Union	-884
▁ob	-885
▁Is	-886
▁occ	-887
▁av	-888
ms	-889
▁def	-890
▁col	-891
,000	-892
ght	-893
▁high	-894
▁However	-895
▁arrest	-896
conom	-897
▁sm	-898
▁chief	-899
▁Mar	-900
▁cor	-901
▁happ	-902
▁hand	-903
▁meeting	-904
▁regist	-905
▁including	-906
▁Pun	-907
▁lakh	-908
▁four	-909
mir	-910
▁come	-911
▁car	-912
ivers	-913
▁sha	-914
▁disc	-915
kar	-916
▁pass	-917
."""	-918
ember	-919
▁incre	-920
uc	-921
ouse	-922
▁back	-923
▁even	-924
▁family	-925
read	-926
▁most	-927
ics	-928
▁Ram	-929
▁Sec	-930
▁compan	-931
ines	-932
▁prog	-933
att	-934
▁import	-935
▁PM	-936
cept	-937
▁law	-938
▁month	-939
▁rele	-940
▁char	-941
eneral	-942
▁op	-943
▁Tr	-944
▁given	-945
ave	-946
▁bu	-947
▁sit	-948
riv	-949
stem	-950
pur	-951
rent	-952
▁both	-953
▁down	-954
▁support	-955
▁br	-956
▁cases	-957
ute	-958
▁inter	-959
ior	-960
▁result	-961
ists	-962
▁Am	-963
ides	-964
amm	-965
com	-966
ee	-967
▁15	-968
▁inf	-969
▁ret	-970
▁Sab	-971
▁fac	-972
▁among	-973
▁Kash	-974
▁kill	-975
▁run	-976
▁What	-977
ording	-978
▁Kap	-979
▁appro	-980
ges	-981
urity	-982
▁Me	-983
▁place	-984
▁gu	-985
ways	-986
ince	-987
ploy	-988
▁ben	-989
chool	-990
▁opp	-991
roup	-992
▁show	-993
▁contin	-994
▁requ	-995
▁sent	-996
ush	-997
▁hospital	-998
ror	-999
▁registered	-1000
▁resp	-1001
▁Te	-1002
▁Kashmir	-1003
ament	-1004
▁conf	-1005
▁investig	-1006
▁200	-1007
ency	-1008
andid	-1009
▁dep	-1010
▁polit	-1011
▁laun	-1012
▁differe	-1013
▁water	-1014
asht	-1015
▁end	-1016
pend	-1017
▁second	-1018
uch	-1019
oard	-1020
▁Shah	-1021
▁Con	-1022
▁partic	-1023
▁ref	-1024
jab	-1025
oint	-1026
na	-1027
▁sign	-1028
retary	-1029
▁beli	-1030
ternational	-1031
▁death	-1032
▁Bank	-1033
▁Ass	-1034
iness	-1035
umbai	-1036
▁former	-1037
▁organ	-1038
ina	-1039
▁rece	-1040
▁lar	-1041
king	-1042
embers	-1043
▁held	-1044
ired	-1045
ins	-1046
▁ins	-1047
ched	-1048
▁avail	-1049
ified	-1050
▁power	-1051
tt	-1052
osed	-1053
▁bus	-1054
▁cr	-1055
▁sur	-1056
BI	-1057
▁form	-1058
▁ed	-1059
▁way	-1060
pr	-1061
▁Punjab	-1062
▁students	-1063
▁Sabha	-1064
▁each	-1065
▁attack	-1066
▁now	-1067
urther	-1068
▁same	-1069
▁11	-1070
▁grow	-1071
war	-1072
ale	-1073
rong	-1074
▁Mumbai	-1075
ued	-1076
▁look	-1077
▁want	-1078
▁development	-1079
▁does	-1080
ology	-1081
▁cre	-1082
▁health	-1083
gest	-1084
▁Wor	-1085
▁spot	-1086
▁Hind	-1087
▁women	-1088
▁Res	-1089
▁cle	-1090
▁project	-1091
▁mov	-1092
▁gl	-1093
▁public	-1094
▁Sharma	-1095
▁leaders	-1096
ention	-1097
▁No	-1098
▁social	-1099
wal	-1100
▁arrested	-1101
▁injured	-1102
ough	-1103
pre	-1104
▁Ab	-1105
ull	-1106
ently	-1107
▁alle	-1108
tal	-1109
▁prom	-1110
▁aff	-1111
aim	-1112
▁ear	-1113
▁found	-1114
▁econom	-1115
▁Dep	-1116
▁Z	-1117
▁comple	-1118
stru	-1119
ten	-1120
▁air	-1121
▁media	-1122
ages	-1123
▁bro	-1124
ashtra	-1125
ani	-1126
▁cond	-1127
▁leader	-1128
▁long	-1129
▁process	-1130
jay	-1131
▁because	-1132
▁days	-1133
eration	-1134
ross	-1135
▁mod	-1136
▁president	-1137
▁Rah	-1138
▁matter	-1139
▁system	-1140
▁due	-1141
au	-1142
ctors	-1143
artment	-1144
▁members	-1145
▁oper	-1146
▁used	-1147
az	-1148
abad	-1149
▁various	-1150
▁commit	-1151
land	-1152
outh	-1153
▁open	-1154
▁regard	-1155
▁own	-1156
ination	-1157
ety	-1158
▁children	-1159
▁His	-1160
▁took	-1161
▁occas	-1162
ne	-1163
▁vill	-1164
ving	-1165
▁main	-1166
▁current	-1167
▁order	-1168
ized	-1169
ock	-1170
▁next	-1171
ling	-1172
▁candid	-1173
▁along	-1174
mers	-1175
▁announ	-1176
ration	-1177
▁Jeh	-1178
ature	-1179
ner	-1180
▁Commission	-1181
▁adv	-1182
▁says	-1183
ote	-1184
▁If	-1185
lim	-1186
▁Lord	-1187
▁Mahar	-1188
els	-1189
ovah	-1190
imes	-1191
wards	-1192
▁Bi	-1193
▁bank	-1194
▁different	-1195
▁Jehovah	-1196
▁ve	-1197
▁information	-1198
eth	-1199
▁remain	-1200
▁Ag	-1201
uthor	-1202
▁situ	-1203
▁Pat	-1204
▁quest	-1205
▁told	-1206
▁tem	-1207
▁tal	-1208
▁fore	-1209
▁must	-1210
▁Kapoor	-1211
▁others	-1212
▁Dr	-1213
▁too	-1214
ived	-1215
▁14	-1216
ves	-1217
oot	-1218
enior	-1219
▁sl	-1220
▁won	-1221
▁occasion	-1222
ished	-1223
▁Acc	-1224
rat	-1225
▁land	-1226
▁great	-1227
▁18	-1228
ajor	-1229
▁13	-1230
▁Cha	-1231
▁head	-1232
▁High	-1233
erest	-1234
ract	-1235
▁stand	-1236
▁writ	-1237
▁going	-1238
▁After	-1239
▁est	-1240
▁det	-1241
ality	-1242
▁win	-1243
jar	-1244
gy	-1245
▁Rahul	-1246
ason	-1247
embly	-1248
eld	-1249
▁countries	-1250
▁further	-1251
▁around	-1252
▁five	-1253
tee	-1254
ricket	-1255
▁added	-1256
riend	-1257
nce	-1258
▁available	-1259
▁techn	-1260
▁pur	-1261
▁val	-1262
ys	-1263
▁Shi	-1264
▁market	-1265
ffic	-1266
▁At	-1267
▁test	-1268
▁Sa	-1269
▁called	-1270
▁terror	-1271
illion	-1272
mber	-1273
▁del	-1274
▁started	-1275
▁program	-1276
▁commun	-1277
ias	-1278
▁Le	-1279
▁Jan	-1280
ttar	-1281
ID	-1282
▁prev	-1283
▁belie	-1284
▁issue	-1285
99	-1286
ned	-1287
▁body	-1288
▁account	-1289
▁level	-1290
▁decl	-1291
▁national	-1292
▁visit	-1293
ering	-1294
▁colle	-1295
▁Eng	-1296
ried	-1297
▁important	-1298
ec	-1299
▁across	-1300
▁Lok	-1301
▁claim	-1302
▁fa	-1303
▁seen	-1304
▁prop	-1305
▁security	-1306
io	-1307
▁Part	-1308
▁jud	-1309
▁area	-1310
▁killed	-1311
▁sever	-1312
▁Uttar	-1313
▁poss	-1314
▁respect	-1315
▁che	-1316
uman	-1317
▁plan	-1318
▁Chand	-1319
por	-1320
ached	-1321
▁vide	-1322
▁group	-1323
▁16	-1324
▁Q	-1325
▁Air	-1326
ke	-1327
arlier	-1328
iod	-1329
▁gr	-1330
ump	-1331
▁let	-1332
▁much	-1333
engal	-1334
▁Maharashtra	-1335
arh	-1336
▁give	-1337
▁reported	-1338
▁Par	-1339
ield	-1340
ilit	-1341
ird	-1342
▁several	-1343
▁sche	-1344
▁equ	-1345
▁benef	-1346
▁school	-1347
▁another	-1348
▁action	-1349
▁25	-1350
ising	-1351
ulture	-1352
stitution	-1353
ek	-1354
to	-1355
▁condu	-1356
▁interest	-1357
▁Cor	-1358
▁Mad	-1359
▁total	-1360
CC	-1361
era	-1362
▁Bengal	-1363
ressed	-1364
.5	-1365
▁World	-1366
▁Just	-1367
ick	-1368
▁Fin	-1369
▁indust	-1370
▁states	-1371
▁succ	-1372
ours	-1373
▁special	-1374
aid	-1375
ession	-1376
▁use	-1377
arch	-1378
my	-1379
▁decision	-1380
ll	-1381
▁done	-1382
▁demand	-1383
▁home	-1384
ought	-1385
▁major	-1386
▁compl	-1387
▁ext	-1388
iversity	-1389
▁Central	-1390
▁leg	-1391
agar	-1392
▁pay	-1393
▁read	-1394
ele	-1395
iti	-1396
▁2019	-1397
icket	-1398
▁educ	-1399
LA	-1400
▁Secretary	-1401
▁yet	-1402
bs	-1403
▁lit	-1404
arliament	-1405
oss	-1406
▁near	-1407
▁period	-1408
ala	-1409
▁San	-1410
▁came	-1411
airs	-1412
▁Gujar	-1413
orth	-1414
▁[	-1415
▁Pe	-1416
▁Mus	-1417
-19	-1418
ammu	-1419
▁Af	-1420
▁list	-1421
▁consid	-1422
chan	-1423
▁proble	-1424
▁Chr	-1425
▁house	-1426
▁asked	-1427
▁persons	-1428
▁exper	-1429
▁away	-1430
▁areas	-1431
.1	-1432
ena	-1433
▁best	-1434
ept	-1435
▁2020	-1436
▁company	-1437
▁Jammu	-1438
▁farmers	-1439
▁situation	-1440
aryana	-1441
▁road	-1442
▁big	-1443
▁States	-1444
▁bas	-1445
▁prot	-1446
atch	-1447
▁When	-1448
GB	-1449
mi	-1450
▁hig	-1451
▁Bihar	-1452
▁role	-1453
▁sk	-1454
▁fr	-1455
▁discuss	-1456
uty	-1457
preme	-1458
▁since	-1459
rate	-1460
▁Haryana	-1461
▁Test	-1462
▁later	-1463
▁think	-1464
▁ens	-1465
▁train	-1466
▁30	-1467
ience	-1468
ready	-1469
oney	-1470
ually	-1471
irl	-1472
▁political	-1473
▁Gujarat	-1474
cent	-1475
▁complain	-1476
▁city	-1477
▁become	-1478
▁eng	-1479
▁officials	-1480
▁One	-1481
▁allow	-1482
▁concer	-1483
ption	-1484
stand	-1485
▁son	-1486
▁top	-1487
cl	-1488
▁return	-1489
▁view	-1490
▁treat	-1491
▁Spe	-1492
▁24	-1493
soci	-1494
▁success	-1495
▁Day	-1496
▁price	-1497
ames	-1498
▁cer	-1499
▁May	-1500
▁West	-1501
▁happen	-1502
▁elections	-1503
▁These	-1504
▁CO	-1505
▁record	-1506
▁six	-1507
▁employ	-1508
▁already	-1509
▁Dire	-1510
▁MP	-1511
ports	-1512
itiz	-1513
▁put	-1514
▁0	-1515
mend	-1516
▁name	-1517
▁book	-1518
▁effect	-1519
icle	-1520
▁met	-1521
▁never	-1522
▁particip	-1523
▁ident	-1524
not	-1525
▁attend	-1526
▁Develop	-1527
▁China	-1528
line	-1529
▁keep	-1530
▁Aust	-1531
▁condition	-1532
▁sector	-1533
▁got	-1534
ources	-1535
view	-1536
▁activ	-1537
ging	-1538
ately	-1539
▁things	-1540
▁sim	-1541
oad	-1542
▁cost	-1543
▁Sc	-1544
▁Supreme	-1545
▁build	-1546
▁soon	-1547
▁rest	-1548
▁seats	-1549
▁vict	-1550
▁Im	-1551
cing	-1552
▁gen	-1553
▁50	-1554
ortun	-1555
▁pop	-1556
▁17	-1557
wood	-1558
self	-1559
▁Amit	-1560
▁cam	-1561
stitut	-1562
ruct	-1563
icy	-1564
▁few	-1565
▁turn	-1566
rid	-1567
...	-1568
ets	-1569
itness	-1570
▁hold	-1571
▁According	-1572
▁friend	-1573
▁heav	-1574
▁Pl	-1575
▁inde	-1576
▁announced	-1577
▁pric	-1578
lish	-1579
▁launched	-1580
ST	-1581
par	-1582
▁video	-1583
▁business	-1584
▁gre	-1585
wh	-1586
▁men	-1587
olly	-1588
▁Rail	-1589
▁Development	-1590
▁fun	-1591
▁alleged	-1592
iving	-1593
▁camp	-1594
▁Austral	-1595
eal	-1596
▁senior	-1597
obal	-1598
ient	-1599
▁To	-1600
▁General	-1601
▁tru	-1602
▁pet	-1603
than	-1604
▁viol	-1605
▁based	-1606
▁provide	-1607
augh	-1608
▁move	-1609
inal	-1610
.0	-1611
urs	-1612
minist	-1613
orts	-1614
cil	-1615
▁perform	-1616
▁care	-1617
▁Him	-1618
▁series	-1619
agement	-1620
ense	-1621
▁event	-1622
aug	-1623
ference	-1624
▁father	-1625
▁Bhar	-1626
▁village	-1627
▁statement	-1628
ger	-1629
▁South	-1630
▁without	-1631
pected	-1632
sel	-1633
▁applic	-1634
▁bel	-1635
▁spok	-1636
angu	-1637
▁upon	-1638
ancial	-1639
ury	-1640
idence	-1641
▁Shiv	-1642
▁region	-1643
reng	-1644
ined	-1645
▁author	-1646
ises	-1647
mitted	-1648
▁2018	-1649
▁wife	-1650
ily	-1651
▁services	-1652
▁question	-1653
itional	-1654
▁news	-1655
▁making	-1656
▁investigation	-1657
▁Son	-1658
▁Christ	-1659
▁fire	-1660
▁poll	-1661
plement	-1662
▁Indias	-1663
▁growth	-1664
eleb	-1665
iety	-1666
▁Mal	-1667
▁inst	-1668
be	-1669
▁impro	-1670
▁par	-1671
une	-1672
▁tax	-1673
▁toget	-1674
▁together	-1675
▁reached	-1676
▁died	-1677
▁bring	-1678
▁spec	-1679
ivil	-1680
▁clear	-1681
▁hist	-1682
▁Sam	-1683
ones	-1684
▁include	-1685
▁Med	-1686
▁international	-1687
▁prof	-1688
▁MLA	-1689
▁Department	-1690
aka	-1691
kh	-1692
▁Ran	-1693
▁known	-1694
▁dev	-1695
▁sol	-1696
▁relations	-1697
ollywood	-1698
▁phone	-1699
VID	-1700
▁Ja	-1701
▁priv	-1702
▁word	-1703
mon	-1704
asthan	-1705
here	-1706
inder	-1707
▁streng	-1708
▁working	-1709
▁Vi	-1710
▁issued	-1711
▁fund	-1712
▁art	-1713
▁received	-1714
▁stor	-1715
itive	-1716
▁cha	-1717
ners	-1718
▁earth	-1719
▁better	-1720
ork	-1721
▁IP	-1722
ium	-1723
▁ur	-1724
ches	-1725
▁Justice	-1726
▁Home	-1727
▁Board	-1728
▁strong	-1729
gr	-1730
▁initi	-1731
▁Party	-1732
▁relig	-1733
ouncil	-1734
ected	-1735
▁Sat	-1736
▁comes	-1737
▁beg	-1738
thing	-1739
▁chall	-1740
▁following	-1741
▁find	-1742
▁2017	-1743
▁Mah	-1744
adav	-1745
▁field	-1746
▁Aff	-1747
▁bo	-1748
▁heart	-1749
▁dri	-1750
▁still	-1751
iron	-1752
▁gra	-1753
▁issues	-1754
▁plac	-1755
hya	-1756
▁girl	-1757
▁runs	-1758
▁cricket	-1759
▁data	-1760
▁sing	-1761
▁Parliament	-1762
▁COVID	-1763
▁100	-1764
▁class	-1765
arent	-1766
▁love	-1767
ification	-1768
▁Rajasthan	-1769
less	-1770
▁third	-1771
▁Mr	-1772
▁cannot	-1773
isation	-1774
▁respons	-1775
SE	-1776
▁Or	-1777
▁That	-1778
▁address	-1779
▁prote	-1780
▁Do	-1781
▁times	-1782
▁large	-1783
▁money	-1784
▁till	-1785
▁celeb	-1786
201	-1787
▁Karn	-1788
irus	-1789
▁rul	-1790
iance	-1791
▁implement	-1792
▁ple	-1793
ergy	-1794
▁X	-1795
▁Yadav	-1796
▁food	-1797
▁candidates	-1798
▁informed	-1799
▁however	-1800
▁My	-1801
▁Sal	-1802
pped	-1803
▁cust	-1804
nel	-1805
▁Rep	-1806
ternal	-1807
▁Col	-1808
▁local	-1809
▁Bang	-1810
.2	-1811
▁trad	-1812
▁human	-1813
▁currently	-1814
ari	-1815
▁beh	-1816
of	-1817
▁education	-1818
▁tre	-1819
ences	-1820
▁towards	-1821
We	-1822
▁war	-1823
ically	-1824
▁control	-1825
▁match	-1826
.3	-1827
▁lot	-1828
▁join	-1829
▁Director	-1830
▁Affairs	-1831
▁woman	-1832
▁released	-1833
amb	-1834
ential	-1835
▁1,	-1836
anka	-1837
sh	-1838
idd	-1839
ively	-1840
ali	-1841
lect	-1842
▁within	-1843
▁detail	-1844
ron	-1845
resent	-1846
▁daugh	-1847
▁taking	-1848
ulation	-1849
▁deb	-1850
reed	-1851
adu	-1852
▁Koh	-1853
▁filed	-1854
ards	-1855
▁week	-1856
▁/	-1857
▁feat	-1858
▁div	-1859
▁brother	-1860
▁Centre	-1861
▁tri	-1862
▁saf	-1863
▁saying	-1864
chie	-1865
▁With	-1866
▁Bollywood	-1867
▁real	-1868
▁University	-1869
▁fut	-1870
▁Commit	-1871
▁veh	-1872
▁movie	-1873
▁Co	-1874
ructure	-1875
▁protest	-1876
▁Mo	-1877
▁small	-1878
DI	-1879
pril	-1880
rought	-1881
ify	-1882
▁treatment	-1883
▁camera	-1884
▁product	-1885
▁change	-1886
go	-1887
▁21	-1888
▁nation	-1889
overed	-1890
mar	-1891
▁poin	-1892
ilities	-1893
▁Health	-1894
▁ru	-1895
medi	-1896
▁step	-1897
▁increase	-1898
TI	-1899
▁Muslim	-1900
ither	-1901
▁service	-1902
▁results	-1903
▁Dh	-1904
SP	-1905
▁expl	-1906
rying	-1907
▁dead	-1908
▁pati	-1909
ibility	-1910
ians	-1911
▁final	-1912
▁peace	-1913
▁actor	-1914
▁Its	-1915
osition	-1916
▁full	-1917
▁opportun	-1918
▁Cl	-1919
▁Assembly	-1920
oura	-1921
▁Kh	-1922
▁Vir	-1923
ps	-1924
▁proper	-1925
▁general	-1926
iding	-1927
▁invol	-1928
▁Kohli	-1929
IC	-1930
while	-1931
▁believe	-1932
hav	-1933
▁deal	-1934
itizens	-1935
esus	-1936
mes	-1937
ples	-1938
iqu	-1939
ained	-1940
irit	-1941
▁shared	-1942
atives	-1943
▁always	-1944
iver	-1945
▁CBI	-1946
▁estab	-1947
ataka	-1948
ances	-1949
▁achie	-1950
▁front	-1951
aff	-1952
▁youn	-1953
▁April	-1954
part	-1955
▁provided	-1956
▁redu	-1957
aged	-1958
ourn	-1959
▁inn	-1960
weet	-1961
rab	-1962
▁CM	-1963
aring	-1964
over	-1965
▁accident	-1966
▁rate	-1967
▁entire	-1968
.4	-1969
▁Australia	-1970
▁Red	-1971
▁fight	-1972
eb	-1973
put	-1974
▁Ah	-1975
ilar	-1976
inet	-1977
▁(1	-1978
▁Ph	-1979
▁certain	-1980
the	-1981
cies	-1982
▁earlier	-1983
▁sus	-1984
▁Committee	-1985
▁Jesus	-1986
▁vot	-1987
▁office	-1988
▁mother	-1989
▁date	-1990
irman	-1991
▁Karnataka	-1992
tle	-1993
band	-1994
▁constru	-1995
▁why	-1996
▁financial	-1997
▁es	-1998
▁Kar	-1999
▁left	-2000
▁complaint	-2001
▁Council	-2002
app	-2003
ware	-2004
▁crit	-2005
pan	-2006
rug	-2007
selves	-2008
▁ord	-2009
▁elect	-2010
orn	-2011
▁sug	-2012
▁free	-2013
▁accept	-2014
▁prin	-2015
▁storage	-2016
ope	-2017
meric	-2018
stitute	-2019
▁March	-2020
▁ri	-2021
▁decided	-2022
isions	-2023
▁enc	-2024
▁bre	-2025
▁months	-2026
▁Army	-2027
▁brought	-2028
▁et	-2029
▁policy	-2030
fic	-2031
aries	-2032
▁global	-2033
▁serious	-2034
aram	-2035
jee	-2036
ka	-2037
▁press	-2038
▁.	-2039
abinet	-2040
ultural	-2041
▁played	-2042
▁economic	-2043
▁went	-2044
uf	-2045
▁Mon	-2046
men	-2047
ability	-2048
rast	-2049
▁Ash	-2050
▁old	-2051
ley	-2052
▁International	-2053
ung	-2054
▁future	-2055
▁mess	-2056
irth	-2057
▁wicket	-2058
▁contrib	-2059
▁continue	-2060
amed	-2061
▁Our	-2062
anwhile	-2063
▁Finance	-2064
▁Tamil	-2065
▁App	-2066
resh	-2067
▁Sw	-2068
▁ensure	-2069
IR	-2070
AM	-2071
▁webs	-2072
▁understand	-2073
viron	-2074
alf	-2075
▁live	-2076
▁million	-2077
▁som	-2078
ored	-2079
▁Trump	-2080
▁smart	-2081
▁feel	-2082
▁scheme	-2083
▁election	-2084
▁22	-2085
uary	-2086
▁Serv	-2087
▁Def	-2088
▁Both	-2089
rah	-2090
▁dra	-2091
ober	-2092
▁pri	-2093
▁bat	-2094
▁langu	-2095
esides	-2096
▁spirit	-2097
▁administ	-2098
ti	-2099
▁prices	-2100
ban	-2101
ara	-2102
vironment	-2103
▁etc	-2104
duc	-2105
▁amount	-2106
ize	-2107
ship	-2108
▁Reg	-2109
▁directed	-2110
▁past	-2111
▁might	-2112
lished	-2113
▁industry	-2114
▁meas	-2115
irc	-2116
▁eas	-2117
""."	-2118
reen	-2119
▁United	-2120
▁immedi	-2121
erred	-2122
cell	-2123
ees	-2124
▁Sub	-2125
▁parties	-2126
ude	-2127
wan	-2128
▁expected	-2129
▁People	-2130
▁section	-2131
▁workers	-2132
▁percent	-2133
imum	-2134
la	-2135
▁har	-2136
▁mis	-2137
▁tar	-2138
side	-2139
▁sw	-2140
▁Hy	-2141
▁stat	-2142
▁fact	-2143
crib	-2144
operation	-2145
▁dont	-2146
▁Sm	-2147
▁lo	-2148
▁having	-2149
▁UP	-2150
▁Gur	-2151
▁efforts	-2152
hold	-2153
uly	-2154
▁Pre	-2155
erala	-2156
▁non	-2157
▁dom	-2158
▁recently	-2159
▁Nav	-2160
lam	-2161
▁kind	-2162
nes	-2163
▁short	-2164
▁Har	-2165
▁pict	-2166
▁tour	-2167
▁Ali	-2168
▁function	-2169
▁self	-2170
▁Two	-2171
▁Educ	-2172
ization	-2173
ton	-2174
his	-2175
▁tweet	-2176
.7	-2177
▁private	-2178
▁ide	-2179
50	-2180
▁faith	-2181
▁likely	-2182
▁fail	-2183
ension	-2184
leg	-2185
▁job	-2186
▁means	-2187
▁learn	-2188
▁projects	-2189
▁represent	-2190
▁youth	-2191
▁less	-2192
▁doing	-2193
ceed	-2194
hu	-2195
isl	-2196
ert	-2197
▁phot	-2198
ator	-2199
▁Pri	-2200
▁dest	-2201
rain	-2202
oj	-2203
▁reason	-2204
▁share	-2205
▁medical	-2206
▁Why	-2207
▁Sy	-2208
▁During	-2209
▁Kerala	-2210
rodu	-2211
▁face	-2212
▁Moh	-2213
▁milit	-2214
▁North	-2215
hra	-2216
▁den	-2217
ights	-2218
▁officers	-2219
AN	-2220
▁mind	-2221
lection	-2222
▁capital	-2223
▁daughter	-2224
▁port	-2225
▁foreign	-2226
▁ver	-2227
hers	-2228
▁programme	-2229
▁Dist	-2230
.6	-2231
▁pract	-2232
▁dou	-2233
▁Meanwhile	-2234
▁lim	-2235
▁hon	-2236
▁Form	-2237
▁gave	-2238
▁While	-2239
ipal	-2240
▁possible	-2241
erc	-2242
▁Ne	-2243
person	-2244
ledge	-2245
▁celebr	-2246
▁i	-2247
▁suff	-2248
▁rese	-2249
eptember	-2250
▁side	-2251
▁direct	-2252
▁Add	-2253
▁mur	-2254
▁Pan	-2255
▁Then	-2256
▁Oct	-2257
▁award	-2258
▁June	-2259
▁companies	-2260
▁compet	-2261
▁mot	-2262
▁23	-2263
cember	-2264
ode	-2265
itor	-2266
ream	-2267
▁higher	-2268
▁basis	-2269
▁el	-2270
▁rev	-2271
▁temple	-2272
adi	-2273
riculture	-2274
dom	-2275
▁release	-2276
▁mult	-2277
ains	-2278
▁Muk	-2279
▁cause	-2280
▁website	-2281
▁Americ	-2282
▁declared	-2283
▁features	-2284
▁2016	-2285
▁written	-2286
▁resol	-2287
▁station	-2288
▁lost	-2289
▁conne	-2290
▁associ	-2291
▁points	-2292
▁led	-2293
▁bow	-2294
akes	-2295
▁fall	-2296
▁study	-2297
ika	-2298
▁position	-2299
icles	-2300
▁ty	-2301
usband	-2302
ovember	-2303
aker	-2304
ring	-2305
▁technology	-2306
aster	-2307
▁Be	-2308
ival	-2309
asing	-2310
▁28	-2311
▁victim	-2312
▁according	-2313
head	-2314
▁pan	-2315
wa	-2316
▁sal	-2317
▁design	-2318
ev	-2319
▁aut	-2320
ogn	-2321
iting	-2322
sw	-2323
▁don	-2324
IM	-2325
ufact	-2326
▁able	-2327
ada	-2328
hest	-2329
▁mor	-2330
▁production	-2331
uro	-2332
▁ful	-2333
▁needs	-2334
IT	-2335
▁check	-2336
▁Govern	-2337
▁net	-2338
▁stop	-2339
▁gold	-2340
Ind	-2341
▁Bl	-2342
▁caus	-2343
▁Indust	-2344
▁close	-2345
▁Madhya	-2346
mp	-2347
atory	-2348
▁truth	-2349
▁birth	-2350
aign	-2351
▁rain	-2352
▁Virat	-2353
af	-2354
▁Afric	-2355
▁31	-2356
▁captain	-2357
▁travel	-2358
order	-2359
play	-2360
▁coun	-2361
▁previous	-2362
stitu	-2363
▁Sri	-2364
▁mob	-2365
▁hard	-2366
ama	-2367
uge	-2368
▁extend	-2369
▁contest	-2370
▁Techn	-2371
▁became	-2372
▁Roh	-2373
▁recom	-2374
▁conducted	-2375
▁cong	-2376
ointed	-2377
▁Fore	-2378
▁oil	-2379
▁parts	-2380
▁sens	-2381
▁using	-2382
▁parent	-2383
▁40	-2384
acity	-2385
.8	-2386
coming	-2387
▁Far	-2388
▁card	-2389
aut	-2390
engers	-2391
▁foc	-2392
▁Sur	-2393
abor	-2394
phone	-2395
▁lives	-2396
▁officer	-2397
▁increased	-2398
▁conv	-2399
▁Sun	-2400
▁fear	-2401
▁Education	-2402
▁community	-2403
itter	-2404
▁Offic	-2405
▁December	-2406
▁Aug	-2407
oses	-2408
then	-2409
▁England	-2410
▁September	-2411
▁reve	-2412
▁Sci	-2413
▁claimed	-2414
▁young	-2415
ourse	-2416
▁Tw	-2417
▁,	-2418
empt	-2419
▁related	-2420
▁getting	-2421
▁stated	-2422
▁journ	-2423
ivid	-2424
▁sure	-2425
mission	-2426
▁target	-2427
▁launch	-2428
▁witness	-2429
▁July	-2430
▁January	-2431
come	-2432
rastructure	-2433
▁conn	-2434
encies	-2435
AR	-2436
▁Some	-2437
▁energy	-2438
ern	-2439
▁exist	-2440
▁obs	-2441
▁society	-2442
avirus	-2443
▁ever	-2444
▁November	-2445
▁wrong	-2446
uted	-2447
▁example	-2448
▁26	-2449
hing	-2450
by	-2451
ison	-2452
▁above	-2453
garh	-2454
▁loss	-2455
▁trib	-2456
onavirus	-2457
▁appear	-2458
▁coming	-2459
▁assist	-2460
▁Bill	-2461
▁common	-2462
▁institut	-2463
▁districts	-2464
▁trade	-2465
aur	-2466
▁Defence	-2467
▁light	-2468
▁disp	-2469
▁central	-2470
udd	-2471
▁circ	-2472
▁Sp	-2473
▁October	-2474
▁Tel	-2475
▁activities	-2476
▁necess	-2477
In	-2478
▁forces	-2479
itation	-2480
▁Andhra	-2481
▁sold	-2482
▁prep	-2483
▁star	-2484
udget	-2485
▁coll	-2486
▁details	-2487
▁created	-2488
▁member	-2489
ipur	-2490
hib	-2491
▁whom	-2492
▁husband	-2493
▁key	-2494
▁enter	-2495
▁27	-2496
▁building	-2497
▁Vice	-2498
▁least	-2499
▁problem	-2500
▁citizens	-2501
ficult	-2502
▁director	-2503
▁Feb	-2504
▁particular	-2505
aks	-2506
CP	-2507
SS	-2508
21	-2509
aled	-2510
ource	-2511
▁Bible	-2512
▁unt	-2513
▁Former	-2514
▁Mu	-2515
▁Hindu	-2516
▁Can	-2517
▁night	-2518
emic	-2519
▁purp	-2520
rote	-2521
▁forward	-2522
aya	-2523
ateg	-2524
▁economy	-2525
▁Hindi	-2526
▁campaign	-2527
▁Ke	-2528
MP	-2529
▁progress	-2530
ery	-2531
▁board	-2532
▁places	-2533
▁Corpor	-2534
▁dies	-2535
▁problems	-2536
▁difficult	-2537
▁seven	-2538
▁review	-2539
▁suggest	-2540
▁vir	-2541
▁host	-2542
▁reports	-2543
▁expressed	-2544
ething	-2545
ushed	-2546
▁House	-2547
▁spread	-2548
nding	-2549
ogra	-2550
▁Art	-2551
▁Jud	-2552
▁low	-2553
▁rail	-2554
ividual	-2555
for	-2556
▁Kan	-2557
ops	-2558
▁hit	-2559
▁Isra	-2560
▁Dis	-2561
▁connection	-2562
bel	-2563
▁Cup	-2564
▁Russ	-2565
▁constitu	-2566
vest	-2567
▁single	-2568
▁stri	-2569
▁Inde	-2570
▁pray	-2571
▁August	-2572
▁true	-2573
▁mus	-2574
ruary	-2575
olk	-2576
rs	-2577
▁Salman	-2578
ilt	-2579
▁town	-2580
▁Bangl	-2581
▁hours	-2582
▁history	-2583
▁knowledge	-2584
▁ground	-2585
ler	-2586
bed	-2587
▁maintain	-2588
▁Pand	-2589
ami	-2590
▁capacity	-2591
erve	-2592
▁dise	-2593
▁san	-2594
▁Cabinet	-2595
▁super	-2596
▁Bharat	-2597
▁recommend	-2598
▁benefit	-2599
elfare	-2600
▁Public	-2601
▁stars	-2602
▁answ	-2603
▁behind	-2604
char	-2605
▁nor	-2606
▁vac	-2607
▁Rel	-2608
▁training	-2609
▁reach	-2610
ication	-2611
▁civil	-2612
▁pun	-2613
▁sum	-2614
▁attended	-2615
▁himself	-2616
▁strengthen	-2617
▁199	-2618
▁online	-2619
▁King	-2620
uck	-2621
▁infl	-2622
▁nothing	-2623
▁required	-2624
▁sil	-2625
▁Vijay	-2626
▁whether	-2627
▁emer	-2628
▁tell	-2629
aul	-2630
▁Israel	-2631
▁Under	-2632
▁District	-2633
▁promot	-2634
▁manufact	-2635
▁engine	-2636
ier	-2637
▁Adv	-2638
▁Constitution	-2639
▁relationship	-2640
▁request	-2641
▁Also	-2642
▁age	-2643
▁application	-2644
▁Lal	-2645
▁Many	-2646
▁Islam	-2647
▁really	-2648
ators	-2649
irm	-2650
ike	-2651
▁Sush	-2652
▁poor	-2653
▁Institute	-2654
▁Dev	-2655
▁Stud	-2656
▁largest	-2657
AP	-2658
jit	-2659
▁Pra	-2660
ped	-2661
▁individual	-2662
▁Deep	-2663
▁quality	-2664
▁mer	-2665
▁Des	-2666
ection	-2667
rish	-2668
▁management	-2669
▁Wom	-2670
▁agree	-2671
▁Sena	-2672
ousand	-2673
▁Bal	-2674
▁research	-2675
▁cred	-2676
ots	-2677
▁opt	-2678
vey	-2679
▁improve	-2680
▁subject	-2681
ocu	-2682
▁inaug	-2683
▁successful	-2684
▁February	-2685
abh	-2686
▁parents	-2687
▁happened	-2688
▁Bangladesh	-2689
▁films	-2690
▁positive	-2691
jan	-2692
▁candidate	-2693
▁wrote	-2694
▁norm	-2695
ji	-2696
▁once	-2697
▁patients	-2698
▁murder	-2699
▁happy	-2700
▁spokes	-2701
▁committee	-2702
DA	-2703
▁early	-2704
▁2014	-2705
▁fast	-2706
▁stay	-2707
▁fav	-2708
▁Sar	-2709
▁identified	-2710
▁dam	-2711
▁something	-2712
▁passed	-2713
▁miss	-2714
▁signific	-2715
▁recovered	-2716
▁conduct	-2717
icial	-2718
▁abs	-2719
▁income	-2720
▁except	-2721
uries	-2722
rand	-2723
▁Yog	-2724
▁though	-2725
▁petition	-2726
▁assembly	-2727
▁Ay	-2728
nath	-2729
▁cast	-2730
uled	-2731
year	-2732
▁examination	-2733
▁words	-2734
sequ	-2735
SC	-2736
acy	-2737
▁begin	-2738
▁Nadu	-2739
▁ball	-2740
achal	-2741
▁cooperation	-2742
▁pot	-2743
▁po	-2744
oms	-2745
▁Rohit	-2746
▁terms	-2747
dra	-2748
▁categ	-2749
▁37	-2750
ead	-2751
verage	-2752
▁School	-2753
rial	-2754
▁display	-2755
most	-2756
▁game	-2757
▁grant	-2758
▁mater	-2759
▁violence	-2760
▁sources	-2761
reg	-2762
▁thought	-2763
▁threat	-2764
▁point	-2765
▁Cont	-2766
▁secretary	-2767
derabad	-2768
▁personal	-2769
estic	-2770
pir	-2771
▁hous	-2772
▁banks	-2773
.9	-2774
▁themselves	-2775
▁admitted	-2776
▁dr	-2777
2,	-2778
ns	-2779
formation	-2780
▁whole	-2781
▁personnel	-2782
erman	-2783
▁Brit	-2784
▁Who	-2785
rop	-2786
▁Gods	-2787
▁often	-2788
ga	-2789
earch	-2790
▁Ahmed	-2791
▁Hospital	-2792
apan	-2793
▁ey	-2794
▁access	-2795
▁seat	-2796
het	-2797
▁introdu	-2798
cri	-2799
▁Law	-2800
▁players	-2801
▁IPL	-2802
▁Inst	-2803
igarh	-2804
pecial	-2805
▁Chh	-2806
▁environment	-2807
ark	-2808
▁consum	-2809
onse	-2810
bit	-2811
▁km	-2812
ills	-2813
▁investment	-2814
▁charge	-2815
▁object	-2816
eds	-2817
▁sat	-2818
▁course	-2819
.201	-2820
oice	-2821
▁2015	-2822
AT	-2823
▁ap	-2824
ici	-2825
▁29	-2826
add	-2827
▁works	-2828
▁Hyderabad	-2829
▁raised	-2830
▁allowed	-2831
▁ban	-2832
▁z	-2833
▁Chen	-2834
▁teams	-2835
▁recogn	-2836
▁driver	-2837
▁thing	-2838
oon	-2839
aly	-2840
ories	-2841
omes	-2842
▁force	-2843
▁Sanjay	-2844
▁Twitter	-2845
ammad	-2846
▁Nar	-2847
atural	-2848
▁followed	-2849
▁Priy	-2850
▁Pras	-2851
▁pow	-2852
▁similar	-2853
▁department	-2854
▁Ministers	-2855
▁tele	-2856
▁rights	-2857
▁Governor	-2858
mony	-2859
odies	-2860
▁Var	-2861
▁partners	-2862
▁includes	-2863
▁Bar	-2864
▁products	-2865
atic	-2866
▁smartphone	-2867
▁ye	-2868
down	-2869
▁value	-2870
▁Sche	-2871
ivity	-2872
ta	-2873
▁neg	-2874
DP	-2875
▁Not	-2876
▁teac	-2877
▁Lt	-2878
▁Patel	-2879
▁Ak	-2880
ened	-2881
▁Nit	-2882
▁Super	-2883
▁anything	-2884
▁achieve	-2885
ems	-2886
▁separ	-2887
▁shoot	-2888
angana	-2889
▁Now	-2890
▁mean	-2891
▁docu	-2892
▁search	-2893
▁necessary	-2894
▁deep	-2895
▁offer	-2896
▁Arun	-2897
▁Roy	-2898
▁Mot	-2899
▁Africa	-2900
▁infrastructure	-2901
▁accom	-2902
utive	-2903
ulated	-2904
▁ten	-2905
▁ODI	-2906
▁aim	-2907
▁included	-2908
igation	-2909
▁schools	-2910
▁deg	-2911
ech	-2912
▁lat	-2913
▁polls	-2914
urance	-2915
▁Euro	-2916
going	-2917
▁belong	-2918
raft	-2919
▁immediately	-2920
▁mag	-2921
AI	-2922
ying	-2923
▁language	-2924
▁Jos	-2925
▁imm	-2926
▁Jag	-2927
▁challeng	-2928
▁Railways	-2929
ological	-2930
aper	-2931
▁joint	-2932
ids	-2933
▁lab	-2934
▁sust	-2935
▁term	-2936
▁quar	-2937
ortem	-2938
▁Iran	-2939
▁Group	-2940
ilater	-2941
▁""""	-2942
▁shi	-2943
▁affected	-2944
▁Int	-2945
isha	-2946
▁upcoming	-2947
▁mom	-2948
▁cou	-2949
▁dig	-2950
▁unto	-2951
▁Bab	-2952
▁hands	-2953
▁resident	-2954
▁Pad	-2955
jri	-2956
▁wickets	-2957
▁Cap	-2958
▁prim	-2959
▁IC	-2960
▁letter	-2961
▁lod	-2962
▁gener	-2963
▁democ	-2964
▁fell	-2965
▁paid	-2966
pecially	-2967
▁Section	-2968
▁mention	-2969
MC	-2970
▁Rajya	-2971
nai	-2972
▁ris	-2973
▁popular	-2974
▁friends	-2975
▁charges	-2976
▁di	-2977
ghan	-2978
▁probe	-2979
▁story	-2980
▁deter	-2981
▁command	-2982
▁Colle	-2983
gu	-2984
▁Trans	-2985
pper	-2986
▁material	-2987
▁line	-2988
ER	-2989
▁began	-2990
▁construction	-2991
▁focus	-2992
▁institutions	-2993
▁recent	-2994
ograph	-2995
▁highest	-2996
ja	-2997
ald	-2998
▁transf	-2999
▁GST	-3000
▁clean	-3001
erved	-3002
▁governments	-3003
vind	-3004
▁resign	-3005
He	-3006
▁tw	-3007
rance	-3008
▁rushed	-3009
▁Of	-3010
▁playing	-3011
clud	-3012
▁heavy	-3013
▁orig	-3014
▁developed	-3015
▁Az	-3016
▁active	-3017
▁thousand	-3018
▁sister	-3019
▁Every	-3020
▁vari	-3021
▁worth	-3022
▁Assam	-3023
▁families	-3024
oul	-3025
▁Jehovahs	-3026
▁Japan	-3027
▁inaugur	-3028
▁create	-3029
hood	-3030
▁legisl	-3031
ukh	-3032
▁Cons	-3033
▁cities	-3034
▁season	-3035
▁appointed	-3036
▁bench	-3037
work	-3038
▁exec	-3039
▁Her	-3040
▁Priyanka	-3041
▁named	-3042
iah	-3043
▁inte	-3044
change	-3045
▁coronavirus	-3046
vision	-3047
joy	-3048
oved	-3049
quir	-3050
▁trying	-3051
vere	-3052
▁instru	-3053
▁appre	-3054
▁Earlier	-3055
▁experience	-3056
evers	-3057
▁ded	-3058
▁Kejri	-3059
▁population	-3060
cle	-3061
▁Technology	-3062
▁strate	-3063
▁Gl	-3064
▁message	-3065
80	-3066
ilateral	-3067
yal	-3068
▁huge	-3069
▁leave	-3070
arsh	-3071
▁charact	-3072
emor	-3073
val	-3074
▁Ben	-3075
unic	-3076
uru	-3077
▁little	-3078
▁2,	-3079
▁guid	-3080
riday	-3081
▁East	-3082
▁aware	-3083
▁involved	-3084
▁ministry	-3085
▁Chennai	-3086
▁cut	-3087
▁blood	-3088
▁hope	-3089
omb	-3090
iber	-3091
▁located	-3092
▁either	-3093
▁steps	-3094
aging	-3095
▁Soc	-3096
▁doub	-3097
icated	-3098
▁pub	-3099
▁living	-3100
▁Ban	-3101
▁Corporation	-3102
▁ahead	-3103
▁RAM	-3104
▁German	-3105
▁FIR	-3106
▁session	-3107
▁thank	-3108
▁concerned	-3109
▁Europe	-3110
▁MLAs	-3111
oid	-3112
30	-3113
▁wa	-3114
It	-3115
II	-3116
inese	-3117
▁defe	-3118
▁bad	-3119
pendent	-3120
ams	-3121
▁measures	-3122
▁warn	-3123
▁Chairman	-3124
▁IN	-3125
▁More	-3126
let	-3127
▁Afghan	-3128
▁outside	-3129
gn	-3130
▁require	-3131
fall	-3132
▁reject	-3133
▁Prasad	-3134
▁screen	-3135
▁especially	-3136
▁eight	-3137
▁hearing	-3138
▁response	-3139
▁politics	-3140
action	-3141
▁Research	-3142
rin	-3143
range	-3144
▁rank	-3145
▁Indians	-3146
▁UN	-3147
ites	-3148
▁60	-3149
CCI	-3150
▁opportunity	-3151
▁Don	-3152
icro	-3153
atform	-3154
▁produced	-3155
▁mass	-3156
▁vehicles	-3157
ita	-3158
▁Kejriwal	-3159
▁Sund	-3160
▁TV	-3161
▁appeal	-3162
▁SP	-3163
▁regarding	-3164
▁boy	-3165
▁wind	-3166
▁cal	-3167
▁establish	-3168
▁Pal	-3169
▁performance	-3170
▁foot	-3171
▁employees	-3172
▁punish	-3173
▁significant	-3174
▁Deputy	-3175
▁until	-3176
▁Dal	-3177
▁Monday	-3178
▁mobile	-3179
imate	-3180
enger	-3181
▁Off	-3182
iers	-3183
▁administration	-3184
▁considered	-3185
▁Other	-3186
▁tweeted	-3187
▁Chinese	-3188
▁pain	-3189
iple	-3190
olkata	-3191
co	-3192
▁providing	-3193
riage	-3194
estival	-3195
▁committed	-3196
ague	-3197
▁religious	-3198
▁leading	-3199
▁enhan	-3200
▁ill	-3201
ikh	-3202
▁Besides	-3203
▁responsibility	-3204
▁Commissioner	-3205
▁actress	-3206
new	-3207
▁Dav	-3208
▁comb	-3209
8,	-3210
1,	-3211
▁35	-3212
mo	-3213
▁32	-3214
ksh	-3215
based	-3216
khand	-3217
▁supply	-3218
▁Amb	-3219
▁Force	-3220
eous	-3221
aily	-3222
▁aud	-3223
▁er	-3224
3,	-3225
orters	-3226
▁Ste	-3227
oni	-3228
▁Friday	-3229
ED	-3230
▁Special	-3231
▁vol	-3232
iful	-3233
▁completed	-3234
▁Sim	-3235
▁electric	-3236
▁Cricket	-3237
▁bodies	-3238
▁Road	-3239
▁creat	-3240
▁reli	-3241
▁Medical	-3242
▁Associ	-3243
▁lower	-3244
load	-3245
▁prior	-3246
▁Joh	-3247
▁morning	-3248
▁Here	-3249
▁judge	-3250
▁trust	-3251
▁consider	-3252
▁express	-3253
▁fel	-3254
▁Em	-3255
utes	-3256
▁Kolkata	-3257
▁ones	-3258
▁space	-3259
▁gone	-3260
▁custom	-3261
▁apply	-3262
▁nom	-3263
▁cash	-3264
▁authorities	-3265
▁Mand	-3266
▁rural	-3267
▁connect	-3268
▁jail	-3269
▁English	-3270
▁approved	-3271
cement	-3272
hips	-3273
▁HD	-3274
9,	-3275
▁phys	-3276
▁song	-3277
▁ang	-3278
▁pat	-3279
stant	-3280
ze	-3281
rog	-3282
▁questions	-3283
▁border	-3284
orrow	-3285
dd	-3286
▁enjoy	-3287
ohar	-3288
ras	-3289
▁Railway	-3290
▁exerc	-3291
▁roles	-3292
▁facilities	-3293
▁indeed	-3294
▁subs	-3295
▁challen	-3296
▁Will	-3297
▁complet	-3298
▁domestic	-3299
▁presented	-3300
▁lodged	-3301
▁whose	-3302
▁govern	-3303
▁squ	-3304
▁legal	-3305
▁dece	-3306
▁scient	-3307
agram	-3308
▁Exp	-3309
▁conditions	-3310
▁vers	-3311
▁propos	-3312
▁ministers	-3313
aching	-3314
reedom	-3315
▁encoura	-3316
▁Pakistani	-3317
▁additional	-3318
rem	-3319
dict	-3320
▁ess	-3321
tery	-3322
▁giving	-3323
▁acqu	-3324
ably	-3325
▁ut	-3326
▁Nath	-3327
▁sought	-3328
▁distrib	-3329
IS	-3330
illed	-3331
▁sym	-3332
▁Bach	-3333
dy	-3334
irst	-3335
▁qual	-3336
raj	-3337
▁(2	-3338
▁Met	-3339
▁$	-3340
iminal	-3341
▁Fil	-3342
▁regular	-3343
▁Security	-3344
pite	-3345
▁groups	-3346
AS	-3347
▁recorded	-3348
sc	-3349
▁Ur	-3350
▁Tata	-3351
▁Asia	-3352
▁movement	-3353
▁Most	-3354
vent	-3355
cribed	-3356
▁sports	-3357
▁religion	-3358
-2	-3359
▁hy	-3360
▁Pet	-3361
CT	-3362
ional	-3363
miss	-3364
ruption	-3365
road	-3366
▁military	-3367
▁platform	-3368
anda	-3369
ris	-3370
▁billion	-3371
▁vs	-3372
▁wanted	-3373
▁pen	-3374
▁conference	-3375
▁looking	-3376
▁defence	-3377
ervation	-3378
▁provisions	-3379
▁half	-3380
irmed	-3381
▁attempt	-3382
▁cere	-3383
▁compr	-3384
ming	-3385
▁addition	-3386
▁compared	-3387
▁transport	-3388
book	-3389
▁Chandigarh	-3390
▁sex	-3391
▁tit	-3392
▁alleg	-3393
body	-3394
▁cell	-3395
▁cover	-3396
▁ready	-3397
▁Ter	-3398
▁saw	-3399
▁ran	-3400
▁complete	-3401
▁operation	-3402
▁revealed	-3403
▁makes	-3404
▁Instagram	-3405
▁purpose	-3406
▁increasing	-3407
▁clos	-3408
▁therefore	-3409
▁evidence	-3410
▁Your	-3411
▁prime	-3412
▁diesel	-3413
▁Invest	-3414
hel	-3415
7,	-3416
▁temper	-3417
▁justice	-3418
▁doctors	-3419
▁cy	-3420
▁By	-3421
▁proposed	-3422
▁earn	-3423
hy	-3424
▁cross	-3425
▁model	-3426
rief	-3427
▁Econom	-3428
de	-3429
▁rupe	-3430
icide	-3431
▁SC	-3432
▁bar	-3433
mortem	-3434
▁below	-3435
iab	-3436
▁Tal	-3437
▁anti	-3438
▁Ver	-3439
▁wis	-3440
adha	-3441
▁built	-3442
▁Jhar	-3443
▁needed	-3444
sec	-3445
ira	-3446
jun	-3447
▁Wed	-3448
▁Rajnath	-3449
ray	-3450
▁IT	-3451
4,	-3452
▁Tri	-3453
cast	-3454
▁century	-3455
▁Gang	-3456
opal	-3457
"",	-3458
▁Anil	-3459
▁shar	-3460
RD	-3461
▁Ltd	-3462
▁impact	-3463
▁vehicle	-3464
quiry	-3465
ene	-3466
▁expect	-3467
▁round	-3468
lected	-3469
▁Foreign	-3470
▁joined	-3471
▁Rec	-3472
back	-3473
▁moment	-3474
▁worked	-3475
inary	-3476
▁Three	-3477
ighb	-3478
▁gets	-3479
▁itself	-3480
▁--	-3481
▁anyone	-3482
▁protect	-3483
FC	-3484
▁wel	-3485
nam	-3486
▁Those	-3487
ows	-3488
attis	-3489
que	-3490
▁disease	-3491
ires	-3492
itude	-3493
▁Krish	-3494
▁Od	-3495
▁bur	-3496
6,	-3497
▁quite	-3498
▁Author	-3499
▁strength	-3500
▁amend	-3501
▁bats	-3502
▁Article	-3503
▁respectively	-3504
▁proceed	-3505
lied	-3506
5,	-3507
uesday	-3508
▁Adity	-3509
▁implementation	-3510
▁culture	-3511
▁safety	-3512
▁changes	-3513
chay	-3514
hai	-3515
▁Republic	-3516
▁Follow	-3517
▁passengers	-3518
PC	-3519
▁Child	-3520
▁operations	-3521
▁opposition	-3522
light	-3523
int	-3524
▁speed	-3525
bir	-3526
uel	-3527
▁agency	-3528
▁kept	-3529
▁ask	-3530
▁king	-3531
▁Paul	-3532
▁specific	-3533
▁appe	-3534
▁potential	-3535
▁safe	-3536
▁rise	-3537
attle	-3538
India	-3539
▁talks	-3540
9.	-3541
▁198	-3542
PF	-3543
elling	-3544
▁British	-3545
gment	-3546
craft	-3547
merce	-3548
▁rules	-3549
▁Jharkhand	-3550
▁prepared	-3551
aught	-3552
▁phase	-3553
▁closed	-3554
▁watch	-3555
▁Tuesday	-3556
after	-3557
▁histor	-3558
asons	-3559
▁wal	-3560
▁hol	-3561
▁undert	-3562
▁Muslims	-3563
▁Civil	-3564
▁Dhoni	-3565
▁status	-3566
▁minor	-3567
▁worship	-3568
▁Women	-3569
▁credit	-3570
urt	-3571
▁Apart	-3572
▁drug	-3573
▁custody	-3574
racy	-3575
▁prevent	-3576
achin	-3577
▁carried	-3578
▁constituency	-3579
▁modern	-3580
▁Over	-3581
▁Sin	-3582
inated	-3583
▁adop	-3584
▁Gupt	-3585
▁Services	-3586
▁talk	-3587
ursday	-3588
▁Information	-3589
▁Zeal	-3590
▁pil	-3591
▁innov	-3592
▁70	-3593
usion	-3594
cipal	-3595
rant	-3596
▁IS	-3597
▁Aksh	-3598
▁opportunities	-3599
▁Nag	-3600
▁deploy	-3601
▁Paw	-3602
▁Tha	-3603
attisgarh	-3604
▁takes	-3605
▁CE	-3606
▁staff	-3607
▁Senior	-3608
▁daily	-3609
▁black	-3610
▁funds	-3611
▁lock	-3612
mercial	-3613
▁197	-3614
nesday	-3615
▁speak	-3616
know	-3617
▁mil	-3618
apur	-3619
▁Nep	-3620
▁cultural	-3621
▁Zealand	-3622
▁NE	-3623
▁neighb	-3624
▁investigating	-3625
enced	-3626
▁houses	-3627
▁stake	-3628
▁Bachchan	-3629
▁Di	-3630
▁petrol	-3631
▁organised	-3632
▁Scheme	-3633
▁Trib	-3634
undred	-3635
▁ton	-3636
▁Power	-3637
elines	-3638
,99	-3639
▁fulf	-3640
▁College	-3641
▁firm	-3642
▁Science	-3643
▁plans	-3644
▁Mission	-3645
▁Thursday	-3646
bar	-3647
▁laws	-3648
▁manner	-3649
ening	-3650
▁Students	-3651
▁Wednesday	-3652
▁character	-3653
▁leadership	-3654
▁80	-3655
▁signed	-3656
▁estim	-3657
▁Sunday	-3658
▁notice	-3659
▁seeking	-3660
▁Class	-3661
▁repl	-3662
▁established	-3663
▁Kul	-3664
▁freedom	-3665
oday	-3666
▁provision	-3667
▁exc	-3668
▁send	-3669
▁Satur	-3670
▁picture	-3671
ruit	-3672
▁suicide	-3673
hem	-3674
▁ways	-3675
ampions	-3676
▁fourth	-3677
▁appreci	-3678
ique	-3679
▁continu	-3680
igg	-3681
▁answer	-3682
▁terrorism	-3683
ott	-3684
▁deaths	-3685
▁late	-3686
▁Ins	-3687
▁deceased	-3688
▁alliance	-3689
▁wants	-3690
▁underway	-3691
▁Div	-3692
▁anim	-3693
▁stage	-3694
▁respond	-3695
uter	-3696
▁discussed	-3697
▁injuries	-3698
opra	-3699
▁Kore	-3700
▁forg	-3701
▁spokesperson	-3702
▁terrorists	-3703
▁3,	-3704
▁500	-3705
▁confirmed	-3706
▁formed	-3707
▁provides	-3708
ixel	-3709
▁sched	-3710
▁presence	-3711
▁Odisha	-3712
▁pack	-3713
▁Christian	-3714
▁Mess	-3715
▁expand	-3716
▁direction	-3717
▁Association	-3718
▁congrat	-3719
ixed	-3720
▁profession	-3721
▁Shan	-3722
▁Opp	-3723
▁file	-3724
▁continued	-3725
▁Let	-3726
ammed	-3727
ora	-3728
ades	-3729
▁Himachal	-3730
▁Telangana	-3731
▁max	-3732
▁Organ	-3733
▁bi	-3734
▁Saturday	-3735
alled	-3736
▁schemes	-3737
▁traffic	-3738
▁plant	-3739
▁pros	-3740
▁relief	-3741
▁north	-3742
▁Ge	-3743
▁rates	-3744
▁assistance	-3745
vention	-3746
▁married	-3747
▁Inf	-3748
▁average	-3749
▁matches	-3750
▁Service	-3751
▁site	-3752
▁employment	-3753
RC	-3754
▁Lim	-3755
▁offered	-3756
lymp	-3757
▁internal	-3758
▁Water	-3759
uv	-3760
▁ste	-3761
▁BCCI	-3762
estern	-3763
▁viral	-3764
ables	-3765
▁fre	-3766
▁demon	-3767
▁path	-3768
▁Tax	-3769
hawan	-3770
kash	-3771
▁units	-3772
▁caused	-3773
pping	-3774
ask	-3775
pond	-3776
▁demanded	-3777
▁assess	-3778
▁Kam	-3779
iy	-3780
▁Chan	-3781
▁Lanka	-3782
▁Cr	-3783
▁MS	-3784
▁reform	-3785
▁sale	-3786
▁American	-3787
▁RBI	-3788
▁Following	-3789
▁Even	-3790
▁everyone	-3791
▁marriage	-3792
▁Since	-3793
▁property	-3794
▁Olymp	-3795
▁effective	-3796
▁Chhattisgarh	-3797
▁Akshay	-3798
▁journal	-3799
tained	-3800
▁link	-3801
▁Tra	-3802
▁centre	-3803
▁victory	-3804
▁occur	-3805
▁flood	-3806
▁existing	-3807
▁Read	-3808
▁David	-3809
▁gas	-3810
▁via	-3811
ift	-3812
▁Sol	-3813
▁ago	-3814
▁ir	-3815
▁music	-3816
▁arri	-3817
▁Election	-3818
▁importance	-3819
▁referred	-3820
▁duty	-3821
▁god	-3822
itions	-3823
▁bilateral	-3824
akhand	-3825
▁commission	-3826
ester	-3827
NG	-3828
▁pressure	-3829
▁users	-3830
▁destro	-3831
lear	-3832
ternet	-3833
▁latest	-3834
▁sides	-3835
▁rule	-3836
▁extended	-3837
▁gives	-3838
▁Chopra	-3839
ES	-3840
oo	-3841
▁red	-3842
▁scored	-3843
ox	-3844
▁mentioned	-3845
ricke	-3846
▁Per	-3847
▁Sonia	-3848
itial	-3849
▁Goa	-3850
▁Fund	-3851
ault	-3852
pects	-3853
atever	-3854
▁failed	-3855
pendence	-3856
▁Arab	-3857
gram	-3858
▁natural	-3859
uri	-3860
▁fig	-3861
▁inside	-3862
▁handed	-3863
▁pictures	-3864
▁everything	-3865
▁shot	-3866
▁64	-3867
As	-3868
▁BS	-3869
▁moved	-3870
▁Char	-3871
▁source	-3872
▁Kal	-3873
▁Afghanistan	-3874
ovid	-3875
use	-3876
▁promote	-3877
▁scheduled	-3878
▁coal	-3879
▁Later	-3880
▁names	-3881
▁votes	-3882
▁box	-3883
ental	-3884
EL	-3885
This	-3886
▁almost	-3887
everal	-3888
RO	-3889
▁|	-3890
▁purch	-3891
▁changed	-3892
▁Arvind	-3893
▁river	-3894
umbers	-3895
▁Gh	-3896
▁Plan	-3897
ager	-3898
▁Rao	-3899
▁mand	-3900
▁risk	-3901
▁agriculture	-3902
▁evil	-3903
pri	-3904
▁First	-3905
▁Uttarakhand	-3906
▁Thak	-3907
▁nature	-3908
ony	-3909
▁matters	-3910
▁allegedly	-3911
ex	-3912
▁Naid	-3913
▁thou	-3914
▁Net	-3915
venue	-3916
inch	-3917
▁majority	-3918
▁punishment	-3919
▁seized	-3920
▁Inter	-3921
▁arrange	-3922
▁resc	-3923
▁influ	-3924
▁rear	-3925
▁plea	-3926
▁Gupta	-3927
▁heard	-3928
▁Agriculture	-3929
▁biggest	-3930
▁rally	-3931
pro	-3932
▁participated	-3933
▁Nagar	-3934
▁primary	-3935
▁unit	-3936
▁alone	-3937
ector	-3938
▁pers	-3939
▁Bhatt	-3940
Ph	-3941
▁Jay	-3942
▁Several	-3943
osing	-3944
▁surely	-3945
▁90	-3946
istic	-3947
▁didnt	-3948
▁Book	-3949
▁Russia	-3950
▁Na	-3951
▁extrem	-3952
utions	-3953
▁Naidu	-3954
▁benefits	-3955
ovind	-3956
▁Gold	-3957
▁Ajay	-3958
▁Op	-3959
2.	-3960
▁nations	-3961
▁bail	-3962
60	-3963
bh	-3964
▁Management	-3965
▁denied	-3966
▁tried	-3967
▁accounts	-3968
▁turned	-3969
▁pand	-3970
▁regul	-3971
▁category	-3972
ressing	-3973
▁reasons	-3974
▁allegations	-3975
rew	-3976
▁ceremony	-3977
▁speech	-3978
▁mark	-3979
▁Nepal	-3980
▁remained	-3981
▁GB	-3982
▁quot	-3983
▁girls	-3984
▁Face	-3985
▁tourn	-3986
▁nearly	-3987
▁trial	-3988
ript	-3989
▁villages	-3990
▁Sum	-3991
▁goods	-3992
▁Abd	-3993
▁visited	-3994
chi	-3995
▁Tour	-3996
▁Ashok	-3997
ME	-3998
▁CP	-3999
▁programmes	-4000
phas	-4001
▁Jait	-4002
▁receive	-4003
▁Bas	-4004
▁responsible	-4005
▁crime	-4006
IP	-4007
ondon	-4008
▁wid	-4009
▁Sports	-4010
▁leav	-4011
▁approach	-4012
▁seek	-4013
▁Their	-4014
▁Welfare	-4015
ayan	-4016
▁roads	-4017
▁hot	-4018
though	-4019
▁teachers	-4020
▁railway	-4021
▁digital	-4022
▁bill	-4023
▁budget	-4024
▁Officer	-4025
▁cop	-4026
▁forth	-4027
▁rape	-4028
▁Rukh	-4029
▁ICC	-4030
icked	-4031
▁student	-4032
▁south	-4033
▁Mukher	-4034
▁published	-4035
▁normal	-4036
▁challenges	-4037
▁bless	-4038
▁shows	-4039
▁counter	-4040
▁opening	-4041
▁Are	-4042
▁easy	-4043
where	-4044
▁resources	-4045
▁cancer	-4046
▁growing	-4047
▁fans	-4048
anger	-4049
▁Janata	-4050
▁Prof	-4051
▁essential	-4052
iddle	-4053
▁maximum	-4054
▁Us	-4055
▁Comp	-4056
olution	-4057
IA	-4058
▁Today	-4059
▁facing	-4060
uls	-4061
▁Speaking	-4062
▁Qu	-4063
▁depart	-4064
▁lin	-4065
inations	-4066
▁From	-4067
▁pra	-4068
▁Sinha	-4069
▁silver	-4070
▁Bad	-4071
▁flow	-4072
▁agreement	-4073
▁democracy	-4074
gic	-4075
▁offers	-4076
▁trains	-4077
▁brothers	-4078
▁contain	-4079
▁initiative	-4080
'.	-4081
standing	-4082
▁challenge	-4083
unt	-4084
▁suspend	-4085
aches	-4086
MS	-4087
▁try	-4088
▁levels	-4089
deep	-4090
wat	-4091
▁John	-4092
▁drink	-4093
▁greater	-4094
▁Neh	-4095
stitutional	-4096
US	-4097
▁Donald	-4098
▁PTI	-4099
▁range	-4100
gap	-4101
anced	-4102
ties	-4103
▁broad	-4104
▁innings	-4105
▁Gal	-4106
rad	-4107
▁comment	-4108
▁aircraft	-4109
▁critical	-4110
▁bal	-4111
CA	-4112
HI	-4113
▁Cur	-4114
▁reply	-4115
▁cricke	-4116
▁favour	-4117
10	-4118
ping	-4119
▁markets	-4120
▁hum	-4121
▁couple	-4122
▁pandemic	-4123
▁industrial	-4124
▁Compan	-4125
ini	-4126
▁enough	-4127
,""""	-4128
ously	-4129
▁hundred	-4130
▁eyes	-4131
▁Sector	-4132
ili	-4133
oper	-4134
ball	-4135
▁Authority	-4136
▁criminal	-4137
▁feature	-4138
igence	-4139
▁Deepika	-4140
▁lay	-4141
▁vote	-4142
▁science	-4143
▁lockdown	-4144
eness	-4145
▁numbers	-4146
▁Control	-4147
▁career	-4148
▁appoint	-4149
▁evening	-4150
▁Covid	-4151
osh	-4152
▁opened	-4153
oud	-4154
▁elected	-4155
▁player	-4156
▁judicial	-4157
▁esc	-4158
▁beat	-4159
▁mount	-4160
rap	-4161
▁prepar	-4162
▁Asian	-4163
▁Kingdom	-4164
▁fine	-4165
▁Leg	-4166
▁London	-4167
▁disbel	-4168
ratic	-4169
▁note	-4170
▁soul	-4171
▁network	-4172
▁adj	-4173
▁chairman	-4174
▁attention	-4175
▁War	-4176
▁Car	-4177
▁soldiers	-4178
▁deleg	-4179
▁withdra	-4180
▁Dhar	-4181
mohan	-4182
▁Mukherjee	-4183
▁CEO	-4184
ranch	-4185
▁facilit	-4186
▁NCP	-4187
▁minimum	-4188
▁Jaitley	-4189
▁Aam	-4190
▁2013	-4191
▁Witness	-4192
gency	-4193
▁equal	-4194
▁appeared	-4195
isf	-4196
▁Ac	-4197
▁Thakur	-4198
▁Facebook	-4199
JD	-4200
ricultural	-4201
▁urban	-4202
▁actually	-4203
▁collabor	-4204
lip	-4205
▁consult	-4206
otal	-4207
▁break	-4208
▁spiritual	-4209
▁setting	-4210
▁urged	-4211
▁proposal	-4212
▁rejected	-4213
▁Food	-4214
▁posted	-4215
▁quarter	-4216
wide	-4217
▁exercise	-4218
▁prob	-4219
▁thus	-4220
▁UK	-4221
▁Program	-4222
▁felt	-4223
▁besides	-4224
edd	-4225
▁sections	-4226
▁tom	-4227
▁celebrated	-4228
roid	-4229
▁save	-4230
▁annual	-4231
▁colour	-4232
▁destroy	-4233
▁Step	-4234
▁hop	-4235
▁La	-4236
▁depos	-4237
▁goes	-4238
▁hear	-4239
je	-4240
emy	-4241
▁Chandra	-4242
veer	-4243
astern	-4244
rees	-4245
▁bound	-4246
▁Bharati	-4247
rupt	-4248
▁“	-4249
▁log	-4250
▁attacks	-4251
▁agencies	-4252
arc	-4253
▁Limited	-4254
▁Redmi	-4255
▁corruption	-4256
▁4,	-4257
rovers	-4258
▁knows	-4259
athi	-4260
▁ordered	-4261
▁motor	-4262
▁Arjun	-4263
▁Anand	-4264
▁festival	-4265
▁temperature	-4266
▁ticket	-4267
500	-4268
▁Project	-4269
▁systems	-4270
ethod	-4271
▁payment	-4272
▁army	-4273
rep	-4274
▁remains	-4275
▁Baner	-4276
▁exchange	-4277
▁Economic	-4278
iversary	-4279
▁monitor	-4280
▁Up	-4281
ciples	-4282
iled	-4283
vant	-4284
▁cert	-4285
▁signs	-4286
▁tor	-4287
▁Enter	-4288
ented	-4289
▁Conference	-4290
▁Office	-4291
udi	-4292
▁eld	-4293
▁mut	-4294
alse	-4295
▁crores	-4296
▁fresh	-4297
▁City	-4298
.,	-4299
▁Srin	-4300
▁micro	-4301
▁draw	-4302
▁vision	-4303
▁fif	-4304
▁emp	-4305
▁events	-4306
▁accepted	-4307
▁options	-4308
▁Film	-4309
▁inquiry	-4310
▁believed	-4311
mendment	-4312
▁calls	-4313
▁Prin	-4314
▁Such	-4315
iles	-4316
▁sensor	-4317
▁victims	-4318
agh	-4319
▁dream	-4320
40	-4321
eshwar	-4322
▁authority	-4323
▁Governments	-4324
anth	-4325
▁Bhav	-4326
anath	-4327
▁sin	-4328
-0	-4329
▁sons	-4330
respond	-4331
▁protection	-4332
va	-4333
unicipal	-4334
▁Vik	-4335
gapixel	-4336
▁Hon	-4337
▁loan	-4338
ensive	-4339
▁agreed	-4340
▁battery	-4341
▁severe	-4342
oe	-4343
▁Bhag	-4344
▁spoke	-4345
▁2010	-4346
▁emphas	-4347
▁Christians	-4348
▁sectors	-4349
▁commercial	-4350
▁type	-4351
▁placed	-4352
vt	-4353
oured	-4354
▁Where	-4355
omi	-4356
▁Post	-4357
▁unf	-4358
▁orders	-4359
▁pred	-4360
▁strike	-4361
▁receiving	-4362
▁Bus	-4363
▁Sid	-4364
▁2011	-4365
▁Lad	-4366
▁Say	-4367
▁flag	-4368
uddin	-4369
▁fled	-4370
▁repe	-4371
asi	-4372
▁introduced	-4373
▁fully	-4374
▁tournament	-4375
ny	-4376
▁Out	-4377
yer	-4378
▁wish	-4379
▁Pran	-4380
aken	-4381
▁shif	-4382
▁shown	-4383
▁Krishna	-4384
▁capt	-4385
▁device	-4386
▁controvers	-4387
▁nine	-4388
▁Express	-4389
▁proced	-4390
▁Second	-4391
▁33	-4392
▁196	-4393
▁submitted	-4394
▁%	-4395
▁base	-4396
▁approval	-4397
▁Fl	-4398
▁interview	-4399
CB	-4400
▁Candid	-4401
▁Vid	-4402
▁coach	-4403
▁typ	-4404
▁medic	-4405
▁fra	-4406
off	-4407
hens	-4408
▁returned	-4409
▁shooting	-4410
▁48	-4411
▁stations	-4412
▁Award	-4413
▁serve	-4414
icit	-4415
ounter	-4416
▁parliament	-4417
▁hospitals	-4418
isc	-4419
▁corpor	-4420
▁Banerjee	-4421
▁Elect	-4422
▁contribution	-4423
▁critic	-4424
yan	-4425
▁separate	-4426
▁Thus	-4427
alore	-4428
▁Amitabh	-4429
▁resolution	-4430
▁cru	-4431
▁cris	-4432
▁reduce	-4433
▁CB	-4434
▁:	-4435
▁score	-4436
rative	-4437
▁Famil	-4438
time	-4439
▁grand	-4440
▁neither	-4441
▁meetings	-4442
▁deployed	-4443
▁Val	-4444
▁vacc	-4445
▁Sk	-4446
apt	-4447
▁partnership	-4448
acted	-4449
ores	-4450
▁Ka	-4451
▁surv	-4452
▁bag	-4453
▁initial	-4454
vert	-4455
▁mission	-4456
BJP	-4457
ema	-4458
▁facility	-4459
▁helped	-4460
▁Ed	-4461
ols	-4462
5.	-4463
irs	-4464
▁certainly	-4465
▁vice	-4466
▁Pune	-4467
▁discussion	-4468
▁appropri	-4469
▁shares	-4470
▁fem	-4471
▁territ	-4472
▁ant	-4473
ela	-4474
▁Fed	-4475
▁lif	-4476
▁Ant	-4477
▁selected	-4478
▁manufacturing	-4479
▁Whats	-4480
uclear	-4481
▁else	-4482
▁Kare	-4483
ashing	-4484
▁liter	-4485
▁Kat	-4486
▁text	-4487
▁heavens	-4488
▁marks	-4489
ON	-4490
▁Amar	-4491
ils	-4492
vendra	-4493
▁Yogi	-4494
▁airport	-4495
▁crisis	-4496
▁produce	-4497
▁correspond	-4498
▁Further	-4499
▁System	-4500
RI	-4501
▁degree	-4502
▁Rajput	-4503
sequently	-4504
▁cant	-4505
rel	-4506
hap	-4507
eks	-4508
▁Patna	-4509
▁terrorist	-4510
▁Tem	-4511
ju	-4512
▁CA	-4513
ila	-4514
▁documents	-4515
utt	-4516
▁carry	-4517
▁option	-4518
eful	-4519
omet	-4520
iter	-4521
▁Produ	-4522
▁Prakash	-4523
▁generation	-4524
adhan	-4525
▁running	-4526
yle	-4527
▁concern	-4528
▁contact	-4529
▁Additional	-4530
▁granted	-4531
▁Dem	-4532
charge	-4533
▁Kart	-4534
▁Mor	-4535
▁AAP	-4536
▁prec	-4537
cient	-4538
▁tro	-4539
▁debut	-4540
▁headed	-4541
fully	-4542
▁Command	-4543
▁Budget	-4544
▁photo	-4545
▁method	-4546
leum	-4547
▁claims	-4548
▁sense	-4549
▁initiated	-4550
▁ge	-4551
▁initiatives	-4552
under	-4553
▁Port	-4554
▁Sand	-4555
▁completely	-4556
▁5,	-4557
equ	-4558
▁Note	-4559
nic	-4560
▁Dig	-4561
▁satisf	-4562
▁fair	-4563
▁Mish	-4564
illeg	-4565
▁Imran	-4566
▁posts	-4567
▁League	-4568
▁estimated	-4569
▁Thats	-4570
▁Manmohan	-4571
▁ongoing	-4572
▁continues	-4573
▁accompan	-4574
▁page	-4575
▁remember	-4576
▁Industry	-4577
▁202	-4578
▁Open	-4579
▁particularly	-4580
▁noted	-4581
PS	-4582
▁36	-4583
▁Candidates	-4584
▁purs	-4585
▁effort	-4586
▁Tom	-4587
▁indic	-4588
▁ski	-4589
▁physical	-4590
▁exams	-4591
▁plays	-4592
▁45	-4593
izing	-4594
esterday	-4595
▁Bengaluru	-4596
▁Swar	-4597
▁Sunil	-4598
▁rich	-4599
ocks	-4600
▁BSP	-4601
▁extremely	-4602
ogle	-4603
▁Gen	-4604
▁Luck	-4605
holders	-4606
▁false	-4607
▁defin	-4608
▁Among	-4609
▁affect	-4610
megapixel	-4611
▁Sidd	-4612
▁Vish	-4613
▁contract	-4614
ologies	-4615
▁suspended	-4616
▁Germany	-4617
▁confidence	-4618
""""	-4619
▁autom	-4620
▁Family	-4621
▁instead	-4622
rene	-4623
▁Sachin	-4624
wise	-4625
▁Transport	-4626
▁righteous	-4627
iture	-4628
▁Real	-4629
hal	-4630
▁SA	-4631
▁determin	-4632
▁AI	-4633
pid	-4634
▁Ro	-4635
che	-4636
▁room	-4637
▁despite	-4638
lers	-4639
▁refused	-4640
▁journey	-4641
ashi	-4642
▁suffered	-4643
▁195	-4644
tty	-4645
▁Code	-4646
▁Best	-4647
een	-4648
▁idea	-4649
oming	-4650
▁Rajiv	-4651
za	-4652
▁decisions	-4653
▁Similar	-4654
▁Administ	-4655
CR	-4656
▁depend	-4657
▁technical	-4658
quar	-4659
▁Vis	-4660
▁Indies	-4661
hara	-4662
▁quick	-4663
ume	-4664
▁lack	-4665
arily	-4666
▁Four	-4667
lus	-4668
ocation	-4669
▁Social	-4670
▁green	-4671
▁someone	-4672
▁Therefore	-4673
▁Gad	-4674
▁arrived	-4675
▁implemented	-4676
▁centres	-4677
ushka	-4678
▁France	-4679
▁Reliance	-4680
roud	-4681
roleum	-4682
▁integr	-4683
rim	-4684
▁virus	-4685
▁developing	-4686
cker	-4687
▁illeg	-4688
▁Mishra	-4689
▁Android	-4690
▁Kaur	-4691
▁regional	-4692
▁75	-4693
▁laid	-4694
ula	-4695
▁associated	-4696
▁Opposition	-4697
rated	-4698
fect	-4699
▁buy	-4700
▁fee	-4701
▁sea	-4702
atma	-4703
▁proc	-4704
▁whatever	-4705
▁beaut	-4706
▁testing	-4707
ane	-4708
▁mem	-4709
▁avoid	-4710
EC	-4711
▁Ahmedabad	-4712
itable	-4713
▁winning	-4714
▁Ven	-4715
ET	-4716
▁sacri	-4717
rect	-4718
▁boost	-4719
▁External	-4720
▁upd	-4721
▁touch	-4722
▁thee	-4723
▁opin	-4724
stances	-4725
▁Kapil	-4726
ni	-4727
hank	-4728
▁becomes	-4729
▁Head	-4730
▁forest	-4731
▁pm	-4732
▁Reddy	-4733
▁basic	-4734
▁Kareena	-4735
▁consist	-4736
▁Adityanath	-4737
AL	-4738
bl	-4739
eries	-4740
▁served	-4741
hab	-4742
DR	-4743
unal	-4744
▁ruling	-4745
ardhan	-4746
awa	-4747
nap	-4748
▁experi	-4749
▁York	-4750
▁competition	-4751
▁mid	-4752
pay	-4753
▁Actor	-4754
▁deliver	-4755
▁sle	-4756
▁courts	-4757
▁sustain	-4758
▁books	-4759
▁track	-4760
▁150	-4761
▁finance	-4762
▁Champions	-4763
chol	-4764
▁customers	-4765
▁sam	-4766
▁dismiss	-4767
▁News	-4768
star	-4769
▁Bah	-4770
▁transfer	-4771
Ah	-4772
lands	-4773
face	-4774
▁Meh	-4775
inate	-4776
▁Karan	-4777
▁Farmers	-4778
▁delay	-4779
▁welfare	-4780
▁practice	-4781
▁directly	-4782
▁Sushant	-4783
▁danger	-4784
▁voice	-4785
▁2021	-4786
▁variant	-4787
▁weap	-4788
▁Anushka	-4789
▁partner	-4790
▁Baj	-4791
▁Qual	-4792
▁hearts	-4793
ese	-4794
hammad	-4795
▁circum	-4796
▁Google	-4797
▁batsman	-4798
alty	-4799
▁Bharatiya	-4800
▁34	-4801
▁weeks	-4802
▁observed	-4803
law	-4804
▁gather	-4805
▁Mam	-4806
hat	-4807
▁litre	-4808
▁Mohan	-4809
▁Witnesses	-4810
▁awarded	-4811
viation	-4812
▁Ranveer	-4813
reprene	-4814
▁conclud	-4815
▁Person	-4816
▁JD	-4817
▁appropriate	-4818
▁languages	-4819
overy	-4820
▁arch	-4821
pal	-4822
ulate	-4823
▁Dhawan	-4824
▁Indeed	-4825
alys	-4826
▁Ref	-4827
iet	-4828
ocked	-4829
▁throughout	-4830
▁priced	-4831
▁fram	-4832
▁Report	-4833
pex	-4834
▁mechan	-4835
▁Another	-4836
▁creation	-4837
ults	-4838
▁Boss	-4839
▁anniversary	-4840
rugg	-4841
▁Energy	-4842
▁Naw	-4843
▁eat	-4844
riving	-4845
▁behalf	-4846
ievers	-4847
▁secret	-4848
▁wedd	-4849
▁weak	-4850
▁greet	-4851
urb	-4852
▁slow	-4853
▁limited	-4854
▁factor	-4855
▁soft	-4856
▁beginning	-4857
pic	-4858
▁AN	-4859
▁dispute	-4860
set	-4861
▁stock	-4862
▁household	-4863
AC	-4864
▁Commerce	-4865
▁Pawar	-4866
spe	-4867
▁fam	-4868
▁proud	-4869
▁inaugurated	-4870
axy	-4871
▁extra	-4872
▁acad	-4873
▁Last	-4874
▁yesterday	-4875
▁Mas	-4876
▁Global	-4877
oples	-4878
▁jobs	-4879
▁assured	-4880
▁Nitish	-4881
▁dedicated	-4882
▁Kovind	-4883
▁Hard	-4884
▁ce	-4885
▁limit	-4886
▁paper	-4887
▁chaired	-4888
▁healthy	-4889
kari	-4890
▁Fire	-4891
iger	-4892
▁Vin	-4893
▁addressed	-4894
▁organis	-4895
▁truck	-4896
ugh	-4897
sy	-4898
▁coast	-4899
▁immediate	-4900
▁RSS	-4901
actions	-4902
▁Pradhan	-4903
▁sound	-4904
▁Human	-4905
▁Ti	-4906
▁reporters	-4907
▁planning	-4908
▁organized	-4909
▁honour	-4910
▁reward	-4911
elligence	-4912
▁stands	-4913
▁equip	-4914
indra	-4915
▁submit	-4916
▁Jio	-4917
▁gri	-4918
▁Mant	-4919
▁univers	-4920
▁goal	-4921
▁multiple	-4922
araman	-4923
▁apost	-4924
akers	-4925
▁rainfall	-4926
▁carrying	-4927
idamb	-4928
dule	-4929
▁bra	-4930
ensation	-4931
▁insurance	-4932
▁beautiful	-4933
▁verdict	-4934
agers	-4935
▁holding	-4936
▁tonnes	-4937
▁values	-4938
▁Samaj	-4939
▁(3	-4940
lying	-4941
▁Joint	-4942
▁Pay	-4943
▁remar	-4944
aji	-4945
▁costs	-4946
▁registration	-4947
▁cho	-4948
▁rob	-4949
icted	-4950
▁guest	-4951
iya	-4952
▁admit	-4953
▁Manohar	-4954
-20	-4955
arya	-4956
oi	-4957
cipl	-4958
▁Mahatma	-4959
▁congreg	-4960
ero	-4961
▁strugg	-4962
▁managed	-4963
▁seriously	-4964
rang	-4965
▁standard	-4966
ashed	-4967
▁keeping	-4968
astic	-4969
▁invited	-4970
ression	-4971
hary	-4972
▁Yes	-4973
▁kg	-4974
oned	-4975
▁Rai	-4976
▁Engine	-4977
▁ji	-4978
▁collect	-4979
▁skipper	-4980
▁born	-4981
▁reserv	-4982
▁Games	-4983
raf	-4984
rench	-4985
khar	-4986
▁Policy	-4987
▁Team	-4988
▁commitment	-4989
▁ties	-4990
▁gain	-4991
▁Stand	-4992
▁constitut	-4993
Ch	-4994
▁condem	-4995
▁fat	-4996
▁forms	-4997
▁ended	-4998
iling	-4999
▁wide	-5000
run	-5001
▁Pranab	-5002
▁European	-5003
▁Tourism	-5004
ida	-5005
▁Ann	-5006
▁birthday	-5007
▁America	-5008
▁register	-5009
▁Ele	-5010
ojana	-5011
▁rather	-5012
▁Ganga	-5013
▁imposed	-5014
▁article	-5015
▁die	-5016
adium	-5017
▁battle	-5018
▁x	-5019
▁Mag	-5020
▁remaining	-5021
):	-5022
uction	-5023
▁priority	-5024
ona	-5025
▁stood	-5026
▁CR	-5027
▁stra	-5028
plom	-5029
▁300	-5030
▁Know	-5031
▁accord	-5032
▁learning	-5033
▁guidelines	-5034
▁stone	-5035
▁Bhavan	-5036
▁double	-5037
▁Bangalore	-5038
apers	-5039
ining	-5040
Phone	-5041
▁sitting	-5042
▁dial	-5043
▁wedding	-5044
▁Tend	-5045
▁Nirm	-5046
▁polic	-5047
▁rains	-5048
▁Che	-5049
chayat	-5050
▁encounter	-5051
▁tested	-5052
▁Cal	-5053
▁views	-5054
▁Youth	-5055
▁bey	-5056
▁dro	-5057
iction	-5058
▁speaking	-5059
aman	-5060
▁Business	-5061
▁squad	-5062
▁Train	-5063
▁table	-5064
▁und	-5065
▁Jav	-5066
rd	-5067
▁overs	-5068
▁Prov	-5069
▁beyond	-5070
▁beha	-5071
▁Bra	-5072
reet	-5073
▁showed	-5074
▁college	-5075
oring	-5076
▁Paduk	-5077
▁Aut	-5078
▁Judge	-5079
ullah	-5080
EN	-5081
▁shifted	-5082
▁loans	-5083
▁incidents	-5084
ules	-5085
▁relating	-5086
▁understanding	-5087
BC	-5088
▁Sind	-5089
▁surpr	-5090
▁wishes	-5091
▁constant	-5092
Is	-5093
▁Korea	-5094
▁El	-5095
▁Sams	-5096
▁panel	-5097
ronic	-5098
with	-5099
▁trading	-5100
▁removed	-5101
ogue	-5102
▁mig	-5103
▁individuals	-5104
ape	-5105
well	-5106
▁+	-5107
aced	-5108
▁Nehru	-5109
▁Gov	-5110
adhaar	-5111
care	-5112
win	-5113
itharaman	-5114
▁Mir	-5115
▁supported	-5116
▁ast	-5117
▁structure	-5118
aps	-5119
▁thy	-5120
▁notification	-5121
van	-5122
vis	-5123
▁prison	-5124
haps	-5125
▁370	-5126
istics	-5127
▁sharing	-5128
▁Padukone	-5129
▁194	-5130
▁Bel	-5131
▁doubt	-5132
▁content	-5133
IL	-5134
▁treated	-5135
alls	-5136
▁meaning	-5137
▁nam	-5138
▁killing	-5139
App	-5140
▁About	-5141
▁relevant	-5142
▁Ob	-5143
RB	-5144
▁flight	-5145
▁Alia	-5146
▁>	-5147
uti	-5148
▁tomorrow	-5149
arth	-5150
iff	-5151
▁Sure	-5152
▁awareness	-5153
▁nuclear	-5154
▁Bigg	-5155
▁independent	-5156
AF	-5157
▁bond	-5158
▁Tendul	-5159
▁Lucknow	-5160
oti	-5161
nces	-5162
hew	-5163
▁fixed	-5164
ule	-5165
▁Mohammad	-5166
▁proceedings	-5167
▁entered	-5168
▁complex	-5169
▁DEL	-5170
▁document	-5171
nav	-5172
▁reduced	-5173
Ts	-5174
ancy	-5175
lies	-5176
▁advoc	-5177
▁Rana	-5178
▁amb	-5179
idambaram	-5180
▁seem	-5181
HO	-5182
adra	-5183
▁games	-5184
▁spent	-5185
▁agg	-5186
▁image	-5187
▁Prab	-5188
11	-5189
▁Galaxy	-5190
ushan	-5191
▁Cro	-5192
▁participation	-5193
▁activity	-5194
▁rupees	-5195
▁medal	-5196
▁actors	-5197
▁thr	-5198
▁representatives	-5199
rits	-5200
▁Good	-5201
ensions	-5202
▁cricketer	-5203
▁Lo	-5204
▁Sik	-5205
▁marg	-5206
▁version	-5207
▁interests	-5208
▁apex	-5209
▁Sitharaman	-5210
da	-5211
4.	-5212
▁2012	-5213
▁CCT	-5214
▁valid	-5215
▁original	-5216
▁Urban	-5217
▁residents	-5218
cks	-5219
▁Nob	-5220
▁demonst	-5221
▁sales	-5222
DM	-5223
▁unique	-5224
▁communication	-5225
ooth	-5226
▁organisation	-5227
▁faced	-5228
▁doll	-5229
▁tim	-5230
▁residence	-5231
ider	-5232
iable	-5233
▁waste	-5234
penditure	-5235
▁Nir	-5236
NU	-5237
▁DELHI	-5238
▁addressing	-5239
ply	-5240
▁block	-5241
▁Mit	-5242
CS	-5243
PP	-5244
gon	-5245
enty	-5246
fort	-5247
▁creating	-5248
▁foundation	-5249
▁Has	-5250
▁policies	-5251
▁heaven	-5252
▁university	-5253
▁liqu	-5254
▁Thacker	-5255
▁fuel	-5256
riya	-5257
▁Pandey	-5258
▁pollution	-5259
▁participate	-5260
▁subsid	-5261
comm	-5262
pura	-5263
▁Tur	-5264
wadi	-5265
ima	-5266
▁Sad	-5267
▁hurt	-5268
▁Rural	-5269
▁none	-5270
▁Temple	-5271
otion	-5272
▁sexual	-5273
▁convers	-5274
▁overall	-5275
▁Srinagar	-5276
▁mill	-5277
essions	-5278
▁ancient	-5279
▁trou	-5280
▁blast	-5281
▁sympt	-5282
▁affairs	-5283
▁Chidambaram	-5284
▁Mi	-5285
▁Lab	-5286
▁corresponding	-5287
▁entry	-5288
▁fighting	-5289
▁pending	-5290
▁postmortem	-5291
▁brief	-5292
▁NEW	-5293
▁Rem	-5294
▁Navy	-5295
▁offering	-5296
▁described	-5297
▁Environment	-5298
▁Jew	-5299
▁excell	-5300
PM	-5301
▁Sikh	-5302
▁colleges	-5303
▁weather	-5304
▁respective	-5305
▁premi	-5306
▁coord	-5307
imately	-5308
▁Aadhaar	-5309
▁sell	-5310
wd	-5311
pati	-5312
▁download	-5313
▁permission	-5314
▁cancell	-5315
wara	-5316
▁Ranbir	-5317
▁worlds	-5318
▁suffering	-5319
▁negative	-5320
▁Jas	-5321
▁electricity	-5322
▁fle	-5323
▁Tendulkar	-5324
19	-5325
▁requested	-5326
▁Industries	-5327
▁prosper	-5328
▁Legisl	-5329
▁CCTV	-5330
▁Secret	-5331
hern	-5332
▁throw	-5333
▁Reserve	-5334
▁Sain	-5335
▁talking	-5336
▁raise	-5337
▁opinion	-5338
▁brand	-5339
▁simple	-5340
▁protests	-5341
▁title	-5342
▁fort	-5343
▁recommended	-5344
▁looked	-5345
▁weight	-5346
▁rescue	-5347
aste	-5348
▁middle	-5349
yn	-5350
▁Suresh	-5351
oli	-5352
▁Only	-5353
▁mach	-5354
12	-5355
▁MPs	-5356
ishing	-5357
▁thinking	-5358
▁vent	-5359
▁Citizens	-5360
▁Similarly	-5361
▁kil	-5362
▁servants	-5363
▁tests	-5364
▁brid	-5365
known	-5366
wari	-5367
▁starting	-5368
▁highlight	-5369
▁bul	-5370
▁Thackeray	-5371
▁iPhone	-5372
quarters	-5373
▁revenue	-5374
▁CS	-5375
▁toll	-5376
▁strict	-5377
▁reality	-5378
▁booked	-5379
▁damage	-5380
▁Ramesh	-5381
▁Children	-5382
ilty	-5383
eed	-5384
▁argu	-5385
hana	-5386
▁Bomb	-5387
▁profit	-5388
6.	-5389
▁virt	-5390
▁holds	-5391
▁Nitin	-5392
▁Principal	-5393
▁famous	-5394
▁standards	-5395
▁collection	-5396
amy	-5397
▁applications	-5398
ivery	-5399
phy	-5400
wor	-5401
▁Courts	-5402
▁becoming	-5403
ole	-5404
▁Programme	-5405
▁Mamata	-5406
▁demands	-5407
▁tourism	-5408
▁Ayod	-5409
ulations	-5410
▁Rashtra	-5411
▁drive	-5412
▁insp	-5413
▁Gadkari	-5414
▁stopped	-5415
▁suggested	-5416
▁female	-5417
▁educational	-5418
▁identify	-5419
▁traditional	-5420
▁knew	-5421
▁abroad	-5422
▁disapp	-5423
▁Sharif	-5424
wali	-5425
▁assets	-5426
▁guidance	-5427
▁Lead	-5428
mark	-5429
▁Rad	-5430
▁128	-5431
rival	-5432
▁white	-5433
orthern	-5434
▁Current	-5435
ugu	-5436
clus	-5437
▁gun	-5438
▁lic	-5439
If	-5440
▁size	-5441
minent	-5442
▁multi	-5443
▁Exam	-5444
▁spend	-5445
▁arrangements	-5446
▁Kings	-5447
▁Employ	-5448
sp	-5449
▁condol	-5450
▁rad	-5451
▁Eastern	-5452
taining	-5453
▁Yojana	-5454
▁powers	-5455
',	-5456
▁attacked	-5457
▁Assist	-5458
And	-5459
▁manif	-5460
rary	-5461
▁dual	-5462
oke	-5463
▁guard	-5464
▁accompanied	-5465
text	-5466
▁Ayodhya	-5467
▁believers	-5468
▁scale	-5469
▁achieved	-5470
▁AT	-5471
▁Chou	-5472
oving	-5473
▁illegal	-5474
▁II	-5475
▁difference	-5476
▁doesnt	-5477
.)	-5478
▁ign	-5479
vious	-5480
▁mercy	-5481
ecause	-5482
▁cards	-5483
▁manufacture	-5484
▁circumstances	-5485
▁clar	-5486
▁guilty	-5487
▁happiness	-5488
OS	-5489
gi	-5490
▁pleas	-5491
▁monitoring	-5492
▁Yoga	-5493
▁decide	-5494
▁Watch	-5495
▁lies	-5496
▁recovery	-5497
▁Govt	-5498
▁French	-5499
▁NDA	-5500
▁Rak	-5501
▁frequ	-5502
▁milk	-5503
kind	-5504
▁export	-5505
arpur	-5506
▁42	-5507
erted	-5508
cre	-5509
▁investors	-5510
▁computer	-5511
▁delegation	-5512
▁Advis	-5513
▁powerful	-5514
essor	-5515
▁AM	-5516
▁Av	-5517
▁Supp	-5518
▁happening	-5519
urch	-5520
▁chem	-5521
▁degrees	-5522
▁executive	-5523
▁Goyal	-5524
3.	-5525
▁Joshi	-5526
hered	-5527
▁confident	-5528
▁OF	-5529
▁encourage	-5530
▁diss	-5531
▁Ko	-5532
lict	-5533
keep	-5534
▁Mahe	-5535
▁Moses	-5536
▁restrict	-5537
▁clin	-5538
illing	-5539
▁climate	-5540
▁emb	-5541
IN	-5542
ront	-5543
▁Mohammed	-5544
gend	-5545
▁der	-5546
▁certific	-5547
repreneurs	-5548
etic	-5549
▁rapid	-5550
▁assign	-5551
▁experts	-5552
▁massive	-5553
▁Price	-5554
urement	-5555
▁Income	-5556
▁sun	-5557
itage	-5558
▁Verma	-5559
▁helps	-5560
7.	-5561
▁doctor	-5562
▁crowd	-5563
▁comments	-5564
EE	-5565
hik	-5566
▁sanction	-5567
▁burn	-5568
▁countrys	-5569
▁Jal	-5570
▁balls	-5571
▁Steel	-5572
inals	-5573
▁index	-5574
▁survey	-5575
▁integ	-5576
▁Commun	-5577
▁injury	-5578
▁processor	-5579
▁Brah	-5580
▁ED	-5581
8.	-5582
▁Telugu	-5583
ube	-5584
▁connectivity	-5585
▁Speaker	-5586
▁covered	-5587
▁usually	-5588
▁Pen	-5589
▁bringing	-5590
▁8,	-5591
▁Snap	-5592
▁missing	-5593
intend	-5594
▁desire	-5595
▁kn	-5596
▁Ang	-5597
▁44	-5598
unch	-5599
▁discussions	-5600
▁holy	-5601
▁Islamic	-5602
iveness	-5603
▁Year	-5604
▁defeat	-5605
▁attract	-5606
▁fifth	-5607
▁declined	-5608
▁objective	-5609
▁rising	-5610
▁wealth	-5611
▁advised	-5612
▁nearby	-5613
▁equipment	-5614
▁announcement	-5615
aq	-5616
itch	-5617
▁Capital	-5618
▁Xia	-5619
▁Company	-5620
▁joy	-5621
There	-5622
▁powered	-5623
▁util	-5624
▁Bhart	-5625
▁plants	-5626
▁writing	-5627
▁Hous	-5628
▁Tele	-5629
▁Jon	-5630
▁concept	-5631
▁Ama	-5632
▁Pul	-5633
▁convey	-5634
OR	-5635
uation	-5636
section	-5637
▁sacrif	-5638
▁transp	-5639
▁agricultural	-5640
▁Found	-5641
▁govt	-5642
ius	-5643
▁Bu	-5644
▁Saf	-5645
▁Devi	-5646
▁somet	-5647
▁Hindus	-5648
▁transl	-5649
▁remarks	-5650
ares	-5651
▁IPC	-5652
▁Mantri	-5653
They	-5654
▁mist	-5655
▁reforms	-5656
▁Division	-5657
▁distribution	-5658
▁Kot	-5659
▁fit	-5660
▁Petroleum	-5661
▁Five	-5662
▁moving	-5663
▁promise	-5664
▁bab	-5665
▁elig	-5666
▁Manoj	-5667
▁engaged	-5668
▁solution	-5669
▁polling	-5670
avy	-5671
▁items	-5672
▁Financial	-5673
▁fellow	-5674
▁origin	-5675
▁Manipur	-5676
▁calling	-5677
▁Media	-5678
▁promoting	-5679
itizen	-5680
▁patient	-5681
▁Swaraj	-5682
▁Yet	-5683
▁rose	-5684
▁Kamal	-5685
▁slog	-5686
▁studies	-5687
▁concerns	-5688
▁Das	-5689
▁mere	-5690
90	-5691
alm	-5692
▁Nations	-5693
▁SBI	-5694
▁user	-5695
▁task	-5696
▁Saif	-5697
▁Fa	-5698
ultan	-5699
▁cells	-5700
▁10,	-5701
▁sn	-5702
abled	-5703
cap	-5704
atra	-5705
▁Budd	-5706
▁Aamir	-5707
▁notes	-5708
▁videos	-5709
▁Muhammad	-5710
▁Australian	-5711
▁apart	-5712
▁compensation	-5713
▁Count	-5714
▁lakhs	-5715
▁aspects	-5716
▁Chaud	-5717
ishan	-5718
▁Samsung	-5719
efore	-5720
▁schol	-5721
▁DG	-5722
ifty	-5723
▁Sense	-5724
▁id	-5725
▁dign	-5726
▁Gul	-5727
▁deeds	-5728
▁minutes	-5729
▁Well	-5730
bal	-5731
▁didn	-5732
SD	-5733
▁Acad	-5734
▁counsel	-5735
-3	-5736
▁prayer	-5737
▁sustained	-5738
▁oath	-5739
▁Memor	-5740
▁homes	-5741
▁Rat	-5742
▁strategy	-5743
hir	-5744
▁amid	-5745
▁enable	-5746
▁longer	-5747
uit	-5748
▁Russian	-5749
▁See	-5750
▁Mer	-5751
nagar	-5752
▁cabinet	-5753
uris	-5754
▁Shahid	-5755
▁comprising	-5756
▁sisters	-5757
hesh	-5758
▁Sud	-5759
▁advant	-5760
▁IIT	-5761
▁diplom	-5762
▁Have	-5763
▁industries	-5764
▁hath	-5765
HE	-5766
▁MoU	-5767
gar	-5768
▁constituted	-5769
▁quoted	-5770
▁Mahindra	-5771
▁feet	-5772
▁balance	-5773
▁practices	-5774
oute	-5775
▁congratulated	-5776
▁Bombay	-5777
mosp	-5778
osite	-5779
▁sett	-5780
▁cold	-5781
▁actions	-5782
▁Saudi	-5783
tainment	-5784
▁organisations	-5785
▁nar	-5786
▁broke	-5787
▁bit	-5788
inger	-5789
▁isol	-5790
▁congregation	-5791
bre	-5792
▁Ravi	-5793
▁adding	-5794
▁Poll	-5795
▁delivery	-5796
▁Make	-5797
1.	-5798
▁seems	-5799
▁Hel	-5800
▁Meet	-5801
▁Trade	-5802
▁detained	-5803
▁Raf	-5804
▁cult	-5805
▁lines	-5806
▁deputy	-5807
▁stream	-5808
▁appointment	-5809
ales	-5810
▁warm	-5811
hek	-5812
▁Sensex	-5813
▁politic	-5814
▁looks	-5815
▁manifest	-5816
▁harm	-5817
▁professional	-5818
▁Because	-5819
▁Nawaz	-5820
▁Kuldeep	-5821
▁exact	-5822
▁occurred	-5823
overty	-5824
anta	-5825
▁rout	-5826
▁Member	-5827
son	-5828
▁Nirmala	-5829
▁write	-5830
grim	-5831
▁_	-5832
▁highly	-5833
▁Sara	-5834
▁bear	-5835
enn	-5836
▁Ir	-5837
▁enhance	-5838
▁Ajit	-5839
▁union	-5840
▁overse	-5841
iders	-5842
ashington	-5843
ken	-5844
▁Sil	-5845
▁USD	-5846
chang	-5847
lines	-5848
▁strategic	-5849
▁feed	-5850
▁memory	-5851
▁ult	-5852
lease	-5853
▁River	-5854
▁Indira	-5855
▁chance	-5856
grad	-5857
ureau	-5858
▁Prop	-5859
▁figh	-5860
▁thousands	-5861
▁Smt	-5862
▁advance	-5863
▁destroyed	-5864
▁cas	-5865
▁veget	-5866
▁judges	-5867
▁symb	-5868
▁pa	-5869
▁Akh	-5870
▁Rom	-5871
▁resolve	-5872
ney	-5873
arty	-5874
ourage	-5875
▁Ve	-5876
ador	-5877
▁Dar	-5878
alysis	-5879
▁advis	-5880
shi	-5881
▁judgment	-5882
▁Shankar	-5883
▁Gan	-5884
ancing	-5885
70	-5886
▁occup	-5887
▁planned	-5888
akshi	-5889
▁altern	-5890
ertil	-5891
ounder	-5892
▁assault	-5893
▁daughters	-5894
▁division	-5895
member	-5896
▁welcome	-5897
▁stakeholders	-5898
▁mutual	-5899
▁identity	-5900
▁operational	-5901
▁Rashtrapati	-5902
▁benefici	-5903
ails	-5904
▁Amaz	-5905
▁mode	-5906
▁neighbour	-5907
aksh	-5908
▁Forest	-5909
earing	-5910
▁promised	-5911
▁Awards	-5912
▁recommendations	-5913
▁troops	-5914
icals	-5915
▁technologies	-5916
▁charged	-5917
St	-5918
▁distance	-5919
▁Ent	-5920
like	-5921
▁debt	-5922
▁trend	-5923
ground	-5924
ww	-5925
▁poet	-5926
▁welcom	-5927
oval	-5928
enant	-5929
▁BJPs	-5930
▁awards	-5931
▁operating	-5932
alt	-5933
▁glob	-5934
▁Dub	-5935
ICI	-5936
▁Mat	-5937
▁Xiaomi	-5938
▁communities	-5939
▁Ba	-5940
fficient	-5941
▁Mic	-5942
▁solar	-5943
uing	-5944
NA	-5945
▁ec	-5946
apore	-5947
▁connected	-5948
▁clearly	-5949
▁waiting	-5950
▁43	-5951
ength	-5952
▁sleep	-5953
elled	-5954
▁behavi	-5955
▁prem	-5956
▁historic	-5957
▁curren	-5958
▁49	-5959
▁65	-5960
▁shut	-5961
thern	-5962
esters	-5963
▁mankind	-5964
BS	-5965
imb	-5966
raham	-5967
▁reportedly	-5968
Rs	-5969
▁namely	-5970
▁dark	-5971
▁Dhan	-5972
▁finally	-5973
▁firing	-5974
▁measure	-5975
▁improved	-5976
▁departments	-5977
▁steel	-5978
▁discipl	-5979
▁Ladakh	-5980
asw	-5981
▁photograph	-5982
▁af	-5983
▁quant	-5984
▁diseases	-5985
▁Smith	-5986
pass	-5987
▁passing	-5988
▁facilitate	-5989
hensive	-5990
▁absol	-5991
nov	-5992
▁begun	-5993
▁television	-5994
uting	-5995
▁debate	-5996
obile	-5997
▁Territ	-5998
▁selection	-5999
▁du	-6000
▁Market	-6001
▁constructed	-6002
▁Democ	-6003
▁remove	-6004
▁scam	-6005
▁records	-6006
▁Summit	-6007
▁delive	-6008
izations	-6009
▁Nifty	-6010
▁types	-6011
▁55	-6012
▁hom	-6013
▁phones	-6014
▁tradition	-6015
istries	-6016
▁emergency	-6017
den	-6018
itect	-6019
hishek	-6020
▁comfort	-6021
▁correct	-6022
lal	-6023
▁Ty	-6024
▁Fad	-6025
▁Realme	-6026
▁fields	-6027
▁Life	-6028
maker	-6029
▁witnessed	-6030
▁atmosp	-6031
▁HDFC	-6032
▁tree	-6033
▁harass	-6034
▁infection	-6035
gov	-6036
▁dram	-6037
▁route	-6038
▁Malik	-6039
▁Maruti	-6040
▁photos	-6041
▁adequ	-6042
AD	-6043
lick	-6044
eum	-6045
▁retail	-6046
▁asking	-6047
▁banking	-6048
▁400	-6049
navis	-6050
▁Loc	-6051
▁rupee	-6052
▁purchase	-6053
▁reference	-6054
▁38	-6055
▁defend	-6056
dragon	-6057
▁gram	-6058
▁Chouhan	-6059
board	-6060
▁2019.	-6061
ressive	-6062
▁Din	-6063
▁drugs	-6064
▁Ap	-6065
▁Turk	-6066
rav	-6067
▁ICICI	-6068
ourses	-6069
▁compre	-6070
verse	-6071
▁institution	-6072
▁scientists	-6073
outhern	-6074
icate	-6075
▁militants	-6076
▁performed	-6077
▁scientific	-6078
▁expenditure	-6079
▁Western	-6080
▁defeated	-6081
▁Snapdragon	-6082
\""	-6083
ockey	-6084
itendra	-6085
▁discl	-6086
▁animals	-6087
▁situated	-6088
▁afford	-6089
▁wonder	-6090
▁internet	-6091
▁6,	-6092
▁delivered	-6093
htar	-6094
▁collaboration	-6095
▁Park	-6096
▁detailed	-6097
▁Cy	-6098
ster	-6099
hta	-6100
▁loved	-6101
▁White	-6102
Pak	-6103
▁2009	-6104
▁Washington	-6105
▁Singapore	-6106
▁ensuring	-6107
▁Sard	-6108
ception	-6109
▁contesting	-6110
arant	-6111
▁ideas	-6112
sha	-6113
▁acting	-6114
ework	-6115
▁standing	-6116
▁procedure	-6117
▁association	-6118
▁batting	-6119
▁skin	-6120
▁newsp	-6121
▁mechanism	-6122
▁flights	-6123
▁Est	-6124
▁Gar	-6125
eless	-6126
urre	-6127
▁Shak	-6128
▁Bureau	-6129
▁skills	-6130
▁2019:	-6131
▁Abhishek	-6132
▁prominent	-6133
ii	-6134
▁Work	-6135
▁tend	-6136
▁const	-6137
▁reflect	-6138
fer	-6139
▁improving	-6140
▁door	-6141
▁Prote	-6142
cious	-6143
▁context	-6144
▁skill	-6145
▁Dil	-6146
▁Warn	-6147
▁Amendment	-6148
▁Megh	-6149
▁Fadnavis	-6150
▁Foundation	-6151
▁diver	-6152
▁audience	-6153
▁influence	-6154
▁possession	-6155
ctoral	-6156
▁statements	-6157
▁resignation	-6158
▁CBSE	-6159
▁Lakh	-6160
▁Amarinder	-6161
▁farm	-6162
▁Royal	-6163
▁RJD	-6164
has	-6165
▁transferred	-6166
▁hor	-6167
▁Apple	-6168
▁WhatsApp	-6169
▁Peter	-6170
▁Around	-6171
▁yourself	-6172
▁hour	-6173
▁voters	-6174
▁(4	-6175
▁Sir	-6176
▁suc	-6177
▁shop	-6178
▁constituencies	-6179
▁leaving	-6180
▁settle	-6181
oto	-6182
▁Amazon	-6183
▁choice	-6184
umer	-6185
heast	-6186
▁scene	-6187
▁serving	-6188
▁liber	-6189
▁happens	-6190
▁spokesman	-6191
preet	-6192
▁window	-6193
▁transform	-6194
▁scen	-6195
gent	-6196
usal	-6197
▁Tar	-6198
aduate	-6199
▁PS	-6200
right	-6201
▁Hence	-6202
▁Jer	-6203
▁Oil	-6204
owerment	-6205
▁visiting	-6206
▁Messenger	-6207
tel	-6208
rants	-6209
▁principles	-6210
▁adopted	-6211
▁purposes	-6212
▁successfully	-6213
▁Modis	-6214
intendent	-6215
▁Currently	-6216
abilities	-6217
athan	-6218
▁lawyer	-6219
▁medium	-6220
▁reb	-6221
▁web	-6222
▁caste	-6223
▁returns	-6224
.'	-6225
▁boys	-6226
yl	-6227
▁#	-6228
▁Kir	-6229
▁showing	-6230
▁Oper	-6231
▁spoken	-6232
▁juris	-6233
▁motorcy	-6234
▁succeed	-6235
▁disbelie	-6236
▁exhib	-6237
▁sport	-6238
▁intend	-6239
▁Vardhan	-6240
▁pilgrim	-6241
▁Olympic	-6242
▁elder	-6243
▁damaged	-6244
▁Max	-6245
▁cars	-6246
mal	-6247
ura	-6248
▁questioned	-6249
▁teach	-6250
gen	-6251
rison	-6252
▁Sharad	-6253
▁Jaipur	-6254
▁nab	-6255
▁fraud	-6256
▁decades	-6257
▁clause	-6258
▁Industrial	-6259
▁Keep	-6260
▁offices	-6261
forcement	-6262
▁mas	-6263
level	-6264
prises	-6265
▁prove	-6266
▁academic	-6267
pet	-6268
irperson	-6269
▁7,	-6270
▁wat	-6271
▁caught	-6272
▁organization	-6273
▁Sen	-6274
▁Account	-6275
▁Play	-6276
▁surround	-6277
▁Harsh	-6278
▁citizen	-6279
▁healthcare	-6280
night	-6281
▁Space	-6282
▁penalty	-6283
▁eye	-6284
▁Earth	-6285
▁Action	-6286
▁follows	-6287
▁Parliamentary	-6288
IMS	-6289
▁Addressing	-6290
▁Canada	-6291
▁HC	-6292
▁innovation	-6293
▁band	-6294
▁strengthening	-6295
pter	-6296
▁JNU	-6297
ilesh	-6298
▁Prom	-6299
▁Bhopal	-6300
▁perman	-6301
▁weapons	-6302
UV	-6303
▁Mark	-6304
▁Motor	-6305
amental	-6306
▁secure	-6307
▁Father	-6308
▁Sang	-6309
▁lie	-6310
▁ST	-6311
▁designed	-6312
do	-6313
▁renew	-6314
▁Tej	-6315
▁sometimes	-6316
-4	-6317
atures	-6318
▁Black	-6319
rina	-6320
▁Prat	-6321
harth	-6322
gaon	-6323
▁opposed	-6324
ava	-6325
▁magn	-6326
▁Premi	-6327
▁Official	-6328
▁requirements	-6329
RE	-6330
arian	-6331
▁Mahendra	-6332
▁exports	-6333
cel	-6334
▁Members	-6335
15	-6336
ruitment	-6337
▁amongst	-6338
▁Matt	-6339
▁belief	-6340
▁Ms	-6341
25	-6342
ria	-6343
riti	-6344
▁Vill	-6345
▁Gas	-6346
iant	-6347
▁pie	-6348
▁Stat	-6349
▁Before	-6350
ifying	-6351
iscal	-6352
▁compon	-6353
dev	-6354
ba	-6355
▁sentence	-6356
All	-6357
▁conducting	-6358
▁Station	-6359
iment	-6360
▁Script	-6361
▁Shetty	-6362
▁Though	-6363
▁1.	-6364
▁James	-6365
▁crucial	-6366
▁Exec	-6367
▁2020.	-6368
▁Staff	-6369
▁challenging	-6370
?"""	-6371
▁Show	-6372
▁Municipal	-6373
▁Jam	-6374
▁busy	-6375
▁Sant	-6376
▁conven	-6377
▁seed	-6378
▁disput	-6379
▁length	-6380
▁spin	-6381
▁Word	-6382
hus	-6383
▁Maj	-6384
▁easily	-6385
dden	-6386
▁Jawa	-6387
▁meant	-6388
▁atmosphere	-6389
▁11,	-6390
▁regions	-6391
▁Agar	-6392
▁approx	-6393
uz	-6394
pector	-6395
▁Airport	-6396
▁strongly	-6397
room	-6398
▁collected	-6399
▁youths	-6400
▁dismissed	-6401
When	-6402
▁percentage	-6403
▁Sukh	-6404
▁Ris	-6405
anasi	-6406
▁wait	-6407
▁pension	-6408
▁demanding	-6409
▁supporting	-6410
▁NH	-6411
friend	-6412
▁passenger	-6413
cha	-6414
▁nut	-6415
▁straight	-6416
▁CRPF	-6417
istans	-6418
pective	-6419
▁advice	-6420
DC	-6421
-201	-6422
▁39	-6423
▁Rajk	-6424
▁deliber	-6425
eras	-6426
▁Yah	-6427
▁Khar	-6428
oes	-6429
▁rivers	-6430
▁aid	-6431
▁governance	-6432
imal	-6433
ruits	-6434
▁Bharti	-6435
▁labour	-6436
▁Mary	-6437
▁Prot	-6438
▁Katrina	-6439
▁ability	-6440
uki	-6441
▁engineering	-6442
▁<	-6443
roc	-6444
using	-6445
▁kids	-6446
▁causes	-6447
▁conver	-6448
▁gar	-6449
▁Dutt	-6450
▁NRC	-6451
▁sad	-6452
▁prosec	-6453
▁Although	-6454
▁LO	-6455
▁drinking	-6456
▁consequ	-6457
▁Varun	-6458
DS	-6459
▁consideration	-6460
eline	-6461
▁falls	-6462
▁peoples	-6463
▁listed	-6464
▁parliamentary	-6465
▁Rajesh	-6466
▁Br	-6467
▁load	-6468
▁mental	-6469
▁Ambani	-6470
▁eligible	-6471
isher	-6472
▁larger	-6473
▁perfect	-6474
eler	-6475
▁arm	-6476
▁5-	-6477
ym	-6478
▁controversy	-6479
▁2.	-6480
teran	-6481
ashes	-6482
▁IM	-6483
cont	-6484
igen	-6485
▁Theres	-6486
▁filing	-6487
▁Rawat	-6488
▁Trust	-6489
▁undertaken	-6490
pa	-6491
▁Diwali	-6492
▁cancelled	-6493
▁Tim	-6494
▁kid	-6495
▁GDP	-6496
charged	-6497
▁crude	-6498
▁proof	-6499
▁Internet	-6500
erring	-6501
▁specified	-6502
▁headquarters	-6503
▁solid	-6504
zil	-6505
▁Allahabad	-6506
Ms	-6507
▁bird	-6508
▁channel	-6509
▁Sahib	-6510
▁Training	-6511
▁trail	-6512
▁Ira	-6513
▁Set	-6514
▁relatives	-6515
itan	-6516
▁gang	-6517
▁willing	-6518
▁investigations	-6519
oram	-6520
Go	-6521
▁east	-6522
hans	-6523
isted	-6524
▁Bet	-6525
wing	-6526
porary	-6527
▁sort	-6528
▁emot	-6529
▁undergoing	-6530
▁welcomed	-6531
▁walk	-6532
▁Jain	-6533
▁myself	-6534
▁crops	-6535
▁sustainable	-6536
▁substant	-6537
otees	-6538
▁changing	-6539
▁contribute	-6540
▁investments	-6541
onda	-6542
▁obl	-6543
▁Once	-6544
▁roll	-6545
tenance	-6546
▁Agree	-6547
▁Swach	-6548
▁Jagran	-6549
▁involve	-6550
▁shel	-6551
idden	-6552
▁Nan	-6553
▁Deepak	-6554
▁novel	-6555
▁Recently	-6556
▁cin	-6557
▁2000	-6558
▁crop	-6559
▁processing	-6560
▁Mur	-6561
▁jurisdict	-6562
▁2008	-6563
akar	-6564
▁Secondary	-6565
▁Mahesh	-6566
▁aspir	-6567
▁Arunachal	-6568
▁starts	-6569
okes	-6570
▁Tan	-6571
jection	-6572
▁46	-6573
▁cooper	-6574
▁classes	-6575
▁therein	-6576
endra	-6577
▁linked	-6578
▁appreciated	-6579
▁gard	-6580
▁2:	-6581
▁adopt	-6582
rer	-6583
cean	-6584
▁gat	-6585
▁Band	-6586
▁Desk	-6587
osop	-6588
▁Suz	-6589
assador	-6590
▁Common	-6591
▁proved	-6592
soon	-6593
▁Qur	-6594
▁dia	-6595
▁Guru	-6596
▁Abraham	-6597
▁assessment	-6598
ingu	-6599
osen	-6600
▁whereas	-6601
▁Dur	-6602
▁phil	-6603
▁Heavy	-6604
▁divided	-6605
▁Po	-6606
match	-6607
▁Dont	-6608
▁trials	-6609
▁territory	-6610
▁principal	-6611
▁teaching	-6612
▁script	-6613
▁offence	-6614
▁mos	-6615
▁fruit	-6616
▁Any	-6617
▁Devendra	-6618
mod	-6619
▁Bhushan	-6620
▁Samajwadi	-6621
ounded	-6622
On	-6623
inent	-6624
▁forced	-6625
▁Varanasi	-6626
▁alongside	-6627
▁Ren	-6628
▁code	-6629
▁pace	-6630
▁Due	-6631
iciency	-6632
cts	-6633
▁Major	-6634
▁10,000	-6635
▁arms	-6636
▁Broad	-6637
▁feeling	-6638
▁maintained	-6639
▁Investigation	-6640
▁Som	-6641
▁poverty	-6642
▁stress	-6643
▁princ	-6644
▁faces	-6645
▁lose	-6646
▁ascer	-6647
▁Manish	-6648
▁possess	-6649
▁Olympics	-6650
gypt	-6651
▁eth	-6652
▁availability	-6653
▁List	-6654
▁9,	-6655
▁Ji	-6656
owed	-6657
▁surface	-6658
kes	-6659
▁Ham	-6660
▁Organisation	-6661
orge	-6662
▁Airtel	-6663
▁Johar	-6664
▁conspir	-6665
OC	-6666
▁54	-6667
▁alert	-6668
haz	-6669
▁Gaut	-6670
▁Sidhu	-6671
▁47	-6672
▁Ki	-6673
▁jaw	-6674
▁51	-6675
wama	-6676
▁Society	-6677
onic	-6678
▁acts	-6679
▁ship	-6680
▁Kaif	-6681
Os	-6682
▁MSME	-6683
▁numer	-6684
long	-6685
▁Tiwari	-6686
▁Kab	-6687
▁administrative	-6688
weh	-6689
istrate	-6690
▁memor	-6691
alaya	-6692
▁spect	-6693
▁Azad	-6694
▁extent	-6695
▁gathering	-6696
eph	-6697
▁Rav	-6698
▁cameras	-6699
▁Jitendra	-6700
▁dialogue	-6701
▁Ret	-6702
▁satell	-6703
term	-6704
ests	-6705
▁Each	-6706
▁architect	-6707
mad	-6708
phones	-6709
▁install	-6710
▁dance	-6711
▁forget	-6712
▁samples	-6713
▁independence	-6714
▁Jawahar	-6715
▁repeated	-6716
▁symbol	-6717
▁installed	-6718
▁THE	-6719
▁adequate	-6720
▁sudden	-6721
▁complaints	-6722
nels	-6723
ensus	-6724
▁Plus	-6725
▁ID	-6726
▁grief	-6727
▁ment	-6728
▁Metro	-6729
▁equity	-6730
asa	-6731
▁1,000	-6732
orders	-6733
▁properties	-6734
▁protesters	-6735
aves	-6736
▁wild	-6737
▁Executive	-6738
▁input	-6739
▁Egypt	-6740
▁prayers	-6741
utta	-6742
▁Region	-6743
▁Rain	-6744
▁wins	-6745
▁unknown	-6746
ailed	-6747
▁pointed	-6748
▁Indones	-6749
▁Pulwama	-6750
▁Emp	-6751
ibilities	-6752
▁summit	-6753
▁formation	-6754
fit	-6755
▁aims	-6756
▁ruled	-6757
▁sugar	-6758
▁begins	-6759
▁Priv	-6760
▁friendly	-6761
ashtriya	-6762
▁Tripura	-6763
▁currency	-6764
▁symptoms	-6765
▁iron	-6766
▁fiscal	-6767
▁listen	-6768
▁Willi	-6769
▁feels	-6770
ief	-6771
enses	-6772
▁2017-1	-6773
▁Sardar	-6774
▁promotion	-6775
▁Sah	-6776
▁imag	-6777
▁Aar	-6778
▁lived	-6779
ruck	-6780
▁termin	-6781
▁taught	-6782
▁Main	-6783
▁procurement	-6784
▁guide	-6785
rations	-6786
▁Pakistans	-6787
▁showc	-6788
▁ep	-6789
▁Att	-6790
▁advantage	-6791
gery	-6792
▁Shr	-6793
▁Institut	-6794
▁schedule	-6795
▁songs	-6796
hane	-6797
65	-6798
▁marty	-6799
bon	-6800
▁error	-6801
▁gathered	-6802
was	-6803
▁fake	-6804
▁Start	-6805
▁vaccine	-6806
lin	-6807
▁struggle	-6808
itely	-6809
▁warning	-6810
isition	-6811
▁Digital	-6812
,999.	-6813
▁dated	-6814
hajan	-6815
▁edition	-6816
▁teacher	-6817
▁Bro	-6818
ansion	-6819
▁truly	-6820
▁Federation	-6821
▁unless	-6822
▁Exchange	-6823
▁Pur	-6824
eor	-6825
cheduled	-6826
▁tribal	-6827
▁Stadium	-6828
▁categories	-6829
▁vital	-6830
▁stories	-6831
▁Haz	-6832
▁expert	-6833
▁campus	-6834
▁Indo	-6835
▁chosen	-6836
una	-6837
▁imprison	-6838
▁mort	-6839
▁race	-6840
ij	-6841
▁handle	-6842
▁courage	-6843
▁slogans	-6844
▁concerning	-6845
▁15,	-6846
▁factors	-6847
▁legend	-6848
▁3.	-6849
▁Tests	-6850
▁faithful	-6851
▁literature	-6852
▁style	-6853
▁courses	-6854
▁policemen	-6855
▁1:	-6856
▁Sikk	-6857
lot	-6858
▁Brazil	-6859
▁Valley	-6860
rapy	-6861
▁failure	-6862
▁interesting	-6863
▁193	-6864
▁toward	-6865
oda	-6866
▁Ranjan	-6867
▁3:	-6868
▁intens	-6869
▁participants	-6870
atio	-6871
▁mainly	-6872
▁Gautam	-6873
▁solutions	-6874
▁(1)	-6875
▁Pass	-6876
▁awa	-6877
▁figure	-6878
harm	-6879
▁Press	-6880
▁Mukesh	-6881
▁portal	-6882
icip	-6883
▁inflation	-6884
▁Shivraj	-6885
▁reservo	-6886
abi	-6887
uja	-6888
▁Sushma	-6889
▁select	-6890
▁Academy	-6891
▁flu	-6892
uties	-6893
▁files	-6894
▁recover	-6895
▁journalist	-6896
ipped	-6897
▁tourists	-6898
▁Green	-6899
▁plus	-6900
▁constitution	-6901
▁analy	-6902
▁Everyone	-6903
▁Abdul	-6904
▁banned	-6905
▁belongs	-6906
ridor	-6907
othing	-6908
▁Please	-6909
ansk	-6910
▁toss	-6911
▁perhaps	-6912
▁peaceful	-6913
.10	-6914
▁Directorate	-6915
lit	-6916
athy	-6917
▁cul	-6918
▁newly	-6919
rack	-6920
▁heat	-6921
▁fed	-6922
▁Actress	-6923
hot	-6924
itors	-6925
▁Suzuki	-6926
▁heritage	-6927
▁52	-6928
],	-6929
▁Vikas	-6930
▁Malays	-6931
▁devices	-6932
▁wise	-6933
▁advocate	-6934
amin	-6935
▁villagers	-6936
▁stable	-6937
▁Aad	-6938
▁copy	-6939
▁twice	-6940
▁Yahweh	-6941
▁wisdom	-6942
▁Land	-6943
▁Agency	-6944
PG	-6945
▁41	-6946
▁Highways	-6947
▁instance	-6948
▁transactions	-6949
▁apostle	-6950
▁millions	-6951
▁directions	-6952
▁clash	-6953
▁emerged	-6954
▁brings	-6955
▁retire	-6956
▁Times	-6957
▁remark	-6958
▁advanced	-6959
▁centuries	-6960
▁Premier	-6961
▁opposite	-6962
usted	-6963
casting	-6964
▁inspir	-6965
▁Independence	-6966
▁Card	-6967
▁generally	-6968
▁outstanding	-6969
aving	-6970
▁Iraq	-6971
▁trees	-6972
▁dollar	-6973
payee	-6974
▁Take	-6975
▁confirm	-6976
▁elements	-6977
▁premises	-6978
▁Noida	-6979
▁arbit	-6980
▁leaves	-6981
▁helping	-6982
▁ourselves	-6983
▁please	-6984
▁Sandeep	-6985
▁Rashtriya	-6986
▁beneficiaries	-6987
▁hur	-6988
▁Officers	-6989
▁notified	-6990
▁celebrations	-6991
▁appears	-6992
ua	-6993
▁incor	-6994
erciful	-6995
ande	-6996
▁goals	-6997
▁bridge	-6998
▁prosperity	-6999
Sh	-7000
▁wont	-7001
▁Tro	-7002
▁closely	-7003
yas	-7004
▁Ric	-7005
▁west	-7006
▁250	-7007
▁council	-7008
▁armed	-7009
▁assum	-7010
▁worst	-7011
clusion	-7012
▁12,	-7013
aja	-7014
▁Total	-7015
▁labor	-7016
▁animal	-7017
▁mal	-7018
▁prescribed	-7019
utin	-7020
lights	-7021
Pakistan	-7022
▁pregn	-7023
anguly	-7024
▁Akhilesh	-7025
▁Atal	-7026
▁male	-7027
▁picked	-7028
▁writer	-7029
▁earned	-7030
▁MT	-7031
▁Friend	-7032
▁temples	-7033
hari	-7034
▁Sea	-7035
▁relative	-7036
xic	-7037
▁NI	-7038
speed	-7039
captain	-7040
▁species	-7041
.""	-7042
▁Aj	-7043
▁ven	-7044
▁Rakesh	-7045
▁models	-7046
▁CPI	-7047
▁Gaur	-7048
▁theme	-7049
▁tough	-7050
▁unity	-7051
▁distin	-7052
▁dates	-7053
▁Coronavirus	-7054
odh	-7055
▁Bhut	-7056
TE	-7057
OL	-7058
▁Kann	-7059
IG	-7060
▁Excell	-7061
▁LORD	-7062
.30	-7063
▁although	-7064
▁permanent	-7065
▁hero	-7066
An	-7067
▁external	-7068
▁appealed	-7069
▁rum	-7070
RS	-7071
▁Forces	-7072
▁stressed	-7073
▁refuge	-7074
▁Engineering	-7075
75	-7076
iyush	-7077
▁intelligence	-7078
elsius	-7079
▁120	-7080
▁functioning	-7081
jud	-7082
▁Lalu	-7083
▁Rules	-7084
▁belonging	-7085
had	-7086
▁examples	-7087
▁possibility	-7088
▁Gopal	-7089
ifications	-7090
▁fest	-7091
▁Surely	-7092
▁piv	-7093
▁@	-7094
▁IAF	-7095
▁Whe	-7096
▁Festival	-7097
▁Sciences	-7098
▁Satan	-7099
NL	-7100
-17	-7101
▁Mun	-7102
▁resigned	-7103
▁fundamental	-7104
▁1.5	-7105
▁Miz	-7106
▁location	-7107
aland	-7108
▁Chat	-7109
lets	-7110
▁papers	-7111
▁Abdullah	-7112
▁bowling	-7113
▁fruits	-7114
▁bomb	-7115
▁tank	-7116
urved	-7117
▁simply	-7118
▁inspired	-7119
▁constitutional	-7120
▁Rafale	-7121
▁quickly	-7122
employ	-7123
redit	-7124
▁seeing	-7125
osis	-7126
▁lands	-7127
igil	-7128
ography	-7129
▁greatest	-7130
▁humans	-7131
▁Natural	-7132
▁universities	-7133
▁distributed	-7134
▁allot	-7135
▁sacrifice	-7136
▁Gor	-7137
▁ODIs	-7138
ritsar	-7139
▁Arora	-7140
▁software	-7141
▁Vaj	-7142
▁Click	-7143
▁choose	-7144
▁applied	-7145
▁celebrate	-7146
▁Piyush	-7147
oting	-7148
▁Ganguly	-7149
▁rare	-7150
uff	-7151
▁aspect	-7152
▁Citizenship	-7153
▁followers	-7154
▁Agra	-7155
▁requires	-7156
▁establishment	-7157
pert	-7158
▁praise	-7159
▁doesn	-7160
▁facts	-7161
▁pattern	-7162
Ex	-7163
▁Gard	-7164
▁Chaudhary	-7165
inance	-7166
▁consumers	-7167
aling	-7168
▁quit	-7169
▁Cooperation	-7170
IV	-7171
▁selfie	-7172
▁greetings	-7173
▁Captain	-7174
▁Agreement	-7175
▁corporate	-7176
▁formal	-7177
▁believes	-7178
▁struct	-7179
▁figures	-7180
▁producer	-7181
▁electronic	-7182
▁fought	-7183
▁movies	-7184
▁replace	-7185
▁baby	-7186
▁western	-7187
▁participating	-7188
ivek	-7189
▁sky	-7190
▁driving	-7191
▁cat	-7192
▁reading	-7193
▁Insurance	-7194
▁Labour	-7195
urrection	-7196
AB	-7197
CI	-7198
Cong	-7199
▁norms	-7200
▁56	-7201
▁Rash	-7202
▁exclus	-7203
▁philosop	-7204
▁improvement	-7205
▁motiv	-7206
▁comprehensive	-7207
▁Chak	-7208
▁branch	-7209
iced	-7210
west	-7211
▁farmer	-7212
▁Assistant	-7213
▁Time	-7214
▁prepare	-7215
▁regularly	-7216
reek	-7217
▁Ros	-7218
▁Shuk	-7219
▁SMS	-7220
▁Six	-7221
▁selling	-7222
▁griev	-7223
▁privile	-7224
▁jurisdiction	-7225
oom	-7226
▁Jad	-7227
rine	-7228
▁interested	-7229
▁suffer	-7230
▁Legislative	-7231
lu	-7232
▁Chall	-7233
▁Kha	-7234
▁TMC	-7235
▁72	-7236
▁Grand	-7237
▁interact	-7238
▁entrepreneurs	-7239
▁younger	-7240
▁Obama	-7241
▁Sikkim	-7242
▁scholars	-7243
▁harmony	-7244
▁determined	-7245
▁core	-7246
▁soil	-7247
▁Meeting	-7248
▁jump	-7249
▁snow	-7250
▁Micro	-7251
▁Ish	-7252
▁consec	-7253
kart	-7254
▁stead	-7255
▁decline	-7256
▁winners	-7257
▁warned	-7258
▁dropped	-7259
▁(5	-7260
▁requirement	-7261
▁Flip	-7262
▁conflict	-7263
▁advert	-7264
▁examinations	-7265
▁angels	-7266
▁eastern	-7267
▁applicable	-7268
keeper	-7269
▁Chris	-7270
▁pivotal	-7271
arm	-7272
▁divide	-7273
▁casual	-7274
▁completion	-7275
▁verily	-7276
▁locations	-7277
▁Non	-7278
▁Vivek	-7279
▁sanctioned	-7280
▁Cust	-7281
▁Aviation	-7282
▁Arabia	-7283
▁discount	-7284
▁agend	-7285
▁BR	-7286
andum	-7287
64	-7288
nan	-7289
▁Celsius	-7290
▁approached	-7291
MT	-7292
▁voting	-7293
▁Rand	-7294
oked	-7295
▁elim	-7296
▁framework	-7297
nu	-7298
▁explos	-7299
▁investigated	-7300
▁grad	-7301
Plus	-7302
▁NG	-7303
umble	-7304
rigation	-7305
oga	-7306
▁witnesses	-7307
▁expression	-7308
--	-7309
▁Mang	-7310
▁sets	-7311
▁Puri	-7312
oration	-7313
▁Ha	-7314
rier	-7315
▁Han	-7316
▁unve	-7317
iments	-7318
▁ath	-7319
▁violation	-7320
▁53	-7321
hin	-7322
rives	-7323
▁Mil	-7324
▁democratic	-7325
▁Ambed	-7326
▁unbel	-7327
aces	-7328
▁Udd	-7329
▁Akhtar	-7330
▁describ	-7331
▁Check	-7332
▁Indore	-7333
aren	-7334
▁Agarwal	-7335
▁convict	-7336
▁retired	-7337
▁clinical	-7338
▁contains	-7339
orter	-7340
▁Narayan	-7341
▁materials	-7342
ups	-7343
▁revised	-7344
▁Huss	-7345
▁pure	-7346
▁reiter	-7347
▁concluded	-7348
▁maintenance	-7349
▁prohib	-7350
▁club	-7351
ailing	-7352
ashion	-7353
▁toler	-7354
▁storm	-7355
eria	-7356
▁organizations	-7357
rown	-7358
▁Flipkart	-7359
▁channels	-7360
▁Mc	-7361
▁Kaus	-7362
▁Despite	-7363
▁Coal	-7364
▁Sign	-7365
▁guided	-7366
▁Housing	-7367
98	-7368
anskrit	-7369
ertiliz	-7370
iring	-7371
▁Japanese	-7372
▁\""	-7373
▁AP	-7374
▁Pas	-7375
▁Sit	-7376
▁African	-7377
▁expansion	-7378
▁EV	-7379
▁Did	-7380
▁bron	-7381
▁highway	-7382
▁learned	-7383
▁functions	-7384
▁involving	-7385
▁jun	-7386
▁Innov	-7387
▁Advani	-7388
▁promises	-7389
▁owner	-7390
▁seeks	-7391
▁suit	-7392
TA	-7393
▁Ek	-7394
cles	-7395
▁Joseph	-7396
▁honoured	-7397
▁Chin	-7398
▁reaching	-7399
▁alt	-7400
▁devotees	-7401
FI	-7402
eg	-7403
▁heads	-7404
▁filled	-7405
▁probably	-7406
▁jew	-7407
▁Right	-7408
▁Shukla	-7409
▁citizenship	-7410
▁Great	-7411
▁Petrol	-7412
cription	-7413
%),	-7414
eav	-7415
▁Ev	-7416
▁leads	-7417
▁explained	-7418
bi	-7419
▁draft	-7420
ham	-7421
field	-7422
▁thats	-7423
eta	-7424
▁4:	-7425
▁travelling	-7426
▁Administration	-7427
▁master	-7428
▁abscond	-7429
▁NS	-7430
▁charging	-7431
▁furn	-7432
CO	-7433
▁labou	-7434
alam	-7435
▁uses	-7436
▁losses	-7437
▁duties	-7438
▁historical	-7439
▁admission	-7440
▁agenda	-7441
▁Jun	-7442
▁Bench	-7443
▁Sonam	-7444
▁Protection	-7445
▁Electric	-7446
▁reduction	-7447
▁Men	-7448
▁thoughts	-7449
▁CAA	-7450
struction	-7451
onom	-7452
▁supports	-7453
▁saved	-7454
▁Sindhu	-7455
▁aimed	-7456
ampur	-7457
ota	-7458
▁theat	-7459
▁effects	-7460
▁Aditya	-7461
▁exped	-7462
adekar	-7463
%.	-7464
▁remand	-7465
HA	-7466
▁effic	-7467
▁125	-7468
▁ratio	-7469
17	-7470
▁conspiracy	-7471
▁Vide	-7472
▁Da	-7473
yers	-7474
▁negoti	-7475
▁fighter	-7476
▁hang	-7477
▁brain	-7478
▁regime	-7479
anti	-7480
▁mouth	-7481
oles	-7482
ola	-7483
▁85	-7484
▁Soon	-7485
▁wake	-7486
▁‘	-7487
▁UPA	-7488
▁Ashwin	-7489
aked	-7490
▁finished	-7491
▁Jawaharlal	-7492
▁DM	-7493
▁Dinesh	-7494
xy	-7495
But	-7496
▁singer	-7497
umber	-7498
▁trouble	-7499
▁Lah	-7500
▁alloc	-7501
ilding	-7502
▁Det	-7503
▁explain	-7504
▁bid	-7505
▁floor	-7506
oves	-7507
▁Shim	-7508
▁tear	-7509
lex	-7510
▁upto	-7511
▁owners	-7512
▁Gog	-7513
▁raising	-7514
▁XI	-7515
▁ease	-7516
▁interrog	-7517
▁Marsh	-7518
▁governor	-7519
▁substantial	-7520
-21	-7521
▁marketing	-7522
cend	-7523
▁Gir	-7524
▁resulted	-7525
uhan	-7526
▁expanded	-7527
▁dangerous	-7528
My	-7529
cluding	-7530
▁jointly	-7531
▁Happ	-7532
▁Star	-7533
▁Smart	-7534
▁cum	-7535
▁Uddhav	-7536
▁gains	-7537
▁Mizoram	-7538
▁Process	-7539
oted	-7540
▁guarant	-7541
▁tot	-7542
visional	-7543
▁highlighted	-7544
▁10.	-7545
▁Pres	-7546
▁excellent	-7547
▁plane	-7548
▁observ	-7549
▁province	-7550
▁mishap	-7551
▁Disaster	-7552
▁bowler	-7553
▁football	-7554
▁Ru	-7555
kaiah	-7556
▁Raja	-7557
▁entit	-7558
▁discharged	-7559
▁toil	-7560
▁housing	-7561
DRF	-7562
want	-7563
▁fan	-7564
etary	-7565
▁compar	-7566
▁format	-7567
▁attitude	-7568
▁Superintendent	-7569
▁Jerusal	-7570
▁Jac	-7571
▁incl	-7572
▁Moreover	-7573
ibly	-7574
▁trained	-7575
▁bagged	-7576
▁Hussain	-7577
▁mix	-7578
▁sixth	-7579
▁obey	-7580
▁accompl	-7581
▁hyd	-7582
▁hair	-7583
rers	-7584
ronics	-7585
▁friendship	-7586
▁variants	-7587
▁Applic	-7588
▁Muz	-7589
▁revel	-7590
▁accordance	-7591
▁suggestions	-7592
35	-7593
▁bott	-7594
▁Badal	-7595
uration	-7596
kha	-7597
▁reservoirs	-7598
▁hotel	-7599
▁Om	-7600
▁PR	-7601
▁drop	-7602
▁Mehta	-7603
▁certificate	-7604
edy	-7605
▁coin	-7606
▁Id	-7607
▁print	-7608
▁Qualcomm	-7609
▁hundreds	-7610
awati	-7611
▁Chow	-7612
▁manager	-7613
▁widely	-7614
▁Hig	-7615
▁indu	-7616
▁shops	-7617
▁tourist	-7618
dess	-7619
▁deny	-7620
▁sufficient	-7621
▁PG	-7622
▁Jadhav	-7623
▁mandatory	-7624
▁numerous	-7625
▁Elections	-7626
rum	-7627
▁buses	-7628
▁dealing	-7629
Com	-7630
▁sight	-7631
▁trailer	-7632
▁stability	-7633
▁14,	-7634
▁payments	-7635
▁thereafter	-7636
▁thereof	-7637
▁2020,	-7638
▁Amritsar	-7639
▁wheat	-7640
▁bronze	-7641
▁announce	-7642
▁subsequently	-7643
bo	-7644
iar	-7645
▁Camp	-7646
▁Fort	-7647
▁Gram	-7648
▁variety	-7649
▁founder	-7650
eorological	-7651
▁segment	-7652
adda	-7653
▁postp	-7654
litre	-7655
utely	-7656
▁Gre	-7657
ading	-7658
▁putting	-7659
▁consumption	-7660
▁push	-7661
▁Verily	-7662
▁medals	-7663
▁acknow	-7664
▁thanked	-7665
hash	-7666
▁2017,	-7667
▁worshi	-7668
aiah	-7669
kg	-7670
▁LED	-7671
▁inher	-7672
▁Kanpur	-7673
Our	-7674
▁Crore	-7675
▁Kangana	-7676
▁Abb	-7677
▁burden	-7678
▁ANI	-7679
ariat	-7680
▁Private	-7681
▁58	-7682
▁Buddh	-7683
▁reviewed	-7684
▁Scheduled	-7685
▁impl	-7686
wala	-7687
▁Hood	-7688
▁Ambedkar	-7689
SI	-7690
▁lear	-7691
▁stre	-7692
▁fill	-7693
▁store	-7694
▁Infrastructure	-7695
▁diagn	-7696
▁Pandya	-7697
▁Trophy	-7698
▁recognised	-7699
▁IAS	-7700
itime	-7701
▁Banks	-7702
▁resolved	-7703
ki	-7704
▁Ser	-7705
▁exceed	-7706
▁learnt	-7707
▁Regional	-7708
Man	-7709
▁decre	-7710
▁auto	-7711
UN	-7712
▁Ayush	-7713
addha	-7714
▁Motors	-7715
▁resist	-7716
▁hat	-7717
▁Meghalaya	-7718
▁torque	-7719
Wh	-7720
▁cry	-7721
▁exchang	-7722
▁messages	-7723
▁pride	-7724
▁instructions	-7725
▁cook	-7726
▁fathers	-7727
▁sessions	-7728
▁Centres	-7729
▁Hand	-7730
▁Survey	-7731
MR	-7732
odia	-7733
▁apolog	-7734
▁relation	-7735
▁endeav	-7736
aria	-7737
ellect	-7738
▁indigen	-7739
▁consumer	-7740
▁Sr	-7741
▁mostly	-7742
sych	-7743
▁Nobody	-7744
▁managing	-7745
▁row	-7746
▁discrim	-7747
▁Jerusalem	-7748
▁Resources	-7749
▁74	-7750
▁causing	-7751
▁principle	-7752
wah	-7753
▁consecutive	-7754
▁represented	-7755
200	-7756
attar	-7757
▁Naval	-7758
acific	-7759
▁2018-19	-7760
▁blessings	-7761
inda	-7762
▁Swachh	-7763
▁cinema	-7764
▁Hindust	-7765
▁5.	-7766
▁67	-7767
▁Sanskrit	-7768
IF	-7769
▁touc	-7770
▁withdraw	-7771
mas	-7772
uses	-7773
▁Ahmad	-7774
▁targeted	-7775
▁2018,	-7776
▁Nagaland	-7777
▁analysis	-7778
▁firms	-7779
▁Change	-7780
▁arg	-7781
▁Cell	-7782
▁imprisonment	-7783
▁medicines	-7784
▁allows	-7785
▁otherwise	-7786
icks	-7787
▁threatened	-7788
▁Rights	-7789
ribution	-7790
▁Vol	-7791
ocking	-7792
▁Swami	-7793
▁herself	-7794
AE	-7795
-16	-7796
auty	-7797
▁Geh	-7798
▁environmental	-7799
▁wall	-7800
ipt	-7801
▁Indonesia	-7802
▁63	-7803
tees	-7804
▁imper	-7805
▁unable	-7806
▁machine	-7807
▁counterpart	-7808
▁semi	-7809
▁obtained	-7810
iciary	-7811
▁alive	-7812
▁spotted	-7813
▁Javadekar	-7814
▁researc	-7815
▁fulfilled	-7816
ellow	-7817
▁Patil	-7818
just	-7819
▁integrity	-7820
▁sovere	-7821
▁conscious	-7822
▁considering	-7823
ux	-7824
▁Coast	-7825
▁Nagpur	-7826
▁convention	-7827
▁?	-7828
▁panchayat	-7829
anj	-7830
▁Bag	-7831
▁Chem	-7832
▁outl	-7833
▁hect	-7834
gs	-7835
▁hike	-7836
▁comprises	-7837
urities	-7838
▁Investment	-7839
AY	-7840
▁Bum	-7841
▁isnt	-7842
▁Italy	-7843
▁vast	-7844
rators	-7845
▁chain	-7846
venth	-7847
▁wicked	-7848
▁drawn	-7849
▁concent	-7850
▁Va	-7851
issions	-7852
▁premium	-7853
▁Line	-7854
▁Pil	-7855
orted	-7856
quake	-7857
▁rice	-7858
▁Polit	-7859
▁Teh	-7860
▁OnePlus	-7861
▁bowlers	-7862
▁Thereafter	-7863
ilitation	-7864
45	-7865
▁worksh	-7866
▁magaz	-7867
▁commence	-7868
▁buildings	-7869
▁condolences	-7870
▁Hardik	-7871
▁auction	-7872
▁restrictions	-7873
▁Pa	-7874
raid	-7875
▁loving	-7876
asc	-7877
odi	-7878
▁reservation	-7879
appa	-7880
▁Top	-7881
aughter	-7882
▁municipal	-7883
▁uns	-7884
▁Minor	-7885
▁Steve	-7886
▁settled	-7887
▁Justices	-7888
▁producing	-7889
abu	-7890
askar	-7891
▁accidents	-7892
▁AB	-7893
▁Khanna	-7894
▁Prophet	-7895
▁Sav	-7896
uters	-7897
▁covering	-7898
▁2019,	-7899
▁absence	-7900
▁2020:	-7901
▁sites	-7902
▁AIIMS	-7903
▁)	-7904
▁Mos	-7905
▁falling	-7906
▁cow	-7907
▁wasnt	-7908
▁Adam	-7909
▁missile	-7910
2)	-7911
▁Nand	-7912
▁existence	-7913
▁presently	-7914
apse	-7915
▁capable	-7916
▁experienced	-7917
▁deeply	-7918
▁revolution	-7919
You	-7920
▁thereby	-7921
▁Ravind	-7922
▁differences	-7923
,999	-7924
▁actual	-7925
▁platforms	-7926
oly	-7927
▁Scient	-7928
▁Inc	-7929
▁uncle	-7930
▁northern	-7931
▁sensitive	-7932
▁termed	-7933
▁Tribunal	-7934
▁Myan	-7935
▁yield	-7936
▁thanks	-7937
▁Laksh	-7938
▁kingdom	-7939
▁Jade	-7940
▁calc	-7941
▁gained	-7942
▁Interest	-7943
▁smartphones	-7944
▁setup	-7945
▁vegetables	-7946
▁fold	-7947
▁gear	-7948
▁condemned	-7949
▁efficiency	-7950
▁Aay	-7951
uj	-7952
▁4.	-7953
▁supporters	-7954
▁alternative	-7955
▁Hooda	-7956
▁Gehlot	-7957
▁package	-7958
▁attra	-7959
▁coalition	-7960
▁yourselves	-7961
▁Along	-7962
eer	-7963
▁Desh	-7964
▁allocation	-7965
▁crossed	-7966
▁losing	-7967
▁batsmen	-7968
For	-7969
▁Devgn	-7970
▁Pratap	-7971
▁talked	-7972
▁approximately	-7973
▁USA	-7974
....	-7975
▁Unt	-7976
▁contra	-7977
Amendment	-7978
▁Skill	-7979
▁broken	-7980
▁integrated	-7981
▁68	-7982
▁Credit	-7983
▁imports	-7984
▁Vajpayee	-7985
och	-7986
▁Bhup	-7987
osure	-7988
▁Bumrah	-7989
▁reducing	-7990
▁nav	-7991
▁Jack	-7992
▁Madh	-7993
▁anger	-7994
▁Mayawati	-7995
▁motorcycle	-7996
▁NC	-7997
heet	-7998
adise	-7999
▁Ministries	-8000
president	-8001
▁Er	-8002
ctive	-8003
▁initially	-8004
iban	-8005
▁delight	-8006
▁southern	-8007
.25	-8008
▁nod	-8009
▁ISRO	-8010
▁enemy	-8011
▁definitely	-8012
elt	-8013
▁73	-8014
▁Trin	-8015
▁Dubai	-8016
▁disaster	-8017
▁Democratic	-8018
▁achievement	-8019
NS	-8020
▁5:	-8021
▁escape	-8022
▁recruitment	-8023
▁pal	-8024
▁paying	-8025
▁sick	-8026
▁emerging	-8027
▁worldwide	-8028
▁Planning	-8029
▁hill	-8030
▁borrow	-8031
▁whoever	-8032
?"	-8033
atar	-8034
life	-8035
olid	-8036
▁felicit	-8037
▁Consumer	-8038
hard	-8039
▁interaction	-8040
▁Um	-8041
1)	-8042
core	-8043
▁Yuv	-8044
▁inclus	-8045
▁lad	-8046
▁activists	-8047
▁tells	-8048
▁afraid	-8049
▁Ghaz	-8050
▁remind	-8051
18	-8052
▁talent	-8053
▁unfortun	-8054
▁extension	-8055
▁effectively	-8056
mAh	-8057
▁Auto	-8058
▁harassment	-8059
Congress	-8060
▁wherein	-8061
rafts	-8062
▁Pant	-8063
▁Culture	-8064
▁useful	-8065
gra	-8066
▁KL	-8067
esty	-8068
ishad	-8069
▁beneficial	-8070
place	-8071
▁Like	-8072
▁reserved	-8073
▁intention	-8074
▁subjects	-8075
▁pilot	-8076
▁mountain	-8077
▁TO	-8078
▁grew	-8079
▁Bhutan	-8080
ilas	-8081
▁enhanced	-8082
▁legislation	-8083
▁66	-8084
▁Bob	-8085
▁pit	-8086
▁Was	-8087
▁plot	-8088
igious	-8089
inating	-8090
▁tickets	-8091
▁Honda	-8092
hvi	-8093
▁MC	-8094
aration	-8095
▁ic	-8096
ulam	-8097
▁contem	-8098
▁Ravindra	-8099
▁increases	-8100
uma	-8101
▁Anur	-8102
▁womens	-8103
▁amendment	-8104
▁conservation	-8105
word	-8106
▁murd	-8107
▁enthus	-8108
%)	-8109
▁Padma	-8110
ips	-8111
▁mining	-8112
isan	-8113
▁contributed	-8114
VP	-8115
▁SUV	-8116
▁amaz	-8117
▁grounds	-8118
100	-8119
▁grat	-8120
xis	-8121
▁Jadeja	-8122
▁Muzaff	-8123
▁nomination	-8124
▁Dan	-8125
▁dim	-8126
▁Conf	-8127
▁Tomar	-8128
▁Teac	-8129
▁equipped	-8130
▁constantly	-8131
bur	-8132
salm	-8133
▁lying	-8134
▁secured	-8135
▁Malaysia	-8136
herry	-8137
▁liquid	-8138
ayam	-8139
hand	-8140
ifies	-8141
▁Through	-8142
▁forever	-8143
▁instrument	-8144
▁destination	-8145
▁Lat	-8146
▁secondary	-8147
▁implementing	-8148
▁floods	-8149
▁motion	-8150
▁Regist	-8151
ching	-8152
cers	-8153
▁Ber	-8154
oking	-8155
othes	-8156
▁depth	-8157
▁continuing	-8158
Mo	-8159
▁cord	-8160
▁medicine	-8161
▁funding	-8162
▁competitive	-8163
▁transmission	-8164
box	-8165
▁Abhi	-8166
▁sole	-8167
▁Guard	-8168
▁Mobile	-8169
▁illust	-8170
▁innovative	-8171
▁Myanmar	-8172
▁suspected	-8173
cro	-8174
▁absconding	-8175
▁Warner	-8176
▁CH	-8177
▁letters	-8178
▁achievements	-8179
▁Love	-8180
▁venture	-8181
▁divor	-8182
▁cultiv	-8183
▁Friends	-8184
▁Gogoi	-8185
▁Local	-8186
▁57	-8187
▁Matthew	-8188
▁Subhash	-8189
▁Univers	-8190
▁conferred	-8191
▁shape	-8192
▁Armed	-8193
TC	-8194
▁questioning	-8195
▁NIA	-8196
▁electoral	-8197
assion	-8198
▁Tiger	-8199
▁prize	-8200
▁Higher	-8201
▁pac	-8202
▁positions	-8203
▁hits	-8204
▁maintaining	-8205
Us	-8206
ICS	-8207
▁monthly	-8208
▁businesses	-8209
▁sed	-8210
▁forb	-8211
▁demise	-8212
▁Sources	-8213
0.	-8214
▁blind	-8215
▁taxes	-8216
▁grown	-8217
▁Ans	-8218
▁cad	-8219
▁Baba	-8220
▁Panch	-8221
▁drama	-8222
▁Mother	-8223
▁focused	-8224
▁pron	-8225
▁Nadda	-8226
▁Pawan	-8227
▁communal	-8228
▁Dec	-8229
▁Honble	-8230
▁Mart	-8231
▁struck	-8232
Un	-8233
hit	-8234
▁fix	-8235
▁Jews	-8236
▁titled	-8237
▁Stock	-8238
▁Sheikh	-8239
▁conversation	-8240
''	-8241
cher	-8242
yam	-8243
▁bed	-8244
▁Based	-8245
▁favor	-8246
picious	-8247
▁tenure	-8248
rian	-8249
gments	-8250
▁bowl	-8251
▁margin	-8252
▁moral	-8253
▁recognized	-8254
opic	-8255
break	-8256
▁excess	-8257
▁stayed	-8258
▁triple	-8259
▁Bur	-8260
ications	-8261
▁Khattar	-8262
▁99	-8263
▁Look	-8264
uka	-8265
▁5,000	-8266
▁plastic	-8267
▁overseas	-8268
▁deposit	-8269
weets	-8270
▁Shiva	-8271
ortheast	-8272
NB	-8273
▁Managing	-8274
▁tack	-8275
arnath	-8276
liness	-8277
▁eval	-8278
▁Sushil	-8279
▁methods	-8280
▁institute	-8281
iland	-8282
▁2007	-8283
▁fired	-8284
met	-8285
ulty	-8286
wani	-8287
from	-8288
▁BSE	-8289
▁consultation	-8290
gam	-8291
▁Resource	-8292
▁returning	-8293
▁Prem	-8294
▁searching	-8295
].	-8296
▁62	-8297
▁jewell	-8298
▁visits	-8299
uster	-8300
▁newspaper	-8301
inner	-8302
▁Hist	-8303
▁partys	-8304
▁prophe	-8305
arency	-8306
▁Championship	-8307
▁Paris	-8308
▁asserted	-8309
▁Hot	-8310
▁Bhat	-8311
▁gift	-8312
ocol	-8313
iform	-8314
▁rememb	-8315
▁Dom	-8316
▁Mis	-8317
noon	-8318
▁Pric	-8319
▁torment	-8320
▁blue	-8321
▁owned	-8322
▁processes	-8323
▁Viv	-8324
▁tribute	-8325
▁offences	-8326
▁Examination	-8327
▁era	-8328
▁13,	-8329
▁limits	-8330
TION	-8331
▁nominated	-8332
ANS	-8333
poll	-8334
▁ends	-8335
▁monsoon	-8336
fl	-8337
New	-8338
aksha	-8339
lihood	-8340
izes	-8341
▁fly	-8342
▁veteran	-8343
▁sem	-8344
rates	-8345
ught	-8346
identified	-8347
ario	-8348
hani	-8349
▁sharp	-8350
ateful	-8351
▁moon	-8352
▁31,	-8353
▁meets	-8354
▁50,000	-8355
▁previously	-8356
▁Ib	-8357
▁2,000	-8358
▁Penal	-8359
▁upper	-8360
UR	-8361
agues	-8362
▁Forum	-8363
rition	-8364
▁height	-8365
▁efficient	-8366
▁examined	-8367
▁champions	-8368
▁significantly	-8369
▁wearing	-8370
▁households	-8371
antic	-8372
▁Blue	-8373
▁Leader	-8374
▁Never	-8375
▁stones	-8376
▁kinds	-8377
▁2017-18	-8378
▁obvious	-8379
▁removal	-8380
▁evol	-8381
▁anywhere	-8382
▁Nam	-8383
▁1000	-8384
▁sheet	-8385
▁stronger	-8386
▁labourers	-8387
▁challenged	-8388
95	-8389
▁convicted	-8390
▁preparations	-8391
▁Je	-8392
▁2018.	-8393
iability	-8394
chell	-8395
▁Mult	-8396
▁Chandr	-8397
▁beauty	-8398
▁Fac	-8399
▁Bagh	-8400
▁Jin	-8401
▁disrupt	-8402
coh	-8403
▁images	-8404
▁telecom	-8405
▁totally	-8406
14	-8407
▁dry	-8408
▁prompt	-8409
▁towns	-8410
▁output	-8411
▁eventually	-8412
▁replied	-8413
erate	-8414
▁peak	-8415
▁pill	-8416
▁globally	-8417
pat	-8418
▁fielded	-8419
MB	-8420
▁Gr	-8421
▁Veh	-8422
▁sins	-8423
idelines	-8424
oba	-8425
asan	-8426
▁rom	-8427
▁aside	-8428
▁mAh	-8429
▁merely	-8430
▁Panchay	-8431
force	-8432
▁borders	-8433
▁2017.	-8434
▁Index	-8435
cohol	-8436
▁Mitchell	-8437
▁Islamabad	-8438
▁Care	-8439
▁Naik	-8440
▁Gurd	-8441
▁links	-8442
▁impart	-8443
DF	-8444
▁Nick	-8445
aution	-8446
▁metal	-8447
▁footage	-8448
▁visible	-8449
▁Math	-8450
▁keen	-8451
inar	-8452
▁Which	-8453
▁affordable	-8454
▁opens	-8455
emies	-8456
works	-8457
▁integral	-8458
etisation	-8459
orious	-8460
▁Shami	-8461
isement	-8462
▁combat	-8463
more	-8464
▁Deb	-8465
▁hyp	-8466
▁Vinod	-8467
▁Maur	-8468
▁2014,	-8469
▁Small	-8470
▁Ayushman	-8471
▁dy	-8472
▁Quran	-8473
▁behaviour	-8474
otton	-8475
▁Mount	-8476
▁square	-8477
▁resource	-8478
▁protesting	-8479
▁Bay	-8480
▁permit	-8481
▁amended	-8482
▁cleared	-8483
▁conce	-8484
▁Nay	-8485
di	-8486
▁Jai	-8487
▁stret	-8488
▁coverage	-8489
▁exem	-8490
▁vess	-8491
▁acquisition	-8492
ica	-8493
wag	-8494
▁16,	-8495
▁Again	-8496
▁Woman	-8497
▁bigger	-8498
▁microSD	-8499
PA	-8500
▁Anant	-8501
othe	-8502
▁Mul	-8503
alities	-8504
endar	-8505
▁bike	-8506
▁immense	-8507
▁attached	-8508
eft	-8509
emed	-8510
ighty	-8511
▁tension	-8512
▁rival	-8513
▁BSF	-8514
▁Punjabi	-8515
▁pick	-8516
▁smaller	-8517
▁ble	-8518
▁overt	-8519
▁Selection	-8520
▁difficulties	-8521
.11	-8522
▁pair	-8523
▁attempts	-8524
hotra	-8525
▁sixes	-8526
▁loy	-8527
ulating	-8528
▁Nation	-8529
▁69	-8530
▁Ved	-8531
claim	-8532
▁absolutely	-8533
CE	-8534
atab	-8535
ibrary	-8536
lement	-8537
▁permitted	-8538
▁retirement	-8539
▁Yash	-8540
▁disciples	-8541
▁sanitation	-8542
▁Text	-8543
rome	-8544
▁Tir	-8545
▁rang	-8546
▁Professor	-8547
▁Williams	-8548
▁59	-8549
▁color	-8550
liminary	-8551
▁replaced	-8552
hael	-8553
organ	-8554
iri	-8555
▁Madras	-8556
▁feelings	-8557
▁Employment	-8558
oa	-8559
mine	-8560
class	-8561
▁starred	-8562
▁violent	-8563
▁fees	-8564
▁experiences	-8565
▁Results	-8566
▁factory	-8567
▁entitled	-8568
▁Jy	-8569
uded	-8570
owing	-8571
▁Corporate	-8572
LC	-8573
▁mir	-8574
▁Akbar	-8575
▁recon	-8576
▁generations	-8577
▁journalists	-8578
▁hall	-8579
▁Dam	-8580
▁spl	-8581
lis	-8582
bu	-8583
ampion	-8584
▁Result	-8585
▁statue	-8586
▁disbelieve	-8587
▁Border	-8588
▁RRB	-8589
▁tea	-8590
▁crew	-8591
▁Roshan	-8592
▁nobody	-8593
▁fashion	-8594
▁associate	-8595
▁judgement	-8596
▁background	-8597
▁FY	-8598
irect	-8599
▁Does	-8600
▁attending	-8601
▁Journ	-8602
▁argument	-8603
▁athlet	-8604
▁emotional	-8605
▁performing	-8606
▁Use	-8607
licop	-8608
▁engage	-8609
chand	-8610
stood	-8611
▁Irani	-8612
▁finger	-8613
Th	-8614
ellectual	-8615
▁Memorial	-8616
orough	-8617
▁pilgrims	-8618
oph	-8619
22	-8620
▁plain	-8621
▁satellite	-8622
▁keeps	-8623
▁portion	-8624
▁Rev	-8625
▁Annual	-8626
▁cool	-8627
▁Taliban	-8628
lor	-8629
▁Mill	-8630
house	-8631
▁appearing	-8632
▁childhood	-8633
▁birds	-8634
▁honor	-8635
▁encouraged	-8636
randed	-8637
▁dwell	-8638
▁forgive	-8639
▁receipt	-8640
▁sending	-8641
bhp	-8642
▁Clim	-8643
▁radio	-8644
▁sac	-8645
▁Ranaut	-8646
▁isolated	-8647
rick	-8648
▁Britain	-8649
▁joining	-8650
▁helicop	-8651
▁watching	-8652
alling	-8653
▁humanity	-8654
antly	-8655
▁zone	-8656
▁Youn	-8657
▁valu	-8658
▁regulations	-8659
▁Turkey	-8660
▁spending	-8661
▁Back	-8662
▁Hall	-8663
▁spreading	-8664
▁Meteorological	-8665
▁Jonas	-8666
▁Anurag	-8667
okh	-8668
rie	-8669
▁surve	-8670
▁locals	-8671
free	-8672
▁sequ	-8673
▁2019-20	-8674
▁passes	-8675
▁coaches	-8676
▁pul	-8677
omen	-8678
▁deals	-8679
TS	-8680
▁pleasure	-8681
▁fish	-8682
▁habit	-8683
▁turns	-8684
▁Shraddha	-8685
vation	-8686
▁remote	-8687
▁Malhotra	-8688
▁Lax	-8689
▁RE	-8690
ovenant	-8691
▁inclusive	-8692
▁approves	-8693
▁bought	-8694
▁phases	-8695
▁entering	-8696
▁Panchayat	-8697
otic	-8698
▁Sl	-8699
▁farming	-8700
prit	-8701
▁park	-8702
▁acted	-8703
▁combined	-8704
▁Relations	-8705
▁proposals	-8706
▁rid	-8707
▁Rani	-8708
▁glad	-8709
cellor	-8710
▁poster	-8711
▁suitable	-8712
▁upgrad	-8713
▁produces	-8714
ystem	-8715
▁interim	-8716
▁displayed	-8717
▁unidentified	-8718
.12	-8719
haraoh	-8720
▁hence	-8721
▁apparent	-8722
▁consists	-8723
▁Nor	-8724
ferences	-8725
▁responded	-8726
▁Vadra	-8727
▁Talking	-8728
▁Merciful	-8729
.50	-8730
artments	-8731
▁controlled	-8732
▁commod	-8733
▁radi	-8734
▁IR	-8735
CM	-8736
unk	-8737
▁PV	-8738
▁2018:	-8739
▁Vikram	-8740
▁engagement	-8741
16	-8742
anand	-8743
▁glass	-8744
▁featured	-8745
▁captured	-8746
▁generated	-8747
jeet	-8748
▁Heb	-8749
▁paise	-8750
▁servant	-8751
giving	-8752
▁ships	-8753
ruction	-8754
▁coastal	-8755
heb	-8756
owered	-8757
▁contained	-8758
▁AD	-8759
▁Expl	-8760
▁Wind	-8761
▁Kannada	-8762
▁Aayog	-8763
▁defined	-8764
▁Thir	-8765
▁generate	-8766
unications	-8767
▁reiterated	-8768
dh	-8769
▁acid	-8770
▁aband	-8771
▁BRICS	-8772
mun	-8773
▁Corona	-8774
atically	-8775
▁Lahore	-8776
▁Hong	-8777
▁gate	-8778
▁smooth	-8779
▁12.	-8780
▁zero	-8781
▁Aaron	-8782
utation	-8783
▁000	-8784
SR	-8785
atha	-8786
last	-8787
▁Mald	-8788
▁pion	-8789
▁incorpor	-8790
▁neighbours	-8791
wahati	-8792
▁Mally	-8793
▁worse	-8794
▁fulfill	-8795
▁Inspector	-8796
▁mountains	-8797
▁fab	-8798
▁recognition	-8799
makers	-8800
related	-8801
ishankar	-8802
13	-8803
ishw	-8804
aswamy	-8805
▁attrib	-8806
▁Session	-8807
Nm	-8808
)."	-8809
▁600	-8810
▁Lank	-8811
▁Poon	-8812
ulative	-8813
▁Vas	-8814
▁crash	-8815
▁decade	-8816
▁hub	-8817
▁vul	-8818
▁Alex	-8819
▁Bre	-8820
rence	-8821
▁Miss	-8822
▁Kong	-8823
▁declare	-8824
▁wonderful	-8825
▁institutional	-8826
▁Que	-8827
▁Cert	-8828
▁poly	-8829
▁prest	-8830
egr	-8831
jot	-8832
▁Girl	-8833
▁closer	-8834
▁tributes	-8835
▁Subsequently	-8836
▁78	-8837
▁sav	-8838
▁trip	-8839
▁treas	-8840
▁latter	-8841
▁worker	-8842
▁researchers	-8843
fare	-8844
▁folk	-8845
▁gods	-8846
▁Bengali	-8847
▁allowing	-8848
fan	-8849
▁crimes	-8850
▁makers	-8851
▁achieving	-8852
▁lens	-8853
▁Harb	-8854
▁mixed	-8855
▁manage	-8856
oso	-8857
▁Bajaj	-8858
▁flat	-8859
▁Parri	-8860
▁pip	-8861
▁Michael	-8862
▁mineral	-8863
▁Peace	-8864
▁glory	-8865
▁enjoyed	-8866
▁transportation	-8867
pher	-8868
▁sanct	-8869
▁lawyers	-8870
▁Mall	-8871
apuram	-8872
▁Aadmi	-8873
▁ideal	-8874
▁winner	-8875
▁simpl	-8876
▁salary	-8877
▁Kath	-8878
soever	-8879
▁2016,	-8880
rith	-8881
▁wave	-8882
▁earthquake	-8883
osal	-8884
encing	-8885
▁Safety	-8886
▁infected	-8887
▁Secretariat	-8888
▁cycl	-8889
Tube	-8890
▁Big	-8891
▁knowing	-8892
▁wives	-8893
▁Shikhar	-8894
:-	-8895
▁pled	-8896
▁Consult	-8897
▁assigned	-8898
Do	-8899
enth	-8900
▁wear	-8901
▁accommod	-8902
▁investigate	-8903
▁tally	-8904
▁significance	-8905
▁camps	-8906
▁employee	-8907
▁Charge	-8908
▁wished	-8909
▁consequences	-8910
▁asks	-8911
▁Death	-8912
▁prophet	-8913
▁visitors	-8914
▁95	-8915
▁Pud	-8916
▁Trip	-8917
▁acres	-8918
▁expenses	-8919
▁Companies	-8920
▁coordination	-8921
ugg	-8922
/2	-8923
adur	-8924
▁excited	-8925
▁Ambassador	-8926
▁studied	-8927
▁fitness	-8928
▁conclusion	-8929
▁contributions	-8930
LD	-8931
iabet	-8932
▁Thar	-8933
▁elders	-8934
inking	-8935
▁answered	-8936
alle	-8937
days	-8938
▁Moto	-8939
▁wing	-8940
▁distingu	-8941
▁qualified	-8942
▁appearance	-8943
▁continuous	-8944
▁Benef	-8945
▁valley	-8946
▁cloud	-8947
▁portf	-8948
wicket	-8949
atri	-8950
No	-8951
▁volume	-8952
▁Hell	-8953
▁patri	-8954
ureshi	-8955
▁accur	-8956
▁traders	-8957
▁Partners	-8958
▁Job	-8959
inter	-8960
▁Viet	-8961
▁Revenue	-8962
▁equival	-8963
▁acquired	-8964
born	-8965
itya	-8966
▁angry	-8967
▁innoc	-8968
ndering	-8969
▁waters	-8970
▁properly	-8971
rator	-8972
▁likes	-8973
UTs	-8974
▁Kim	-8975
akumar	-8976
▁Climate	-8977
ulses	-8978
▁Muft	-8979
▁Pict	-8980
▁rock	-8981
▁Sonakshi	-8982
▁77	-8983
▁older	-8984
▁manual	-8985
▁exactly	-8986
▁grateful	-8987
▁Ghosh	-8988
▁Ocean	-8989
▁hosted	-8990
▁pronoun	-8991
▁articles	-8992
km	-8993
ridge	-8994
▁marked	-8995
▁conveyed	-8996
▁17,	-8997
▁bright	-8998
▁MW	-8999
ilipp	-9000
▁Order	-9001
▁shift	-9002
▁railways	-9003
▁transparency	-9004
▁{	-9005
▁touched	-9006
▁primarily	-9007
acc	-9008
ato	-9009
NC	-9010
▁Guwahati	-9011
▁discipline	-9012
acing	-9013
aying	-9014
▁Bhawan	-9015
▁astray	-9016
▁destruction	-9017
pol	-9018
▁worried	-9019
▁hun	-9020
▁Marathi	-9021
icky	-9022
▁duo	-9023
iation	-9024
▁involvement	-9025
▁Mel	-9026
habilitation	-9027
▁ambit	-9028
▁shock	-9029
▁Hindustan	-9030
▁YouTube	-9031
▁launches	-9032
▁characters	-9033
reme	-9034
▁afternoon	-9035
▁Integr	-9036
▁festiv	-9037
▁opener	-9038
▁Standard	-9039
She	-9040
▁6.	-9041
alpur	-9042
▁Left	-9043
rorism	-9044
▁metro	-9045
▁relax	-9046
▁incent	-9047
▁liquor	-9048
▁controversial	-9049
▁Support	-9050
▁rapidly	-9051
▁Working	-9052
-5	-9053
▁thin	-9054
▁customer	-9055
-10	-9056
▁190	-9057
india	-9058
▁Prevention	-9059
qual	-9060
▁Ext	-9061
iman	-9062
uram	-9063
itaries	-9064
▁pretty	-9065
▁painful	-9066
▁eg	-9067
▁Treat	-9068
▁minds	-9069
nect	-9070
▁Resp	-9071
What	-9072
▁Agricultural	-9073
▁stages	-9074
▁18,	-9075
▁visa	-9076
▁Mexic	-9077
▁Judges	-9078
▁deposits	-9079
▁Data	-9080
▁Syria	-9081
▁suspect	-9082
▁reasonable	-9083
PR	-9084
andal	-9085
▁Down	-9086
▁Happy	-9087
▁click	-9088
▁IPS	-9089
venues	-9090
▁allocated	-9091
lean	-9092
▁van	-9093
▁Free	-9094
▁Khans	-9095
cket	-9096
▁Silver	-9097
▁blessed	-9098
▁understood	-9099
▁specifications	-9100
cript	-9101
▁alcohol	-9102
▁judiciary	-9103
asts	-9104
▁Spain	-9105
vir	-9106
▁Tru	-9107
cture	-9108
▁Emer	-9109
▁preparing	-9110
▁raped	-9111
▁membership	-9112
▁Enterprises	-9113
BA	-9114
ranches	-9115
▁Wi	-9116
▁Bul	-9117
▁(201	-9118
▁irrigation	-9119
mukh	-9120
anation	-9121
▁Number	-9122
▁objectives	-9123
▁stocks	-9124
▁Philipp	-9125
▁Parrikar	-9126
▁Technical	-9127
▁MG	-9128
DT	-9129
▁Case	-9130
▁backed	-9131
ganj	-9132
utch	-9133
▁lowest	-9134
▁finding	-9135
▁Intelligence	-9136
adh	-9137
ishwarya	-9138
▁ascertained	-9139
▁unbelievers	-9140
USH	-9141
roff	-9142
▁IG	-9143
▁Eff	-9144
▁Malay	-9145
▁email	-9146
▁hockey	-9147
▁slight	-9148
▁burning	-9149
▁AY	-9150
aceut	-9151
achinery	-9152
▁Whether	-9153
▁covenant	-9154
▁entrance	-9155
itt	-9156
harmaceut	-9157
▁30,	-9158
▁divine	-9159
▁Rishi	-9160
▁catch	-9161
▁flash	-9162
▁psych	-9163
▁element	-9164
▁Production	-9165
▁worry	-9166
▁editor	-9167
▁Phase	-9168
▁Paswan	-9169
missions	-9170
haw	-9171
▁lev	-9172
▁faster	-9173
▁...	-9174
▁Ast	-9175
▁protected	-9176
Fi	-9177
▁71	-9178
▁surre	-9179
▁arrangement	-9180
▁epis	-9181
▁Kish	-9182
▁cli	-9183
▁Anup	-9184
▁Hold	-9185
▁Live	-9186
▁breath	-9187
▁vacant	-9188
▁Magistrate	-9189
▁forgiveness	-9190
lad	-9191
▁mine	-9192
▁enemies	-9193
▁rein	-9194
▁Chauhan	-9195
▁intended	-9196
▁criticism	-9197
FP	-9198
▁SS	-9199
weep	-9200
▁Johns	-9201
▁anybody	-9202
▁legislative	-9203
▁Nic	-9204
▁Raut	-9205
▁Shroff	-9206
▁commissioner	-9207
rif	-9208
▁Ragh	-9209
37	-9210
▁Ive	-9211
▁center	-9212
▁targets	-9213
▁256	-9214
▁enrol	-9215
▁Aishwarya	-9216
▁satisfaction	-9217
stream	-9218
▁Mufti	-9219
▁Ray	-9220
aming	-9221
▁dil	-9222
▁powder	-9223
▁Gow	-9224
▁Hem	-9225
▁Mandi	-9226
▁praised	-9227
ujar	-9228
teen	-9229
▁Museum	-9230
raph	-9231
▁cattle	-9232
▁dust	-9233
▁arrival	-9234
▁comprom	-9235
unte	-9236
▁personally	-9237
uke	-9238
▁seeds	-9239
▁street	-9240
▁representing	-9241
▁6:	-9242
▁Sunny	-9243
▁dreams	-9244
▁resulting	-9245
gies	-9246
▁Yam	-9247
▁Rath	-9248
▁institutes	-9249
▁situations	-9250
▁Territories	-9251
▁disbelievers	-9252
▁inspiration	-9253
▁examine	-9254
▁secular	-9255
▁subsidy	-9256
▁tremend	-9257
▁Venkaiah	-9258
2020	-9259
▁answers	-9260
▁gross	-9261
▁string	-9262
▁preaching	-9263
▁continuously	-9264
berg	-9265
▁Dani	-9266
▁Himal	-9267
ourable	-9268
▁reveal	-9269
▁Gamb	-9270
▁refers	-9271
▁Thailand	-9272
▁studying	-9273
▁evac	-9274
sequent	-9275
▁outcome	-9276
▁unemploy	-9277
itz	-9278
yap	-9279
▁Aur	-9280
▁Bihari	-9281
▁Review	-9282
▁agitation	-9283
▁AK	-9284
▁franch	-9285
▁Personnel	-9286
▁enhancing	-9287
▁execution	-9288
▁colon	-9289
▁scope	-9290
atories	-9291
▁illness	-9292
anes	-9293
▁Rajendra	-9294
mendra	-9295
▁explo	-9296
▁solve	-9297
▁harvest	-9298
▁Innovation	-9299
▁nurs	-9300
rithik	-9301
▁operate	-9302
▁shortage	-9303
lete	-9304
▁Mala	-9305
▁exit	-9306
▁rescued	-9307
▁wood	-9308
▁united	-9309
▁directors	-9310
resents	-9311
▁Mallya	-9312
▁Shimla	-9313
▁Kris	-9314
▁legislators	-9315
▁pleased	-9316
▁shortly	-9317
▁inaugurate	-9318
▁capabilities	-9319
▁chapter	-9320
▁dignitaries	-9321
▁Blu	-9322
acting	-9323
▁Front	-9324
▁abuse	-9325
▁George	-9326
itary	-9327
▁Raman	-9328
▁developments	-9329
rahim	-9330
▁Korean	-9331
▁diplomatic	-9332
▁neighbouring	-9333
▁SE	-9334
▁Pank	-9335
▁uniform	-9336
power	-9337
▁summer	-9338
▁Kashmiri	-9339
▁Broadcasting	-9340
▁bapt	-9341
▁susp	-9342
▁programs	-9343
▁NT	-9344
▁gap	-9345
illance	-9346
▁Convention	-9347
▁Rober	-9348
guard	-9349
▁Name	-9350
▁update	-9351
riev	-9352
▁Joe	-9353
▁UAE	-9354
▁Acts	-9355
▁pump	-9356
▁streets	-9357
ultaneous	-9358
85	-9359
97	-9360
-15	-9361
▁Soura	-9362
▁minority	-9363
▁transaction	-9364
▁Light	-9365
▁unjust	-9366
tha	-9367
▁preparation	-9368
inity	-9369
▁NITI	-9370
▁obtain	-9371
▁Vivo	-9372
▁Greek	-9373
ucherry	-9374
▁scenario	-9375
▁purchased	-9376
24	-9377
▁SSP	-9378
▁tong	-9379
▁Azhar	-9380
ections	-9381
▁acquit	-9382
org	-9383
iabetes	-9384
▁couldnt	-9385
▁delayed	-9386
zes	-9387
▁6-	-9388
▁Azam	-9389
▁metres	-9390
▁shelter	-9391
▁surgery	-9392
▁Secretaries	-9393
▁appreciation	-9394
atics	-9395
▁Were	-9396
▁Journal	-9397
▁professor	-9398
udhi	-9399
▁Ked	-9400
▁Kes	-9401
▁sear	-9402
▁colours	-9403
▁Video	-9404
Del	-9405
lar	-9406
▁jawans	-9407
How	-9408
puri	-9409
▁Gill	-9410
▁Khur	-9411
▁Qureshi	-9412
▁quarant	-9413
rank	-9414
▁Had	-9415
▁fastest	-9416
iny	-9417
▁Bose	-9418
▁Mehbo	-9419
▁Hrithik	-9420
▁Calc	-9421
▁Sangh	-9422
▁repent	-9423
▁turning	-9424
▁DC	-9425
▁Phil	-9426
SM	-9427
▁Xi	-9428
▁130	-9429
amation	-9430
ifically	-9431
▁careful	-9432
▁survived	-9433
▁acceler	-9434
▁reaction	-9435
pes	-9436
▁tur	-9437
▁hosts	-9438
olic	-9439
▁pist	-9440
▁sentenced	-9441
itra	-9442
▁Chahal	-9443
ENT	-9444
umn	-9445
▁Squ	-9446
▁artist	-9447
▁corner	-9448
▁ensured	-9449
▁disputes	-9450
ford	-9451
odaf	-9452
water	-9453
▁tum	-9454
odhpur	-9455
▁Rashid	-9456
▁amazing	-9457
▁riots	-9458
zy	-9459
▁strengthened	-9460
▁Aud	-9461
▁composed	-9462
▁Naz	-9463
▁yoga	-9464
▁AYUSH	-9465
limited	-9466
▁20,	-9467
▁anx	-9468
▁livelihood	-9469
67	-9470
▁represents	-9471
sters	-9472
▁Sidharth	-9473
▁indigenous	-9474
▁combination	-9475
▁22,	-9476
▁Fran	-9477
▁Model	-9478
▁Rup	-9479
▁pages	-9480
▁carbon	-9481
▁nomine	-9482
300	-9483
▁7.	-9484
ques	-9485
print	-9486
utory	-9487
▁trigg	-9488
▁wrest	-9489
▁hopes	-9490
▁representative	-9491
▁Beh	-9492
▁Saj	-9493
ossible	-9494
▁exempt	-9495
▁Jaishankar	-9496
▁procedures	-9497
▁practical	-9498
agon	-9499
ixels	-9500
arliest	-9501
▁Path	-9502
▁Hyund	-9503
▁taste	-9504
▁fulfil	-9505
▁Puducherry	-9506
omic	-9507
▁14.	-9508
▁Full	-9509
▁Roman	-9510
▁driven	-9511
▁deterior	-9512
aped	-9513
▁2.5	-9514
▁Move	-9515
▁Than	-9516
▁Dharmendra	-9517
▁amendments	-9518
So	-9519
▁Ri	-9520
aved	-9521
ishe	-9522
▁Ord	-9523
oral	-9524
▁Launch	-9525
▁personality	-9526
▁—	-9527
▁distan	-9528
▁branches	-9529
▁congratulate	-9530
▁winter	-9531
▁colleagues	-9532
▁Rajan	-9533
▁earliest	-9534
EA	-9535
▁stranded	-9536
▁equivalent	-9537
omas	-9538
▁indul	-9539
osystem	-9540
ertilizers	-9541
▁chairperson	-9542
Pro	-9543
▁compassion	-9544
GA	-9545
olen	-9546
▁withdrawal	-9547
▁Clin	-9548
▁larg	-9549
minton	-9550
▁Creat	-9551
▁minus	-9552
▁voted	-9553
▁biopic	-9554
▁upload	-9555
▁machines	-9556
▁relationships	-9557
zen	-9558
arer	-9559
igade	-9560
▁cricketers	-9561
.75	-9562
▁Ansari	-9563
▁fabric	-9564
achi	-9565
▁chose	-9566
▁surprised	-9567
▁grace	-9568
▁Basket	-9569
▁therapy	-9570
▁Represent	-9571
▁batt	-9572
▁diet	-9573
▁mosque	-9574
▁sacred	-9575
▁mistake	-9576
▁reaches	-9577
▁forecast	-9578
▁traditions	-9579
▁Organization	-9580
▁encouraging	-9581
dis	-9582
▁Series	-9583
▁Hyundai	-9584
▁tight	-9585
▁Gorakh	-9586
▁Maldives	-9587
▁airports	-9588
anga	-9589
▁invite	-9590
▁regret	-9591
▁unveiled	-9592
▁(2)	-9593
▁SIT	-9594
▁Tag	-9595
▁Nirav	-9596
▁exists	-9597
▁routes	-9598
iala	-9599
▁24,	-9600
▁Rupe	-9601
▁2016.	-9602
▁clothes	-9603
ls	-9604
▁exhibition	-9605
▁19,	-9606
▁addresses	-9607
▁bullet	-9608
▁volunt	-9609
▁Judicial	-9610
▁overcome	-9611
▁ok	-9612
▁Nok	-9613
▁Surat	-9614
▁marry	-9615
▁intent	-9616
▁parame	-9617
▁threats	-9618
▁whenever	-9619
▁emphasized	-9620
isi	-9621
fast	-9622
▁Pension	-9623
▁rankings	-9624
hak	-9625
itha	-9626
▁tools	-9627
▁84	-9628
▁Till	-9629
▁Vodaf	-9630
▁Janhvi	-9631
▁Institutions	-9632
▁maid	-9633
ilitary	-9634
▁easier	-9635
▁strikes	-9636
ocon	-9637
▁Ach	-9638
▁timely	-9639
▁consent	-9640
▁Fate	-9641
▁Jagan	-9642
▁diverse	-9643
unar	-9644
▁culp	-9645
▁gradu	-9646
▁releases	-9647
▁philosophy	-9648
▁settlement	-9649
▁2006	-9650
▁eating	-9651
OP	-9652
nty	-9653
▁Smriti	-9654
▁aw	-9655
ander	-9656
▁outbreak	-9657
▁Officials	-9658
▁Rama	-9659
▁Anti	-9660
enture	-9661
▁Medic	-9662
▁immun	-9663
▁mm	-9664
▁Goddess	-9665
▁Northern	-9666
orne	-9667
▁Direct	-9668
▁vulner	-9669
▁universal	-9670
▁Near	-9671
▁presentation	-9672
▁cart	-9673
▁champion	-9674
▁pertaining	-9675
▁LPG	-9676
ndered	-9677
▁oblig	-9678
▁eve	-9679
▁Cast	-9680
▁Taking	-9681
▁expectations	-9682
▁NSE	-9683
▁Trinam	-9684
undering	-9685
▁Kaly	-9686
conomic	-9687
ependent	-9688
▁occasions	-9689
▁IANS	-9690
▁pool	-9691
▁seventh	-9692
▁Fe	-9693
▁Prabhu	-9694
▁Jodhpur	-9695
▁indicated	-9696
▁Tribal	-9697
▁unfortunate	-9698
itis	-9699
▁assemb	-9700
▁chemical	-9701
▁professionals	-9702
▁800	-9703
▁Shakti	-9704
▁scan	-9705
▁stun	-9706
▁tool	-9707
▁kilomet	-9708
▁sincere	-9709
▁flagship	-9710
▁island	-9711
▁observe	-9712
▁supposed	-9713
▁76	-9714
▁anticip	-9715
▁ju	-9716
▁PAN	-9717
▁mortem	-9718
operative	-9719
alli	-9720
▁Cam	-9721
▁Den	-9722
▁Middle	-9723
▁shrine	-9724
▁	-9725
e	-9726
a	-9727
t	-9728
i	-9729
n	-9730
o	-9731
r	-9732
s	-9733
h	-9734
d	-9735
l	-9736
c	-9737
u	-9738
m	-9739
f	-9740
p	-9741
g	-9742
y	-9743
w	-9744
b	-9745
.	-9746
v	-9747
,	-9748
k	-9749
S	-9750
T	-9751
I	-9752
A	-9753
M	-9754
P	-9755
C	-9756
"	-9757
B	-9758
0	-9759
R	-9760
1	-9761
D	-9762
H	-9763
-	-9764
j	-9765
2	-9766
N	-9767
G	-9768
x	-9769
K	-9770
J	-9771
W	-9772
E	-9773
)	-9774
(	-9775
F	-9776
L	-9777
O	-9778
'	-9779
5	-9780
U	-9781
9	-9782
3	-9783
:	-9784
4	-9785
q	-9786
V	-9787
6	-9788
8	-9789
z	-9790
7	-9791
Y	-9792
?	-9793
/	-9794
%	-9795
&	-9796
!	-9797
Z	-9798
Q	-9799
X	-9800
]	-9801
[	-9802
$	-9803
’	-9804
+	-9805
|	-9806
“	-9807
_	-9808
\	-9809
>	-9810
”	-9811
@	-9812
#	-9813
<	-9814
‘	-9815
*	-9816
}	-9817
{	-9818
;	-9819
`	-9820
—	-9821
=	-9822
–	-9823
°	-9824
~	-9825
ा	-9826
क	-9827
र	-9828
्	-9829
×	-9830
^	-9831
ी	-9832
े	-9833
ं	-9834
ि	-9835
न	-9836
®	-9837
स	-9838
त	-9839
म	-9840
ह	-9841
प	-9842
य	-9843
ल	-9844
व	-9845
ो	-9846
©	-9847
०	-9848
ज	-9849
भ	-9850
ब	-9851
é	-9852
ष	-9853
ए	-9854
ग	-9855
ु	-9856
द	-9857
श	-9858
।	-9859
·	-9860
ै	-9861
ड	-9862
ू	-9863
•	-9864
थ	-9865
आ	-9866
च	-9867
ट	-9868
ण	-9869
ध	-9870
ई	-9871
४	-9872
इ	-9873
§	-9874
अ	-9875
ख	-9876
७	-9877
उ	-9878
€	-9879
ओ	-9880
फ	-9881
॥	-9882
μ	-9883
८	-9884
­	-9885
»	-9886
़	-9887
९	-9888
¢	-9889
५	-9890
′	-9891
	-9892
ƒ	-9893
औ	-9894
३	-9895
‍	-9896
£	-9897
¥	-9898
à	-9899
γ	-9900
δ	-9901
️	-9902
🔥	-9903
ü	-9904
β	-9905
छ	-9906
१	-9907
●	-9908
á	-9909
ँ	-9910
ठ	-9911
ृ	-9912
६	-9913
ত	-9914
‐	-9915
⁄	-9916
«	-9917
è	-9918
ï	-9919
́	-9920
घ	-9921
ौ	-9922
র	-9923
া	-9924
▪	-9925
❤	-9926
🇮	-9927
🇳	-9928
🔴	-9929
😘	-9930
😜	-9931
	-9932
â	-9933
æ	-9934
í	-9935
ó	-9936
ö	-9937
ø	-9938
α	-9939
ः	-9940
ऐ	-9941
झ	-9942
ञ	-9943
ॉ	-9944
ব	-9945
ি	-9946
ে	-9947
্	-9948
♂	-9949
萌	-9950
🍎	-9951
🏽	-9952
😂	-9953
🥇	-9954
	-9955
	-9956
ç	-9957
î	-9958
ú	-9959
č	-9960
ů	-9961
Ǥ	-9962
ढ	-9963
२	-9964
আ	-9965
ক	-9966
গ	-9967
জ	-9968
দ	-9969
ম	-9970
শ	-9971
স	-9972
ৃ	-9973
ো	-9974
ક	-9975
છ	-9976
ટ	-9977
ḭ	-9978
†	-9979
⁠	-9980
⁦	-9981
⁩	-9982
■	-9983
♥	-9984
⚽	-9985
✨	-9986
ⱳ	-9987
・	-9988
教	-9989
电	-9990
的	-9991
🍇	-9992
🍔	-9993
🍕	-9994
🎾	-9995
🏃	-9996
