<unk>	0
<s>	0
</s>	0
▁क	-0
▁ह	-1
▁स	-2
▁है	-3
▁प	-4
्र	-5
▁म	-6
▁के	-7
ें	-8
▁ज	-9
ार	-10
्य	-11
▁अ	-12
▁ल	-13
▁ब	-14
या	-15
ता	-16
▁में	-17
▁व	-18
▁न	-19
▁ए	-20
ों	-21
िक	-22
र्	-23
▁औ	-24
▁द	-25
▁और	-26
▁र	-27
▁हैं	-28
▁को	-29
▁प्र	-30
▁कि	-31
▁कर	-32
ने	-33
▁की	-34
▁से	-35
क्	-36
▁त	-37
▁उ	-38
▁आ	-39
▁इ	-40
▁जा	-41
▁हो	-42
िए	-43
ना	-44
▁का	-45
ित	-46
▁य	-47
स्	-48
ते	-49
▁पर	-50
▁एक	-51
ान	-52
▁ग	-53
▁ट	-54
ाइ	-55
िन	-56
्स	-57
▁लिए	-58
िय	-59
▁स्	-60
▁भ	-61
▁श	-62
▁इस	-63
▁च	-64
▁यह	-65
▁सक	-66
ती	-67
ाल	-68
▁,	-69
्यू	-70
▁वि	-71
▁नि	-72
▁या	-73
से	-74
▁सं	-75
ोग	-76
्व	-77
▁उप	-78
्ल	-79
ाम	-80
▁किया	-81
के	-82
क्ष	-83
▁जो	-84
री	-85
ाय	-86
िल	-87
नी	-88
रे	-89
ति	-90
▁फ	-91
▁अध	-92
कार	-93
▁।	-94
मा	-95
ैं	-96
ही	-97
ेश	-98
▁आप	-99
▁तो	-100
िया	-101
▁अन	-102
▁जाता	-103
▁-	-104
▁कं	-105
्या	-106
▁भी	-107
▁ड	-108
▁कंप	-109
▁दे	-110
्ट	-111
में	-112
▁करने	-113
ले	-114
सी	-115
▁थ	-116
सर	-117
ोज	-118
ड़	-119
▁ट्र	-120
हीं	-121
▁कार	-122
ाह	-123
स्ट	-124
िं	-125
▁नहीं	-126
त्र	-127
ूप	-128
शन	-129
ारा	-130
टी	-131
ल्	-132
▁सम	-133
पी	-134
वा	-135
▁ले	-136
हा	-137
▁हम	-138
िस	-139
▁कंपनी	-140
टे	-141
म्	-142
ियों	-143
▁सा	-144
योग	-145
न्	-146
रण	-147
गा	-148
▁रूप	-149
ाग	-150
ैंसर	-151
ास	-152
▁बा	-153
▁सकता	-154
▁होता	-155
▁सकते	-156
▁(	-157
▁कैंसर	-158
ाव	-159
ीट	-160
क्षण	-161
▁अधिक	-162
ओं	-163
को	-164
▁द्व	-165
चार	-166
▁पह	-167
▁द्वारा	-168
ेरे	-169
गे	-170
ां	-171
क्र	-172
▁गया	-173
का	-174
▁परी	-175
▁देख	-176
▁कु	-177
▁उपयोग	-178
ेरेपी	-179
▁2	-180
हत	-181
▁1	-182
▁वाल	-183
▁साथ	-184
▁अनु	-185
ार्	-186
्त	-187
▁ख	-188
िव	-189
ाप	-190
धार	-191
िड	-192
ल्स	-193
ीन	-194
ाइड	-195
ियम	-196
हु	-197
च्	-198
▁होते	-199
▁परीक्षण	-200
्रो	-201
ला	-202
▁प्रकार	-203
▁कुछ	-204
ंध	-205
देश	-206
ुर	-207
मेंट	-208
▁लि	-209
▁ही	-210
▁वे	-211
्यूम	-212
िंग	-213
भी	-214
क्ट	-215
▁उपचार	-216
▁रे	-217
00	-218
्ष	-219
▁जिस	-220
कि	-221
▁कार्य	-222
िर	-223
▁अं	-224
▁दो	-225
▁निर्	-226
▁ट्यूम	-227
ारे	-228
ैसे	-229
▁करते	-230
▁विभ	-231
▁होती	-232
कों	-233
की	-234
▁पू	-235
ेन	-236
क्त	-237
▁बना	-238
▁अन्य	-239
▁सी	-240
सा	-241
▁स्थ	-242
ीटमेंट	-243
▁उन	-244
▁ट्रीटमेंट	-245
ली	-246
▁विश	-247
▁प्रो	-248
▁उस	-249
रह	-250
नल	-251
स्त	-252
फो	-253
▁करता	-254
ारी	-255
त्	-256
▁जब	-257
▁तक	-258
किन	-259
िकल	-260
▁अप	-261
ंड	-262
▁आव	-263
▁ट्यूमर	-264
▁सर	-265
ेय	-266
▁अब	-267
दि	-268
दान	-269
▁इन	-270
बंध	-271
जी	-272
▁क्या	-273
ढ़	-274
ेट	-275
▁वर्	-276
ल्ड	-277
्न	-278
खा	-279
▁स्टे	-280
लिए	-281
स्थ	-282
▁रा	-283
ष्ट	-284
▁चाह	-285
मो	-286
िस्ट	-287
▁थेरेपी	-288
ुल	-289
िश	-290
ेष	-291
्यों	-292
▁मा	-293
डी	-294
ूल	-295
ज़	-296
िका	-297
ोल	-298
▁छ	-299
तर	-300
द्	-301
▁ऐ	-302
र्स	-303
▁क्ल	-304
▁वाले	-305
ौर	-306
▁पहले	-307
▁करना	-308
▁शेय	-309
▁इसलिए	-310
▁किसी	-311
ेंट	-312
▁व्य	-313
▁दू	-314
▁ध	-315
च्च	-316
▁बी	-317
▁रह	-318
भाव	-319
▁कम	-320
▁बहु	-321
कारी	-322
▁प्रति	-323
ोजना	-324
्री	-325
▁एस	-326
▁बाद	-327
चना	-328
▁मु	-329
पो	-330
▁बारे	-331
ीक	-332
िनियम	-333
ाइट	-334
रा	-335
▁तरह	-336
र्ण	-337
वि	-338
क्स	-339
ैल	-340
ोम	-341
एं	-342
▁बहुत	-343
▁ने	-344
▁यदि	-345
▁साम	-346
टर	-347
▁जाती	-348
▁हु	-349
्यक	-350
▁ये	-351
▁सु	-352
▁रेड	-353
जन	-354
▁मैं	-355
ान्य	-356
▁होने	-357
▁घ	-358
▁बढ़	-359
▁जान	-360
▁रोग	-361
ेशन	-362
ॉल	-363
▁स्व	-364
▁ट्राय	-365
ष्	-366
चा	-367
पू	-368
ंद	-369
ेल	-370
▁सभी	-371
हें	-372
▁सेल्स	-373
िम	-374
▁लेकिन	-375
▁जैसे	-376
▁शाम	-377
▁आवश	-378
▁शामिल	-379
▁सब	-380
▁वह	-381
▁कहा	-382
▁पा	-383
ोन	-384
▁भाग	-385
▁विक	-386
▁आवश्यक	-387
▁स्ट	-388
र्त	-389
▁प्राप	-390
▁विशेष	-391
▁सकती	-392
▁था	-393
▁किए	-394
ेंगे	-395
ोस	-396
िस्	-397
▁पास	-398
क्रिया	-399
ध्य	-400
▁क्ष	-401
▁प्राप्त	-402
ुप	-403
▁जिन	-404
ंत्र	-405
ये	-406
▁अधिनियम	-407
यन	-408
▁अग	-409
र्म	-410
▁माम	-411
▁चाहिए	-412
लग	-413
ृत	-414
▁संर	-415
▁लिम्	-416
ाई	-417
▁गए	-418
▁शुर	-419
▁क्यों	-420
पूर्ण	-421
▁रहा	-422
ब्	-423
▁अव	-424
िन्न	-425
▁लिं	-426
▁कोश	-427
टीन	-428
▁स्प	-429
थेरेपी	-430
▁योजना	-431
▁क्लिन	-432
▁एन	-433
▁फिर	-434
▁सह	-435
▁आपको	-436
दा	-437
▁तहत	-438
▁दिया	-439
▁क्लिनिकल	-440
▁महत	-441
िट	-442
▁सर्	-443
▁निदेश	-444
▁कोई	-445
▁ऑ	-446
िएशन	-447
▁प्रक्रिया	-448
▁एसिड	-449
गी	-450
▁उन्	-451
▁महत्व	-452
▁परि	-453
▁ग्ल	-454
▁संरचना	-455
िख	-456
क्ति	-457
▁एं	-458
मिल	-459
क्षा	-460
फोमा	-461
▁बात	-462
▁इं	-463
▁शेयर	-464
ोड़	-465
▁राज	-466
ॉन	-467
▁उद	-468
ोड	-469
रीर	-470
▁ग्र	-471
मोथेरेपी	-472
▁रहे	-473
वल	-474
▁सेल	-475
ाइन	-476
▁इसे	-477
ज्	-478
▁ऊ	-479
▁होगा	-480
▁सरकार	-481
▁इसके	-482
▁शरीर	-483
िक्ष	-484
▁डी	-485
िग	-486
▁विभिन्न	-487
र्ड	-488
▁रेडिएशन	-489
ंच	-490
ध्यम	-491
▁मान	-492
▁शुरू	-493
▁ओ	-494
▁तमिल	-495
▁अपने	-496
▁कोशिका	-497
▁गई	-498
▁सामान्य	-499
▁पु	-500
▁माध्यम	-501
▁परीक्षणों	-502
▁महत्वपूर्ण	-503
▁:	-504
ेर	-505
▁आधार	-506
▁मूल	-507
▁संबंध	-508
ेस	-509
▁3	-510
ून	-511
▁निम्	-512
ालय	-513
▁प्रोटीन	-514
▁हिस्	-515
▁कॉ	-516
िप	-517
िकित	-518
िकित्स	-519
▁निय	-520
▁कीमोथेरेपी	-521
आई	-522
▁क्योंकि	-523
▁जिसमें	-524
▁ला	-525
01	-526
▁200	-527
ॉज	-528
हुड	-529
ाइल्ड	-530
▁वा	-531
्रेन	-532
द्ध	-533
िसे	-534
स्ता	-535
▁रख	-536
माण	-537
क्शन	-538
▁जहा	-539
ेत्र	-540
ाहरण	-541
मान	-542
िति	-543
▁करती	-544
▁बच्च	-545
▁सू	-546
ियो	-547
▁जाते	-548
ोर	-549
▁उदाहरण	-550
्‍	-551
▁क्षेत्र	-552
▁लिंफोमा	-553
▁कारण	-554
▁अलग	-555
▁चाइल्ड	-556
▁वर्ष	-557
▁जाए	-558
टेड	-559
िखित	-560
▁रक्त	-561
▁दूस	-562
▁दौर	-563
▁कई	-564
कर	-565
ोक	-566
नों	-567
िज	-568
च्छ	-569
▁पी	-570
▁बन	-571
▁लाग	-572
▁सबसे	-573
▁जानकारी	-574
ंब	-575
▁कंपन	-576
▁हाइड	-577
▁अधिकार	-578
साइट	-579
▁दौरान	-580
▁तीन	-581
▁समय	-582
नलिखित	-583
▁ठ	-584
ट्र	-585
▁चिकित्स	-586
▁निम्नलिखित	-587
ाँ	-588
▁प्रभाव	-589
▁दि	-590
▁प्रश	-591
▁जै	-592
▁आवश्यकता	-593
▁समझ	-594
▁प्रत	-595
▁बीच	-596
टा	-597
▁भार	-598
▁जिसे	-599
▁लगा	-600
धान	-601
िला	-602
क्रम	-603
डल	-604
▁क्र	-605
▁बै	-606
▁समा	-607
▁कैसे	-608
वर	-609
▁जी	-610
▁दी	-611
ची	-612
▁C	-613
▁केवल	-614
▁उन्हें	-615
ेड	-616
▁यहाँ	-617
▁बे	-618
▁परिव	-619
▁विभाग	-620
ांस	-621
मिया	-622
▁ल्यू	-623
िफ	-624
▁निदेशक	-625
ेक	-626
▁प्रदान	-627
ूम	-628
▁जाना	-629
▁अध्य	-630
▁अंत	-631
▁नियम	-632
कीय	-633
▁एंटी	-634
चित	-635
▁नए	-636
▁दिखा	-637
र्ट	-638
▁नाम	-639
धिक	-640
थवा	-641
▁हमने	-642
एस	-643
▁काम	-644
▁स्क	-645
ेंस	-646
▁5	-647
प्र	-648
▁पद	-649
▁बॉ	-650
▁अथवा	-651
गम	-652
▁पता	-653
स्ताव	-654
जू	-655
केमिया	-656
▁सिस्ट	-657
एल	-658
▁जाने	-659
▁सहाय	-660
▁कंपनियों	-661
▁201	-662
▁मामले	-663
डु	-664
धि	-665
▁न्यू	-666
▁वाली	-667
ेद	-668
▁चाइल्डहुड	-669
ेप	-670
▁ठीक	-671
▁करके	-672
▁जारी	-673
स्तव	-674
▁तरी	-675
▁ल्यूकेमिया	-676
▁ट्रायल	-677
▁वास्तव	-678
▁चिकित्सकीय	-679
▁.	-680
▁शिक्ष	-681
न्ड	-682
नाडु	-683
▁प्ल	-684
▁स्टेट	-685
▁जु	-686
ख्या	-687
▁अनुस	-688
▁अगर	-689
ेक्ट	-690
▁चु	-691
▁नोड	-692
ोल्ड	-693
▁I	-694
निक	-695
वी	-696
▁गु	-697
▁कोशिकाओं	-698
मक	-699
▁इसका	-700
▁मै	-701
▁चर्	-702
▁तमिलनाडु	-703
वस	-704
ेज	-705
▁आम	-706
▁करोड़	-707
र्थ	-708
ार्थ	-709
कोमा	-710
्रोम	-711
▁चर्चा	-712
ानी	-713
ोजन	-714
▁नी	-715
▁ट्रायल्स	-716
ंग	-717
▁ची	-718
पर	-719
्यूल	-720
▁मिल	-721
▁सिस्टम	-722
▁जांच	-723
▁पै	-724
द्य	-725
ष्क	-726
▁भूम	-727
▁फैल	-728
ड़ी	-729
▁आपके	-730
▁एक्स	-731
▁मद	-732
▁आगे	-733
▁रुप	-734
ोट	-735
▁कह	-736
पन	-737
▁4	-738
▁जैसा	-739
▁व्यक्ति	-740
▁करेंगे	-741
वेश	-742
▁बद	-743
ब्ल	-744
▁अच्छ	-745
तीय	-746
ाइल	-747
स्था	-748
▁करें	-749
ल्प	-750
▁होना	-751
▁देखें	-752
मी	-753
▁संख्या	-754
▁ओर	-755
▁फै	-756
ंट	-757
ुग	-758
ज्ञ	-759
▁ब्ल	-760
आर	-761
▁ऐसे	-762
▁अध्ययन	-763
ोध	-764
▁लग	-765
▁ऐसा	-766
▁बनाने	-767
▁ट्रांस	-768
▁बेहत	-769
ंजी	-770
रेट	-771
▁सि	-772
बी	-773
ख्य	-774
जरी	-775
▁उपल	-776
करण	-777
▁सार	-778
▁बॉन्ड	-779
जा	-780
मिक	-781
▁अस	-782
▁19	-783
▁उपलब्	-784
▁ब्रेन	-785
▁टिश	-786
▁राज्य	-787
्रा	-788
▁ता	-789
▁धारा	-790
▁जाएगा	-791
▁बेहतर	-792
▁स्थिति	-793
▁टे	-794
▁चार	-795
▁उसके	-796
▁उपलब्ध	-797
▁हुआ	-798
▁उनके	-799
▁कार्	-800
▁व्या	-801
▁परिवर्त	-802
▁पेश	-803
▁लिम्फ	-804
▁अम	-805
▁विष	-806
▁बाय	-807
▁वित	-808
▁आय	-809
▁बदल	-810
▁दूसरे	-811
सरा	-812
ास्ट	-813
इड	-814
विध	-815
एन	-816
्रह	-817
ुक्त	-818
▁विकास	-819
▁बढ़ा	-820
र्श	-821
▁सड़	-822
▁बच्चों	-823
▁थी	-824
▁संबंधित	-825
▁एल	-826
▁मदद	-827
ॉजकिन	-828
▁विषय	-829
▁रुपये	-830
रहोल्ड	-831
▁शेयरहोल्ड	-832
ड़े	-833
▁उच्च	-834
▁पदार्थ	-835
▁A	-836
▁मे	-837
▁हुए	-838
▁ऋ	-839
▁पुन	-840
▁बार	-841
चे	-842
ैट	-843
्ड	-844
ाष	-845
▁सद	-846
▁भारत	-847
म्ब	-848
त्मक	-849
▁ऋण	-850
▁छो	-851
▁गति	-852
▁लंब	-853
▁इसमें	-854
पा	-855
▁हू	-856
▁प्राव	-857
र्ग	-858
▁मौ	-859
▁सदस	-860
▁उद्	-861
▁चरण	-862
▁प्रस्ताव	-863
प्ल	-864
▁मॉ	-865
ंद्र	-866
▁सर्जरी	-867
▁प्रत्य	-868
▁बैठ	-869
▁रु	-870
▁स्टेज	-871
चर	-872
न्न	-873
▁पार	-874
भव	-875
▁निर्धार	-876
लाज	-877
▁अभ	-878
लों	-879
त्रा	-880
▁उत्	-881
ाइम	-882
▁बाह	-883
▁गै	-884
▁टी	-885
▁रोक	-886
▁सेवा	-887
ूत	-888
▁लाभ	-889
▁रोगियों	-890
ँच	-891
तों	-892
वरण	-893
स्ति	-894
पिड	-895
▁निर्माण	-896
▁स्टेम	-897
▁लेने	-898
▁उद्देश	-899
ोप	-900
▁निक	-901
ीय	-902
िना	-903
▁इम	-904
▁हों	-905
स्तिष्क	-906
▁उसे	-907
▁मत	-908
ॉलिक	-909
▁इसी	-910
▁मुख्य	-911
▁इलाज	-912
▁प्रावधान	-913
▁बता	-914
▁कार्ब	-915
ूक	-916
▁N	-917
क्टर	-918
▁देखते	-919
▁लागू	-920
▁जहां	-921
▁जिन्	-922
▁लिम्फो	-923
▁हाइड्र	-924
▁प्रा	-925
▁सार्व	-926
ुख	-927
रिक	-928
्यूट	-929
▁नियंत्र	-930
था	-931
फी	-932
ैन	-933
जनिक	-934
क्ल	-935
ड़ा	-936
ोमा	-937
▁छा	-938
▁रोगी	-939
▁ड्र	-940
▁लिया	-941
▁सार्वजनिक	-942
एम	-943
डल्ट	-944
▁दोनों	-945
▁सहायता	-946
ार्ग	-947
▁लिपिड	-948
ाज	-949
▁कान	-950
▁सूची	-951
▁स्कूल	-952
▁प्रबंध	-953
ाली	-954
वसाय	-955
्रीय	-956
कर्	-957
▁टू	-958
▁प्रतिभ	-959
▁मौजू	-960
▁वन	-961
प्	-962
▁गुण	-963
▁देखा	-964
▁खोज	-965
▁नॉन	-966
▁पि	-967
ेंट्स	-968
▁मस्तिष्क	-969
हों	-970
▁सरकारी	-971
▁परिण	-972
र्व	-973
▁न्या	-974
तम	-975
िब	-976
▁2009	-977
▁परिणाम	-978
ठन	-979
▁वैल	-980
▁कॉर्	-981
▁एंटीब	-982
पोरेट	-983
ाला	-984
▁दवा	-985
▁अल्	-986
▁न्याया	-987
▁अर्थ	-988
ाइनल	-989
क्‍	-990
ीटा	-991
▁ती	-992
▁अंतर	-993
▁हमारे	-994
▁निर्धारित	-995
▁रही	-996
▁मॉलिक	-997
▁पॉ	-998
रूप	-999
स्प	-1000
▁प्रत्येक	-1001
र्क	-1002
▁दु	-1003
▁हे	-1004
▁इन्	-1005
▁बीटा	-1006
बल	-1007
नेट	-1008
▁अधिग	-1009
▁आस	-1010
▁पहु	-1011
▁मैंने	-1012
▁संभाव	-1013
▁देने	-1014
ार्कोमा	-1015
:-	-1016
ॉडी	-1017
▁मामलों	-1018
▁B	-1019
▁ब्लड	-1020
▁स्थान	-1021
▁?	-1022
ेगा	-1023
▁एम	-1024
▁जहाँ	-1025
▁ड्रग	-1026
▁एंटीबॉडी	-1027
▁प्रभावित	-1028
ूर	-1029
र्न	-1030
▁जन	-1031
िष्ट	-1032
▁6	-1033
▁बो	-1034
ंश	-1035
क्सी	-1036
▁श्र	-1037
▁हटा	-1038
▁जल	-1039
▁नै	-1040
▁हर	-1041
▁कॉर्पोरेट	-1042
▁सुधार	-1043
▁मात्रा	-1044
्रहण	-1045
▁हेल	-1046
▁शेयरों	-1047
▁ऊत	-1048
▁फॉ	-1049
▁रि	-1050
▁बैठक	-1051
▁वैल्यू	-1052
मुख	-1053
▁आर	-1054
▁भूमि	-1055
पाद	-1056
िटी	-1057
▁चीज	-1058
▁लागत	-1059
फा	-1060
▁उत	-1061
दी	-1062
▁प्रयोग	-1063
▁हाइड्रो	-1064
ुक	-1065
ालन	-1066
▁शेयरहोल्डर	-1067
▁तुल	-1068
▁माइ	-1069
▁दूसरा	-1070
▁लगाने	-1071
▁अधिग्रहण	-1072
▁प्रशास	-1073
पोर्ट	-1074
▁पुस्त	-1075
▁उद्देश्य	-1076
ित्व	-1077
▁छात्र	-1078
▁घट	-1079
▁बीम	-1080
लेक्ट	-1081
▁तुलना	-1082
▁निदान	-1083
▁देता	-1084
▁अनुसार	-1085
▁स्पष्ट	-1086
▁तब	-1087
▁लक्षण	-1088
▁शिक्षा	-1089
▁विशिष्ट	-1090
लब	-1091
▁चल	-1092
▁नीचे	-1093
▁बाहर	-1094
▁बिना	-1095
▁विवरण	-1096
कृत	-1097
▁इंटर	-1098
म्प	-1099
▁निवेश	-1100
ल्ल	-1101
ाइस	-1102
▁नम	-1103
ोब	-1104
▁पिछ	-1105
शि	-1106
▁ऐसी	-1107
▁मानक	-1108
▁तरीके	-1109
▁बच्चे	-1110
सों	-1111
▁वर्ग	-1112
▁विस्त	-1113
▁प्रमुख	-1114
तान	-1115
्यु	-1116
▁एप	-1117
▁ली	-1118
▁कभी	-1119
▁लोग	-1120
भग	-1121
ूव	-1122
ेंड	-1123
त्ति	-1124
▁संभव	-1125
▁समान	-1126
▁आधारित	-1127
▁वेब	-1128
दानिक	-1129
▁मतलब	-1130
▁संके	-1131
▁संग	-1132
▁पूरी	-1133
▁लगभग	-1134
▁वाला	-1135
▁केंद्र	-1136
▁/	-1137
काई	-1138
तौर	-1139
ंतर	-1140
ेंशन	-1141
▁बंद	-1142
ाइड्स	-1143
▁निगम	-1144
▁जिसका	-1145
▁नैदानिक	-1146
णा	-1147
्चित	-1148
▁सुर	-1149
▁जबकि	-1150
▁विकल्प	-1151
▁अला	-1152
▁सिं	-1153
स्ट्र	-1154
▁आमतौर	-1155
▁ग्रुप	-1156
ताओं	-1157
▁अंग	-1158
▁हमें	-1159
▁परिवर्तन	-1160
सित	-1161
▁चाल	-1162
धिकरण	-1163
ैय	-1164
▁आई	-1165
▁सौ	-1166
ियोजना	-1167
▁स्थाप	-1168
िनो	-1169
▁बोर्ड	-1170
▁स्ट्र	-1171
▁परियोजना	-1172
चान	-1173
ूकोज	-1174
▁पुल	-1175
▁नोड्स	-1176
ील	-1177
वाद	-1178
स्या	-1179
▁समस्या	-1180
▁ग्लूकोज	-1181
▁जिल	-1182
▁प्रव	-1183
दार	-1184
▁बैं	-1185
▁कार्यों	-1186
ुगतान	-1187
ताह	-1188
ुओं	-1189
▁अपनी	-1190
▁अच्छा	-1191
▁पहचान	-1192
▁सॉ	-1193
▁हड	-1194
▁दिव	-1195
प्ताह	-1196
▁सड़क	-1197
▁अलावा	-1198
▁दूसरी	-1199
▁हिस्सा	-1200
ुत	-1201
प्त	-1202
▁II	-1203
▁डॉ	-1204
भर	-1205
000	-1206
सेस	-1207
्तीय	-1208
ंक्शन	-1209
▁पूरा	-1210
ियल	-1211
ोजित	-1212
▁फैटी	-1213
▁वित्तीय	-1214
रो	-1215
िक्स	-1216
▁लेखा	-1217
ंक	-1218
▁लाख	-1219
▁यहां	-1220
▁कानून	-1221
▁विद्य	-1222
▁निर्भर	-1223
रल	-1224
▁वाप	-1225
▁जिसके	-1226
▁हाइड्रोजन	-1227
म्स	-1228
▁समू	-1229
्यूटर	-1230
▁इकाई	-1231
▁7	-1232
ोस्	-1233
्यून	-1234
▁शब्	-1235
क्षित	-1236
▁भुगतान	-1237
खिम	-1238
र्जा	-1239
ूतियों	-1240
‍स	-1241
फ्ट	-1242
▁थे	-1243
▁कुल	-1244
▁होगी	-1245
▁सप्ताह	-1246
-1	-1247
ाइप	-1248
िये	-1249
▁वै	-1250
▁सही	-1251
▁हाल	-1252
▁आदेश	-1253
▁होंगे	-1254
▁प्रतिभूतियों	-1255
णाली	-1256
▁कोले	-1257
▁वर्त	-1258
▁संभावना	-1259
▁T	-1260
ोग्रा	-1261
▁सेंट	-1262
▁जोखिम	-1263
▁वर्तमान	-1264
ाषा	-1265
▁कौ	-1266
▁कित	-1267
▁तैय	-1268
▁योग	-1269
ार्गे	-1270
▁इलेक्ट	-1271
▁प्रबंधन	-1272
▁प्रशिक्ष	-1273
▁10	-1274
▁राशि	-1275
▁शब्द	-1276
ाइब	-1277
▁दिए	-1278
▁जिन्हें	-1279
लय	-1280
▁एव	-1281
▁एनसी	-1282
▁छोटे	-1283
▁पेशेंट्स	-1284
▁D	-1285
▁टिशू	-1286
▁प्रका	-1287
▁वेबसाइट	-1288
ायर	-1289
▁आइ	-1290
▁किस	-1291
▁कर्म	-1292
ोष	-1293
▁अण	-1294
▁सत	-1295
पत्र	-1296
▁लेन	-1297
▁वापस	-1298
पु	-1299
▁माइक्र	-1300
ंख	-1301
क्षक	-1302
▁हूँ	-1303
▁हिस्सों	-1304
्सी	-1305
ित्र	-1306
होंने	-1307
▁जिला	-1308
▁एडल्ट	-1309
▁व्यवसाय	-1310
▁कार्यक्रम	-1311
ट्स	-1312
र्ती	-1313
ीकृत	-1314
ेप्ट	-1315
▁माय	-1316
▁हुई	-1317
तंत्र	-1318
▁व्याप	-1319
▁हिस्से	-1320
वन	-1321
▁मह	-1322
▁पूँ	-1323
▁मोन	-1324
विधा	-1325
▁नमू	-1326
▁ऊर्जा	-1327
▁व्यक्त	-1328
▁क्षेत्रों	-1329
▁खु	-1330
▁मौजूद	-1331
ब्लास्ट	-1332
▁रिक	-1333
▁संश	-1334
कोप	-1335
ुलर	-1336
▁बनाए	-1337
▁पेंशन	-1338
शील	-1339
▁साल	-1340
▁पूँजी	-1341
▁सुविधा	-1342
▁मॉलिक्यूल	-1343
▁कै	-1344
▁एवं	-1345
▁कहते	-1346
▁एसिड्स	-1347
▁छात्रों	-1348
▁कंप्यूटर	-1349
फ़	-1350
मति	-1351
ृति	-1352
▁पाठ	-1353
▁सम्	-1354
▁उल्ल	-1355
▁एंड	-1356
▁ब्र	-1357
▁दर्श	-1358
▁पूंजी	-1359
▁फंक्शन	-1360
▁चे	-1361
हॉजकिन	-1362
ष्ट्रीय	-1363
यर	-1364
ियां	-1365
▁पॉली	-1366
▁भीतर	-1367
▁जिससे	-1368
▁निर्गम	-1369
्डी	-1370
ाजित	-1371
▁जीन	-1372
▁स्वा	-1373
▁निर्ण	-1374
▁हड्डी	-1375
▁आयोजित	-1376
▁तौर	-1377
▁प्रणाली	-1378
▁ट्यूमर्स	-1379
▁स्वतंत्र	-1380
फे	-1381
वे	-1382
रीद	-1383
▁मश	-1384
नेटिक	-1385
▁देते	-1386
▁परिभ	-1387
▁पहला	-1388
▁निरूप	-1389
▁संप	-1390
▁हाई	-1391
▁सर्च	-1392
▁टार्गे	-1393
▁कर्मचार	-1394
▁'	-1395
▁री	-1396
िक्र	-1397
▁बोन	-1398
▁पंजी	-1399
▁तैयार	-1400
▁सदस्य	-1401
▁डॉक्टर	-1402
▁सार्कोमा	-1403
▁चौ	-1404
▁आदि	-1405
▁रोकने	-1406
▁कार्बन	-1407
ेदन	-1408
ालयों	-1409
स्ट्रो	-1410
एँ	-1411
दम	-1412
क्षम	-1413
▁खा	-1414
▁संय	-1415
ज्ञान	-1416
▁जोड़	-1417
▁संस्थ	-1418
)।	-1419
ंत	-1420
ीटर	-1421
्राम	-1422
▁अति	-1423
▁मशीन	-1424
▁दर्शा	-1425
▁इम्यून	-1426
▁क्रिया	-1427
▁स्ट्रक्	-1428
बद्ध	-1429
शाला	-1430
▁डाय	-1431
▁अमिनो	-1432
▁कक्षा	-1433
▁स्पाइनल	-1434
गर	-1435
बर	-1436
ॉय	-1437
्यान	-1438
▁तकनी	-1439
▁मार्ग	-1440
▁निर्णय	-1441
▁एट	-1442
▁क्रोम	-1443
▁जानते	-1444
▁लंबाई	-1445
ोग्राफी	-1446
▁विभाजित	-1447
▁न्यायाधिकरण	-1448
दर	-1449
नु	-1450
ंडल	-1451
ांच	-1452
▁कौन	-1453
▁रखा	-1454
▁रिम	-1455
▁ऑक्सी	-1456
▁सॉफ्ट	-1457
▁पदार्थों	-1458
▁लिम्फोसाइट	-1459
ोमेन	-1460
▁दिन	-1461
▁2013	-1462
▁हॉजकिन	-1463
▁रिपोर्ट	-1464
▁चित्र	-1465
▁नियंत्रण	-1466
▁सोल	-1467
▁व्यव	-1468
▁करेगा	-1469
▁0	-1470
ोप्सी	-1471
▁सीमा	-1472
▁प्रशिक्षण	-1473
▁अवधि	-1474
▁एक्ट	-1475
▁पुस्तक	-1476
▁प्रवर्त	-1477
दर्	-1478
्तर	-1479
▁यू	-1480
कोस	-1481
▁फ़	-1482
▁मही	-1483
▁मॉड	-1484
▁किये	-1485
▁स्तर	-1486
▁सूचना	-1487
ण्ड	-1488
▁माइन	-1489
▁ध्यान	-1490
▁पाठ्य	-1491
▁रिमूव	-1492
▁8	-1493
ांश	-1494
ेजी	-1495
▁बु	-1496
▁यही	-1497
्यादा	-1498
▁निरूपण	-1499
रों	-1500
▁अभी	-1501
▁पहली	-1502
▁सदस्यों	-1503
▁स्कूलों	-1504
जार	-1505
मित	-1506
▁अत	-1507
कैंसर	-1508
▁इससे	-1509
▁उनकी	-1510
▁ताकि	-1511
▁भारतीय	-1512
केर	-1513
ांट	-1514
न्नई	-1515
ीकरण	-1516
▁2010	-1517
▁लोगों	-1518
▁ऊतक	-1519
▁त्व	-1520
▁स्टै	-1521
▁निकाल	-1522
▁समिति	-1523
▁अतिरिक	-1524
▁उत्पाद	-1525
▁प्रकाश	-1526
▁प्रमाण	-1527
धे	-1528
न्ट	-1529
▁पत्र	-1530
▁सहायक	-1531
▁विकसित	-1532
▁मॉड्यूल	-1533
▁क्षम	-1534
▁विश्व	-1535
▁स्थिर	-1536
▁अतिरिक्त	-1537
▁बायोप्सी	-1538
-2	-1539
ेख	-1540
ॉयड	-1541
▁आकार	-1542
▁टेस्ट	-1543
▁एनसीआई	-1544
▁राष्ट्रीय	-1545
ग्	-1546
कभी	-1547
▁डि	-1548
▁सो	-1549
,000	-1550
▁पूरे	-1551
▁स्थित	-1552
▁भूमिका	-1553
▁प्रयोगशाला	-1554
▁9	-1555
क्व	-1556
ेरो	-1557
र्गत	-1558
▁इंज	-1559
▁समापन	-1560
▁ई	-1561
▁ढ	-1562
▁सल	-1563
ून्य	-1564
ोग्ल	-1565
▁संच	-1566
▁लेते	-1567
▁दिवाल	-1568
▁प्रोग	-1569
▁मूल्य	-1570
▁एक्यूट	-1571
▁मं	-1572
▁पुर	-1573
कर्ता	-1574
▁ग्लाइ	-1575
▁सक्षम	-1576
▁लिपिड्स	-1577
हरा	-1578
ांत	-1579
थमिक	-1580
ियाँ	-1581
▁कारक	-1582
▁जाँच	-1583
▁पूर्व	-1584
▁अनुमति	-1585
▁परीक्षा	-1586
नि	-1587
स्क	-1588
▁कृ	-1589
्यूर	-1590
▁शून्य	-1591
िक्रिया	-1592
▁चेन्नई	-1593
ात	-1594
िथ	-1595
▁स्‍	-1596
▁विधि	-1597
▁संशोध	-1598
▁ड्रग्स	-1599
▁दिवालिया	-1600
तिम	-1601
व्य	-1602
▁15	-1603
▁बनाता	-1604
▁दिखाया	-1605
▁नियुक्त	-1606
▁प्राथमिक	-1607
▁शु	-1608
हाइड	-1609
्रॉन	-1610
▁ऊपर	-1611
▁तथा	-1612
▁डोमेन	-1613
▁देखने	-1614
▁भागों	-1615
▁स्पेस	-1616
▁टिश्यू	-1617
▁वर्षों	-1618
एच	-1619
दे	-1620
र्ष	-1621
िशन	-1622
▁एना	-1623
▁बैंक	-1624
▁मंजू	-1625
▁टार्गेटेड	-1626
्ञ	-1627
एंगे	-1628
ोलॉज	-1629
▁गैर	-1630
▁ज्ञ	-1631
▁लिख	-1632
▁सरल	-1633
▁पाया	-1634
▁मॉडल	-1635
▁रखने	-1636
▁अल्फा	-1637
▁त्वचा	-1638
▁पिछले	-1639
▁संकेत	-1640
▁क्षमता	-1641
▁प्रवेश	-1642
▁:-	-1643
▁उसी	-1644
▁बंध	-1645
▁लेख	-1646
▁सुन	-1647
▁मंडल	-1648
वाई	-1649
ैंड	-1650
▁सीख	-1651
▁निजी	-1652
▁समूह	-1653
▁अवस्था	-1654
▁परीक्षक	-1655
▁प्रभावी	-1656
मत	-1657
ाउ	-1658
भाग	-1659
र्च	-1660
्‍स	-1661
▁सके	-1662
▁हूं	-1663
▁इसकी	-1664
▁अंतिम	-1665
▁ज्यादा	-1666
▁बीमारी	-1667
एफ	-1668
झे	-1669
शत	-1670
पास	-1671
ल्ट	-1672
▁यून	-1673
▁स्कैन	-1674
▁गतिविध	-1675
▁अंतर्गत	-1676
▁दिवालियापन	-1677
गत	-1678
रग	-1679
हिब	-1680
िनल	-1681
▁डाल	-1682
▁फ्ल	-1683
▁स्वी	-1684
▁जिनका	-1685
▁दिखाई	-1686
▁प्रतिशत	-1687
▁विशेषज्ञ	-1688
▁माइक्रोस्	-1689
दु	-1690
त्ता	-1691
▁आइए	-1692
ियोमा	-1693
▁फॉस्	-1694
▁नियमों	-1695
▁स्वीकार	-1696
▁स्ट्रक्चर	-1697
▁G	-1698
ायी	-1699
ुक्ति	-1700
▁विचार	-1701
▁कोलेस्ट्र	-1702
ग्र	-1703
सेल	-1704
िने	-1705
▁गण	-1706
न्‍स	-1707
▁नष्ट	-1708
▁नमूने	-1709
▁सड़कों	-1710
ग्न	-1711
त्व	-1712
ंधान	-1713
▁किन	-1714
▁खिला	-1715
▁मुझे	-1716
▁वर्ण	-1717
▁उल्लेख	-1718
▁कोशिकाएं	-1719
▁कोलेस्ट्रॉल	-1720
▁सच	-1721
▁कोड	-1722
▁गठन	-1723
▁चुके	-1724
▁चाहते	-1725
▁पूर्ण	-1726
ेप्टाइड	-1727
▁अनुसंधान	-1728
माल	-1729
▁एड	-1730
▁दस	-1731
▁ना	-1732
प्लांट	-1733
नीय	-1734
▁एफ	-1735
्लेष	-1736
▁दिश	-1737
▁वहा	-1738
ब्रेन	-1739
स्थ्य	-1740
▁थोड़	-1741
▁अधिकारियों	-1742
ॉक	-1743
िरु	-1744
रगाह	-1745
▁खंड	-1746
▁चेन	-1747
▁निश	-1748
▁अच्छी	-1749
▁स्वास्थ्य	-1750
फोब	-1751
ाइमरी	-1752
▁किमी	-1753
ण्डर्ड	-1754
रु	-1755
िवार	-1756
▁साइन	-1757
▁इन्हें	-1758
▁बंदरगाह	-1759
▁स्टैण्डर्ड	-1760
ंशिक	-1761
िश्र	-1762
▁शुग	-1763
ड्रोम	-1764
▁अंदर	-1765
▁बॉन्ड्स	-1766
▁निदेशकों	-1767
▁नियुक्ति	-1768
▁माइक्रोस्कोप	-1769
र्ति	-1770
▁सीधे	-1771
धारकों	-1772
▁विस्तार	-1773
▁सिंड्रोम	-1774
CI	-1775
मल	-1776
सू	-1777
हार	-1778
िता	-1779
▁तीस	-1780
▁अपना	-1781
▁आपने	-1782
▁निष्	-1783
▁भाषा	-1784
▁माइनस	-1785
्शन	-1786
▁अणु	-1787
▁नया	-1788
▁माप	-1789
▁लोक	-1790
▁शीट	-1791
▁माइल	-1792
▁विनियम	-1793
▁इलेक्ट्रॉन	-1794
▁हाइड्रोफोब	-1795
▁छह	-1796
▁शह	-1797
एमएल	-1798
▁अक्	-1799
ामान्य	-1800
▁बनाते	-1801
▁देखेंगे	-1802
▁प्राइमरी	-1803
▁ट्रांसप्लांट	-1804
्रिय	-1805
▁आयन	-1806
▁इस्	-1807
▁एंज	-1808
▁खरीद	-1809
▁जिले	-1810
▁अक्सर	-1811
▁पर्या	-1812
▁बढ़ने	-1813
▁प्रस्त	-1814
▁समाप्त	-1815
▁व्यक्तियों	-1816
ंभ	-1817
ट्ट	-1818
ॉइड	-1819
▁आने	-1820
▁नर्	-1821
▁रेज़	-1822
▁उत्तर	-1823
▁जाएगी	-1824
▁प्लेट	-1825
▁दस्ताव	-1826
▁पाठ्यक्रम	-1827
),	-1828
ंस	-1829
स्व	-1830
ोबिन	-1831
▁एल्	-1832
▁माना	-1833
ेनेटिक	-1834
स्ट्रोसाइट	-1835
िओ	-1836
्रल	-1837
▁12	-1838
▁इत	-1839
▁इफ	-1840
▁शा	-1841
ांकि	-1842
▁हित	-1843
▁स्क्र	-1844
▁रेडियो	-1845
▁सुरक्षा	-1846
ंबर	-1847
अलग	-1848
एनए	-1849
गोर	-1850
▁14	-1851
▁धन	-1852
▁जुड़	-1853
▁अधिकारी	-1854
▁कर्मचारियों	-1855
ठा	-1856
▁M	-1857
-10	-1858
्‍ल	-1859
▁NCI	-1860
▁चुन	-1861
▁नामक	-1862
▁लक्ष	-1863
▁लिये	-1864
▁दवाओं	-1865
▁शक्ति	-1866
▁अनुमान	-1867
▁सक्रिय	-1868
ोग्लोबिन	-1869
▁प्रशासन	-1870
▁विज्ञान	-1871
▁स्थापित	-1872
ार्ज	-1873
ोसिन	-1874
ाइसिन	-1875
▁मंजूरी	-1876
▁हालांकि	-1877
ूं	-1878
रीज	-1879
र्ज	-1880
ेज़	-1881
मार्ग	-1882
स्थित	-1883
▁इफेक्ट	-1884
▁ऑक्सीजन	-1885
फल	-1886
िटर	-1887
ेटा	-1888
▁देश	-1889
▁थ्री	-1890
▁तंत्र	-1891
▁समझने	-1892
▁तरीकों	-1893
कल	-1894
▁जग	-1895
ानों	-1896
ाषित	-1897
▁पेट	-1898
▁पोल	-1899
▁रीढ़	-1900
▁वार्	-1901
ओवर	-1902
▁नई	-1903
प्रो	-1904
स्वी	-1905
▁घटक	-1906
▁आवेदन	-1907
▁उनमें	-1908
▁प्रस्तुत	-1909
रोध	-1910
▁एच	-1911
▁कथ	-1912
▁तय	-1913
▁दृ	-1914
पोर्	-1915
▁पाँच	-1916
▁प्रक	-1917
▁नर्वस	-1918
▁पुनर्	-1919
▁निश्चित	-1920
▁परिभाषित	-1921
्क	-1922
सार	-1923
▁हल	-1924
पन्न	-1925
ट्रिक	-1926
▁कार्र	-1927
▁एक्टिन	-1928
▁एल्गोर	-1929
▁नियंत्रित	-1930
गल	-1931
खंड	-1932
षिक	-1933
▁जर	-1934
िप्ट	-1935
▁घोष	-1936
▁डिज	-1937
▁सोच	-1938
▁पांच	-1939
▁पहुंच	-1940
केराइड्स	-1941
▁वार्षिक	-1942
▁कार्रवाई	-1943
िम्	-1944
▁11	-1945
▁दश	-1946
ाइंड	-1947
▁नेट	-1948
▁बिं	-1949
▁लीवर	-1950
▁जुड़े	-1951
▁बाजार	-1952
▁क्रोमैट	-1953
▁एस्ट्रोसाइट	-1954
सं	-1955
▁H	-1956
ल्क	-1957
ापन	-1958
ोज़	-1959
▁वृ	-1960
ारों	-1961
▁होनी	-1962
िश्चित	-1963
▁उपचारों	-1964
▁हाइड्रोफोबिक	-1965
मोन	-1966
लेट	-1967
ाना	-1968
्यूज	-1969
▁आते	-1970
▁ताप	-1971
▁शर्त	-1972
▁इनहिब	-1973
▁बढ़ाने	-1974
▁2009-10	-1975
जर	-1976
▁50	-1977
▁एक्	-1978
▁साझ	-1979
ष्प्र	-1980
▁हस्ता	-1981
▁दुष्प्र	-1982
▁लिम्फोमा	-1983
▁प्रशासनिक	-1984
ियोस	-1985
▁पड़	-1986
▁फ्र	-1987
▁रंग	-1988
्यूरिस्ट	-1989
▁दुष्प्रभाव	-1990
▁प्रावधानों	-1991
परी	-1992
र्फ	-1993
सान	-1994
ायद	-1995
्यूशन	-1996
▁कर्त	-1997
▁दिशा	-1998
▁देती	-1999
▁निरी	-2000
▁इंटरै	-2001
▁योग्य	-2002
▁सिद्ध	-2003
▁अनुभाग	-2004
▁कार्बो	-2005
▁कार्यालय	-2006
▁राजमार्ग	-2007
▁आठ	-2008
पोसी	-2009
िसिस	-2010
▁अमीन	-2011
▁समझौ	-2012
िवार्य	-2013
▁तीसरा	-2014
▁प्रार	-2015
▁सुनिश्चित	-2016
▁ह्यूरिस्ट	-2017
्‍य	-2018
तेमाल	-2019
▁आयोग	-2020
▁साइट	-2021
▁डीएनए	-2022
▁डायग्न	-2023
▁हेलिक्स	-2024
ेण	-2025
▁मो	-2026
ोजेन	-2027
▁नुक	-2028
▁विदेश	-2029
▁जिनमें	-2030
▁प्रोब्ल	-2031
▁प्रोसेस	-2032
▁अनिवार्य	-2033
▁परिणामों	-2034
▁माध्यमिक	-2035
तः	-2036
ूट	-2037
▁X	-2038
दर्श	-2039
▁पढ़	-2040
▁शुरु	-2041
▁बदलाव	-2042
▁नुकसान	-2043
▁न्यूक्ल	-2044
▁विस्तृत	-2045
ाथ	-2046
ष्य	-2047
साथ	-2048
निया	-2049
▁III	-2050
▁साइ	-2051
धारणा	-2052
▁उनका	-2053
▁काफी	-2054
▁छोड़	-2055
▁दुर्	-2056
▁फाइब	-2057
▁बनता	-2058
▁राजस्व	-2059
▁लक्ष्य	-2060
भा	-2061
काल	-2062
पुट	-2063
रेशन	-2064
▁जीव	-2065
ीनिकल	-2066
्लेषण	-2067
▁मोनो	-2068
▁श्रेण	-2069
▁अभिक्रिया	-2070
▁लिम्फोसाइट्स	-2071
तन	-2072
वास	-2073
ष्ठ	-2074
ियोट	-2075
▁पहल	-2076
▁रिस	-2077
▁विलय	-2078
▁अमीनो	-2079
▁एकत्र	-2080
▁यूनिट	-2081
ज्ड	-2082
नतम	-2083
वाब	-2084
िटेड	-2085
▁किल	-2086
क्सिल	-2087
जिस्ट	-2088
▁क्रम	-2089
▁जनता	-2090
▁डेटा	-2091
▁तिरु	-2092
▁मेरो	-2093
▁शायद	-2094
▁सब्स	-2095
▁सारा	-2096
▁हेमा	-2097
▁एंटीजन	-2098
▁क्लीनिकल	-2099
▁निदेशालय	-2100
▁सूचीबद्ध	-2101
▁प्रोग्राम	-2102
in	-2103
चु	-2104
बड	-2105
▁L	-2106
▁30	-2107
िपिड	-2108
ैक्ट	-2109
▁याद	-2110
▁सतह	-2111
ूर्ति	-2112
▁आवेश	-2113
▁मुद्	-2114
▁उपकरण	-2115
▁जिनके	-2116
▁परमाण	-2117
▁न्यूनतम	-2118
▁योजनाओं	-2119
▁स्थापना	-2120
ंज	-2121
ंचा	-2122
ांग	-2123
▁डे	-2124
▁दूर	-2125
▁टाइप	-2126
▁लेना	-2127
▁आप्शन	-2128
▁कोर्ड	-2129
▁ग्राम	-2130
▁बिंदु	-2131
▁डिजाइन	-2132
▁विदेशी	-2133
▁समाधान	-2134
ब्लास्टिक	-2135
▁जिन्होंने	-2136
▁प्रक्रियाओं	-2137
ियर	-2138
▁ज़	-2139
▁गां	-2140
▁बैक	-2141
▁भेज	-2142
▁जैसी	-2143
▁चारों	-2144
▁मौजूदा	-2145
▁सारांश	-2146
▁एल्गोरि	-2147
▁सुरक्षित	-2148
▁ह्यूरिस्टिक	-2149
उट	-2150
यं	-2151
ंगी	-2152
प्ट	-2153
▁इक	-2154
▁दिल	-2155
▁स्ल	-2156
क्टिव	-2157
वत्ता	-2158
▁एनाल	-2159
▁मध्य	-2160
वसायिक	-2161
▁बताया	-2162
▁गुणवत्ता	-2163
▁व्यावसायिक	-2164
यता	-2165
▁13	-2166
▁धी	-2167
चर्स	-2168
▁लाल	-2169
▁अगले	-2170
▁आबंध	-2171
▁तेजी	-2172
▁बड़े	-2173
▁सचिव	-2174
▁वर्णन	-2175
▁वृद्ध	-2176
▁अनुवाद	-2177
▁एस्ट्रोसाइटोमा	-2178
द्र	-2179
▁बज	-2180
▁आवंट	-2181
▁टर्म	-2182
हाइड्र	-2183
▁ऊतकों	-2184
▁अधिकांश	-2185
▁इंजेक्ट	-2186
NS	-2187
ंकन	-2188
तिक	-2189
▁पृ	-2190
▁बच	-2191
▁भवि	-2192
▁वाह	-2193
▁अस्थ	-2194
▁क्रो	-2195
▁जवाब	-2196
▁पानी	-2197
▁सर्व	-2198
▁तस्वी	-2199
▁दिनों	-2200
▁किनारे	-2201
▁प्रोटी	-2202
▁भविष्य	-2203
▁मैंब्रेन	-2204
▁20	-2205
▁अद	-2206
ार्ट	-2207
▁कथन	-2208
्यूल्स	-2209
▁बनाया	-2210
▁अधिकतम	-2211
▁असामान्य	-2212
▁प्रोटीन्स	-2213
एक	-2214
▁पो	-2215
्हुड	-2216
▁कॉल	-2217
▁डिफ	-2218
▁द्र	-2219
▁मेट	-2220
▁रिल	-2221
▁लिम	-2222
▁हीम	-2223
▁उचित	-2224
▁मिश्र	-2225
▁स्वयं	-2226
▁अवधारणा	-2227
▁लक्षणों	-2228
▁इक्	-2229
▁गये	-2230
▁दिख	-2231
स्कार	-2232
▁नेटव	-2233
▁सहित	-2234
▁जिलों	-2235
▁प्रोट	-2236
ाइंडिंग	-2237
▁रेज़िड	-2238
▁संपर्क	-2239
▁सुविधाओं	-2240
▁शेयरहोल्डर्स	-2241
अप	-2242
ल्‍	-2243
ांक	-2244
ियस	-2245
ेंज	-2246
▁मज	-2247
ान्व	-2248
▁बिज	-2249
▁उसकी	-2250
▁देना	-2251
▁अंगों	-2252
▁इनमें	-2253
▁कितनी	-2254
▁पॉलीप	-2255
▁लिमिटेड	-2256
▁इनहिबिटर	-2257
▁न्यायालय	-2258
इं	-2259
मलव	-2260
र्द	-2261
ियन	-2262
ूची	-2263
ूनी	-2264
ृंख	-2265
ोनल	-2266
िग्न	-2267
िटिव	-2268
▁डाई	-2269
ायनिक	-2270
ृंखला	-2271
▁गणना	-2272
▁बड़ी	-2273
▁मानव	-2274
्यांकन	-2275
▁दशमलव	-2276
▁पारित	-2277
▁श्रृंखला	-2278
शल	-2279
ोफ	-2280
▁t	-2281
फोल	-2282
वाल	-2283
▁18	-2284
-201	-2285
दर्भ	-2286
िक्व	-2287
ोगिक	-2288
▁दोहरा	-2289
▁शुरुआ	-2290
▁हटाने	-2291
▁विभागों	-2292
▁उन्होंने	-2293
▁लिम्फोब्लास्टिक	-2294
तु	-2295
िज़	-2296
ोइड	-2297
▁/-	-2298
▁तर	-2299
▁दा	-2300
दारी	-2301
▁शोध	-2302
▁अगला	-2303
▁उससे	-2304
▁एल्ड	-2305
▁सलाह	-2306
▁कोशिश	-2307
▁तरीका	-2308
▁बिजली	-2309
▁सिम्प	-2310
▁अनुखंड	-2311
▁संस्था	-2312
▁उत्पन्न	-2313
गति	-2314
देन	-2315
द्व	-2316
▁लो	-2317
कर्ष	-2318
क्यू	-2319
ाइज़	-2320
▁बेस	-2321
ंत्री	-2322
▁अगली	-2323
▁केंद	-2324
▁सेबी	-2325
क्लोनल	-2326
▁तापमान	-2327
▁संक्रम	-2328
▁व्यापार	-2329
▁इस्तेमाल	-2330
इल	-2331
ीड	-2332
िसर	-2333
ेलन	-2334
▁25	-2335
▁एआई	-2336
▁चला	-2337
▁ग्रेड	-2338
ासायनिक	-2339
▁प्रगति	-2340
▁वृद्धि	-2341
▁संचालन	-2342
▁आपूर्ति	-2343
▁सिम्प्ट	-2344
▁हेमांगी	-2345
▁चाइल्ड्हुड	-2346
धी	-2347
यी	-2348
▁S	-2349
▁वय	-2350
विटी	-2351
ोनिक	-2352
ोसिस	-2353
▁पेर	-2354
वर्ती	-2355
▁लगता	-2356
▁शुगर	-2357
▁रजिस्ट	-2358
▁संकेतों	-2359
▁सेंट्रल	-2360
▁विश्लेषण	-2361
▁एल्गोरिदम	-2362
▁गतिविधियों	-2363
▁विद्यालयों	-2364
▁हीमोग्लोबिन	-2365
EB	-2366
कोल	-2367
▁दर	-2368
▁अंश	-2369
▁अपी	-2370
▁जरूर	-2371
▁प्रॉ	-2372
▁आकर्ष	-2373
▁आसानी	-2374
▁खिलाफ	-2375
▁महीने	-2376
▁इसीलिए	-2377
▁केंद्रीय	-2378
▁रासायनिक	-2379
▁स्क्रिप्ट	-2380
‍ट	-2381
▁)	-2382
टीर	-2383
▁शै	-2384
ाजिक	-2385
ायोस	-2386
▁खुद	-2387
▁विल	-2388
▁सिर	-2389
▁इमेज	-2390
▁चीज़	-2391
▁पालन	-2392
▁साइड	-2393
▁शुल्क	-2394
द्योगिक	-2395
▁टर्मिनल	-2396
▁प्रारंभ	-2397
▁माइलॉयड	-2398
▁निरीक्षण	-2399
ूँ	-2400
ेशा	-2401
ारीख	-2402
िफिक	-2403
▁फिल	-2404
▁बिल	-2405
▁मेल	-2406
ृत्ति	-2407
▁मरीज	-2408
▁मिला	-2409
▁अडल्ट	-2410
▁तारीख	-2411
▁फॉर्म	-2412
▁भिन्न	-2413
▁मिश्रण	-2414
▁संदर्भ	-2415
▁इम्यूनो	-2416
▁निर्देश	-2417
▁प्रोब्लम	-2418
▁मॉलिक्यूल्स	-2419
ंप	-2420
ानि	-2421
िनि	-2422
▁आज	-2423
▁बस	-2424
एनएस	-2425
ड़ित	-2426
▁199	-2427
▁टेक	-2428
▁कम्प	-2429
▁सीएस	-2430
▁प्रेस	-2431
▁पीड़ित	-2432
▁रिसर्च	-2433
▁शेयरधारकों	-2434
▁टोम	-2435
क्षेप	-2436
▁उद्य	-2437
▁जीवन	-2438
▁पैदा	-2439
ोमायोस	-2440
▁प्रया	-2441
▁फैलता	-2442
▁टेकओवर	-2443
▁व्यापक	-2444
▁शिक्षक	-2445
▁स्‍ट्र	-2446
▁टोमोग्राफी	-2447
▁संरचनात्मक	-2448
षि	-2449
▁ऑफ	-2450
▁बड़ा	-2451
▁सीमित	-2452
चिकित्स	-2453
▁नेटवर्क	-2454
▁संयुक्त	-2455
▁हेमांगीओ	-2456
▁मूल्यांकन	-2457
ेफ	-2458
म्र	-2459
धारण	-2460
▁चयन	-2461
▁डिग	-2462
▁बाई	-2463
▁शेष	-2464
▁सैं	-2465
च्छिक	-2466
दिष्ट	-2467
▁2008	-2468
▁ऋणदा	-2469
▁जर्म	-2470
▁पीडी	-2471
▁हमेशा	-2472
▁स्वीकृत	-2473
▁निर्दिष्ट	-2474
▁मोनोक्लोनल	-2475
▁क्रोमैटोग्राफी	-2476
ग्ल	-2477
टिव	-2478
न्स	-2479
लेज	-2480
ेयर	-2481
र्जी	-2482
▁कमी	-2483
▁खेल	-2484
▁डबल	-2485
▁बने	-2486
▁रिए	-2487
▁संघ	-2488
▁उम्र	-2489
▁रहते	-2490
▁बनाती	-2491
▁अध्यक्ष	-2492
▁क्रोनिक	-2493
▁अधिकारों	-2494
▁सिद्धांत	-2495
▁स्‍ट्रक्‍	-2496
▁R	-2497
▁भर	-2498
क्षर	-2499
िस्क	-2500
ेटिक	-2501
▁195	-2502
▁उठा	-2503
▁कोय	-2504
▁मास	-2505
▁मेथ	-2506
▁रोड	-2507
▁तत्व	-2508
▁प्री	-2509
▁फर्म	-2510
▁लिंक	-2511
▁स्रो	-2512
▁चीजों	-2513
▁कापोसी	-2514
▁स्लाइड	-2515
▁कंपनियां	-2516
▁संरचनाओं	-2517
गै	-2518
धन	-2519
सोम	-2520
▁कल	-2521
▁सै	-2522
परीत	-2523
▁एकल	-2524
▁पाए	-2525
▁माल	-2526
▁राम	-2527
▁अंतः	-2528
▁अदाल	-2529
▁कॉम्	-2530
▁चलता	-2531
▁रखते	-2532
▁दृष्ट	-2533
▁बढ़ते	-2534
▁अनुबंध	-2535
▁विपरीत	-2536
▁संशोधन	-2537
▁पंजीकरण	-2538
▁फॉस्फोल	-2539
▁संस्थान	-2540
▁पुस्तकालय	-2541
at	-2542
धा	-2543
टिल	-2544
नेस	-2545
वीं	-2546
▁गल	-2547
▁नॉ	-2548
ेक्स	-2549
▁मार	-2550
▁अल्‍	-2551
▁जोकि	-2552
▁मेरे	-2553
एक्टिव	-2554
▁आंशिक	-2555
▁न्यूर	-2556
▁सिर्फ	-2557
▁निगमित	-2558
▁निष्पाद	-2559
▁पंजीकृत	-2560
▁सामाजिक	-2561
▁इफेक्ट्स	-2562
▁वर्गीकृत	-2563
▁व्यवस्था	-2564
दाय	-2565
मोद	-2566
वाट	-2567
िक्	-2568
िन्	-2569
▁21	-2570
ंतरण	-2571
ग्री	-2572
ड़ों	-2573
ल्कि	-2574
ामिन	-2575
ेदार	-2576
▁पृथ	-2577
▁बरा	-2578
▁अधिम	-2579
▁अनुप	-2580
▁एस्प	-2581
▁छोटी	-2582
▁स्वै	-2583
क्शन्स	-2584
▁अनुमोद	-2585
▁एंजाइम	-2586
▁तकनीकी	-2587
▁प्रयास	-2588
▁पुस्तकों	-2589
▁परिवर्तित	-2590
कु	-2591
पट	-2592
वाह	-2593
▁16	-2594
मोमा	-2595
ेरिक	-2596
▁खतर	-2597
▁मजब	-2598
▁सात	-2599
गरानी	-2600
िनेशन	-2601
▁2006	-2602
▁एम्ब	-2603
▁जटिल	-2604
▁नंबर	-2605
▁नीति	-2606
▁मैग्	-2607
ास्टिक	-2608
▁बल्कि	-2609
▁कानूनी	-2610
▁बढ़ावा	-2611
▁बुनिया	-2612
▁निगरानी	-2613
▁प्रकृति	-2614
▁रेज़िड्यू	-2615
▁व्यक्तिगत	-2616
▁स्वैच्छिक	-2617
3.	-2618
▁P	-2619
याँ	-2620
ल्य	-2621
हास	-2622
हित	-2623
्ली	-2624
▁100	-2625
▁अन्	-2626
▁तरल	-2627
▁सेक	-2628
▁समझा	-2629
▁सवाल	-2630
िपिड्स	-2631
▁एक्सप	-2632
▁कितना	-2633
▁घोषणा	-2634
▁अल्‍फा	-2635
▁प्रश्न	-2636
▁शुरुआत	-2637
▁उत्पादन	-2638
▁रेडियोएक्टिव	-2639
सम	-2640
फेट	-2641
यों	-2642
लीय	-2643
▁एज	-2644
▁लॉ	-2645
ाउंड	-2646
▁तरफ	-2647
▁निर	-2648
▁शहर	-2649
ंतरिक	-2650
ग्रेड	-2651
तिहास	-2652
ाइज्ड	-2653
▁शल्य	-2654
▁शाखा	-2655
▁एएमएल	-2656
▁चरणों	-2657
▁बाहरी	-2658
▁पुनर्ग	-2659
▁महीनों	-2660
▁स्टेशन	-2661
चिकित्सा	-2662
▁डायग्नोस	-2663
▁सिम्प्टम्स	-2664
ैर	-2665
ौग	-2666
टर्	-2667
स्‍	-2668
▁रो	-2669
ैटिक	-2670
▁रबड	-2671
▁कृषि	-2672
▁मेगा	-2673
▁रिकर	-2674
▁वहाँ	-2675
▁थोड़ा	-2676
▁पुलों	-2677
▁बराबर	-2678
▁संगठन	-2679
▁योगदान	-2680
▁सेवाओं	-2681
▁पर्याप्त	-2682
▁बुनियादी	-2683
ब्लास्टोमा	-2684
सल	-2685
हन	-2686
भोग	-2687
ायन	-2688
ुरम	-2689
एलएल	-2690
ज्जा	-2691
बारा	-2692
▁जमा	-2693
▁जित	-2694
टर्नल	-2695
रेटेड	-2696
▁यानि	-2697
▁एपेंड	-2698
▁निम्न	-2699
▁फैलने	-2700
प्रोटीन	-2701
म्ब्रेन	-2702
▁डिग्री	-2703
▁पहुंचा	-2704
▁अनुक्रम	-2705
▁एक्सपर्ट	-2706
ैक	-2707
यां	-2708
राट	-2709
वार	-2710
गेशन	-2711
टेंस	-2712
्यूब	-2713
▁पाव	-2714
ोइड्स	-2715
▁टेक्	-2716
▁लिपो	-2717
▁इंट्र	-2718
▁श्रेणी	-2719
▁इक्विटी	-2720
▁शिक्षकों	-2721
on	-2722
ेम	-2723
▁E	-2724
▁p	-2725
तार	-2726
रेब	-2727
सिज	-2728
ूशन	-2729
▁आश	-2730
▁रस	-2731
▁बीस	-2732
▁मिन	-2733
▁विध	-2734
▁हाथ	-2735
युक्त	-2736
िकाओं	-2737
▁उसका	-2738
▁परिस	-2739
▁भागी	-2740
▁मार्	-2741
▁रखना	-2742
▁देयता	-2743
▁निकाय	-2744
▁मज्जा	-2745
▁मान्य	-2746
▁आंतरिक	-2747
▁जाएंगे	-2748
▁नियमित	-2749
▁प्रतिर	-2750
▁संग्रह	-2751
▁कर्तव्य	-2752
▁बाइंडिंग	-2753
पल	-2754
ाक	-2755
भाल	-2756
ेगी	-2757
▁नौ	-2758
▁शी	-2759
कल्प	-2760
ापरी	-2761
ारिश	-2762
ॉन्स	-2763
्यास	-2764
▁आउट	-2765
▁गैस	-2766
▁घाव	-2767
▁पैर	-2768
▁फाय	-2769
▁सिफ	-2770
कृतिक	-2771
िक्री	-2772
ूचीयन	-2773
▁खतरा	-2774
▁अणुओं	-2775
▁बदलने	-2776
▁महिला	-2777
▁ज्ञापन	-2778
▁तस्वीर	-2779
▁स्थाना	-2780
▁मेगावाट	-2781
ैकेराइड्स	-2782
▁ग्लियोमा	-2783
ुलन	-2784
▁नव	-2785
▁कोर	-2786
पत्ति	-2787
िमोमा	-2788
ोमीटर	-2789
▁सीडी	-2790
▁स्टॉक	-2791
▁ऋणदाता	-2792
▁संबंधी	-2793
▁एनालाइट	-2794
▁दर्शाता	-2795
▁संक्रमण	-2796
▁सिफारिश	-2797
प्लास्टिक	-2798
▁चिकित्सा	-2799
▁दस्तावेज	-2800
▁एंटीकैंसर	-2801
▁प्रारंभिक	-2802
▁प्रस्तावित	-2803
,0	-2804
ाइज	-2805
लेशन	-2806
वाही	-2807
ेटेड	-2808
्युल	-2809
▁आता	-2810
▁लड़	-2811
▁वगै	-2812
▁सेट	-2813
लेट्स	-2814
▁पावर	-2815
▁पोलर	-2816
▁मांग	-2817
▁अदालत	-2818
▁जोड़ा	-2819
▁समझना	-2820
▁इमेजिंग	-2821
▁लेखापरी	-2822
▁विद्युत	-2823
▁विशेषता	-2824
▁हाइड्रॉ	-2825
▁पुरस्कार	-2826
▁स्टेजिंग	-2827
▁स्थितियों	-2828
2.	-2829
अल	-2830
फर	-2831
लाई	-2832
सिजर	-2833
ाहित	-2834
ॉर्म	-2835
▁गलत	-2836
▁नोट	-2837
▁अप्र	-2838
▁कहता	-2839
▁बनते	-2840
▁अन्ना	-2841
▁चीजें	-2842
ोलॉजिकल	-2843
▁असूचीयन	-2844
▁सामग्री	-2845
▁प्रोसिजर	-2846
▁पॉलीपेप्टाइड	-2847
-0	-2848
डोज	-2849
त्त	-2850
मीद	-2851
ागत	-2852
ूति	-2853
▁धो	-2854
फ्यू	-2855
ालित	-2856
▁उम्	-2857
▁ऑब्	-2858
▁करा	-2859
▁काइ	-2860
▁लेट	-2861
▁स्त	-2862
▁छोटा	-2863
▁जानी	-2864
▁प्‍ल	-2865
▁सारे	-2866
▁तकनीक	-2867
िग्नेंट	-2868
▁उम्मीद	-2869
▁संपत्ति	-2870
▁कार्यान्व	-2871
▁उद्देश्यों	-2872
रख	-2873
ाइव	-2874
ॉलो	-2875
क्या	-2876
ौगिक	-2877
▁दाह	-2878
▁पेप	-2879
▁निकल	-2880
▁पक्ष	-2881
▁रखें	-2882
पोर्टर	-2883
▁मिलता	-2884
▁यौगिक	-2885
▁सीएसआर	-2886
▁संशोधित	-2887
▁सदस्यता	-2888
▁पुनर्गठन	-2889
▁सोल्यूशन	-2890
▁प्रतिरक्षा	-2891
):	-2892
▁"	-2893
्याय	-2894
▁बचा	-2895
▁मृत	-2896
▁मोल	-2897
▁समी	-2898
कोसिस	-2899
▁टर्न	-2900
▁निभा	-2901
▁सुपर	-2902
ारीरिक	-2903
▁अस्थि	-2904
चुरेटेड	-2905
▁इतिहास	-2906
▁बिक्री	-2907
▁सीएनएस	-2908
▁ग्लाइकोस	-2909
▁प्रतिबंध	-2910
▁इलेक्ट्रो	-2911
▁प्रतिभूति	-2912
▁एपेंडिमोमा	-2913
▁हेमांगीओमा	-2914
▁झ	-2915
इंट	-2916
न्व	-2917
वाप	-2918
रखाव	-2919
▁CNS	-2920
▁गयी	-2921
▁गोल	-2922
▁फेफ	-2923
▁सेव	-2924
धिकार	-2925
रोक्त	-2926
विद्य	-2927
▁अल्प	-2928
▁चुका	-2929
▁जाये	-2930
▁बनती	-2931
▁रिंग	-2932
स्थिति	-2933
▁एक्सच	-2934
▁एटम्स	-2935
▁बीमार	-2936
▁उपरोक्त	-2937
▁दर्शाया	-2938
▁कार्यवाही	-2939
▁जारीकर्ता	-2940
धु	-2941
मै	-2942
ॉस	-2943
केज	-2944
संख	-2945
िम्म	-2946
▁आना	-2947
▁कवर	-2948
▁लूप	-2949
▁सुई	-2950
▁एड्स	-2951
▁एपिज	-2952
▁चालू	-2953
▁टेबल	-2954
▁डाइस	-2955
▁मायल	-2956
▁वहां	-2957
संख्यक	-2958
▁पार्ट	-2959
▁बढ़ता	-2960
▁सामने	-2961
▁पीडीक्यू	-2962
▁प्रवर्तक	-2963
▁हाइड्रॉक्सिल	-2964
्वे	-2965
▁1.	-2966
▁17	-2967
नांक	-2968
माने	-2969
्सिन	-2970
▁आया	-2971
▁त्र	-2972
▁विन	-2973
ोजेनस	-2974
▁आपका	-2975
▁करनी	-2976
▁कॉर्ड	-2977
▁जरूरत	-2978
▁मतदान	-2979
▁मामला	-2980
▁सेरेब	-2981
▁स्वाम	-2982
▁हिस्ट	-2983
▁एक्सटर्नल	-2984
▁प्राकृतिक	-2985
▁एपिजेनेटिक	-2986
▁ट्रांसपोर्टर	-2987
▁दुष्प्रभावों	-2988
कम	-2989
लिग	-2990
▁ऑन	-2991
वरूप	-2992
▁जगह	-2993
▁दाई	-2994
रुद्ध	-2995
▁आसान	-2996
▁लेयर	-2997
▁हार्	-2998
▁जिम्म	-2999
▁जुड़ी	-3000
▁भर्ती	-3001
▁मजबूत	-3002
▁सलूशन	-3003
▁दोहराया	-3004
▁परिभाषा	-3005
▁एक्सचेंज	-3006
▁पेप्टाइड	-3007
घट	-3008
ोथ	-3009
टेन	-3010
विधि	-3011
▁कदम	-3012
▁भ्र	-3013
▁रिट	-3014
ंतरित	-3015
▁अधीन	-3016
▁ऑब्ज	-3017
▁चक्र	-3018
▁पिक्	-3019
▁वेतन	-3020
▁समाज	-3021
▁जुड़ा	-3022
▁न्याय	-3023
▁लार्ज	-3024
▁वितरण	-3025
▁स्रोत	-3026
▁रिकरंट	-3027
▁लगातार	-3028
▁समूहों	-3029
II	-3030
ch	-3031
जु	-3032
एशन	-3033
▁सिल	-3034
दर्शन	-3035
▁कीमत	-3036
▁निपट	-3037
▁बोनस	-3038
▁परमाणु	-3039
▁समझौते	-3040
▁प्रतिनि	-3041
▁पेंशनभोग	-3042
▁सब्सटेंस	-3043
▁समस्याओं	-3044
▁मेम्ब्रेन	-3045
▁स्वामित्व	-3046
इन	-3047
थम	-3048
मे	-3049
यू	-3050
▁;	-3051
▁s	-3052
उंड	-3053
बोन	-3054
रुप	-3055
ोर्	-3056
▁31	-3057
▁IV	-3058
▁इश	-3059
▁कठ	-3060
▁घन	-3061
ल्‍स	-3062
ितीय	-3063
▁रेल	-3064
▁शास	-3065
टेस्ट	-3066
ेदारी	-3067
▁1956	-3068
नात्मक	-3069
▁जिसकी	-3070
▁तीसरी	-3071
▁प्लान	-3072
▁लगाया	-3073
▁ग्रसित	-3074
▁लाभांश	-3075
▁गतिविधि	-3076
▁संभावित	-3077
▁प्रकाशित	-3078
कीमोथेरेपी	-3079
,3	-3080
सै	-3081
ाट	-3082
▁–	-3083
नेज	-3084
पेश	-3085
▁नर	-3086
ोर्स	-3087
्याण	-3088
▁कोव	-3089
▁जन्	-3090
▁जल्	-3091
▁ताल	-3092
न्कोल	-3093
ात्मक	-3094
्यादि	-3095
▁बनाम	-3096
▁रहता	-3097
▁सीखा	-3098
▁हेल्	-3099
स्वरूप	-3100
ॉजिस्ट	-3101
▁रिस्क	-3102
▁सीक्व	-3103
▁मायोसिन	-3104
▁ग्लाइसिन	-3105
▁प्लेटलेट्स	-3106
▁स्‍ट्रक्‍चर	-3107
्म	-3108
त्‍	-3109
तरंज	-3110
वापस	-3111
▁अना	-3112
▁नाग	-3113
टामिन	-3114
स्कों	-3115
स्त्र	-3116
▁इकाइ	-3117
▁दाईं	-3118
▁मेथड	-3119
▁लंबे	-3120
▁कल्याण	-3121
▁गतिशील	-3122
▁दोबारा	-3123
▁परिसमा	-3124
▁इत्यादि	-3125
▁स्पेक्ट	-3126
▁कर्मचारी	-3127
▁किलोमीटर	-3128
▁हाइड्रोल	-3129
और	-3130
कद	-3131
राव	-3132
रित	-3133
सीन	-3134
▁नस	-3135
▁वी	-3136
▁एनल	-3137
▁टीम	-3138
▁दाय	-3139
▁संव	-3140
▁समु	-3141
र्थिक	-3142
▁अनुक	-3143
▁कहीं	-3144
▁बजाय	-3145
▁संसा	-3146
वेक्षण	-3147
▁शतरंज	-3148
▁ऑन्कोल	-3149
▁दिखाते	-3150
▁दिनांक	-3151
▁सरकोमा	-3152
▁सेकेंड	-3153
हाइड्रेट	-3154
▁वयस्कों	-3155
▁निर्धारण	-3156
▁निवेशकों	-3157
▁एंटीबॉडीज	-3158
▁स्पेसिफिक	-3159
▁ट्रांसलेशन	-3160
▁लिपोप्रोटीन	-3161
..	-3162
जे	-3163
▁w	-3164
रीय	-3165
शनल	-3166
▁गो	-3167
ूंकि	-3168
ेमिक	-3169
ेयरी	-3170
▁एटम	-3171
▁गर्	-3172
▁दें	-3173
▁नली	-3174
▁मैच	-3175
▁आपकी	-3176
▁धोखा	-3177
▁फॉलो	-3178
▁बनने	-3179
▁सरफे	-3180
▁साझा	-3181
▁सिरे	-3182
▁चूंकि	-3183
▁पिछली	-3184
▁सीखने	-3185
▁प्रसार	-3186
▁पर्यावरण	-3187
▁सेकेंडरी	-3188
▁दस्तावेज़	-3189
▁कार्यान्वयन	-3190
बा	-3191
फेर	-3192
फ्त	-3193
ायक	-3194
ारह	-3195
▁रै	-3196
केशन	-3197
टिंग	-3198
ौतिक	-3199
-2010	-3200
क्षिक	-3201
▁उपाय	-3202
▁चाहे	-3203
▁समरी	-3204
▁इनपुट	-3205
▁थोड़ी	-3206
▁निगमन	-3207
▁पात्र	-3208
▁मुक्त	-3209
▁स्वीक	-3210
▁आवंटित	-3211
▁कोलेजन	-3212
▁परिवार	-3213
▁शब्दों	-3214
▁सरफेसी	-3215
ोलॉजिस्ट	-3216
▁अनुपालन	-3217
▁उपयुक्त	-3218
▁विटामिन	-3219
▁संक्षेप	-3220
▁औद्योगिक	-3221
▁वास्तविक	-3222
▁विश्वविद्य	-3223
▁ऑन्कोलॉजिस्ट	-3224
▁कार्बोहाइड्रेट	-3225
लभ	-3226
▁`	-3227
ठीक	-3228
रीन	-3229
सीड	-3230
स्ड	-3231
खरीद	-3232
िल्ड	-3233
्रिक	-3234
्वेत	-3235
▁आनु	-3236
▁खुल	-3237
नांतर	-3238
रुपये	-3239
िक्‍स	-3240
ोनेंस	-3241
▁अपील	-3242
▁अवसर	-3243
▁रेखा	-3244
ारकोमा	-3245
▁एएलएल	-3246
▁एक्शन	-3247
▁तीसरे	-3248
▁नमूना	-3249
▁नॉलेज	-3250
▁वित्त	-3251
▁दुर्लभ	-3252
▁निवेशक	-3253
▁परिष्क	-3254
म्बिनेशन	-3255
▁क्रिस्ट	-3256
▁शारीरिक	-3257
▁भागीदारी	-3258
▁कार्यकारी	-3259
▁लेखापरीक्षा	-3260
9.	-3261
खोज	-3262
िको	-3263
्वी	-3264
▁3.	-3265
▁बल	-3266
धड़ी	-3267
ैक्स	-3268
▁पूछ	-3269
▁लची	-3270
्युलर	-3271
▁घटना	-3272
▁मांस	-3273
▁वस्त	-3274
ेंसिंग	-3275
▁आसपास	-3276
▁इश्यू	-3277
▁ट्यूब	-3278
▁पहुँच	-3279
▁प्‍लस	-3280
पोर्टेड	-3281
▁अनुकूल	-3282
▁आकर्षण	-3283
▁आवेशित	-3284
▁रखरखाव	-3285
▁कॉम्प्ल	-3286
▁मांसपेश	-3287
▁मैट्रिक	-3288
▁ऑब्जेक्ट	-3289
▁धोखाधड़ी	-3290
▁परिष्कृत	-3291
▁माइकोसिस	-3292
▁प्राधिकरण	-3293
▁अंतःक्रिया	-3294
▁परियोजनाओं	-3295
▁प्रोटीन्‍स	-3296
▁परिणामस्वरूप	-3297
रत	-3298
▁F	-3299
NEB	-3300
ion	-3301
ंगा	-3302
णों	-3303
भीर	-3304
वरी	-3305
्रे	-3306
▁22	-3307
आरआई	-3308
परिक	-3309
वासी	-3310
्युट	-3311
▁अवश	-3312
▁इंड	-3313
▁एनी	-3314
▁क्व	-3315
▁मेड	-3316
▁रिफ	-3317
▁लिग	-3318
▁शिक	-3319
र्देश	-3320
्रेजी	-3321
▁गांव	-3322
▁पीएच	-3323
▁प्लस	-3324
▁बायो	-3325
▁रहने	-3326
▁लंबी	-3327
▁अच्छे	-3328
▁उसमें	-3329
▁घनत्व	-3330
▁जितना	-3331
▁पड़ता	-3332
▁भौतिक	-3333
▁पिक्चर	-3334
▁माननीय	-3335
▁टेक्स्ट	-3336
▁शैक्षिक	-3337
▁पुनर्खरीद	-3338
▁सर्वेक्षण	-3339
ोब्लास्टोमा	-3340
अन	-3341
पीओ	-3342
▁गं	-3343
▁पच	-3344
विदा	-3345
्रोस	-3346
▁आयु	-3347
▁एटी	-3348
▁निच	-3349
▁पंच	-3350
▁भंड	-3351
▁भवन	-3352
▁सां	-3353
खोजने	-3354
▁उन्न	-3355
▁खर्च	-3356
▁गुणा	-3357
▁द्रव	-3358
▁परिच	-3359
▁फ्लू	-3360
▁लेवल	-3361
मंत्री	-3362
▁गंभीर	-3363
▁चाहती	-3364
▁दवाएं	-3365
▁सहयोग	-3366
▁स्टडी	-3367
▁अधिकृत	-3368
▁विनियमन	-3369
▁व्यवहार	-3370
▁वाहिकाओं	-3371
▁हस्तांतरण	-3372
▁स्वतंत्रता	-3373
,5	-3374
दू	-3375
समय	-3376
कोपी	-3377
दायी	-3378
िओमा	-3379
िडिक	-3380
▁कमज	-3381
▁रेज	-3382
ट्यूम	-3383
▁अत्य	-3384
▁चुना	-3385
▁पार्	-3386
▁फेरो	-3387
▁बाएं	-3388
▁लाइस	-3389
▁सम्म	-3390
▁क्रॉस	-3391
▁क्लोर	-3392
▁घटकों	-3393
▁नोटिस	-3394
▁बनाना	-3395
▁भंडार	-3396
▁रेसीड	-3397
▁हेयरी	-3398
कर्ताओं	-3399
▁पुनराव	-3400
▁लिगैंड	-3401
▁संयोजन	-3402
▁अवरुद्ध	-3403
▁अनुमानित	-3404
▁उपस्थिति	-3405
▁प्रदर्शन	-3406
▁संस्थागत	-3407
▁विश्वविद्यालय	-3408
ंह	-3409
कॉ	-3410
ीस	-3411
गित	-3412
ज़र	-3413
ूचित	-3414
ेंसी	-3415
▁करी	-3416
▁माह	-3417
नुसार	-3418
ोसाइट	-3419
▁अग्र	-3420
▁कॉलम	-3421
▁चलने	-3422
▁धीरे	-3423
▁रिसे	-3424
▁इंजीन	-3425
▁शिकाय	-3426
▁अधिमान	-3427
▁नामांक	-3428
▁बैठकों	-3429
▁लेनदार	-3430
▁फेरोमोन	-3431
▁मेटास्ट	-3432
▁हेलिक्‍स	-3433
▁प्रवर्तकों	-3434
▁इंटरैक्शन्स	-3435
▁W	-3436
▁f	-3437
एंड	-3438
टिड	-3439
श्क	-3440
ुवी	-3441
▁वो	-3442
ष्टि	-3443
ाइपो	-3444
ार्ड	-3445
ूंगा	-3446
ेशनल	-3447
्कुल	-3448
▁मैल	-3449
▁लें	-3450
तियों	-3451
श्किल	-3452
्यवाद	-3453
▁TNEB	-3454
▁जन्म	-3455
▁दिलच	-3456
▁मुंह	-3457
▁रुपए	-3458
▁विफल	-3459
ट्रांस	-3460
▁चार्ज	-3461
▁जीन्स	-3462
▁मुफ्त	-3463
▁रक्षा	-3464
▁वगैरा	-3465
▁स्टेर	-3466
▁ग्लिसर	-3467
▁मृत्यु	-3468
▁शर्तों	-3469
▁स्तरीय	-3470
▁स्वस्थ	-3471
▁बिल्कुल	-3472
▁स्थानों	-3473
▁क्रिस्टल	-3474
▁परिवर्तनों	-3475
▁O	-3476
पात	-3477
फेद	-3478
राब	-3479
ैलन	-3480
▁00	-3481
▁पत	-3482
पुरम	-3483
मिकल	-3484
लिम्	-3485
ॉल्ट	-3486
्राव	-3487
▁देन	-3488
▁पेड	-3489
▁राह	-3490
▁सुझ	-3491
गेटिव	-3492
लेक्‍	-3493
िवर्स	-3494
िहाइड	-3495
▁कहां	-3496
▁ट्री	-3497
▁दर्द	-3498
▁दायर	-3499
ट्यूमर	-3500
ुलनशील	-3501
▁अत्या	-3502
▁खोजने	-3503
▁ज्ञान	-3504
▁टेराट	-3505
▁ट्रिप	-3506
▁निष्क	-3507
▁मोनोम	-3508
▁सैंपल	-3509
ेलियोमा	-3510
▁अनुरोध	-3511
▁अन्यथा	-3512
▁आर्थिक	-3513
▁एनर्जी	-3514
▁ब्रांच	-3515
▁मुश्किल	-3516
▁सम्मेलन	-3517
▁स्टार्ट	-3518
▁2009-2010	-3519
▁प्रत्यक्ष	-3520
▁अल्पसंख्यक	-3521
▁प्राथमिकता	-3522
▁कॉम्प्लेक्स	-3523
7.	-3524
पक	-3525
ॉट	-3526
्ब	-3527
जिए	-3528
रेड	-3529
लोक	-3530
शंस	-3531
संद	-3532
सीए	-3533
िवर	-3534
ोक्	-3535
▁आक	-3536
डीपी	-3537
ल्टी	-3538
वेंट	-3539
ानिव	-3540
ायरस	-3541
▁आती	-3542
▁थीं	-3543
▁नरभ	-3544
▁फर्	-3545
▁मिथ	-3546
▁वेल	-3547
▁सिग	-3548
▁अस्त	-3549
▁गैलन	-3550
▁दिये	-3551
▁नेबर	-3552
▁बाकी	-3553
▁यानी	-3554
▁सारी	-3555
▁हेतु	-3556
▁प्राय	-3557
▁रसायन	-3558
▁श्वेत	-3559
▁आउटपुट	-3560
▁एसिडों	-3561
▁देनदार	-3562
▁फैक्टर	-3563
▁धन्यवाद	-3564
▁प्रोटॉन	-3565
▁गैस्ट्रो	-3566
▁उत्तरदायी	-3567
▁जिम्मेदार	-3568
ोमायोसारकोमा	-3569
▁प्रतिक्रिया	-3570
▁पेंशनभोगियों	-3571
छे	-3572
सु	-3573
▁K	-3574
ंटी	-3575
दंड	-3576
फिल	-3577
श्य	-3578
हीत	-3579
ाइक	-3580
ानु	-3581
ोना	-3582
्‍ट	-3583
▁तथ	-3584
▁दब	-3585
ानीय	-3586
▁198	-3587
▁अंक	-3588
▁ढां	-3589
कालिक	-3590
▁इतना	-3591
▁कहला	-3592
▁दर्ज	-3593
▁देगा	-3594
▁राहत	-3595
▁इंगित	-3596
▁चाहता	-3597
▁चिल्ड	-3598
▁निहित	-3599
▁प्लेस	-3600
▁संग्र	-3601
▁समक्ष	-3602
▁सिक्व	-3603
▁स्किन	-3604
ियोटाइड	-3605
▁उद्योग	-3606
▁एम्ब्र	-3607
▁दाहिने	-3608
▁नरभक्ष	-3609
▁निविदा	-3610
▁न्यूरल	-3611
▁बिनाइन	-3612
▁शुगर्स	-3613
▁हेलिसिस	-3614
▁अस्तित्व	-3615
▁दृष्टिको	-3616
▁स्वीकृति	-3617
▁आवश्यकताओं	-3618
▁बायोलॉजिकल	-3619
▁रेज़िड्यूज़	-3620
तीस	-3621
फ्ल	-3622
हिर	-3623
ंगिक	-3624
धारा	-3625
ुखार	-3626
र्जरी	-3627
▁करीब	-3628
▁पचास	-3629
▁भारी	-3630
▁भोजन	-3631
ासंगिक	-3632
▁किसान	-3633
▁क्लास	-3634
▁फिलाम	-3635
▁मुद्र	-3636
▁सॉल्‍	-3637
▁अनुपात	-3638
▁लिंकेज	-3639
▁लेनदेन	-3640
▁समझौता	-3641
▁सांद्र	-3642
▁हेलिकल	-3643
▁खिलाड़ी	-3644
▁प्रबंधक	-3645
▁फॉस्फेट	-3646
टेस्टाइनल	-3647
▁अंग्रेजी	-3648
▁इंटरैक्‍	-3649
▁परमाणुओं	-3650
▁संग्रहीत	-3651
▁सम्पत्ति	-3652
▁बीमारियों	-3653
ID	-3654
कश	-3655
दृ	-3656
मन	-3657
ीण	-3658
्थ	-3659
▁a	-3660
हरे	-3661
ाज्	-3662
िरी	-3663
्टी	-3664
-200	-3665
्रार	-3666
▁अतः	-3667
▁वही	-3668
चंद्र	-3669
ामेलन	-3670
▁अक्ष	-3671
▁एंगल	-3672
▁चौथा	-3673
▁पीछे	-3674
▁रिएज	-3675
▁लाइट	-3676
▁जाहिर	-3677
▁बाउंड	-3678
▁ब्रिज	-3679
▁मिलती	-3680
▁स्टीर	-3681
▁हेल्थ	-3682
क्तियों	-3683
ज्ञानिक	-3684
▁कारकों	-3685
▁निरंतर	-3686
▁पाएंगे	-3687
▁पैरेंट	-3688
▁प्रतिक	-3689
▁सेवाएं	-3690
▁ग्रामीण	-3691
▁मान्यता	-3692
▁समामेलन	-3693
▁समीक्षा	-3694
▁स्थानीय	-3695
▁निष्पादन	-3696
▁प्रतिनिध	-3697
▁सपोर्टेड	-3698
▁सांद्रता	-3699
▁मुख्यमंत्री	-3700
▁ग्लाइकोसिडिक	-3701
,2	-3702
DI	-3703
सन	-3704
ंटे	-3705
टीक	-3706
टेर	-3707
दों	-3708
ैंक	-3709
▁2.	-3710
▁पे	-3711
केले	-3712
डीआई	-3713
्रास	-3714
▁ठोस	-3715
▁परत	-3716
▁बनी	-3717
▁सफल	-3718
द्वंद	-3719
सूत्र	-3720
▁कॉपी	-3721
▁खाते	-3722
▁लिवर	-3723
चंद्रन	-3724
स्कुलर	-3725
▁आवंटन	-3726
▁ग्रूव	-3727
▁जानने	-3728
▁पेडिए	-3729
▁विद्व	-3730
▁शीर्ष	-3731
▁शुद्ध	-3732
▁दिल्ली	-3733
▁प्रचार	-3734
▁शर्तें	-3735
▁इकाइयों	-3736
▁कार्यरत	-3737
▁चिल्ड्र	-3738
▁प्रकाशन	-3739
▁सेवानिव	-3740
▁अत्याधिक	-3741
▁गुणसूत्र	-3742
सेकेराइड्स	-3743
▁प्रतिद्वंद	-3744
▁रजिस्ट्रार	-3745
▁एनाप्लास्टिक	-3746
▁लिम्फोसाइटिक	-3747
/-	-3748
पण	-3749
शय	-3750
▁e	-3751
एसे	-3752
त्स	-3753
भूत	-3754
ल्फ	-3755
विक	-3756
▁23	-3757
▁औस	-3758
▁टॉ	-3759
▁पश	-3760
▁बह	-3761
पचार	-3762
वल्ल	-3763
शन्स	-3764
िंगल	-3765
ेरित	-3766
▁एंग	-3767
▁चैट	-3768
▁नगर	-3769
▁सिव	-3770
ंपरिक	-3771
ख्यिक	-3772
होल्ड	-3773
्रुवी	-3774
▁उसने	-3775
▁जुटा	-3776
▁दूरी	-3777
▁पट्ट	-3778
▁बाईं	-3779
▁लेता	-3780
▁वहीं	-3781
ॉजिटिव	-3782
▁पेशकश	-3783
▁मंत्र	-3784
▁मापने	-3785
▁सर्वो	-3786
▁सुझाव	-3787
दायित्व	-3788
▁अनुदान	-3789
▁सेक्शन	-3790
▁अनुमोदन	-3791
▁निकालना	-3792
▁पारदर्श	-3793
▁फेफड़ों	-3794
▁विनियमों	-3795
▁प्रासंगिक	-3796
▁रामचंद्रन	-3797
▁संस्थानों	-3798
▁हस्ताक्षर	-3799
इंटेस्टाइनल	-3800
▁मैलिग्नेंट	-3801
ic	-3802
▁Y	-3803
खिल	-3804
गार	-3805
टूर	-3806
वें	-3807
ामा	-3808
ामी	-3809
ुमा	-3810
ोजे	-3811
ोलॉ	-3812
▁28	-3813
द्रा	-3814
धारक	-3815
लिंग	-3816
शियल	-3817
▁अंड	-3818
▁चेक	-3819
वंशिक	-3820
संट्र	-3821
स्टेर	-3822
स्थाप	-3823
ुलेशन	-3824
▁2007	-3825
▁2011	-3826
▁उतना	-3827
▁उधार	-3828
▁एनोम	-3829
▁कांच	-3830
▁बनाई	-3831
▁लेकर	-3832
▁सफेद	-3833
ाइलेशन	-3834
▁अनुभव	-3835
▁करेगी	-3836
▁गुणों	-3837
▁ग्राह	-3838
▁घोषित	-3839
▁जानना	-3840
▁पॉइंट	-3841
▁लड़ने	-3842
मेंटेशन	-3843
▁उपयोगी	-3844
▁एनसीएल	-3845
▁बैठकें	-3846
▁मुद्दे	-3847
▁रहेंगे	-3848
▁कंसंट्र	-3849
▁दिलचस्प	-3850
▁स्टेट्स	-3851
सैचुरेटेड	-3852
▁स्टेरॉयड	-3853
▁दृष्टिकोण	-3854
6.	-3855
al	-3856
पॉ	-3857
्ठ	-3858
▁V	-3859
▁n	-3860
▁‘	-3861
▁’	-3862
चाई	-3863
जाम	-3864
बोट	-3865
सूस	-3866
ेटर	-3867
▁60	-3868
क्टे	-3869
र्दन	-3870
र्मल	-3871
लोकन	-3872
शियम	-3873
ियोग	-3874
ोलोज	-3875
▁ओवर	-3876
▁खुर	-3877
▁बटा	-3878
▁रिज	-3879
▁हिं	-3880
धुनिक	-3881
व्यों	-3882
ाइपोल	-3883
ेट्री	-3884
▁अभिय	-3885
▁एस्ट	-3886
▁केयर	-3887
▁ग्लू	-3888
▁दबाव	-3889
▁पुनः	-3890
▁रिकॉ	-3891
ेदनशील	-3892
▁चालों	-3893
▁जीवित	-3894
▁पढ़ने	-3895
▁महसूस	-3896
▁वायरस	-3897
▁अनुरूप	-3898
▁मंत्री	-3899
▁मानकों	-3900
▁मुद्रा	-3901
▁लोकेशन	-3902
▁संसाधन	-3903
▁सवालों	-3904
▁कानूनों	-3905
▁जेनेटिक	-3906
▁निकालने	-3907
▁संचालित	-3908
ोथेलियोमा	-3909
▁आनुवंशिक	-3910
▁चिल्ड्रन	-3911
▁ज्यादातर	-3912
▁पारंपरिक	-3913
▁संरचनाएं	-3914
▁साझेदारी	-3915
▁मॉलिक्यूलर	-3916
▁पुस्तकालयों	-3917
▁प्रतिद्वंद्वी	-3918
ra	-3919
अर	-3920
इम	-3921
लो	-3922
ठित	-3923
▁01	-3924
टर्न	-3925
फिंग	-3926
ोमास	-3927
्रिफ	-3928
▁किश	-3929
▁डिप	-3930
▁दंड	-3931
▁पैथ	-3932
▁वजन	-3933
▁वेन	-3934
▁हिल	-3935
्यूलर	-3936
▁क्यू	-3937
▁पसंद	-3938
▁सुना	-3939
▁हमला	-3940
ानुमान	-3941
िमिटिव	-3942
▁उद्यम	-3943
▁एमाइल	-3944
▁खातों	-3945
▁खुराक	-3946
▁नामित	-3947
▁निचले	-3948
▁प्रथम	-3949
▁फोल्ड	-3950
▁बताता	-3951
▁समन्व	-3952
▁हटाया	-3953
▁हितों	-3954
्रिफ्यू	-3955
▁अभ्यास	-3956
▁अवलोकन	-3957
▁आधुनिक	-3958
▁एफडीआई	-3959
▁ग्लाइक	-3960
▁डाइपोल	-3961
▁पैटर्न	-3962
▁यात्रा	-3963
▁विषयों	-3964
▁साधारण	-3965
▁पॉजिटिव	-3966
▁लाइसेंस	-3967
▁शास्त्र	-3968
▁सारकोमा	-3969
▁अनुवर्ती	-3970
▁सांख्यिक	-3971
▁प्रिमिटिव	-3972
ोसैकेराइड्स	-3973
▁पूर्वानुमान	-3974
▁सिक्वेंसिंग	-3975
▁स्थानांतरित	-3976
ोमायोसार्कोमा	-3977
50	-3978
FDI	-3979
प्च	-3980
बार	-3981
ब्ड	-3982
यूल	-3983
रेख	-3984
ुरै	-3985
ैले	-3986
▁1,	-3987
ल्फ़	-3988
िन्‍	-3989
ुरंत	-3990
ूँगा	-3991
▁196	-3992
▁अपे	-3993
▁एग्	-3994
▁औसत	-3995
▁घूम	-3996
▁घोल	-3997
▁झिल	-3998
▁पाई	-3999
▁याच	-4000
▁लंग	-4001
▁वाय	-4002
▁हेड	-4003
त्रिम	-4004
फ्यूज	-4005
सेप्च	-4006
ाइम्ब	-4007
▁आपदा	-4008
▁खराब	-4009
▁चिन्	-4010
▁डिटे	-4011
▁मानस	-4012
▁रखती	-4013
▁रहती	-4014
▁लाइन	-4015
प्रवाह	-4016
्रोस्प	-4017
▁कमजोर	-4018
▁तुरंत	-4019
▁देखना	-4020
▁बुखार	-4021
▁म्यूट	-4022
▁सिंगल	-4023
ल्फ़ाइड	-4024
▁अनुप्र	-4025
▁देखभाल	-4026
▁रिफाइन	-4027
▁लक्षित	-4028
▁सिंचाई	-4029
ाइम्बिंग	-4030
▁कंसेप्च	-4031
▁कृत्रिम	-4032
▁नेबरहुड	-4033
▁प्रोत्स	-4034
▁हार्मोन	-4035
▁चिकित्सक	-4036
▁निष्कर्ष	-4037
▁प्रकारों	-4038
▁प्रतियोग	-4039
्रिफ्यूगेशन	-4040
▁कार्यालयों	-4041
▁कंसेप्च्युल	-4042
▁क्लाइम्बिंग	-4043
▁एस्ट्रोसाइटोमास	-4044
4.	-4045
5.	-4046
चल	-4047
मर	-4048
रक	-4049
ैब	-4050
कलन	-4051
केट	-4052
फिक	-4053
ेकल	-4054
ोरी	-4055
▁Sa	-4056
▁एर	-4057
▁ओम	-4058
▁डा	-4059
▁भू	-4060
एक्स	-4061
िट्स	-4062
िनिब	-4063
ेस्ट	-4064
▁197	-4065
▁कॉर	-4066
▁टुक	-4067
▁फिट	-4068
▁बया	-4069
▁रोज	-4070
▁संत	-4071
क्करण	-4072
डीएशन	-4073
ांतरण	-4074
ामर्श	-4075
िपिकल	-4076
▁इनका	-4077
▁ऑप्ट	-4078
▁गांठ	-4079
▁गामा	-4080
▁ग्रो	-4081
▁टाइम	-4082
▁निधि	-4083
▁मेरा	-4084
▁लर्न	-4085
▁हड्ड	-4086
क्षकों	-4087
्रुवीय	-4088
▁अभियं	-4089
▁ओमेगा	-4090
▁कितने	-4091
▁किशोर	-4092
▁चौड़ा	-4093
▁प्रबल	-4094
▁बढ़ती	-4095
▁रिक्त	-4096
▁शीट्स	-4097
▁वर्णित	-4098
▁शिक्षण	-4099
्रीफ्यूज	-4100
▁कंपाउंड	-4101
▁परामर्श	-4102
▁रजिस्टर	-4103
▁रिलेटेड	-4104
▁अनुमोदित	-4105
▁अनुसूचित	-4106
▁तिरुवल्ल	-4107
▁परिसमापक	-4108
▁पृथक्करण	-4109
▁कॉम्बिनेशन	-4110
▁न्यूक्लियोटाइड	-4111
▁सेंट्रिफ्यूगेशन	-4112
शा	-4113
िह	-4114
ैप	-4115
▁Z	-4116
200	-4117
कान	-4118
णिज	-4119
लिक	-4120
सेज	-4121
ाने	-4122
िरण	-4123
▁27	-4124
▁अर	-4125
▁वज	-4126
नेशन	-4127
भोक्	-4128
र्गी	-4129
्याज	-4130
▁छूट	-4131
▁तेल	-4132
▁बफर	-4133
▁रखे	-4134
▁साई	-4135
-2011	-4136
णिज्य	-4137
ाथेकल	-4138
▁अल्ट	-4139
▁आर्ग	-4140
▁इनिश	-4141
▁ऑलिग	-4142
▁कठिन	-4143
▁डिज़	-4144
▁पहलू	-4145
▁फार्	-4146
▁रोटर	-4147
▁लोकल	-4148
▁सिग्	-4149
▁सौंप	-4150
▁हजार	-4151
▁अपवाद	-4152
▁जनरेट	-4153
▁जिनकी	-4154
▁ब्रोम	-4155
▁सिविल	-4156
▁स्प्ल	-4157
स्थापित	-4158
▁उपभोक्	-4159
▁वितरित	-4160
▁संकल्प	-4161
▁सपोर्ट	-4162
▁स्वागत	-4163
▁एटिपिकल	-4164
▁प्रेरित	-4165
▁योग्यता	-4166
▁रिकॉर्ड	-4167
▁सचिवालय	-4168
▁स्क्रीन	-4169
▁म्यूटेशन	-4170
▁सीक्वेंस	-4171
▁कर्तव्यों	-4172
▁वैज्ञानिक	-4173
▁गतिविधियाँ	-4174
▁पेडिएट्रिक	-4175
एंडोथेलियोमा	-4176
▁डाइसल्फ़ाइड	-4177
▁प्रतिनिधित्व	-4178
▁इम्यूनोथेरेपी	-4179
10	-4180
हर	-4181
्ज	-4182
▁g	-4183
EBI	-4184
िमा	-4185
ीहा	-4186
ुत्	-4187
्‍व	-4188
▁क़	-4189
▁जे	-4190
▁यु	-4191
SEBI	-4192
अधिक	-4193
्योर	-4194
‍टोन	-4195
▁असं	-4196
▁आंख	-4197
▁डोज	-4198
▁ढंग	-4199
▁रेश	-4200
ोमड़ी	-4201
ोलॉजी	-4202
्यारह	-4203
्रेशन	-4204
▁उत्त	-4205
▁जाएं	-4206
▁फ्री	-4207
▁मीटर	-4208
गोइड्स	-4209
ेंशियल	-4210
ैक्टिक	-4211
्यूटरी	-4212
▁जल्दी	-4213
▁ट्राई	-4214
▁ब्लॉक	-4215
▁मारने	-4216
▁मिलते	-4217
रेडिएशन	-4218
िस्ट्री	-4219
▁आवर्ती	-4220
▁जोड़ने	-4221
▁दिखाने	-4222
▁नागरिक	-4223
▁व्युत्	-4224
▁क्रोमोज	-4225
▁दायित्व	-4226
▁टेराटॉइड	-4227
▁प्रश्नों	-4228
▁मंत्रालय	-4229
▁रेजोनेंस	-4230
▁शक्तियों	-4231
▁हिस्‍टोन	-4232
▁2010-2011	-4233
▁प्रोटीनों	-4234
▁विशेषताएं	-4235
▁शास्त्रीय	-4236
▁पुनरावृत्ति	-4237
▁फॉस्फोलिपिड्स	-4238
.0	-4239
RI	-4240
ॉम	-4241
IDS	-4242
काज	-4243
किट	-4244
ब्र	-4245
भार	-4246
वां	-4247
ासा	-4248
िटल	-4249
ूरी	-4250
ोनर	-4251
्ति	-4252
▁40	-4253
▁पं	-4254
िथेल	-4255
ोलिक	-4256
्यता	-4257
्रीम	-4258
्‍या	-4259
▁500	-4260
▁घटा	-4261
▁टर्	-4262
▁तभी	-4263
▁फाई	-4264
▁फोर	-4265
▁शिख	-4266
पूर्व	-4267
फॉर्म	-4268
फ्राम	-4269
लिम्फ	-4270
▁2005	-4271
▁अधिस	-4272
▁ग्रह	-4273
▁डिस्	-4274
▁बचपन	-4275
▁बॉडी	-4276
▁रखता	-4277
▁व्यय	-4278
▁सकें	-4279
▁सेना	-4280
कल्पिक	-4281
▁एटीपी	-4282
▁ग्लूट	-4283
▁परिचय	-4284
▁ब्याज	-4285
▁मदुरै	-4286
▁माल्ट	-4287
▁रोकते	-4288
▁अपीलीय	-4289
▁उपधारा	-4290
▁कामकाज	-4291
▁ग्यारह	-4292
▁चैटबोट	-4293
▁जुड़ते	-4294
▁परिवहन	-4295
▁फर्स्ट	-4296
▁फ़ोर्स	-4297
▁मुद्दा	-4298
▁मुर्गी	-4299
▁विकिरण	-4300
▁समन्वय	-4301
▁कार्मिक	-4302
▁निर्मित	-4303
▁प्रदर्श	-4304
▁रिसेप्ट	-4305
▁रेडीएशन	-4306
▁वाणिज्य	-4307
▁एनसीएलटी	-4308
▁क्लोराइड	-4309
▁वैकल्पिक	-4310
▁समानांतर	-4311
▁हड्डियों	-4312
▁क्रोमोजोम	-4313
▁बंदरगाहों	-4314
▁विद्वानों	-4315
▁विशेषताओं	-4316
▁व्यवस्थित	-4317
▁स्ट्रक्चर्स	-4318
▁सेंट्रीफ्यूज	-4319
er	-4320
काश	-4321
मेल	-4322
श्र	-4323
हाई	-4324
िनम	-4325
▁4.	-4326
▁मन	-4327
▁मस	-4328
ट्रल	-4329
पट्ट	-4330
लग्ल	-4331
वर्त	-4332
वर्ष	-4333
वाइड	-4334
▁असम	-4335
▁डाइ	-4336
▁पेय	-4337
▁बाल	-4338
▁रेट	-4339
त्‍मक	-4340
▁इनके	-4341
▁क़ान	-4342
▁जहाज	-4343
▁तर्क	-4344
▁प्रौ	-4345
▁फोर्	-4346
▁बारह	-4347
▁लाने	-4348
▁लिखा	-4349
▁शिखर	-4350
पचारिक	-4351
ैलेन्ट	-4352
▁कार्ट	-4353
▁डालते	-4354
▁पेरिफ	-4355
▁प्रॉप	-4356
▁प्रोल	-4357
▁रेलवे	-4358
▁संभाल	-4359
▁हमारी	-4360
सामान्य	-4361
▁अर्थात	-4362
▁इंटरनल	-4363
▁उपक्रम	-4364
▁खुलासा	-4365
▁छोड़कर	-4366
▁न्यूरो	-4367
▁लोमड़ी	-4368
▁नेगेटिव	-4369
▁योजनाएं	-4370
▁परिस्थित	-4371
▁रूपांतरण	-4372
ियोटैक्टिक	-4373
▁कोवैलेन्ट	-4374
▁निष्पादित	-4375
▁प्रवर्त्त	-4376
▁कंसंट्रेशन	-4377
▁राजमार्गों	-4378
▁कार्बोक्सिल	-4379
▁प्रौद्योगिक	-4380
▁मायोग्लोबिन	-4381
▁हाइड्रोलिसिस	-4382
ंघ	-4383
घु	-4384
▁b	-4385
▁x	-4386
चुर	-4387
त्म	-4388
नीस	-4389
रेन	-4390
रोग	-4391
िगर	-4392
ेरल	-4393
▁90	-4394
▁आख	-4395
▁आद	-4396
▁चै	-4397
आरटी	-4398
डीआर	-4399
मिशन	-4400
लग्न	-4401
सीएल	-4402
स्पर	-4403
ूनों	-4404
▁01.	-4405
▁अर्	-4406
▁कले	-4407
▁कैथ	-4408
▁खोल	-4409
▁तिर	-4410
▁पॉल	-4411
▁फैस	-4412
▁मसल	-4413
▁संह	-4414
ंबटूर	-4415
फिलिक	-4416
लिस्ट	-4417
ष्ट्र	-4418
स्राव	-4419
िनाइल	-4420
ियोइड	-4421
▁2000	-4422
▁इच्छ	-4423
▁एसिट	-4424
▁कुशल	-4425
▁ठहरा	-4426
▁डाला	-4427
▁तथ्य	-4428
▁धीमी	-4429
▁पतली	-4430
▁पदों	-4431
▁परेश	-4432
▁वाष्	-4433
▁हानि	-4434
इम्यून	-4435
स्ट्रा	-4436
▁अंततः	-4437
▁आईपीओ	-4438
▁उन्नत	-4439
▁देखता	-4440
▁पोस्ट	-4441
▁फेक्ट	-4442
▁मिलकर	-4443
▁लगाना	-4444
▁वयस्क	-4445
▁वालों	-4446
▁सहमति	-4447
▁हमारा	-4448
ायरोसिन	-4449
▁उन्नीस	-4450
▁एपिथेल	-4451
▁गांवों	-4452
▁जायेगा	-4453
▁निभाते	-4454
▁प्लीहा	-4455
▁बैकबोन	-4456
▁स्थायी	-4457
मस्तिष्क	-4458
मिस्ट्री	-4459
ार्थियों	-4460
▁अत्यधिक	-4461
▁कलेक्टर	-4462
▁घुलनशील	-4463
▁टर्न्‍स	-4464
▁प्रॉब्ल	-4465
▁रिएजेंट	-4466
▁लर्निंग	-4467
▁प्रभावों	-4468
▁व्याख्या	-4469
▁समस्याएं	-4470
▁स्टेशनरी	-4471
▁टार्गेटिड	-4472
▁व्यक्तित्व	-4473
1.	-4474
कृ	-4475
तक	-4476
ैश	-4477
▁ॠ	-4478
-11	-4479
त्य	-4480
▁खो	-4481
▁तद	-4482
आईएस	-4483
काया	-4484
र्गे	-4485
ाग्न	-4486
िनिन	-4487
ियान	-4488
ेप्थ	-4489
▁केस	-4490
▁जीत	-4491
▁थ्र	-4492
▁नदी	-4493
▁फंग	-4494
▁फंड	-4495
▁बर्	-4496
▁वजह	-4497
▁वोट	-4498
▁सें	-4499
▁सोड	-4500
मात्र	-4501
विज्ञ	-4502
सिस्ट	-4503
ोटाइप	-4504
▁इन्फ	-4505
▁चौड़	-4506
▁निकट	-4507
▁भेजा	-4508
▁सटीक	-4509
▁होकर	-4510
केराइड	-4511
पूर्वक	-4512
ैटोसिस	-4513
▁अकेले	-4514
▁आबंधन	-4515
▁ग्रहण	-4516
▁डाग्न	-4517
▁बहुमत	-4518
▁माइनर	-4519
▁रूपों	-4520
▁रोकता	-4521
▁लीजिए	-4522
▁संचार	-4523
▁होंगी	-4524
▁एग्जाम	-4525
▁ऑक्सीड	-4526
▁दृष्टि	-4527
▁पहलुओं	-4528
▁पैमाने	-4529
▁फिनाइल	-4530
▁रबडॉइड	-4531
▁रोजगार	-4532
विज्ञानी	-4533
ोग्राफिक	-4534
▁ग्लूटाम	-4535
▁बैंकिंग	-4536
▁रिएक्शन	-4537
▁वस्तुओं	-4538
▁इफेक्टिव	-4539
▁पेरिफेरल	-4540
▁प्लानिंग	-4541
▁अध्यक्षता	-4542
▁अनुप्रयोग	-4543
▁इम्यूनोएसे	-4544
▁सेरेब्रोस्प	-4545
LL	-4546
es	-4547
उंट	-4548
िडन	-4549
▁32	-4550
फेरी	-4551
व्यव	-4552
ेसिव	-4553
ोमिक	-4554
▁काई	-4555
▁खरी	-4556
▁जीए	-4557
▁टूट	-4558
▁पिघ	-4559
▁पैं	-4560
▁पोष	-4561
▁लघु	-4562
▁सौर	-4563
▁हाइ	-4564
क्टीर	-4565
िन्‍न	-4566
▁आहार	-4567
▁किलो	-4568
▁गुजर	-4569
▁चींट	-4570
▁डोनर	-4571
▁पेपर	-4572
▁बाधा	-4573
▁रचना	-4574
▁विकल	-4575
▁संगठ	-4576
▁हस्त	-4577
पोरेशन	-4578
प्रकार	-4579
साधारण	-4580
ाइजेशन	-4581
ाहित्य	-4582
▁इनिशल	-4583
▁क्षति	-4584
▁ज्ञात	-4585
▁डेप्थ	-4586
▁पोलार	-4587
▁फाइनल	-4588
▁समर्थ	-4589
▁हटाना	-4590
ोसाइटिक	-4591
▁एजेंसी	-4592
▁ठहराया	-4593
▁निपटान	-4594
▁प्रवाह	-4595
▁बढ़ाया	-4596
▁वर्गों	-4597
▁उपस्थित	-4598
▁विकलांग	-4599
▁विश्वास	-4600
▁साहित्य	-4601
▁कोयंबटूर	-4602
▁एल्डिहाइड	-4603
▁ग्लाइकोजन	-4604
▁मायलोजेनस	-4605
▁रेसीड्यूज	-4606
▁सॉल्‍वेंट	-4607
▁दस्तावेजों	-4608
▁प्रशिक्षित	-4609
▁एपिथेलियोइड	-4610
▁ट्रांसपोर्ट	-4611
▁मोनोसैकेराइड्स	-4612
टन	-4613
बे	-4614
रि	-4615
ोव	-4616
अनु	-4617
कुछ	-4618
टरे	-4619
राज	-4620
शिप	-4621
सरण	-4622
▁26	-4623
▁36	-4624
▁अट	-4625
▁कण	-4626
▁घा	-4627
घटना	-4628
पीवी	-4629
ासिल	-4630
ेन्स	-4631
्रोप	-4632
▁कने	-4633
▁कीट	-4634
▁दोष	-4635
▁पाय	-4636
▁पोट	-4637
▁बजट	-4638
▁स्म	-4639
▁ॠणा	-4640
कोष्ठ	-4641
धानिक	-4642
बार्ड	-4643
ल्पना	-4644
स्पर्	-4645
▁अनाज	-4646
▁अस्प	-4647
▁आर्ज	-4648
▁खुले	-4649
▁गर्म	-4650
▁टिशु	-4651
▁सूजन	-4652
▁स्टो	-4653
बीनेशन	-4654
स्कोपी	-4655
ाइलग्ल	-4656
ोज़िज़	-4657
▁आकृति	-4658
▁इंस्ट	-4659
▁गर्दन	-4660
▁जिसने	-4661
▁लिखित	-4662
▁हासिल	-4663
िश्रमिक	-4664
▁अनुसरण	-4665
▁इन्हिब	-4666
▁एंगल्स	-4667
▁दिवाला	-4668
▁भ्रष्ट	-4669
▁याचिका	-4670
▁संहिता	-4671
▁साइक्ल	-4672
▁असाधारण	-4673
▁उपकरणों	-4674
▁डाग्नोस	-4675
▁न्यायिक	-4676
▁संरक्षण	-4677
▁सलाहकार	-4678
▁इंजीनियर	-4679
▁एम्ब्र्य	-4680
▁तंत्रिका	-4681
▁पुनर्वास	-4682
▁प्रकोष्ठ	-4683
▁वैस्कुलर	-4684
▁सुविधाएं	-4685
▁प्रावस्था	-4686
▁हस्तक्षेप	-4687
▁पारिश्रमिक	-4688
▁प्रतिस्पर्	-4689
▁स्पेक्ट्रोम	-4690
▁हेमांगीओमास	-4691
▁इलेक्ट्रोस्ट	-4692
19	-4693
29	-4694
un	-4695
ुट	-4696
▁d	-4697
▁m	-4698
ंघन	-4699
ंसी	-4700
फ़ी	-4701
सिस	-4702
ूली	-4703
्यय	-4704
▁45	-4705
▁75	-4706
chin	-4707
डीएस	-4708
र्नि	-4709
लाया	-4710
वेयर	-4711
शाली	-4712
सर्स	-4713
िह्न	-4714
ोस्ड	-4715
्‍यू	-4716
▁कृप	-4717
▁डिव	-4718
▁फेज	-4719
▁बोल	-4720
▁मनु	-4721
▁मैप	-4722
▁रोट	-4723
▁सेप	-4724
▁हेप	-4725
कार्ब	-4726
क्रिय	-4727
दारों	-4728
दृश्य	-4729
पुट्स	-4730
राधिक	-4731
▁AIDS	-4732
▁अभिव	-4733
▁ऊपरी	-4734
▁एनएच	-4735
▁कौशल	-4736
▁दक्ष	-4737
▁देरी	-4738
▁नवीन	-4739
▁पूरक	-4740
▁बांड	-4741
▁मिनट	-4742
▁रिज़	-4743
चाइल्ड	-4744
फेक्शन	-4745
ियोफेर	-4746
्नोसिस	-4747
▁आयनिक	-4748
▁इंटरे	-4749
▁काफ़ी	-4750
▁क्रान	-4751
▁चेन्स	-4752
▁ढांचे	-4753
▁तीनों	-4754
▁देंगे	-4755
▁पोर्ट	-4756
▁फ्लोर	-4757
▁मार्च	-4758
▁विनिम	-4759
▁सेंटर	-4760
▁सेन्ट	-4761
▁स्टोर	-4762
ग्नेटिक	-4763
धिकारिक	-4764
भावस्था	-4765
▁तत्वों	-4766
▁न्यूली	-4767
▁फाइब्र	-4768
▁विलायक	-4769
▁2010-11	-4770
▁उल्लंघन	-4771
▁डिज़ाइन	-4772
▁तकनीकों	-4773
▁धनात्मक	-4774
▁निर्गमन	-4775
▁बैक्टीर	-4776
▁महिलाओं	-4777
▁मुद्दों	-4778
▁आधिकारिक	-4779
▁केंद्रित	-4780
▁दुर्घटना	-4781
▁सपोर्टिड	-4782
▁डायग्नोस्ड	-4783
▁अनसैचुरेटेड	-4784
▁प्रोग्नोसिस	-4785
▁इलेक्ट्रॉनिक	-4786
▁पॉलीसेकेराइड्स	-4787
20	-4788
47	-4789
80	-4790
ct	-4791
is	-4792
ुष	-4793
ोह	-4794
आउट	-4795
टीय	-4796
डोल	-4797
तीत	-4798
न्ज	-4799
पित	-4800
बेस	-4801
मिन	-4802
लाश	-4803
हीन	-4804
्टा	-4805
▁कन	-4806
▁जय	-4807
▁व्	-4808
थाओं	-4809
िशिए	-4810
ुल्क	-4811
ेसिस	-4812
ोनाल	-4813
्रोल	-4814
▁11.	-4815
▁ऊष्	-4816
▁कोल	-4817
▁टेट	-4818
▁तिथ	-4819
▁नकद	-4820
▁पश्	-4821
▁मेन	-4822
▁मोट	-4823
▁सील	-4824
▁हार	-4825
क्टोज	-4826
ट्रेट	-4827
न्यूर	-4828
रेक्ट	-4829
लेटेड	-4830
ांतों	-4831
िटर्स	-4832
्टिंग	-4833
्रोमल	-4834
▁एलान	-4835
▁कंडी	-4836
▁घंटे	-4837
▁दाता	-4838
▁देकर	-4839
▁देखे	-4840
▁पादर	-4841
▁पृथक	-4842
▁फेज़	-4843
▁बयान	-4844
▁बांध	-4845
▁विभा	-4846
▁शासन	-4847
▁सिने	-4848
▁स्ना	-4849
▁स्वच	-4850
▁हिडन	-4851
क्षणिक	-4852
क्षरता	-4853
क्साइड	-4854
नेसाइट	-4855
ान्वित	-4856
▁आयोजन	-4857
▁करेंट	-4858
▁कृपया	-4859
▁चिह्न	-4860
▁डिस्ट	-4861
▁बुद्ध	-4862
▁मिनिम	-4863
▁वेट्स	-4864
वाइडर्स	-4865
ाइज़ेशन	-4866
▁असमर्थ	-4867
▁आयुक्त	-4868
▁क़ानून	-4869
▁दुनिया	-4870
▁द्रव्य	-4871
▁पेशेंट	-4872
▁मेथड्स	-4873
▁सहकारी	-4874
▁सोडियम	-4875
▁स्फिंग	-4876
▁स्वरूप	-4877
▁अभियंता	-4878
▁इंस्टीट	-4879
▁जानेंगे	-4880
▁द्वितीय	-4881
▁फोर्सेज	-4882
▁विधियों	-4883
ॉलिक्यूलर	-4884
▁तस्वीरों	-4885
▁नामांकित	-4886
▁पादरियों	-4887
▁शैक्षणिक	-4888
▁स्ट्रोमल	-4889
▁निष्क्रिय	-4890
▁लाभान्वित	-4891
▁गर्भावस्था	-4892
▁प्रोवाइडर्स	-4893
▁रोगविज्ञानी	-4894
▁एम्ब्र्योनाल	-4895
▁प्रौद्योगिकी	-4896
40	-4897
आइ	-4898
डर	-4899
तल	-4900
पै	-4901
मु	-4902
ूड	-4903
ईटी	-4904
डिए	-4905
िमल	-4906
ेवर	-4907
्ठा	-4908
▁33	-4909
▁41	-4910
▁ऑड	-4911
▁लै	-4912
ताया	-4913
धीरे	-4914
रोगी	-4915
िप्त	-4916
िरिन	-4917
ृत्त	-4918
ेनॉल	-4919
▁10.	-4920
▁12.	-4921
▁ऑफ़	-4922
▁धात	-4923
▁फोट	-4924
▁वान	-4925
▁सेर	-4926
कार्य	-4927
केलेट	-4928
पुस्त	-4929
र्जित	-4930
वारों	-4931
ांतिक	-4932
▁अधिश	-4933
▁आर्ट	-4934
▁इन्ट	-4935
▁कैल्	-4936
▁खुली	-4937
▁डेवल	-4938
▁दिवस	-4939
▁निया	-4940
▁फ़ोर	-4941
▁शहरी	-4942
▁सिंथ	-4943
एनर्जी	-4944
फ्यूजन	-4945
वर्षीय	-4946
ोजेक्ट	-4947
ोलॉजिक	-4948
▁अवरोध	-4949
▁कपोसी	-4950
▁कॉलेज	-4951
▁खाद्य	-4952
▁निवार	-4953
▁फैलाव	-4954
▁बकाया	-4955
▁बातें	-4956
▁भेजने	-4957
▁मल्टी	-4958
▁विरोध	-4959
▁शहरों	-4960
▁सतर्क	-4961
▁सूचित	-4962
वर्तमान	-4963
स्ट्रॉम	-4964
्यात्मक	-4965
▁एकीकृत	-4966
▁खरीदने	-4967
▁चौड़ाई	-4968
▁ट्रिपल	-4969
▁तैयारी	-4970
▁पेप्‍ट	-4971
▁बर्किट	-4972
▁मुद्रण	-4973
▁लाइसिन	-4974
▁विनिमय	-4975
▁सम्मान	-4976
स्क्युलर	-4977
▁अपेक्षा	-4978
▁किशोरों	-4979
▁ग्लाइको	-4980
▁नाबार्ड	-4981
▁निकायों	-4982
▁यौगिकों	-4983
▁संपूर्ण	-4984
▁स्प्लीन	-4985
▁अधिमान्य	-4986
▁आर्जिनिन	-4987
▁कैल्शियम	-4988
▁ग्लिसरॉल	-4989
▁टायरोसिन	-4990
▁मेल्टिंग	-4991
▁विनियमित	-4992
▁निर्देशित	-4993
▁पंचवर्षीय	-4994
▁फॉस्फोलिप	-4995
▁रक्तस्राव	-4996
▁रिक्तियों	-4997
▁वाणिज्यिक	-4998
▁श्रेणियों	-4999
▁सब्सट्रेट	-5000
▁स्वीकार्य	-5001
▁नरभक्षियों	-5002
▁मैग्नेसाइट	-5003
▁रक्तप्रवाह	-5004
▁स्थानांतरण	-5005
▁इंस्टीट्यूट	-5006
▁परिस्थितियों	-5007
?>	-5008
CS	-5009
re	-5010
एआर	-5011
टिक	-5012
ताल	-5013
ात्	-5014
▁(3	-5015
▁3-	-5016
▁43	-5017
▁st	-5018
▁छि	-5019
▁फी	-5020
एमएस	-5021
गरूक	-5022
टरनल	-5023
रक्त	-5024
रेखा	-5025
रेटर	-5026
र्डर	-5027
सरों	-5028
िकता	-5029
िन्स	-5030
ियाल	-5031
ेष्ठ	-5032
▁50%	-5033
▁अनल	-5034
▁इकट	-5035
▁चौथ	-5036
▁छवि	-5037
▁दूध	-5038
▁देय	-5039
▁पाथ	-5040
▁मूक	-5041
▁मेज	-5042
▁सल्	-5043
च्योर	-5044
तायात	-5045
प्रोल	-5046
सुधार	-5047
ाइडेड	-5048
ाज्मा	-5049
िज्या	-5050
िसिटी	-5051
ेल्टा	-5052
▁1000	-5053
▁आईसी	-5054
▁इनकी	-5055
▁उठाए	-5056
▁ओर्ग	-5057
▁जलीय	-5058
▁डिफ़	-5059
▁तलाश	-5060
▁थिरु	-5061
▁नज़र	-5062
▁नीडल	-5063
▁पद्ध	-5064
▁पर्य	-5065
▁पहुँ	-5066
▁पीढ़	-5067
▁पेयर	-5068
▁पैसे	-5069
▁प्रण	-5070
▁मोटर	-5071
▁लंबा	-5072
▁लेती	-5073
▁वाटर	-5074
▁विघट	-5075
▁समित	-5076
▁सीटी	-5077
टार्गे	-5078
टेनियस	-5079
▁अवशोष	-5080
▁क्रेन	-5081
▁ग्रोथ	-5082
▁चक्रण	-5083
▁थर्मल	-5084
▁दाखिल	-5085
▁बताने	-5086
▁मंजूर	-5087
▁मेडुल	-5088
▁रूपये	-5089
▁संक्ष	-5090
प्रणाली	-5091
ोमेट्री	-5092
▁एमआरआई	-5093
▁कैथेटर	-5094
▁छात्रा	-5095
▁जवाबदे	-5096
▁जागरूक	-5097
▁दिशानि	-5098
▁पुष्टि	-5099
▁शिकायत	-5100
▁सिनेमा	-5101
ोलिपिड्स	-5102
▁अर्थात्	-5103
▁अस्थायी	-5104
▁एकमात्र	-5105
▁तदनुसार	-5106
▁न्यूरॉन	-5107
▁परिव्यय	-5108
▁परेशानी	-5109
▁यातायात	-5110
▁यूनिट्स	-5111
▁राज्यों	-5112
▁राष्ट्र	-5113
▁रिटेंशन	-5114
▁वैधानिक	-5115
▁संगठनों	-5116
▁सैंट्रल	-5117
ेप्टाइड्स	-5118
▁उपप्रकार	-5119
▁एस्पिरिन	-5120
▁त्रिज्या	-5121
▁परिदृश्य	-5122
▁मांसपेशी	-5123
▁विद्यालय	-5124
▁संरक्षित	-5125
▁साक्षरता	-5126
्रोमैटोसिस	-5127
▁एक्स्ट्रा	-5128
▁प्रोजेक्ट	-5129
▁मैग्नेटिक	-5130
▁संक्षिप्त	-5131
▁इंट्राथेकल	-5132
▁फिलामेंट्स	-5133
▁व्युत्पन्न	-5134
▁दिशानिर्देश	-5135
▁उत्तरदायित्व	-5136
▁सेवानिवृत्ति	-5137
▁हाइड्रोफिलिक	-5138
8.	-5139
पे	-5140
ोइ	-5141
▁+	-5142
▁h	-5143
CNS	-5144
एआई	-5145
जीज	-5146
ज्म	-5147
निन	-5148
पिल	-5149
मूल	-5150
म्‍	-5151
रेज	-5152
लेम	-5153
वेल	-5154
संग	-5155
ोसै	-5156
▁29	-5157
▁आँ	-5158
▁टन	-5159
▁फि	-5160
कदमा	-5161
पक्ष	-5162
बीआई	-5163
वर्न	-5164
ाचार	-5165
ेटिव	-5166
▁कमा	-5167
▁चले	-5168
▁ज़र	-5169
▁ट्व	-5170
▁डिस	-5171
▁डैश	-5172
▁पैक	-5173
▁वेट	-5174
प्रति	-5175
िकल्स	-5176
ेंसेस	-5177
▁2016	-5178
▁अयोग	-5179
▁आकलन	-5180
▁उत्स	-5181
▁एसोस	-5182
▁कहाँ	-5183
▁केन्	-5184
▁ग्‍ल	-5185
▁तिथि	-5186
▁तोड़	-5187
▁पैसा	-5188
▁फैला	-5189
▁फ्लो	-5190
▁मिली	-5191
▁लाया	-5192
▁वैसे	-5193
▁संतु	-5194
▁सत्य	-5195
पूर्ति	-5196
सोमर्स	-5197
▁कोयले	-5198
▁जिनसे	-5199
▁ट्राइ	-5200
▁डिजीज	-5201
▁परिसर	-5202
▁फैलते	-5203
▁बाध्य	-5204
▁विवाद	-5205
▁समेशन	-5206
ॉल्यूशन	-5207
्युटेशन	-5208
▁Sachin	-5209
▁उच्चतम	-5210
▁जोड़ता	-5211
▁नमूनों	-5212
▁पेशेवर	-5213
▁प्रणाल	-5214
▁फ्लूइड	-5215
▁मुकदमा	-5216
▁मूलभूत	-5217
▁रास्ता	-5218
▁एकत्रित	-5219
▁ग्रुप्स	-5220
▁ट्रैक्ट	-5221
▁ध्रुवीय	-5222
▁माल्टोज	-5223
▁रेडियोस	-5224
▁उत्पादों	-5225
▁एनालिसिस	-5226
▁डॉक्टरों	-5227
▁प्रमाणित	-5228
▁विकल्पों	-5229
▁सर्वोच्च	-5230
▁स्वचालित	-5231
▁इन्फेक्शन	-5232
▁वस्क्युलर	-5233
▁सॉफ्टवेयर	-5234
▁बैक्टीरिया	-5235
▁क्रोमैटोग्राफिक	-5236
▁स्टीरियोटैक्टिक	-5237
IV	-5238
ST	-5239
गण	-5240
डे	-5241
थर	-5242
दय	-5243
यु	-5244
रम	-5245
़न	-5246
ूण	-5247
चिम	-5248
ज्ज	-5249
टीम	-5250
नेल	-5251
पाल	-5252
पुर	-5253
बिल	-5254
मेट	-5255
शास	-5256
सीज	-5257
िंक	-5258
ुडी	-5259
ॉमी	-5260
▁42	-5261
▁49	-5262
▁to	-5263
▁इव	-5264
▁ख़	-5265
▁ति	-5266
▁मर	-5267
ऊंगा	-5268
र्जन	-5269
वेली	-5270
स्टी	-5271
▁आइस	-5272
▁कन्	-5273
▁कोण	-5274
▁गार	-5275
▁फिज	-5276
▁बचे	-5277
▁बीज	-5278
▁भाव	-5279
▁रात	-5280
▁रिड	-5281
▁लगे	-5282
▁विर	-5283
▁वीड	-5284
▁साठ	-5285
इलिंग	-5286
च्छेद	-5287
टीकरण	-5288
थेनॉल	-5289
र्माण	-5290
स्टेज	-5291
स्तों	-5292
्यूज़	-5293
▁अपरा	-5294
▁अभिल	-5295
▁आवेद	-5296
▁एक्व	-5297
▁करवा	-5298
▁खुला	-5299
▁गहरा	-5300
▁घुमा	-5301
▁छाती	-5302
▁देखी	-5303
▁नर्व	-5304
▁नाइट	-5305
▁पाते	-5306
▁बचने	-5307
▁मेमो	-5308
▁सचिन	-5309
▁सेडी	-5310
त्यक्ष	-5311
्यूटेड	-5312
▁अंकित	-5313
▁केराट	-5314
▁कोर्ट	-5315
▁क्रमश	-5316
▁ग्लोब	-5317
▁घावों	-5318
▁चार्ट	-5319
▁दिखती	-5320
▁पुरुष	-5321
▁प्रिं	-5322
▁बताना	-5323
▁मैक्स	-5324
▁लचीले	-5325
▁लाभों	-5326
▁विधान	-5327
▁विविध	-5328
▁समझते	-5329
▁साइकल	-5330
▁हाइपर	-5331
पट्टिनम	-5332
▁अध्याय	-5333
▁कहलाती	-5334
▁ग्लैंड	-5335
▁डेल्टा	-5336
▁पैंतीस	-5337
▁फिचर्स	-5338
▁वीडियो	-5339
▁श्रमिक	-5340
▁समुदाय	-5341
▁सुनामी	-5342
▁सेलुलर	-5343
लेक्‍यूल	-5344
ोजेनेटिक	-5345
▁आकर्षित	-5346
▁आरक्षित	-5347
▁ऋणात्मक	-5348
▁एनीमिया	-5349
▁पहचानने	-5350
▁माइक्रो	-5351
▁संयंत्र	-5352
▁स्टेजेस	-5353
मैग्नेटिक	-5354
▁प्रतिदान	-5355
▁यूनिवर्स	-5356
▁विभिन्‍न	-5357
▁संग्रहित	-5358
▁संरचनाएँ	-5359
▁एनालाइट्स	-5360
▁न्यूरॉन्स	-5361
▁प्रायिकता	-5362
▁माइलोजेनस	-5363
▁संवेदनशील	-5364
▁अप्रत्यक्ष	-5365
▁कम्प्यूटरी	-5366
▁प्रणालियों	-5367
▁प्रवर्त्तक	-5368
▁भ्रष्टाचार	-5369
▁ट्रीटमेंट्स	-5370
▁सेडीमेंटेशन	-5371
▁स्क्रिप्ट्स	-5372
▁इंटरैक्‍शन्स	-5373
▁इलेक्ट्रॉनों	-5374
▁प्रतिस्पर्धा	-5375
ाइनोब्लास्टोमा	-5376
▁स्‍ट्रक्‍चर्स	-5377
,1	-5378
,6	-5379
,7	-5380
val	-5381
ंटन	-5382
एगा	-5383
कता	-5384
जनक	-5385
णनी	-5386
धित	-5387
पान	-5388
मोल	-5389
रिए	-5390
रेल	-5391
व्र	-5392
ाइर	-5393
िनी	-5394
▁47	-5395
▁pk	-5396
▁कब	-5397
▁घर	-5398
▁पौ	-5399
▁मल	-5400
▁लौ	-5401
मर्स	-5402
यर्स	-5403
सिंग	-5404
सीका	-5405
सूली	-5406
▁अपर	-5407
▁कोष	-5408
▁चिं	-5409
▁पीक	-5410
▁बुक	-5411
▁भाष	-5412
▁संक	-5413
▁हीट	-5414
-2009	-5415
क्रोम	-5416
पमेंट	-5417
ाइब्र	-5418
िटेशन	-5419
्वेंट	-5420
▁अम्ल	-5421
▁एप्स	-5422
▁खाने	-5423
▁खाली	-5424
▁चलिए	-5425
▁जल्द	-5426
▁पढ़ा	-5427
▁फ्लु	-5428
▁रणनी	-5429
▁रेयर	-5430
▁रैबड	-5431
▁लम्ब	-5432
प्रबंध	-5433
िक्विस	-5434
▁अपराध	-5435
▁असंभव	-5436
▁एजेंट	-5437
▁चलाने	-5438
▁चींटी	-5439
▁तीव्र	-5440
▁नैतिक	-5441
▁प्रिर	-5442
▁बातों	-5443
▁लिस्ट	-5444
▁लेंगे	-5445
▁वसूली	-5446
▁समझें	-5447
▁सैद्ध	-5448
▁स्टैक	-5449
▁स्माल	-5450
याफ्राम	-5451
ारात्मक	-5452
ियोफेरी	-5453
िशिएंसी	-5454
▁अर्जित	-5455
▁उपायों	-5456
▁एक्टिव	-5457
▁झिल्ली	-5458
▁निकाला	-5459
▁परिचित	-5460
▁मानदंड	-5461
▁मिलेगा	-5462
▁मिलेगी	-5463
▁रिवर्स	-5464
▁समझाया	-5465
▁सिलिका	-5466
एसाइलग्ल	-5467
▁औपचारिक	-5468
▁डोमेन्स	-5469
▁पहुंचाए	-5470
▁पार्किन	-5471
▁प्रोटीओ	-5472
▁ब्लास्ट	-5473
टार्गेटेड	-5474
▁क्रॉसओवर	-5475
▁डिफ़ॉल्ट	-5476
▁प्रतिकूल	-5477
▁प्रवर्तन	-5478
▁रिसेप्टर	-5479
▁शिकायतों	-5480
▁स्ट्रिंग	-5481
▁कम्प्यूटर	-5482
▁प्रकटीकरण	-5483
▁प्रदर्शित	-5484
एसाइलग्लिसर	-5485
▁कार्यात्मक	-5486
▁कॉम्बीनेशन	-5487
▁पाठ्यपुस्त	-5488
▁प्रोब्लम्स	-5489
▁मेलिग्नेंट	-5490
▁सैद्धांतिक	-5491
▁प्रिरिक्विस	-5492
▁प्रोत्साहित	-5493
▁कार्यप्रणाली	-5494
▁अधिग्रहणकर्ता	-5495
▁सेरेब्रोस्पाइनल	-5496
ET	-5497
ed	-5498
णी	-5499
बह	-5500
यक	-5501
हे	-5502
ौन	-5503
ing	-5504
कुम	-5505
कोह	-5506
ड्र	-5507
नाव	-5508
पीट	-5509
बों	-5510
विच	-5511
श्व	-5512
ावट	-5513
ीशन	-5514
ैशन	-5515
▁24	-5516
▁आब	-5517
▁जम	-5518
▁दौ	-5519
▁नं	-5520
▁भव	-5521
valu	-5522
आईपी	-5523
जाति	-5524
डिएट	-5525
िकेट	-5526
िल्स	-5527
ूचना	-5528
ेन्ट	-5529
▁अवय	-5530
▁आरओ	-5531
▁करे	-5532
▁टिक	-5533
▁डिल	-5534
▁डेड	-5535
▁पाद	-5536
▁मूव	-5537
▁राय	-5538
▁रिप	-5539
▁साब	-5540
▁सौं	-5541
ation	-5542
ction	-5543
क्रिप	-5544
चित्र	-5545
तावरण	-5546
द्रीय	-5547
नियों	-5548
स्करण	-5549
िक्रम	-5550
ैल्यू	-5551
▁2014	-5552
▁कणों	-5553
▁जाति	-5554
▁डीटी	-5555
▁डेंस	-5556
▁थकान	-5557
▁फ़िर	-5558
▁बनना	-5559
▁मैरो	-5560
▁म्यू	-5561
▁राजा	-5562
▁श्रम	-5563
▁समतल	-5564
▁समीप	-5565
▁हायर	-5566
क्टेयर	-5567
मीडिएट	-5568
▁अस्वी	-5569
▁आदतों	-5570
▁उपहार	-5571
▁कोर्स	-5572
▁डिसीज	-5573
▁तिहाई	-5574
▁प्लाई	-5575
▁फायदे	-5576
▁बचाने	-5577
▁मैनेज	-5578
▁लसीका	-5579
▁विवाह	-5580
▁वेरिए	-5581
▁सिक्स	-5582
न्जिओमा	-5583
िफिकेशन	-5584
▁आदेशों	-5585
▁एमडीएस	-5586
▁ओर्गंस	-5587
▁काइनेस	-5588
▁कारणों	-5589
▁केमिकल	-5590
▁क्रमशः	-5591
▁गणितीय	-5592
▁जुड़ता	-5593
▁दूसरों	-5594
▁निभाता	-5595
▁निवारण	-5596
▁फेफड़े	-5597
▁भंडारण	-5598
▁मार्कर	-5599
▁मिथाइल	-5600
▁मिलियन	-5601
▁रिजल्ट	-5602
▁लूप्‍स	-5603
▁संभवतः	-5604
▁सड़कें	-5605
▁सेल्‍स	-5606
्रासाउंड	-5607
▁आपराधिक	-5608
▁कार्बोन	-5609
▁डिफ्यूज	-5610
▁पिघलाया	-5611
▁बुद्धिम	-5612
▁वातावरण	-5613
▁संबंधों	-5614
▁अधिसूचना	-5615
▁अनुच्छेद	-5616
▁आईसीडीआर	-5617
▁ग्राहकों	-5618
▁जागरूकता	-5619
▁निष्पक्ष	-5620
▁प्लाज्मा	-5621
▁फंगोइड्स	-5622
▁हेक्टेयर	-5623
▁क्षेत्रीय	-5624
▁डायाफ्राम	-5625
▁परीक्षाओं	-5626
▁सिस्टेमिक	-5627
्रोसार्कोमा	-5628
▁सिद्धांतों	-5629
▁हस्तांतरित	-5630
▁मैट्रिकुलेशन	-5631
ियोफेरीन्जिओमा	-5632
▁कंसेप्च्युलाइज़	-5633
,8	-5634
22	-5635
AT	-5636
CL	-5637
RA	-5638
ro	-5639
दह	-5640
ेव	-5641
IST	-5642
ँगा	-5643
इन्	-5644
कोर	-5645
चीन	-5646
जीव	-5647
ड़न	-5648
पेल	-5649
ाले	-5650
िनग	-5651
ृदय	-5652
्टन	-5653
▁(1	-5654
▁आन	-5655
▁इर	-5656
▁खन	-5657
▁गज	-5658
▁छव	-5659
▁धु	-5660
▁मक	-5661
▁रू	-5662
▁हद	-5663
द्री	-5664
सीबी	-5665
स्टर	-5666
ाँकि	-5667
िटिक	-5668
िन्ज	-5669
ियार	-5670
ूँकि	-5671
ेंडर	-5672
▁ALL	-5673
▁अधी	-5674
▁असल	-5675
▁आशय	-5676
▁एरो	-5677
▁गईं	-5678
▁गैं	-5679
▁जून	-5680
▁नजर	-5681
▁नवी	-5682
▁नाव	-5683
▁बेच	-5684
▁भेद	-5685
▁वंश	-5686
▁वरी	-5687
▁वाक	-5688
▁वैध	-5689
गमेंट	-5690
ज्ञात	-5691
नीकरण	-5692
फ्लेम	-5693
रीजनल	-5694
रेनोज	-5695
स्टीन	-5696
ार्मल	-5697
▁2001	-5698
▁असमा	-5699
▁एसआई	-5700
▁ऑर्ग	-5701
▁ओलिग	-5702
▁गठित	-5703
▁चौदह	-5704
▁ट्रे	-5705
▁धातु	-5706
▁पोली	-5707
▁बदले	-5708
▁बैरल	-5709
▁भरने	-5710
▁माता	-5711
▁युवा	-5712
▁राइब	-5713
▁रैंक	-5714
▁समेक	-5715
▁साधन	-5716
कहोल्ड	-5717
प्रेशन	-5718
सर्जरी	-5719
िक्विड	-5720
्लेषित	-5721
▁उत्कृ	-5722
▁क्रमा	-5723
▁चुनते	-5724
▁चुनाव	-5725
▁चूँकि	-5726
▁दिखाए	-5727
▁पट्टा	-5728
▁पादरी	-5729
▁पीढ़ी	-5730
▁पुलिस	-5731
▁फैसला	-5732
▁बदलता	-5733
▁वगैरह	-5734
श्रेष्ठ	-5735
िनगिओमा	-5736
▁अज्ञात	-5737
▁अभियान	-5738
▁अल्कोह	-5739
▁एचसीएल	-5740
▁जोड़ते	-5741
▁नियामक	-5742
▁परस्पर	-5743
▁भाषाओं	-5744
▁मशीनरी	-5745
▁मापदंड	-5746
▁मिलाकर	-5747
▁मेमोरी	-5748
▁वरीयता	-5749
▁संलग्न	-5750
▁सुपरकॉ	-5751
▁स्कैनर	-5752
▁अतिक्रम	-5753
▁इनपुट्स	-5754
▁डेटाबेस	-5755
▁नमस्कार	-5756
▁नामांकन	-5757
▁रेशेदार	-5758
▁लिक्विड	-5759
▁वैल्यूज	-5760
▁हालाँकि	-5761
चाइल्डहुड	-5762
▁आर्गोनिक	-5763
▁उदाहरणों	-5764
▁एस्पार्ट	-5765
▁कुप्रबंध	-5766
▁पुस्तकें	-5767
▁प्रॉब्लम	-5768
▁फ्रक्टोज	-5769
▁बॉन्डिंग	-5770
▁ब्रोमाइड	-5771
▁लिस्टिंग	-5772
▁व्यापारी	-5773
▁संक्रमित	-5774
▁साइक्लिक	-5775
▁कार्बोनिल	-5776
▁क्रियान्व	-5777
▁द्रव्यमान	-5778
▁परीक्षकों	-5779
▁पोटेंशियल	-5780
▁मैनेजमेंट	-5781
▁विस्तारित	-5782
▁संश्लेषित	-5783
ियोसार्कोमा	-5784
▁पारदर्शिता	-5785
▁सांख्यिकीय	-5786
▁स्टेकहोल्ड	-5787
▁कार्यक्रमों	-5788
▁ट्रांसक्रिप	-5789
▁प्रतियोगिता	-5790
▁प्रिमिटिव्ज	-5791
▁सर्वश्रेष्ठ	-5792
ियोफेरिनगिओमा	-5793
ब्डोमायोसारकोमा	-5794
▁पाइनोब्लास्टोमा	-5795
ww	-5796
आप	-5797
चक	-5798
जल	-5799
पत	-5800
है	-5801
CSR	-5802
एफ़	-5803
पूर	-5804
फुल	-5805
फेन	-5806
बाय	-5807
बैक	-5808
मैन	-5809
राच	-5810
ायल	-5811
ासत	-5812
िरो	-5813
ॉर्	-5814
्यव	-5815
▁35	-5816
▁70	-5817
▁pH	-5818
▁कट	-5819
▁डर	-5820
atic	-5821
कुलर	-5822
ज़िन	-5823
जुगे	-5824
त्ते	-5825
दत्त	-5826
धर्म	-5827
ध्या	-5828
र्सर	-5829
ावली	-5830
ेटरी	-5831
▁MRI	-5832
▁fun	-5833
▁आशा	-5834
▁काल	-5835
▁चली	-5836
▁चिप	-5837
▁जैल	-5838
▁तत्	-5839
▁पोर	-5840
▁मोब	-5841
▁रखी	-5842
▁वरि	-5843
▁व्ह	-5844
▁शिव	-5845
▁सिम	-5846
▁सीओ	-5847
दासीन	-5848
प्रिं	-5849
रेटिव	-5850
र्शनल	-5851
शुल्क	-5852
हिस्ट	-5853
िस्‍ट	-5854
ैक्शन	-5855
▁100%	-5856
▁2003	-5857
▁अराच	-5858
▁अवयव	-5859
▁असफल	-5860
▁एंडो	-5861
▁एकड़	-5862
▁गुना	-5863
▁गुहा	-5864
▁गोला	-5865
▁चुकी	-5866
▁चुने	-5867
▁चैनल	-5868
▁तटीय	-5869
▁त्रि	-5870
▁बंधे	-5871
▁बारी	-5872
▁बीआई	-5873
▁बैंड	-5874
▁वायु	-5875
▁सलेम	-5876
▁सहमत	-5877
▁हृदय	-5878
कुमारी	-5879
िडोनिक	-5880
िलेटेड	-5881
ोग्राम	-5882
▁evalu	-5883
▁अवस्‍	-5884
▁आदर्श	-5885
▁कराया	-5886
▁खोलने	-5887
▁गैडोल	-5888
▁जनवरी	-5889
▁पृष्ठ	-5890
▁पॉलिम	-5891
▁फ्लूड	-5892
▁बंधती	-5893
▁भ्रूण	-5894
▁मालिक	-5895
▁मित्र	-5896
▁वैश्व	-5897
▁सफलता	-5898
▁साबित	-5899
▁सेकंड	-5900
▁static	-5901
▁आरबीआई	-5902
▁गारंटी	-5903
▁डाल्टन	-5904
▁निकलने	-5905
▁निवासी	-5906
▁पंजीयक	-5907
▁पद्धति	-5908
▁पश्चिम	-5909
▁पुराने	-5910
▁फिजिकल	-5911
▁फ्लुइड	-5912
▁मानसिक	-5913
▁मिलाया	-5914
▁वरिष्ठ	-5915
ोलोजिस्ट	-5916
▁अनुसूची	-5917
▁जरूरतों	-5918
▁टिश्यूज	-5919
▁टॉर्शनल	-5920
▁पहुंचने	-5921
▁प्रथाओं	-5922
▁मध्यस्थ	-5923
▁सतर्कता	-5924
▁स्रोतों	-5925
▁function	-5926
▁उल्लिखित	-5927
▁एनोमेरिक	-5928
▁कंपनियाँ	-5929
▁पारदर्शी	-5930
▁म्युटेशन	-5931
▁वर्गीकरण	-5932
▁समितियों	-5933
▁सिस्टम्स	-5934
▁कुप्रबंधन	-5935
▁प्रॉपगेशन	-5936
▁सेनानियों	-5937
▁सैचुरेटेड	-5938
▁evaluation	-5939
▁इंटरमीडिएट	-5940
▁तिरुवल्लुर	-5941
▁परिवर्तनीय	-5942
▁विशेषज्ञता	-5943
▁स्पेक्ट्रो	-5944
▁उम्मीदवारों	-5945
▁हाइड्रोकार्ब	-5946
▁प्रिरिक्विसिट्स	-5947
,4	-5948
CO	-5949
ML	-5950
RB	-5951
it	-5952
ंथ	-5953
गन	-5954
चन	-5955
चि	-5956
ठी	-5957
बो	-5958
यत	-5959
ॉग	-5960
▁k	-5961
-09	-5962
कें	-5963
टेट	-5964
ड़क	-5965
लीस	-5966
हैं	-5967
ाये	-5968
िअल	-5969
▁CD	-5970
▁in	-5971
▁अठ	-5972
▁उठ	-5973
टाइप	-5974
ट्री	-5975
तमिल	-5976
लेयर	-5977
ार्स	-5978
ॉक्स	-5979
्रेट	-5980
▁अका	-5981
▁खुश	-5982
▁गजट	-5983
▁गिर	-5984
▁घाट	-5985
▁टॉप	-5986
▁टॉल	-5987
▁नैन	-5988
▁पीड	-5989
▁भरा	-5990
▁भले	-5991
▁रुक	-5992
▁लिन	-5993
▁लैं	-5994
▁सरफ	-5995
▁सुल	-5996
▁होम	-5997
एएमएल	-5998
ऑक्सी	-5999
बंधित	-6000
म्प्ल	-6001
ल्‍टा	-6002
िवर्त	-6003
ैलेंट	-6004
▁इकोस	-6005
▁इमार	-6006
▁इसने	-6007
▁इस्‍	-6008
▁उक्त	-6009
▁खाता	-6010
▁जनरल	-6011
▁जीज़	-6012
▁जीरो	-6013
▁टर्श	-6014
▁धीमा	-6015
▁पहचा	-6016
▁मेजर	-6017
▁वाइट	-6018
▁हैंड	-6019
ंत्रित	-6020
गाइडेड	-6021
ेट्रिक	-6022
ेप्टिड	-6023
▁अठारह	-6024
▁अवशेष	-6025
▁आयनों	-6026
▁आयन्स	-6027
▁कमाने	-6028
▁कांची	-6029
▁जैविक	-6030
▁जोड़े	-6031
▁तालुक	-6032
▁दायरे	-6033
▁दिखते	-6034
▁नेशनल	-6035
▁न्‍यू	-6036
▁पैकेज	-6037
▁फाइबर	-6038
▁फार्म	-6039
▁बताती	-6040
▁भरपूर	-6041
▁मेलिग	-6042
▁रोकती	-6043
▁वस्तु	-6044
▁वाल्स	-6045
▁होल्ड	-6046
कराइड्स	-6047
ग्लियोस	-6048
र्गेनिक	-6049
्सिनोमा	-6050
▁इकट्ठा	-6051
▁उदासीन	-6052
▁एलानीन	-6053
▁करूंगा	-6054
▁काइनेज	-6055
▁तालिका	-6056
▁पंक्ति	-6057
▁पिछड़े	-6058
▁पेयर्स	-6059
▁प्रोफे	-6060
▁मैसर्स	-6061
▁मोबाइल	-6062
▁लेयर्स	-6063
▁समर्थन	-6064
▁समीकरण	-6065
▁सोल्यु	-6066
▁सोल्यू	-6067
्रोप्सिन	-6068
▁इंजीनिय	-6069
▁एसआईसीए	-6070
▁ऑलिगोसै	-6071
▁डेल्‍टा	-6072
▁प्रारूप	-6073
▁फाइबर्स	-6074
▁ब्रिजेस	-6075
▁मेनिन्ज	-6076
▁समझेंगे	-6077
▁सोल्युट	-6078
▁स्टोर्ड	-6079
▁इम्यूनोड	-6080
▁उत्कृष्ट	-6081
▁कोवैलेंट	-6082
▁परिवारों	-6083
▁परिसमापन	-6084
▁अंशधारकों	-6085
▁असमानांतर	-6086
▁इन्हिबिटर	-6087
▁इस्‍तेमाल	-6088
▁ग्लूटामिक	-6089
▁परीक्षाएं	-6090
▁बायोलॉजिक	-6091
▁उपभोक्ताओं	-6092
▁उपयोगकर्ता	-6093
▁गतिविधियां	-6094
▁गैंग्लियोस	-6095
▁सीक्वेंसेस	-6096
▁स्ट्रक्चरल	-6097
▁हिस्सेदारी	-6098
▁मेटास्टेटिक	-6099
▁रिज़ॉल्यूशन	-6100
▁सुपरकॉइलिंग	-6101
▁विद्यार्थियों	-6102
एड	-6103
ूथ	-6104
▁J	-6105
▁c	-6106
ँगी	-6107
चरण	-6108
जेन	-6109
ज्‍	-6110
द्द	-6111
फिन	-6112
बीम	-6113
र्घ	-6114
लाल	-6115
शिओ	-6116
सेट	-6117
ांड	-6118
िप्	-6119
िमस	-6120
ेरु	-6121
ोके	-6122
ौती	-6123
▁38	-6124
▁44	-6125
▁5.	-6126
▁CO	-6127
▁tw	-6128
▁एब	-6129
▁टा	-6130
▁मू	-6131
▁मृ	-6132
आईवी	-6133
क्ली	-6134
चफुल	-6135
भवती	-6136
मियम	-6137
रचना	-6138
रेज़	-6139
र्ता	-6140
विड़	-6141
ष्‍ट	-6142
स्‍त	-6143
ाइकन	-6144
िडीन	-6145
िनेट	-6146
िलेज	-6147
ीट्र	-6148
ेशन्	-6149
ैनिक	-6150
▁10%	-6151
▁असी	-6152
▁उतर	-6153
▁कैल	-6154
▁जोर	-6155
▁टाउ	-6156
▁डीप	-6157
▁डेर	-6158
▁तेज	-6159
▁दर्	-6160
▁पसी	-6161
▁मीड	-6162
▁मेस	-6163
▁रसी	-6164
▁सिक	-6165
ंद्रह	-6166
पीड़न	-6167
विधान	-6168
शिक्ष	-6169
ष्यों	-6170
िकासी	-6171
▁2002	-6172
▁आदान	-6173
▁आवास	-6174
▁इंजन	-6175
▁ग्री	-6176
▁टीएन	-6177
▁पड़े	-6178
▁पाने	-6179
▁फाइव	-6180
▁बंदी	-6181
▁बीमा	-6182
▁संगम	-6183
▁सारि	-6184
▁स्थल	-6185
▁हामी	-6186
▁हुईं	-6187
00,000	-6188
ग्रस्त	-6189
ध्यक्ष	-6190
मेंशनल	-6191
सेलुलर	-6192
िवारिक	-6193
्यूक्ल	-6194
्रैक्ट	-6195
▁अंतर्	-6196
▁ऊष्मा	-6197
▁एडीपी	-6198
▁कथनों	-6199
▁कराना	-6200
▁कोणों	-6201
▁खंडों	-6202
▁गवर्न	-6203
▁ग्रैन	-6204
▁चुनना	-6205
▁जानवर	-6206
▁जोड़ी	-6207
▁ट्रेड	-6208
▁पीट्र	-6209
▁पूछता	-6210
▁प्रीक	-6211
▁फ़ाइल	-6212
▁फिल्म	-6213
▁बंधता	-6214
▁बैंकर	-6215
▁भत्ता	-6216
▁भवनों	-6217
▁महंगा	-6218
▁मानते	-6219
▁मिलने	-6220
▁मूलतः	-6221
▁सॉल्ट	-6222
▁स्तंभ	-6223
त्तियों	-6224
निर्देश	-6225
नेलवेली	-6226
रिलेटेड	-6227
स्पेक्ट	-6228
ेशन्शिप	-6229
▁असीमित	-6230
▁कल्पना	-6231
▁ग्राहक	-6232
▁जहाजों	-6233
▁नवीनतम	-6234
▁नियोजन	-6235
▁पहुँचा	-6236
▁फायब्र	-6237
▁बैंकों	-6238
▁रिसल्ट	-6239
▁रेटिंग	-6240
▁विभाजन	-6241
▁विरोधी	-6242
▁वेटिंग	-6243
▁सीएसएफ	-6244
▁स्कूली	-6245
न्गोइड्स	-6246
ैल्यूएशन	-6247
▁2008-09	-6248
▁गैलेक्ट	-6249
▁टेक्निक	-6250
▁नरभक्षी	-6251
▁प्राचीन	-6252
▁रूपरेखा	-6253
▁संतुष्ट	-6254
▁संभालने	-6255
▁संविधान	-6256
▁स्टैटिक	-6257
▁स्पार्स	-6258
▁हिस्टोन	-6259
कार्यकारी	-6260
▁अनगाइडेड	-6261
▁अस्वीकार	-6262
▁आमंत्रित	-6263
▁उद्योगों	-6264
▁एमाइलॉयड	-6265
▁केंद्रों	-6266
▁चींटियाँ	-6267
▁निगमीकरण	-6268
▁निरीक्षक	-6269
▁पीट्रांस	-6270
▁प्राप्ति	-6271
▁प्रोफेसर	-6272
▁फिलामेंट	-6273
▁फोल्डिंग	-6274
▁मनुष्यों	-6275
▁लिम्फोइड	-6276
▁शक्तियां	-6277
▁इन्फ्यूजन	-6278
▁कार्टिलेज	-6279
▁डेवलपमेंट	-6280
▁पार्किन्स	-6281
▁रेज़ोनेंस	-6282
▁शक्तिशाली	-6283
▁सकारात्मक	-6284
▁सामान्यतः	-6285
▁सोल्यूशंस	-6286
▁अराचिडोनिक	-6287
▁इनहिबिटर्स	-6288
▁इवैल्यूएशन	-6289
▁एल्डोज़िज़	-6290
▁एस्पार्टिक	-6291
▁म्यूटेशन्स	-6292
▁रिलेशन्शिप	-6293
▁अंतर्क्रिया	-6294
▁पैथोलोजिस्ट	-6295
▁फॉस्फोलिपिड	-6296
▁मांसपेशियों	-6297
▁यूनिवर्सिटी	-6298
ाइब्रोमैटोसिस	-6299
▁रेडियोसर्जरी	-6300
▁एपिजेनेटिक्‍स	-6301
ियोएंडोथेलियोमा	-6302
25	-6303
RT	-6304
le	-6305
अफ	-6306
इस	-6307
बै	-6308
यल	-6309
षण	-6310
ाफ	-6311
ॉप	-6312
▁|	-6313
▁“	-6314
आईओ	-6315
क्क	-6316
गनी	-6317
घाट	-6318
जूद	-6319
ड्ड	-6320
धीन	-6321
धों	-6322
निग	-6323
लेन	-6324
ामक	-6325
ारक	-6326
ूती	-6327
▁39	-6328
▁वॉ	-6329
क्चर	-6330
चिंग	-6331
चुअल	-6332
ज़िट	-6333
जेशन	-6334
डीबी	-6335
त्तम	-6336
पिता	-6337
र्मा	-6338
र्से	-6339
ल्यू	-6340
ल्ली	-6341
वजूद	-6342
सीटी	-6343
स्मो	-6344
ार्च	-6345
ावास	-6346
▁139	-6347
▁529	-6348
▁two	-6349
▁आवा	-6350
▁खास	-6351
▁घुल	-6352
▁चूक	-6353
▁पंप	-6354
▁पत्	-6355
▁फिफ	-6356
▁मंच	-6357
▁मिट	-6358
▁वहन	-6359
▁साव	-6360
▁सुप	-6361
अफिशन	-6362
िपक्व	-6363
ियोनल	-6364
िसंबर	-6365
ुपुरम	-6366
ेरिका	-6367
ोपड़ी	-6368
्‍यों	-6369
▁2015	-6370
▁GIST	-6371
▁इन्स	-6372
▁ऑडिट	-6373
▁गुदा	-6374
▁तनाव	-6375
▁तात्	-6376
▁दौरे	-6377
▁नीले	-6378
▁बचाव	-6379
▁भाषण	-6380
▁मिशन	-6381
▁यकृत	-6382
▁लगाए	-6383
▁वक्र	-6384
▁सांस	-6385
बिलिटी	-6386
ब्ल्यू	-6387
र्वेशन	-6388
संरचना	-6389
ाइमर्स	-6390
िक्स्ड	-6391
िप्टोफ	-6392
ेरेटिव	-6393
▁आबंटन	-6394
▁इच्छा	-6395
▁इस्ती	-6396
▁एक्टर	-6397
▁एमिशन	-6398
▁कॉन्स	-6399
▁कोयला	-6400
▁चेस्ट	-6401
▁जरूरी	-6402
▁ज़िरो	-6403
▁दिखता	-6404
▁दैनिक	-6405
▁पंचाय	-6406
▁प्रकट	-6407
▁बदलना	-6408
▁बनानी	-6409
▁बॉक्स	-6410
▁भत्ते	-6411
▁मार्क	-6412
▁मासिक	-6413
▁मोटिफ	-6414
▁लंग्स	-6415
▁लंबित	-6416
▁लिखना	-6417
▁लेखों	-6418
▁विलयन	-6419
▁सत्या	-6420
▁सूक्ष	-6421
▁सेरीन	-6422
▁स्क्व	-6423
▁स्पेश	-6424
▁हाइपो	-6425
अफिशन्ट	-6426
इन्फ्यू	-6427
ाइरेनोज	-6428
▁अंतर्न	-6429
▁अधिकतर	-6430
▁उन्नयन	-6431
▁कंडीशन	-6432
▁करूँगा	-6433
▁क्‍यों	-6434
▁घटनाओं	-6435
▁जुटाने	-6436
▁दुर्बल	-6437
▁देखरेख	-6438
▁पंद्रह	-6439
▁पार्टी	-6440
▁फेक्टर	-6441
▁बावजूद	-6442
▁मानसून	-6443
▁मीडिया	-6444
▁रेड्यु	-6445
▁रेमिशन	-6446
▁वायर्स	-6447
▁शाखाओं	-6448
▁संतुलन	-6449
▁सहयोगी	-6450
▁सीएमएल	-6451
▁सेंटीम	-6452
ज़िट्रॉन	-6453
व्यवस्था	-6454
▁अमेरिका	-6455
▁एक्सियल	-6456
▁कारावास	-6457
▁क्रोमेट	-6458
▁डेंसिटी	-6459
▁थेरेपीः	-6460
▁निरूपित	-6461
▁पुनर्नि	-6462
▁प्रोस्ट	-6463
▁बायोमास	-6464
▁मुद्रित	-6465
▁राजपत्र	-6466
▁ल्यूसीन	-6467
▁स्थिरता	-6468
▁अतिक्रमण	-6469
▁उत्पीड़न	-6470
▁न्‍यूक्ल	-6471
▁प्रीमियम	-6472
▁मेंब्रेन	-6473
▁वैल्यूज़	-6474
▁संदर्भित	-6475
▁संश्लेषण	-6476
▁सम्मानित	-6477
▁कांचीपुरम	-6478
▁कोअफिशन्ट	-6479
▁गवर्नमेंट	-6480
▁ट्रिप्टोफ	-6481
▁प्रतिकर्ष	-6482
▁फन्गोइड्स	-6483
▁ब्रांचिंग	-6484
▁मोनोमेरिक	-6485
▁सांख्यिकी	-6486
▁गुणसूत्रों	-6487
▁न्यूक्लियस	-6488
▁रेज़िड्यूज	-6489
▁डाइसैकेराइड्स	-6490
13	-6491
90	-6492
ऑन	-6493
पि	-6494
मस	-6495
लन	-6496
वत	-6497
RBI	-6498
ंगल	-6499
एपी	-6500
कौन	-6501
घ्र	-6502
चीत	-6503
डाय	-6504
दिन	-6505
नाइ	-6506
रीट	-6507
सभा	-6508
्टर	-6509
▁5%	-6510
▁80	-6511
▁9.	-6512
▁अघ	-6513
▁आए	-6514
▁ऑप	-6515
▁टो	-6516
▁पथ	-6517
▁फन	-6518
▁मछ	-6519
▁यथ	-6520
अन्य	-6521
इकाई	-6522
एँगे	-6523
क्ता	-6524
गणना	-6525
जैसे	-6526
राशि	-6527
वीआर	-6528
शिया	-6529
ार्क	-6530
ेडिट	-6531
ैरिफ	-6532
्रोक	-6533
▁PET	-6534
▁एपी	-6535
▁ऐंग	-6536
▁ऑनल	-6537
▁कला	-6538
▁कॉन	-6539
▁ज्य	-6540
▁दुर	-6541
▁बैल	-6542
▁यूर	-6543
▁वेस	-6544
▁सित	-6545
▁सीट	-6546
▁हाउ	-6547
एडल्ट	-6548
कालीन	-6549
कियों	-6550
र्नरी	-6551
सेप्ट	-6552
ाइटिक	-6553
िप्पण	-6554
ियमित	-6555
ेंड्र	-6556
्रोजन	-6557
▁असिम	-6558
▁इम्प	-6559
▁एनको	-6560
▁कहना	-6561
▁खत्म	-6562
▁चलते	-6563
▁चुंब	-6564
▁चौथे	-6565
▁ट्रै	-6566
▁डिवी	-6567
▁धर्म	-6568
▁पूर्	-6569
▁फाइन	-6570
▁बंडल	-6571
▁बनाव	-6572
▁बर्फ	-6573
▁रद्द	-6574
▁रसीद	-6575
▁रियल	-6576
▁लेखक	-6577
▁श्री	-6578
▁सामू	-6579
▁सायन	-6580
कोप्रो	-6581
न्जुगे	-6582
स्कृति	-6583
ैटिनिब	-6584
्युलोज	-6585
▁एफपीओ	-6586
▁एस्टर	-6587
▁ऑर्गन	-6588
▁घूमता	-6589
▁चालें	-6590
▁चिंता	-6591
▁जांचा	-6592
▁जीवों	-6593
▁टैरिफ	-6594
▁ढांचा	-6595
▁तारों	-6596
▁देशों	-6597
▁पसीना	-6598
▁बताते	-6599
▁महानि	-6600
▁रामना	-6601
▁रिपीट	-6602
▁लगाते	-6603
▁लाइपो	-6604
▁लिखते	-6605
▁लिखने	-6606
▁विकृत	-6607
▁वेलिन	-6608
▁वेसेल	-6609
▁शीघ्र	-6610
▁शुरूआ	-6611
▁संदेश	-6612
▁समग्र	-6613
▁सौंपा	-6614
▁हाथों	-6615
▁हिंदू	-6616
▁ह्यूम	-6617
नानुसार	-6618
▁अप्रैल	-6619
▁ऑनलाइन	-6620
▁जंक्शन	-6621
▁जनगणना	-6622
▁टिप्पण	-6623
▁टॉलेंस	-6624
▁डीआरटी	-6625
▁दिसंबर	-6626
▁धनराशि	-6627
▁धारकों	-6628
▁पूछताछ	-6629
▁फिफ्टी	-6630
▁बातचीत	-6631
▁बैंगनी	-6632
▁बैलेंस	-6633
▁मद्रास	-6634
▁मरीजों	-6635
▁मोनोमर	-6636
▁विरासत	-6637
▁संघर्ष	-6638
िफेरेटिव	-6639
▁अधीक्षण	-6640
▁अल्ट्रा	-6641
▁एसिटाइल	-6642
▁कक्षाएं	-6643
▁क्रेडिट	-6644
▁गर्भवती	-6645
▁ग्लूकोप	-6646
▁दोस्तों	-6647
▁प्रेसिप	-6648
▁प्रोलीन	-6649
▁फायब्रस	-6650
▁शुरुआती	-6651
▁सूक्ष्म	-6652
▁सेपरेशन	-6653
▁स्टार्च	-6654
▁स्ट्रोक	-6655
फ्लेमेटरी	-6656
▁अधिकारिक	-6657
▁अध्ययनों	-6658
▁अवसंरचना	-6659
▁उपभोक्ता	-6660
▁एल्गोरिथ	-6661
▁एसोसिएशन	-6662
▁कॉरपोरेट	-6663
▁डिटेक्शन	-6664
▁संस्कृति	-6665
▁सम्बंधित	-6666
▁ॠणात्‍मक	-6667
▁कंपाउंड्स	-6668
▁कार्यशाला	-6669
▁नाइट्रोजन	-6670
▁प्रतिनिधि	-6671
▁प्रीकर्सर	-6672
▁बहुसंख्यक	-6673
▁मिथाइलेशन	-6674
▁मिनिमैक्स	-6675
▁रीइन्फ्यू	-6676
▁सिफारिशों	-6677
▁इंजीनियरों	-6678
▁परियोजनाएं	-6679
▁पर्यावरणीय	-6680
▁पूर्णकालिक	-6681
▁मोलेक्‍यूल	-6682
▁रेड्युसिंग	-6683
▁विशेषज्ञों	-6684
▁शोधकर्ताओं	-6685
▁इंजीनियरिंग	-6686
▁तिरुनेलवेली	-6687
▁मेटास्टैटिक	-6688
▁सेवानिवृत्त	-6689
▁अर्थव्यवस्था	-6690
▁इलेक्ट्रॉन्स	-6691
▁उपयोगकर्ताओं	-6692
▁पुनर्निर्माण	-6693
▁कंप्यूटराइज्ड	-6694
▁ट्रांसक्रिप्शन	-6695
▁पॉलीपेप्टाइड्स	-6696
.)	-6697
.1	-6698
3,	-6699
45	-6700
de	-6701
▁j	-6702
▁l	-6703
010	-6704
कुल	-6705
तृत	-6706
धीश	-6707
नाम	-6708
नें	-6709
न्त	-6710
पिन	-6711
बाल	-6712
र्ब	-6713
व्स	-6714
ष्ण	-6715
संव	-6716
हिक	-6717
िडी	-6718
िपो	-6719
ूबर	-6720
ेके	-6721
ोंग	-6722
ौदा	-6723
▁48	-6724
▁7.	-6725
▁कव	-6726
▁घु	-6727
▁शे	-6728
एनआर	-6729
एफआर	-6730
एलपी	-6731
क्ले	-6732
क्‍ड	-6733
ट्टई	-6734
ढ़ता	-6735
त्री	-6736
दम्स	-6737
धनों	-6738
पर्य	-6739
ब्रे	-6740
रेलू	-6741
संगत	-6742
सीआर	-6743
स्थि	-6744
ाल्ड	-6745
ावुर	-6746
िफिश	-6747
ुक्स	-6748
ोनिन	-6749
▁20%	-6750
▁अवि	-6751
▁कैन	-6752
▁कैप	-6753
▁खपत	-6754
▁गौर	-6755
▁डाउ	-6756
▁देर	-6757
▁पवन	-6758
▁पहा	-6759
▁पिन	-6760
▁फेस	-6761
▁बॉन	-6762
▁भरी	-6763
▁भरे	-6764
▁भाई	-6765
▁मंद	-6766
▁मिड	-6767
▁रेग	-6768
▁रैन	-6769
▁लीन	-6770
▁शिश	-6771
▁सिस	-6772
▁सेफ	-6773
इंट्र	-6774
क्सिप	-6775
च्चीस	-6776
तृत्व	-6777
धर्मी	-6778
मिक्स	-6779
लाजिक	-6780
सोम्स	-6781
स्कोप	-6782
स्मिक	-6783
िओनिन	-6784
िताओं	-6785
िरेशन	-6786
ुकुडी	-6787
ैरिटी	-6788
ोपिकल	-6789
ोलिमस	-6790
▁2012	-6791
▁अन्त	-6792
▁आरंभ	-6793
▁इतनी	-6794
▁इसको	-6795
▁उसको	-6796
▁किरा	-6797
▁कीमो	-6798
▁गहरे	-6799
▁घरों	-6800
▁जाएँ	-6801
▁जाया	-6802
▁दौरा	-6803
▁परिक	-6804
▁परिप	-6805
▁पीपी	-6806
▁पैनल	-6807
▁पॉवर	-6808
▁बहाल	-6809
▁रीजन	-6810
▁लगना	-6811
▁लेजर	-6812
▁लॉन्	-6813
▁वाहक	-6814
▁साइज	-6815
क्टूबर	-6816
क्टॉमी	-6817
ग्लिसर	-6818
फिनिटी	-6819
स्‍तुत	-6820
ोफॉर्म	-6821
▁इंटरम	-6822
▁कन्या	-6823
▁काउंट	-6824
▁कार्ड	-6825
▁क्वाट	-6826
▁खेलने	-6827
▁घरेलू	-6828
▁जितनी	-6829
▁डेरिव	-6830
▁तिरुच	-6831
▁दक्षि	-6832
▁दीर्घ	-6833
▁देखिए	-6834
▁पोराम	-6835
▁प्रती	-6836
▁प्रदा	-6837
▁फैट्स	-6838
▁बनावट	-6839
▁मसल्स	-6840
▁रोगों	-6841
▁विकार	-6842
▁संकाय	-6843
▁सामान	-6844
▁सुनने	-6845
शास्त्र	-6846
शिओमर्स	-6847
ाइब्रिड	-6848
▁अंतराल	-6849
▁एचआईवी	-6850
▁छोड़ने	-6851
▁जोड़ती	-6852
▁टुकड़े	-6853
▁दुबारा	-6854
▁निकासी	-6855
▁पच्चीस	-6856
▁पुरानी	-6857
▁पेटेंट	-6858
▁बढ़ाता	-6859
▁बढ़ाती	-6860
▁बढ़ाना	-6861
▁बाईपास	-6862
▁रेटिनो	-6863
▁लीनियर	-6864
▁वैलेंस	-6865
▁शुरूआत	-6866
▁समेकित	-6867
▁सल्फेट	-6868
▁सिग्नल	-6869
▁सितंबर	-6870
स्प्रेशन	-6871
्स्ट्रॉम	-6872
▁अल्कोहल	-6873
▁एनीलिंग	-6874
▁कक्षाओं	-6875
▁क्रिकेट	-6876
▁गोलाकार	-6877
▁चाहूंगा	-6878
▁चाहेंगे	-6879
▁द्रविड़	-6880
▁पात्रता	-6881
▁प्रदत्त	-6882
▁फंक्शनल	-6883
▁लिंक्‍ड	-6884
▁लिनोलिक	-6885
▁विधियाँ	-6886
▁समुद्री	-6887
▁सामूहिक	-6888
▁सीखेंगे	-6889
संवेदनशील	-6890
ाल्डिहाइड	-6891
▁एक्सेप्ट	-6892
▁क्लासिकल	-6893
▁क्‍योंकि	-6894
▁ट्रांसफर	-6895
▁फनगोइड्स	-6896
▁रचनात्मक	-6897
▁शब्दावली	-6898
▁श्रमिकों	-6899
▁सायनोजेन	-6900
▁सिंथेसिस	-6901
▁सोल्युशन	-6902
▁होल्डिंग	-6903
पॉज़िट्रॉन	-6904
ल्यूकेमिया	-6905
▁2008-2009	-6906
▁इंटरेक्शन	-6907
▁एस्पिरेशन	-6908
▁छात्रावास	-6909
▁ट्रिप्सिन	-6910
▁न्यूक्लिक	-6911
▁पारिवारिक	-6912
▁प्रस्‍तुत	-6913
▁प्लेसमेंट	-6914
▁मध्यवर्ती	-6915
▁व्यवसायों	-6916
▁सिफारिशें	-6917
▁सेंटीमीटर	-6918
▁सेरेब्रोस	-6919
▁सेल्युलोज	-6920
ोकेमिस्ट्री	-6921
▁असिमेट्रिक	-6922
▁उतरदायित्व	-6923
▁क्वाटर्नरी	-6924
▁जिम्मेदारी	-6925
▁प्रतिकर्षण	-6926
▁प्रस्तावों	-6927
▁स्पेशलिस्ट	-6928
▁निम्नानुसार	-6929
▁बुद्धिमत्ता	-6930
▁रेडियोधर्मी	-6931
▁प्रयोगशालाओं	-6932
▁फिनाइलहाइड्र	-6933
▁रीइन्फ्यूज्ड	-6934
▁हाइड्रोकार्बन	-6935
▁स्पेक्ट्रोमीटर	-6936
▁ग्लिसराल्डिहाइड	-6937
34	-6938
60	-6939
am	-6940
et	-6941
or	-6942
आव	-6943
गो	-6944
जो	-6945
टल	-6946
णि	-6947
ाब	-6948
ोत	-6949
▁r	-6950
III	-6951
ran	-6952
कोष	-6953
फ्र	-6954
ब्स	-6955
मास	-6956
यें	-6957
वधि	-6958
विश	-6959
सकर	-6960
ासन	-6961
ाहन	-6962
ुवर	-6963
ोलन	-6964
▁(2	-6965
▁37	-6966
▁6.	-6967
▁66	-6968
▁8.	-6969
▁85	-6970
▁BA	-6971
▁CT	-6972
▁PD	-6973
▁तन	-6974
2010	-6975
आरपी	-6976
इन्ट	-6977
एफएस	-6978
क्‍स	-6979
चेरी	-6980
च्चे	-6981
ड्यू	-6982
दर्द	-6983
धानी	-6984
न्सी	-6985
पशील	-6986
ब्दी	-6987
भाषा	-6988
मूलन	-6989
शरीर	-6990
शल्य	-6991
सीएस	-6992
िकरण	-6993
ियोफ	-6994
ेंडम	-6995
ेक्‍	-6996
ोबार	-6997
्रेड	-6998
▁(3-	-6999
▁02.	-7000
▁600	-7001
▁HIV	-7002
▁आँख	-7003
▁आंक	-7004
▁कमर	-7005
▁करु	-7006
▁काग	-7007
▁काट	-7008
▁गरी	-7009
▁जेल	-7010
▁जोन	-7011
▁टेल	-7012
▁टैप	-7013
▁डुप	-7014
▁थिन	-7015
▁नक्	-7016
▁फीड	-7017
▁फैट	-7018
▁फोक	-7019
▁बगल	-7020
▁मीट	-7021
▁रिश	-7022
▁सका	-7023
▁हाँ	-7024
▁हेर	-7025
क्ष्य	-7026
ड़ताल	-7027
द्यतन	-7028
नेसिस	-7029
वासीय	-7030
स्टेम	-7031
िब्यू	-7032
ीडिंग	-7033
ेड्रल	-7034
ैज़िन	-7035
▁1997	-7036
▁अटैक	-7037
▁असंत	-7038
▁आखिर	-7039
▁उज्ज	-7040
▁उठता	-7041
▁उतनी	-7042
▁उनको	-7043
▁एलपी	-7044
▁टिकट	-7045
▁टेली	-7046
▁डिसऑ	-7047
▁थाइम	-7048
▁दोषी	-7049
▁नाथम	-7050
▁पीजी	-7051
▁प्रय	-7052
▁फैले	-7053
▁बढ़े	-7054
▁बुला	-7055
▁महान	-7056
▁मोलर	-7057
▁सलाई	-7058
▁सीधी	-7059
,000/-	-7060
केलेटल	-7061
कोट्टई	-7062
ग्निशन	-7063
पत्रों	-7064
रीटाइम	-7065
सीएनएस	-7066
ियोसोम	-7067
ेंटेशन	-7068
▁अनुमत	-7069
▁अवकाश	-7070
▁आंखों	-7071
▁आखिरी	-7072
▁आरओसी	-7073
▁कराने	-7074
▁खुदरा	-7075
▁गहराई	-7076
▁घुमाव	-7077
▁चयनित	-7078
▁चिन्ह	-7079
▁चुनने	-7080
▁दर्पण	-7081
▁नियमन	-7082
▁फायदा	-7083
▁बेसेस	-7084
▁मसौदा	-7085
▁लंबवत	-7086
▁लगाकर	-7087
▁वर्षा	-7088
▁संचरण	-7089
▁साइटो	-7090
▁सामना	-7091
▁सीखना	-7092
▁सोचते	-7093
▁हमनें	-7094
ऑक्साइड	-7095
ट्रीटेड	-7096
स्ट्रीम	-7097
ाइरोसिन	-7098
ामाइसिन	-7099
िब्यूनल	-7100
▁अग्रिम	-7101
▁अयोग्य	-7102
▁इंट्रा	-7103
▁उद्घाट	-7104
▁एचपीवी	-7105
▁एस्ट्र	-7106
▁जाएंगी	-7107
▁टुकड़ा	-7108
▁ट्रेवल	-7109
▁डिवीजन	-7110
▁पीवीआर	-7111
▁प्रचुर	-7112
▁प्रीऑन	-7113
▁प्लांट	-7114
▁मेडिकल	-7115
▁शासकीय	-7116
▁हाइपोथ	-7117
▁हेल्दी	-7118
ियाट्रिक	-7119
▁आकस्मिक	-7120
▁आधारभूत	-7121
▁इंडक्शन	-7122
▁इन्फेंट	-7123
▁इमारतों	-7124
▁एपस्टीन	-7125
▁किसानों	-7126
▁चित्रों	-7127
▁ज़्यादा	-7128
▁तीव्रता	-7129
▁दर्शाते	-7130
▁परिचालन	-7131
▁परिपक्व	-7132
▁पोराम्ब	-7133
▁फॉर्म्स	-7134
▁फ्लोरोस	-7135
▁व्याख्य	-7136
राष्ट्रीय	-7137
▁अघुलनशील	-7138
▁कर्मियों	-7139
▁क्रियाएं	-7140
▁ट्विस्‍ट	-7141
▁नियंत्रक	-7142
▁फेक्टर्स	-7143
▁बीआईएफआर	-7144
▁मैरीटाइम	-7145
▁लेनदारों	-7146
▁सिम्प्टम	-7147
▁हाइब्रिड	-7148
▁अनट्रीटेड	-7149
▁कलेक्टरों	-7150
▁केन्द्रीय	-7151
▁ग्यारहवीं	-7152
▁व्यापारिक	-7153
क्सिपेप्टिड	-7154
▁कॉर्पोरेशन	-7155
▁गैडोलिनियम	-7156
▁न्यूक्लियर	-7157
▁प्रतिबंधित	-7158
▁प्रोग्रेशन	-7159
▁प्रोत्साहन	-7160
▁बायोथेरेपी	-7161
▁अनुप्रयोगों	-7162
▁ऐंग्स्ट्रॉम	-7163
▁कन्याकुमारी	-7164
▁नेट्रोप्सिन	-7165
▁पेप्‍टाइड्स	-7166
▁ब्लडस्ट्रीम	-7167
▁डिस्टामाइसिन	-7168
▁पार्किन्सन्स	-7169
▁पुनर्स्थापित	-7170
▁न्यूक्लियोसोम	-7171
▁इंटरमॉलिक्यूलर	-7172
▁ऑलिगोसैकराइड्स	-7173
▁कम्प्यूटराइज्ड	-7174
▁हाइड्रोफोबिसिटी	-7175
4,	-7176
94	-7177
AN	-7178
IP	-7179
an	-7180
ii	-7181
ve	-7182
अस	-7183
जब	-7184
हस	-7185
ैथ	-7186
▁<	-7187
ईएफ	-7188
ईबी	-7189
एलए	-7190
क्ख	-7191
जीन	-7192
डनी	-7193
दूस	-7194
माग	-7195
मेग	-7196
मेन	-7197
म्ड	-7198
राम	-7199
लेस	-7200
वसन	-7201
सिर	-7202
सेक	-7203
सेव	-7204
ाउड	-7205
ुरा	-7206
ेंच	-7207
्ज़	-7208
▁0.	-7209
▁51	-7210
▁65	-7211
▁OH	-7212
▁th	-7213
▁अल	-7214
▁फर	-7215
▁मई	-7216
▁रॉ	-7217
▁शौ	-7218
क्कम	-7219
क्के	-7220
टेन्	-7221
बल्स	-7222
म्मत	-7223
रेंस	-7224
लापन	-7225
वहार	-7226
श्री	-7227
ांकन	-7228
ायोट	-7229
िटरी	-7230
िसेस	-7231
िस्‍	-7232
ोन्न	-7233
▁03.	-7234
▁31.	-7235
▁अनस	-7236
▁अने	-7237
▁अभि	-7238
▁आंद	-7239
▁आधे	-7240
▁एम्	-7241
▁खोख	-7242
▁चढ़	-7243
▁चोट	-7244
▁नाक	-7245
▁परे	-7246
▁पेन	-7247
▁प्‍	-7248
▁मोम	-7249
▁वसा	-7250
▁शता	-7251
एएलएल	-7252
क्सीन	-7253
ज़ेशन	-7254
डेल्फ	-7255
निष्ठ	-7256
रिस्क	-7257
िकेशन	-7258
िटिंग	-7259
िडेशन	-7260
ियोआइ	-7261
ुपयोग	-7262
ेप्‍ट	-7263
ोजीशन	-7264
ोरियल	-7265
ोसिटी	-7266
▁अग्न	-7267
▁आपसे	-7268
▁एपिड	-7269
▁कहती	-7270
▁क्लो	-7271
▁खाना	-7272
▁गाइड	-7273
▁जिगर	-7274
▁ड्रॉ	-7275
▁थ्रो	-7276
▁दावा	-7277
▁देनी	-7278
▁नकार	-7279
▁नर्स	-7280
▁पोषण	-7281
▁प्रस	-7282
▁फिला	-7283
▁मृदु	-7284
▁मेरी	-7285
▁मौसम	-7286
▁रिया	-7287
▁रिली	-7288
▁रुचि	-7289
▁लगने	-7290
▁लम्प	-7291
▁विंग	-7292
▁सत्र	-7293
▁सिरा	-7294
▁स्‍प	-7295
ंजावुर	-7296
एमआरआई	-7297
एमएमएल	-7298
क्षमता	-7299
टेन्शन	-7300
टेरियल	-7301
ड़ियों	-7302
फॉर्मल	-7303
बैक्सी	-7304
र्मेशन	-7305
वांशिक	-7306
स्थापन	-7307
िन्यास	-7308
ोलोजिक	-7309
▁अभ्या	-7310
▁असाइन	-7311
▁उत्तम	-7312
▁उल्टी	-7313
▁किडनी	-7314
▁ग्रिड	-7315
▁छिद्र	-7316
▁ट्रान	-7317
▁डालकर	-7318
▁दिमाग	-7319
▁दृश्य	-7320
▁पड़ने	-7321
▁पीईटी	-7322
▁प्रोफ	-7323
▁प्लॉट	-7324
▁फरवरी	-7325
▁फैक्ट	-7326
▁बढ़ना	-7327
▁बिल्ड	-7328
▁बेस्ड	-7329
▁माइलो	-7330
▁मार्ज	-7331
▁मैट्र	-7332
▁युक्त	-7333
▁यूकेर	-7334
▁यूज़र	-7335
▁रेंडम	-7336
▁वाक्य	-7337
▁विशाल	-7338
▁वृक्ष	-7339
▁वेव्स	-7340
▁संवर्	-7341
▁सत्यम	-7342
▁सरफेस	-7343
▁साल्ट	-7344
▁सूत्र	-7345
▁स्विच	-7346
परिवर्त	-7347
मेटास्ट	-7348
राधिकार	-7349
िफिशियल	-7350
िस्‍टीन	-7351
्रीफ्यू	-7352
▁अद्यतन	-7353
▁अधिशेष	-7354
▁अभिलेख	-7355
▁आंदोलन	-7356
▁उज्जवल	-7357
▁एकीकरण	-7358
▁कैविटी	-7359
▁क्रोमो	-7360
▁खोपड़ी	-7361
▁ग्लूको	-7362
▁चीज़ों	-7363
▁निपटने	-7364
▁पक्षों	-7365
▁पदोन्न	-7366
▁बढ़ाते	-7367
▁मजबूती	-7368
▁मलिग्न	-7369
▁मिट्टी	-7370
▁मेट्रो	-7371
▁मैग्नी	-7372
▁मैपिंग	-7373
▁रिटर्न	-7374
▁विघटित	-7375
▁विद्यु	-7376
▁विफलता	-7377
डेल्फिया	-7378
▁अंतर्रा	-7379
▁अक्टूबर	-7380
▁अटेन्शन	-7381
▁अनियमित	-7382
▁अवशोषित	-7383
▁अवस्‍था	-7384
▁इंट्राम	-7385
▁उद्घाटन	-7386
▁उन्मूलन	-7387
▁एक्वियस	-7388
▁कनेक्शन	-7389
▁कारोबार	-7390
▁किनारों	-7391
▁केराटिन	-7392
▁चिह्नित	-7393
▁नेतृत्व	-7394
▁पुरुषों	-7395
▁प्राधिक	-7396
▁ब्रेस्ट	-7397
▁मार्गों	-7398
▁लचीलापन	-7399
▁लेखांकन	-7400
▁विन्यास	-7401
▁शताब्दी	-7402
▁संस्करण	-7403
▁सब्सिडी	-7404
▁सुप्रीम	-7405
सिस्टेमिक	-7406
ेफिशिएंसी	-7407
▁एक्सटरनल	-7408
▁क्रियाओं	-7409
▁दुरुपयोग	-7410
▁पोलैरिटी	-7411
▁रेसीड्यू	-7412
▁विलुपुरम	-7413
▁शेयरधारक	-7414
▁सोल्वेंट	-7415
▁असाइनमेंट	-7416
▁एंटीबायोट	-7417
▁ऑक्सीडेशन	-7418
▁क्रोमेटिन	-7419
▁न्यायाधीश	-7420
▁पेंशनभोगी	-7421
▁प्रदाताओं	-7422
▁बायोलाजिक	-7423
▁मैट्रिक्स	-7424
▁रैनबैक्सी	-7425
▁सर्वोत्तम	-7426
▁इन्फेंटाइल	-7427
▁कार्सिनोमा	-7428
▁दुर्घटनाओं	-7429
▁प्रोटीओग्ल	-7430
▁प्रोटोटाइप	-7431
▁स्पष्टीकरण	-7432
▁अर्थशास्त्र	-7433
▁उत्तराधिकार	-7434
▁एक्स्प्रेशन	-7435
▁एम्ब्रियोनल	-7436
▁क्रियान्वयन	-7437
▁क्षतिग्रस्त	-7438
▁तिरुवल्लुवर	-7439
क्सिपेप्टिडेज	-7440
▁प्रतिभूतियां	-7441
▁प्रयोगशालाएं	-7442
▁फिलाडेल्फिया	-7443
फाइब्रोमैटोसिस	-7444
▁गुणवत्तापूर्ण	-7445
▁एंजियोसार्कोमा	-7446
▁फाइब्रोसार्कोमा	-7447
14	-7448
2,	-7449
30	-7450
44	-7451
48	-7452
72	-7453
75	-7454
76	-7455
79	-7456
ED	-7457
ar	-7458
rf	-7459
एप	-7460
रन	-7461
सठ	-7462
one	-7463
अपर	-7464
किल	-7465
थाम	-7466
नीन	-7467
नॉन	-7468
पटा	-7469
पति	-7470
पेट	-7471
फ़ा	-7472
फेफ	-7473
भूम	-7474
श्त	-7475
ाती	-7476
ावल	-7477
ोंस	-7478
▁62	-7479
▁Lk	-7480
▁अड	-7481
▁आं	-7482
▁आग	-7483
▁फे	-7484
▁फो	-7485
▁बि	-7486
▁हक	-7487
उच्च	-7488
ज़ार	-7489
ज़ोन	-7490
डलौर	-7491
तांक	-7492
नाइल	-7493
पीआर	-7494
बर्ट	-7495
बर्र	-7496
भूमि	-7497
वर्ड	-7498
वेशन	-7499
स्पी	-7500
ाक्त	-7501
ारोह	-7502
िटिश	-7503
िब्र	-7504
ुलिन	-7505
ेट्स	-7506
्युन	-7507
▁09.	-7508
▁120	-7509
▁150	-7510
▁16.	-7511
▁180	-7512
▁25%	-7513
▁250	-7514
▁bat	-7515
▁अनि	-7516
▁ईथर	-7517
▁उपा	-7518
▁ओसा	-7519
▁कंट	-7520
▁कंस	-7521
▁खैर	-7522
▁घोट	-7523
▁तीर	-7524
▁ध्व	-7525
▁निग	-7526
▁नॉट	-7527
▁पिट	-7528
▁फाइ	-7529
▁फील	-7530
▁मधु	-7531
▁रूट	-7532
▁लीफ	-7533
▁शेड	-7534
▁शौच	-7535
▁सीड	-7536
क्‍टर	-7537
ज़ारी	-7538
थपुरम	-7539
दूसरे	-7540
निगमन	-7541
पिलरी	-7542
प्रिय	-7543
बोरेट	-7544
मिनार	-7545
ष्कार	-7546
ार्थी	-7547
ालेखा	-7548
िंग्स	-7549
िब्रो	-7550
ेक्शन	-7551
ोजनों	-7552
ोबुलर	-7553
्राइव	-7554
▁1998	-7555
▁अंडर	-7556
▁अकाद	-7557
▁अखिल	-7558
▁आरडी	-7559
▁आरोप	-7560
▁इंटी	-7561
▁इक्व	-7562
▁इरोड	-7563
▁ऋणों	-7564
▁कसकर	-7565
▁चीनी	-7566
▁जमीन	-7567
▁पब्ल	-7568
▁प्रे	-7569
▁फोकल	-7570
▁फ्‍ल	-7571
▁मापा	-7572
▁मिले	-7573
▁लगते	-7574
▁वैसा	-7575
▁श्रो	-7576
▁सीरम	-7577
▁स्टी	-7578
क्रामक	-7579
ज्ञापन	-7580
पालिका	-7581
रेक्शन	-7582
वहारिक	-7583
वृत्ति	-7584
ियोटिक	-7585
िस्टोर	-7586
ोट्यूब	-7587
▁अगस्त	-7588
▁आयामी	-7589
▁आवेदक	-7590
▁एनकोड	-7591
▁कीमोथ	-7592
▁गांधी	-7593
▁ग्रंथ	-7594
▁चुंबक	-7595
▁ज़रूर	-7596
▁टेट्र	-7597
▁डाइपो	-7598
▁तनमेग	-7599
▁त्रुट	-7600
▁थ्रिओ	-7601
▁दीवार	-7602
▁पट्टे	-7603
▁पौधों	-7604
▁प्रचल	-7605
▁बढ़कर	-7606
▁भावना	-7607
▁वापसी	-7608
▁संतान	-7609
इम्यूनो	-7610
ऑक्सीजन	-7611
तापूर्ण	-7612
ेक्‍यूल	-7613
ैनोइड्स	-7614
▁10,000	-7615
▁अनुशास	-7616
▁आवासीय	-7617
▁इंटेंस	-7618
▁इंडिया	-7619
▁एंडोस्	-7620
▁एक्सिस	-7621
▁एल्डोज	-7622
▁ऑप्टिम	-7623
▁ओलिगोड	-7624
▁क्लाउड	-7625
▁घातांक	-7626
▁चाहिये	-7627
▁चुनौती	-7628
▁जनजाति	-7629
▁जीआईएस	-7630
▁जोड़ना	-7631
▁तत्काल	-7632
▁त्वरित	-7633
▁दक्षिण	-7634
▁दिखाता	-7635
▁दिशाओं	-7636
▁दृढ़ता	-7637
▁पहचाना	-7638
▁फर्मों	-7639
▁मरम्मत	-7640
▁महंगाई	-7641
▁महत्‍व	-7642
▁रणनीति	-7643
▁रिक्ति	-7644
▁लाइनों	-7645
▁समारोह	-7646
▁सेनानी	-7647
▁स्नातक	-7648
▁हेमांग	-7649
कोन्जुगे	-7650
ोजेनेसिस	-7651
▁ओसाज़ोन	-7652
▁कंट्रोल	-7653
▁क्रमांक	-7654
▁क्लोरीन	-7655
▁जवाबदेह	-7656
▁टीएनईबी	-7657
▁तंजावुर	-7658
▁दर्शाती	-7659
▁प्रतिभा	-7660
▁प्रोपेल	-7661
▁प्रोलिन	-7662
▁फाइब्रस	-7663
▁बढ़ेंगे	-7664
▁ब्रोमीन	-7665
▁भागीदार	-7666
▁महालेखा	-7667
▁रिस्टोर	-7668
▁ल्यूपिन	-7669
▁विषाक्त	-7670
▁वैश्विक	-7671
▁सिरदर्द	-7672
▁सिस्टीन	-7673
▁सीओएक्स	-7674
▁सेगमेंट	-7675
▁हैंडआउट	-7676
▁ॠणात्मक	-7677
क्सीप्रोल	-7678
्रीफ्यूगल	-7679
▁उत्पत्ति	-7680
▁उपक्रमों	-7681
▁उपलब्धता	-7682
▁ऋणदाताओं	-7683
▁एंजाइम्स	-7684
▁एपिडेमिक	-7685
▁ग्लाइकोल	-7686
▁चार्टर्ड	-7687
▁जवाबदेही	-7688
▁टेस्टिंग	-7689
▁डाइपोल्स	-7690
▁तात्पर्य	-7691
▁प्रकाशीय	-7692
▁प्रतिष्ठ	-7693
▁मानदंडों	-7694
▁मार्कर्स	-7695
▁मोनोमर्स	-7696
▁रिट्राइव	-7697
▁लक्ष्यों	-7698
▁लड़कियों	-7699
▁संस्थाओं	-7700
▁सेन्ट्रल	-7701
▁एकत्रीकरण	-7702
▁कंप्यूटेड	-7703
▁कॉरपोरेशन	-7704
▁पोराम्बोक	-7705
▁प्रबंधकीय	-7706
▁प्रवृत्ति	-7707
▁प्रायोजित	-7708
▁रिकग्निशन	-7709
▁वेरिएबल्स	-7710
▁व्याख्यान	-7711
▁हिस्टिडीन	-7712
ियोआइसोमर्स	-7713
▁अनिवार्यता	-7714
▁इंटरैक्‍शन	-7715
▁इम्यूनोडिफ	-7716
▁केमिस्ट्री	-7717
▁ट्रिब्यूनल	-7718
▁देनदारियों	-7719
▁नागपट्टिनम	-7720
▁प्रमाणपत्र	-7721
▁मालेक्‍यूल	-7722
▁व्यावहारिक	-7723
▁स्टेबिलिटी	-7724
▁अभिक्रियाओं	-7725
▁इंटरेक्शन्स	-7726
▁इकोसैनोइड्स	-7727
▁एल्गोरिदम्स	-7728
▁क्रोमोजोम्स	-7729
▁छात्रवृत्ति	-7730
▁प्रक्रियाएं	-7731
▁लिम्फोप्रोल	-7732
▁स्टेकहोल्डर	-7733
एसाइलग्लिसरॉल	-7734
▁प्रतिस्थापित	-7735
▁प्रेसिपिटेशन	-7736
▁माइक्रोट्यूब	-7737
▁कम्प्यूटरीकृत	-7738
▁अंतर्राष्ट्रीय	-7739
▁ग्लूकोपाइरेनोज	-7740
▁सेन्ट्रीफ्यूगल	-7741
▁ग्लाइकोकोन्जुगे	-7742
▁रबडोमायोसारकोमा	-7743
',	-7744
/0	-7745
55	-7746
HO	-7747
NR	-7748
il	-7749
गु	-7750
छो	-7751
टक	-7752
दल	-7753
बि	-7754
सद	-7755
ृह	-7756
ैग	-7757
ैस	-7758
▁”	-7759
-07	-7760
...	-7761
/?>	-7762
ara	-7763
अरी	-7764
केल	-7765
कोश	-7766
ज़न	-7767
टिन	-7768
ड़ब	-7769
देह	-7770
बोध	-7771
रेस	-7772
वली	-7773
विर	-7774
सिन	-7775
सीट	-7776
सेन	-7777
स्म	-7778
िरा	-7779
ूइड	-7780
ेप्	-7781
ेषण	-7782
ेसन	-7783
ॉस्	-7784
ोमी	-7785
्चर	-7786
्ते	-7787
्रम	-7788
्वा	-7789
▁.0	-7790
▁76	-7791
▁KE	-7792
▁NH	-7793
▁गू	-7794
▁ढी	-7795
▁पक	-7796
▁सश	-7797
araz	-7798
atch	-7799
एससी	-7800
ग्लो	-7801
चुरल	-7802
च्यु	-7803
ट्टी	-7804
डिंग	-7805
नेरी	-7806
पादन	-7807
बीसी	-7808
ब्बे	-7809
ब्लड	-7810
मक्ख	-7811
मलाई	-7812
म्बर	-7813
ल्‍ड	-7814
वादी	-7815
वाले	-7816
व्या	-7817
श्यक	-7818
सनीय	-7819
ाइमर	-7820
ाज्म	-7821
ानिन	-7822
ारगे	-7823
ालोर	-7824
िंडल	-7825
िमाब	-7826
िराप	-7827
िश़न	-7828
ूर्ण	-7829
ेल्व	-7830
ेविस	-7831
ेसेस	-7832
▁101	-7833
▁110	-7834
▁14.	-7835
▁190	-7836
▁300	-7837
▁one	-7838
▁आपस	-7839
▁इंस	-7840
▁कब्	-7841
▁कोइ	-7842
▁गृह	-7843
▁ठंड	-7844
▁थूथ	-7845
▁दशक	-7846
▁दान	-7847
▁पीन	-7848
▁फसल	-7849
▁फॉर	-7850
▁बाइ	-7851
▁बैच	-7852
▁महा	-7853
▁मां	-7854
▁लाइ	-7855
▁लोड	-7856
▁लौट	-7857
▁वजी	-7858
▁संभ	-7859
▁सबड	-7860
▁हरे	-7861
▁हान	-7862
ज़ोर्	-7863
त्तीस	-7864
भाविक	-7865
येंगे	-7866
र्क्स	-7867
ष्टतम	-7868
ाइटेर	-7869
ाइलेट	-7870
ाइवेट	-7871
ारटिक	-7872
िकारक	-7873
िरिकल	-7874
ीटर्स	-7875
ेरिकी	-7876
ोज़ेक	-7877
ोजेनी	-7878
्चर्य	-7879
्यासी	-7880
्यूजन	-7881
▁Sarf	-7882
▁अल्ज	-7883
▁अविभ	-7884
▁आड़ी	-7885
▁इम्‍	-7886
▁करंट	-7887
▁ग्रे	-7888
▁चीरा	-7889
▁जाकर	-7890
▁ठेके	-7891
▁डाउन	-7892
▁थायर	-7893
▁धुरी	-7894
▁निरा	-7895
▁नोडल	-7896
▁फ़िल	-7897
▁फ्रे	-7898
▁बाइल	-7899
▁मिस्	-7900
▁मैके	-7901
▁मोड़	-7902
▁लाना	-7903
▁लिंग	-7904
▁विनि	-7905
▁सिकल	-7906
▁सोलर	-7907
ंत्रिक	-7908
कीमिया	-7909
जुवेंट	-7910
सुश्री	-7911
हेड्रल	-7912
्यूट्स	-7913
्‍यादा	-7914
▁GISTs	-7915
▁अक्षय	-7916
▁इंद्र	-7917
▁इनर्ट	-7918
▁उठाने	-7919
▁कठिना	-7920
▁कीजिए	-7921
▁कृष्ण	-7922
▁गेविस	-7923
▁जीनोम	-7924
▁डालने	-7925
▁डिपॉज	-7926
▁तिरुव	-7927
▁दिखने	-7928
▁परतों	-7929
▁पार्क	-7930
▁पिछला	-7931
▁पैरों	-7932
▁प्रोम	-7933
▁फोर्स	-7934
▁बंधते	-7935
▁बदलते	-7936
▁मानकी	-7937
▁मौलिक	-7938
▁रहेगा	-7939
▁विघटन	-7940
▁विधिक	-7941
▁वेब्स	-7942
▁वेल्ल	-7943
▁संबोध	-7944
▁सिल्क	-7945
▁सीएआर	-7946
▁सीखते	-7947
▁सौंपे	-7948
क्रोनिक	-7949
ड्डालोर	-7950
मेच्योर	-7951
शारीरिक	-7952
ोलिडेशन	-7953
्यूटिंग	-7954
▁50,000	-7955
▁अम्लीय	-7956
▁आकर्षक	-7957
▁इच्छुक	-7958
▁इम्युन	-7959
▁इष्टतम	-7960
▁उपइकाई	-7961
▁एप्सिल	-7962
▁एम्बोल	-7963
▁एलएलपी	-7964
▁कमजोरी	-7965
▁कहलाता	-7966
▁कार्गो	-7967
▁कैमिकल	-7968
▁ज़रूरी	-7969
▁ट्रस्ट	-7970
▁तालमेल	-7971
▁दक्षता	-7972
▁दाहिनी	-7973
▁निकाले	-7974
▁निगमों	-7975
▁पड़ेगा	-7976
▁पर्यटन	-7977
▁पहाड़ी	-7978
▁पीजीएच	-7979
▁पीनियल	-7980
▁प्रिंट	-7981
▁प्‍लॉट	-7982
▁बढ़ाकर	-7983
▁मोज़ेक	-7984
▁यूनियन	-7985
▁रॉबर्ट	-7986
▁वाहनों	-7987
▁श्रिंक	-7988
▁सम्मिल	-7989
▁साइकिल	-7990
▁साल्‍व	-7991
▁स्थलों	-7992
▁हार्मो	-7993
अपरिपक्व	-7994
क्कोट्टई	-7995
स्केलेटल	-7996
िरापल्ली	-7997
्युलेटेड	-7998
▁अमेरिकी	-7999
▁आक्रामक	-8000
▁आश्चर्य	-8001
▁इंटीग्र	-8002
▁एनएचएआई	-8003
▁ज्‍यादा	-8004
▁डीलिस्ट	-8005
▁न्यूरोस	-8006
▁प्रोटिओ	-8007
▁ब्रिटिश	-8008
▁भिन्नता	-8009
▁मटेरियल	-8010
▁मधुमक्ख	-8011
▁लेबोरेट	-8012
▁विरुद्ध	-8013
▁सबडोमेन	-8014
▁सावधानी	-8015
▁सेमिनार	-8016
▁स्टेरिक	-8017
ॉलिक्युलर	-8018
▁Sarfaraz	-8019
▁अधिसूचित	-8020
▁अनुवादित	-8021
▁आइसोमर्स	-8022
▁आरडीडीबी	-8023
▁उपयोगिता	-8024
▁एमट्रांस	-8025
▁कार्यकाल	-8026
▁क्राइटेर	-8027
▁चींटियों	-8028
▁जेएमएमएल	-8029
▁टाइरोसिन	-8030
▁दिखाऊंगा	-8031
▁नवीनीकरण	-8032
▁नागरिकों	-8033
▁निविदाओं	-8034
▁प्रतियां	-8035
▁प्रशासित	-8036
▁प्राइवेट	-8037
▁प्रॉक्सी	-8038
▁ब्रिजिज़	-8039
▁ब्लीडिंग	-8040
▁मार्जिनल	-8041
▁मेथिओनिन	-8042
▁लोकप्रिय	-8043
▁सेल्सियस	-8044
▁हामीदारी	-8045
▁इम्‍प्रिं	-8046
▁डिटेक्‍टर	-8047
▁डेरिवेटिव	-8048
▁नेटवर्क्स	-8049
▁पृष्ठभूमि	-8050
▁पेप्‍टाइड	-8051
▁प्रतिबद्ध	-8052
▁प्रोटीनें	-8053
▁बाध्यकारी	-8054
▁स्थितियां	-8055
▁हार्मोन्स	-8056
अनसैचुरेटेड	-8057
▁क्यूटेनियस	-8058
▁क्रियात्मक	-8059
▁दीर्घकालिक	-8060
▁फ़ाइलोजेनी	-8061
▁फ्लोरोसेंट	-8062
▁मैग्नीशियम	-8063
▁आर्टिफिशियल	-8064
▁इंफ्लेमेटरी	-8065
▁कार्यान्वित	-8066
▁ट्राइग्लिसर	-8067
▁ट्रिप्टोफैन	-8068
▁सफलतापूर्वक	-8069
▁अल्ट्रासाउंड	-8070
▁गैंग्लियोसाइड	-8071
▁हाइड्रोलाइज्ड	-8072
▁प्रोटीओग्लाइकन	-8073
)-	-8074
1)	-8075
18	-8076
5,	-8077
70	-8078
CB	-8079
IO	-8080
LA	-8081
SF	-8082
nt	-8083
कट	-8084
कै	-8085
छी	-8086
ठे	-8087
नो	-8088
सह	-8089
हम	-8090
▁i	-8091
ंटर	-8092
अंग	-8093
असल	-8094
आरए	-8095
ओपी	-8096
ताब	-8097
थुर	-8098
नगर	-8099
नेड	-8100
न्‍	-8101
पों	-8102
बाद	-8103
बीस	-8104
मेड	-8105
वहन	-8106
विट	-8107
ाहे	-8108
िसा	-8109
ीदा	-8110
ुगर	-8111
ेटी	-8112
ॉकर	-8113
ोनी	-8114
ोपण	-8115
ोषक	-8116
ौली	-8117
्वर	-8118
▁55	-8119
▁59	-8120
▁61	-8121
▁88	-8122
▁Fr	-8123
▁VI	-8124
▁pK	-8125
▁उभ	-8126
▁चू	-8127
▁धम	-8128
▁नक	-8129
▁फस	-8130
▁वस	-8131
ंचाई	-8132
अल्ट	-8133
इंटर	-8134
केजी	-8135
ज़ोम	-8136
जारी	-8137
डल्स	-8138
डियम	-8139
दुओं	-8140
पीपी	-8141
पॉली	-8142
प्ति	-8143
प्रे	-8144
फार्	-8145
फॉलो	-8146
माता	-8147
म्‍स	-8148
वानी	-8149
सिटी	-8150
सीएम	-8151
स्ती	-8152
स्सी	-8153
ाग्ल	-8154
ारीय	-8155
ालीस	-8156
िकीय	-8157
िनोल	-8158
ियली	-8159
ीसिस	-8160
ुमाब	-8161
ूम्र	-8162
ेन्ड	-8163
ैंडम	-8164
ोपैथ	-8165
ोबोट	-8166
ोलोल	-8167
्रीओ	-8168
▁15.	-8169
▁18.	-8170
▁<?>	-8171
▁अनव	-8172
▁ओपन	-8173
▁कंड	-8174
▁कवि	-8175
▁काउ	-8176
▁कैट	-8177
▁कॉइ	-8178
▁कों	-8179
▁खनन	-8180
▁गिन	-8181
▁गुप	-8182
▁जैव	-8183
▁डेन	-8184
▁धना	-8185
▁पशु	-8186
▁पैच	-8187
▁पों	-8188
▁बजे	-8189
▁बाग	-8190
▁राव	-8191
▁सतत	-8192
काशित	-8193
क्रीट	-8194
क्लिए	-8195
क्सेस	-8196
चेस्ट	-8197
जामिन	-8198
दायिक	-8199
नीकृत	-8200
बिम्ब	-8201
मावली	-8202
योजना	-8203
रेस्ट	-8204
र्सिव	-8205
लोस्ट	-8206
शक्ति	-8207
शियाई	-8208
ाइट्स	-8209
िक्शन	-8210
ियामक	-8211
्यादे	-8212
▁अनेक	-8213
▁अर्ध	-8214
▁आनंद	-8215
▁आर्म	-8216
▁आवरण	-8217
▁एकदम	-8218
▁एनैं	-8219
▁एब्ड	-8220
▁एरिथ	-8221
▁एरोम	-8222
▁एवोल	-8223
▁एसएच	-8224
▁कक्ष	-8225
▁कठोर	-8226
▁कर्व	-8227
▁कॉन्	-8228
▁कोआप	-8229
▁क्वा	-8230
▁खदान	-8231
▁गड़ब	-8232
▁गणित	-8233
▁चलना	-8234
▁ड्रा	-8235
▁थिंक	-8236
▁थेनी	-8237
▁दरों	-8238
▁देगी	-8239
▁धारक	-8240
▁निगल	-8241
▁नीलग	-8242
▁पाठक	-8243
▁बेंच	-8244
▁मुना	-8245
▁मेली	-8246
▁मैने	-8247
▁यद्य	-8248
▁रहना	-8249
▁राजन	-8250
▁लिखत	-8251
▁वजीर	-8252
▁वाइड	-8253
▁वाहन	-8254
▁विस्	-8255
▁सोलह	-8256
▁स्पी	-8257
▁हाउस	-8258
▁होमो	-8259
इंटरनल	-8260
इलेक्ट	-8261
केलेटन	-8262
केलेशन	-8263
न्टाइल	-8264
पड़ताल	-8265
प्रदान	-8266
ल्डहुड	-8267
वेंट्स	-8268
साइट्स	-8269
स्क्यू	-8270
स्ट्री	-8271
ाधिकार	-8272
िनोमास	-8273
िफॉर्म	-8274
िष्कार	-8275
ेदारों	-8276
ोटोनिन	-8277
ोस्टेर	-8278
▁2009,	-8279
▁आठवीं	-8280
▁ऊंचाई	-8281
▁एक्‍स	-8282
▁एम्फी	-8283
▁एलिसा	-8284
▁एसईएफ	-8285
▁ऑर्डर	-8286
▁कमीशन	-8287
▁कमेटी	-8288
▁कामों	-8289
▁कॉन्ट	-8290
▁क्लोन	-8291
▁क्‍या	-8292
▁ग्रीक	-8293
▁छोड़े	-8294
▁झिल्ल	-8295
▁टारगे	-8296
▁टॉन्स	-8297
▁ट्रां	-8298
▁डिप्ल	-8299
▁डीम्ड	-8300
▁थक्के	-8301
▁थाइमस	-8302
▁दरअसल	-8303
▁निकास	-8304
▁निगला	-8305
▁निपटा	-8306
▁बनाये	-8307
▁बायोम	-8308
▁ब्लाक	-8309
▁मध्यम	-8310
▁मिलों	-8311
▁रिप्र	-8312
▁रेस्ट	-8313
▁रोककर	-8314
▁रोबोट	-8315
▁लम्बे	-8316
▁लूप्स	-8317
▁वाष्‍	-8318
▁विलंब	-8319
▁हकदार	-8320
▁हेक्स	-8321
▁होमोल	-8322
फेफड़ों	-8323
मैट्रिक	-8324
ाग्लैंड	-8325
ूम्रपान	-8326
ोसाइट्स	-8327
▁अंडकोष	-8328
▁अंतरिम	-8329
▁अकादमी	-8330
▁उच्चतर	-8331
▁एशियाई	-8332
▁कुडलौर	-8333
▁कोचिंग	-8334
▁जुड़ने	-8335
▁निरस्त	-8336
▁पोजीशन	-8337
▁प्यादे	-8338
▁प्रदेश	-8339
▁प्रधान	-8340
▁प्रभाग	-8341
▁रिश्ते	-8342
▁रोकथाम	-8343
▁लम्प्स	-8344
▁लिंक्स	-8345
▁वेसल्स	-8346
▁शौचालय	-8347
▁श्रोणि	-8348
▁संबद्ध	-8349
▁संभाला	-8350
▁संवर्ग	-8351
▁स्मृति	-8352
▁स्वर्ण	-8353
,000,000	-8354
रेटिविटी	-8355
सेकेराइड	-8356
स्पेक्टर	-8357
ुक्सिमाब	-8358
▁2006-07	-8359
▁अंशधारक	-8360
▁अधीनस्थ	-8361
▁एडज़ोर्	-8362
▁कॉलेजों	-8363
▁कोडॉन्स	-8364
▁क्वार्ट	-8365
▁क्षारीय	-8366
▁चिन्हित	-8367
▁चिन्हों	-8368
▁जानवरों	-8369
▁टेस्ट्स	-8370
▁थिंकिंग	-8371
▁नीतियों	-8372
▁पश्चिमी	-8373
▁पसंदीदा	-8374
▁प्रचलित	-8375
▁प्रोफिल	-8376
▁फ्रोजेन	-8377
▁फ्‍लूइड	-8378
▁बिंदुओं	-8379
▁मेच्योर	-8380
▁राजभाषा	-8381
▁विवरणों	-8382
▁शेयरधार	-8383
▁समर्थित	-8384
▁साझेदार	-8385
▁स्ज़ारी	-8386
▁हेलिसेस	-8387
एक्सटर्नल	-8388
ेंड्रोग्ल	-8389
▁अपेक्षित	-8390
▁इमैटिनिब	-8391
▁इम्यूनोस	-8392
▁एम्ब्रीओ	-8393
▁कनेक्टिव	-8394
▁क्षमताओं	-8395
▁घुमावदार	-8396
▁चैल्डहुड	-8397
▁द्वितीयक	-8398
▁नियरेस्ट	-8399
▁नैनोमीटर	-8400
▁न्यूक्ली	-8401
▁प्रतिरोध	-8402
▁प्रोमायल	-8403
▁फीलिंग्स	-8404
▁फैक्टर्स	-8405
▁बायोलॉजी	-8406
▁मानकीकृत	-8407
▁रिकर्सिव	-8408
▁रिसेक्शन	-8409
▁रेस्क्यू	-8410
▁वाइंडिंग	-8411
▁विनियामक	-8412
▁शक्तियाँ	-8413
▁संकल्पना	-8414
▁सम्पूर्ण	-8415
▁सम्मिलित	-8416
▁हिस्ट्री	-8417
▁अधिनियमों	-8418
▁अप्रकाशित	-8419
▁आनुवांशिक	-8420
▁एस्पारटिक	-8421
▁डिपॉजिटरी	-8422
▁निहितार्थ	-8423
▁परिकल्पना	-8424
▁पिट्यूटरी	-8425
▁प्रदर्शनी	-8426
▁मध्यस्थता	-8427
▁मलिग्नन्ट	-8428
▁मीडियास्ट	-8429
▁रिएजेंट्स	-8430
▁सेरोटोनिन	-8431
▁स्वाभाविक	-8432
▁हितधारकों	-8433
एस्ट्रोसाइट	-8434
▁अंतःप्रवाह	-8435
▁अनवाइंडिंग	-8436
▁अभिविन्यास	-8437
▁आवश्यकताएँ	-8438
▁इंटरकेलेशन	-8439
▁इंस्पेक्टर	-8440
▁इन्फन्टाइल	-8441
▁ऑब्जेक्टिव	-8442
▁कम्प्यूटेड	-8443
▁कल्याणकारी	-8444
▁ज्योमेट्री	-8445
▁पार्टिकल्स	-8446
▁पुनरावर्ती	-8447
▁पूर्ववर्ती	-8448
▁प्रतिबिम्ब	-8449
▁प्रॉब्लम्स	-8450
▁प्रोसेसिंग	-8451
▁फॉलिक्युलर	-8452
▁रामनाथपुरम	-8453
▁रिसेप्टर्स	-8454
▁हाइपोथीसिस	-8455
▁ऑक्सीडाइज्ड	-8456
▁पीडियाट्रिक	-8457
▁महत्‍वपूर्ण	-8458
▁मेम्ब्रेन्स	-8459
▁व्यवहार्यता	-8460
▁साइटोमेट्री	-8461
▁सॉल्‍वेंट्स	-8462
▁अंतःक्रियाएँ	-8463
▁अंतःक्रियाओं	-8464
▁कोआपरेटिविटी	-8465
▁फॉस्फोलिपेज़	-8466
▁अंतरराष्ट्रीय	-8467
▁कम्प्यूटरीकरण	-8468
▁तिरुचिरापल्ली	-8469
▁ग्लाइकोसाइलेशन	-8470
▁प्रोस्टाग्लैंड	-8471
▁सेरेब्रोसाइड्स	-8472
▁प्रोमायलोसाइटिक	-8473
-4	-8474
/4	-8475
31	-8476
35	-8477
6,	-8478
86	-8479
ha	-8480
ov	-8481
st	-8482
उन	-8483
एट	-8484
चौ	-8485
झी	-8486
टो	-8487
श्	-8488
सच	-8489
हद	-8490
ीं	-8491
ॉइ	-8492
।)	-8493
।।	-8494
-08	-8495
est	-8496
एंज	-8497
एक्	-8498
कोट	-8499
टेल	-8500
डिय	-8501
ढ़ा	-8502
थान	-8503
थित	-8504
दूर	-8505
पशन	-8506
पीय	-8507
पैथ	-8508
प्प	-8509
मरी	-8510
मैब	-8511
येक	-8512
वाँ	-8513
वेक	-8514
सीय	-8515
हाल	-8516
िबल	-8517
ुगत	-8518
ुग्	-8519
ॉलर	-8520
▁69	-8521
▁95	-8522
▁ऑल	-8523
▁खी	-8524
▁खे	-8525
▁डू	-8526
,5,0	-8527
,500	-8528
2009	-8529
</?>	-8530
अथवा	-8531
आईसी	-8532
कोले	-8533
क्कर	-8534
क्का	-8535
क्रो	-8536
ट्रो	-8537
न्‍ट	-8538
पीजी	-8539
मेरु	-8540
मोइड	-8541
रेपी	-8542
र्टे	-8543
र्डी	-8544
लाइड	-8545
वेदन	-8546
हसास	-8547
ातिक	-8548
िंगर	-8549
िद्ध	-8550
ुल्स	-8551
ूँगी	-8552
ूंगी	-8553
ृद्ध	-8554
ेटीक	-8555
ेषित	-8556
ैप्स	-8557
ैबिल	-8558
ोनाइ	-8559
्रोज	-8560
‍पिड	-8561
▁04.	-8562
▁13.	-8563
▁15%	-8564
▁193	-8565
▁Ram	-8566
▁एन्	-8567
▁ऑफर	-8568
▁किट	-8569
▁गहन	-8570
▁छठी	-8571
▁दाव	-8572
▁नकल	-8573
▁निन	-8574
▁निल	-8575
▁मना	-8576
▁मुर	-8577
▁रिग	-8578
▁लोन	-8579
▁सभा	-8580
▁सॉल	-8581
▁हरा	-8582
▁हल्	-8583
▁हिप	-8584
▁हैब	-8585
▁हैै	-8586
एनआरई	-8587
एफ़आई	-8588
गर्दन	-8589
चारित	-8590
ट्रिब	-8591
ट्रॉन	-8592
ताबें	-8593
तालीस	-8594
तीर्ण	-8595
दियों	-8596
फेरॉन	-8597
मेरिक	-8598
रोसिस	-8599
लग्नक	-8600
स्कृत	-8601
स्थान	-8602
हत्तर	-8603
ाइटिस	-8604
ामाइन	-8605
ारोपण	-8606
िएटेड	-8607
ीलीटर	-8608
ोरेंट	-8609
ोलेंट	-8610
्यर्थ	-8611
्यूरो	-8612
्रिकल	-8613
▁1992	-8614
▁अंकन	-8615
▁अभिक	-8616
▁अमोन	-8617
▁आचरण	-8618
▁आनुप	-8619
▁इन्ड	-8620
▁एग्र	-8621
▁एब्न	-8622
▁एसएफ	-8623
▁ऑक्‍	-8624
▁कमरे	-8625
▁किन्	-8626
▁कैसी	-8627
▁खनिज	-8628
▁गूगल	-8629
▁गैरी	-8630
▁घटाव	-8631
▁चलती	-8632
▁चावल	-8633
▁डॉलर	-8634
▁द्वि	-8635
▁पायी	-8636
▁पीके	-8637
▁पुडु	-8638
▁प्ला	-8639
▁प्लॉ	-8640
▁फाइल	-8641
▁बढ़ी	-8642
▁बाईस	-8643
▁बुरा	-8644
▁बेहद	-8645
▁भेजी	-8646
▁मछली	-8647
▁मेटा	-8648
▁यूएस	-8649
▁रिगर	-8650
▁लेबल	-8651
▁विंड	-8652
▁विजे	-8653
▁विले	-8654
▁शिवग	-8655
▁शैंक	-8656
▁समर्	-8657
▁सीएफ	-8658
▁सीटू	-8659
▁सीधा	-8660
▁सुलझ	-8661
▁सेवक	-8662
▁स्कल	-8663
जेनिटल	-8664
त्‍येक	-8665
फ़ेक्ट	-8666
ब्लॉकर	-8667
भुगतान	-8668
यूल्‍स	-8669
सिस्टम	-8670
सीएसएफ	-8671
स्फिंग	-8672
ेशनेरी	-8673
ोजिस्ट	-8674
ोजेनिक	-8675
▁3,5,0	-8676
▁आइसोम	-8677
▁आवधिक	-8678
▁इनकार	-8679
▁एग्री	-8680
▁एरिया	-8681
▁खरीदा	-8682
▁खोखली	-8683
▁घूमने	-8684
▁चालीस	-8685
▁चुनें	-8686
▁टूटने	-8687
▁डिस्प	-8688
▁तिरछी	-8689
▁दर्जा	-8690
▁धारणा	-8691
▁ध्वनि	-8692
▁निबंध	-8693
▁निवास	-8694
▁पोषित	-8695
▁बंदोब	-8696
▁बेचने	-8697
▁ब्रेक	-8698
▁मापता	-8699
▁मिडिल	-8700
▁मेमरी	-8701
▁मोहरे	-8702
▁यहांँ	-8703
▁रसौली	-8704
▁रैंडम	-8705
▁व्यास	-8706
▁शीटों	-8707
▁शुक्र	-8708
▁शेल्फ	-8709
▁सशक्त	-8710
▁सीखती	-8711
▁स्टार	-8712
▁हज़ार	-8713
▁हेपेट	-8714
तिहासिक	-8715
र्निहित	-8716
िब्रियम	-8717
ेंसियों	-8718
ोमाइसिन	-8719
▁अवशोषण	-8720
▁आरक्षण	-8721
▁आवासों	-8722
▁इलेक्‍	-8723
▁उन्मुख	-8724
▁करेंगी	-8725
▁चीज़ें	-8726
▁छवियों	-8727
▁जनरेटर	-8728
▁जांचने	-8729
▁निकटतम	-8730
▁नीडल्स	-8731
▁पंचायत	-8732
▁पब्लिक	-8733
▁पाएँगे	-8734
▁पुनर्व	-8735
▁पृथ्वी	-8736
▁फिटनेस	-8737
▁फॉस्फो	-8738
▁मायक्स	-8739
▁मैनेजर	-8740
▁यद्यपि	-8741
▁राइबोज	-8742
▁रियायत	-8743
▁लि‍पिड	-8744
▁वर्क्स	-8745
▁वेक्टर	-8746
▁शिशुओं	-8747
▁संकेतक	-8748
▁समानता	-8749
▁समावेश	-8750
▁समुद्र	-8751
अनुवर्ती	-8752
बायोप्सी	-8753
ब्रेन्‍स	-8754
ोटाइपिंग	-8755
ोस्टेरोन	-8756
▁अधिशोषक	-8757
▁अनिवासी	-8758
▁अनुवादक	-8759
▁अभ्यर्थ	-8760
▁अस्पष्ट	-8761
▁एंजियोफ	-8762
▁एक्सट्र	-8763
▁एजेंट्स	-8764
▁एस्टर्स	-8765
▁ऑप्टिमल	-8766
▁किताबें	-8767
▁क्लासिक	-8768
▁ग्रैनुल	-8769
▁ड्राफ्ट	-8770
▁निकालकर	-8771
▁नीलगिरी	-8772
▁पहुँचने	-8773
▁प्रतिमा	-8774
▁फ़ंक्शन	-8775
▁फाइनेंस	-8776
▁मीट्रिक	-8777
▁मैग्नेट	-8778
▁विवादों	-8779
▁वेल्लोर	-8780
▁वैक्सीन	-8781
▁संबोधित	-8782
▁संरक्षक	-8783
▁संवर्धन	-8784
▁सत्यापन	-8785
▁सुधारने	-8786
▁स्‍लाइड	-8787
डायमेंशनल	-8788
ोस्केलेटन	-8789
्युकीमिया	-8790
▁अध्रुवीय	-8791
▁अनुलग्नक	-8792
▁अन्तर्गत	-8793
▁अयोग्यता	-8794
▁आनुपातिक	-8795
▁आविष्कार	-8796
▁एग्रेसिव	-8797
▁ऐतिहासिक	-8798
▁कंजेनिटल	-8799
▁क्रॉसिंग	-8800
▁चैटबोट्स	-8801
▁डायरेक्ट	-8802
▁डायस्टेर	-8803
▁डिप्लोमा	-8804
▁डिफ्यूज़	-8805
▁डिरेक्शन	-8806
▁डिसऑर्डर	-8807
▁धूम्रपान	-8808
▁पहुंचाती	-8809
▁पहुंचाने	-8810
▁प्रसारित	-8811
▁फंक्शन्स	-8812
▁बिल्डिंग	-8813
▁मधुमक्खी	-8814
▁मिलीलीटर	-8815
▁रिग्रेशन	-8816
▁रॉबर्टसन	-8817
▁विज्ञापन	-8818
▁संसाधनों	-8819
▁सामान्‍य	-8820
▁सिग्मोइड	-8821
▁स्क्वेयर	-8822
▁स्टेडियम	-8823
▁हानिकारक	-8824
इंट्राथेकल	-8825
क्यूटेनियस	-8826
मोनोसाइटिक	-8827
ियोजेनेसिस	-8828
ेप्‍टाइड्स	-8829
▁इम्पिरिकल	-8830
▁एब्नार्मल	-8831
▁कुड्डालोर	-8832
▁गैलेक्टोज	-8833
▁ग्‍लाइसिन	-8834
▁टेक्स्ट्स	-8835
▁नकारात्मक	-8836
▁परिस्थिति	-8837
▁प्रत्‍येक	-8838
▁लेबोरेटरी	-8839
▁विश्वसनीय	-8840
▁स्टेशनेरी	-8841
▁आवश्यकताएं	-8842
▁एडज़ोर्पशन	-8843
▁एम्ब्रीओनल	-8844
▁कंसोलिडेशन	-8845
▁रेस्टोरेंट	-8846
▁शेयरधारिता	-8847
▁हार्मोन्‍स	-8848
अल्ट्रासाउंड	-8849
एसाइलग्लिसरॉ	-8850
▁क्राइटेरिया	-8851
▁ग्लाइकोप्रो	-8852
▁यूकेरियोटिक	-8853
▁लाभार्थियों	-8854
▁सिम्युलेटेड	-8855
▁सुरक्षात्मक	-8856
▁अनुशासनात्मक	-8857
▁इम्यूनोहिस्ट	-8858
▁प्रोटिओमिक्स	-8859
▁मस्तिष्कमेरु	-8860
▁ग्लाइकोस्फिंग	-8861
▁दिशानिर्देशों	-8862
▁पाठ्यपुस्तकों	-8863
▁फॉस्फोलिपेसेस	-8864
▁पोलीअनसैचुरेटेड	-8865
'।	-8866
15	-8867
23	-8868
46	-8869
49	-8870
85	-8871
NM	-8872
SA	-8873
US	-8874
tn	-8875
ंव	-8876
णु	-8877
नर	-8878
यह	-8879
षे	-8880
।-	-8881
10.	-8882
CAT	-8883
MRT	-8884
RAF	-8885
WHO	-8886
ंदर	-8887
इंड	-8888
एज़	-8889
एटी	-8890
कंप	-8891
खिक	-8892
खित	-8893
ख्त	-8894
गीत	-8895
चात	-8896
जात	-8897
पणन	-8898
पुन	-8899
बन्	-8900
बहु	-8901
बीए	-8902
मंड	-8903
यून	-8904
रिज	-8905
रिय	-8906
लेक	-8907
लोड	-8908
वात	-8909
शेड	-8910
साई	-8911
सीओ	-8912
सील	-8913
हरी	-8914
िंज	-8915
िपि	-8916
िशर	-8917
ूला	-8918
▁--	-8919
▁67	-8920
▁xi	-8921
▁इट	-8922
▁गा	-8923
▁तट	-8924
▁ते	-8925
▁नु	-8926
▁बढ	-8927
▁मी	-8928
NMRI	-8929
ंन्ड	-8930
आर्म	-8931
इड्स	-8932
एंडो	-8933
एमआर	-8934
चारा	-8935
छोटे	-8936
ज्‍म	-8937
दूरी	-8938
धारी	-8939
नीचर	-8940
पुरी	-8941
बहुत	-8942
मेशन	-8943
र्टर	-8944
र्ते	-8945
र्दे	-8946
लाइन	-8947
लाशय	-8948
लेटर	-8949
वाटर	-8950
सज्ज	-8951
सीजन	-8952
ाइलो	-8953
ीडीन	-8954
ृप्त	-8955
ेंजर	-8956
ैटिन	-8957
ैलिक	-8958
ॉजिक	-8959
ॉन्ड	-8960
ॉर्ट	-8961
ोंको	-8962
ोनेट	-8963
्ट्स	-8964
▁140	-8965
▁144	-8966
▁20.	-8967
▁75%	-8968
▁90%	-8969
▁his	-8970
▁अड़	-8971
▁अधि	-8972
▁अमा	-8973
▁अवै	-8974
▁एएस	-8975
▁एनस	-8976
▁एयर	-8977
▁कपै	-8978
▁कर्	-8979
▁कस्	-8980
▁कैं	-8981
▁कोओ	-8982
▁गंत	-8983
▁गाय	-8984
▁गुज	-8985
▁गेम	-8986
▁चौर	-8987
▁टैं	-8988
▁तैर	-8989
▁नरम	-8990
▁नास	-8991
▁फुट	-8992
▁फेर	-8993
▁बंड	-8994
▁बची	-8995
▁बही	-8996
▁भूख	-8997
▁मोड	-8998
▁रोल	-8999
▁विज	-9000
▁वीं	-9001
▁वोल	-9002
▁शिप	-9003
▁शिफ	-9004
▁सजा	-9005
▁सरक	-9006
▁सूच	-9007
▁सोम	-9008
▁सोस	-9009
▁हां	-9010
▁हाय	-9011
अन्सी	-9012
अस्थि	-9013
क्रिन	-9014
ग्लूट	-9015
चकांक	-9016
धियों	-9017
नादेश	-9018
नामिक	-9019
निज्म	-9020
पीईटी	-9021
पूंजी	-9022
पॉइंट	-9023
भावना	-9024
यावधि	-9025
यूनिट	-9026
लीदार	-9027
लेटरी	-9028
शीलता	-9029
सीएआर	-9030
स्टिक	-9031
स्टीर	-9032
ागिरी	-9033
िओसोम	-9034
िमाही	-9035
ियाणा	-9036
िलेशन	-9037
ुपाती	-9038
ूपपुर	-9039
ेंजीन	-9040
ेंडेल	-9041
ैरेपी	-9042
ोजिने	-9043
ोमाइड	-9044
ोलिपो	-9045
▁1963	-9046
▁1980	-9047
▁1991	-9048
▁1999	-9049
▁BRAF	-9050
▁अतीत	-9051
▁अब्ड	-9052
▁आश्र	-9053
▁इतने	-9054
▁ईस्ट	-9055
▁उत्‍	-9056
▁एडेन	-9057
▁एनएस	-9058
▁एसएस	-9059
▁काले	-9060
▁किरण	-9061
▁खड़ी	-9062
▁घाटे	-9063
▁चेयर	-9064
▁टेसे	-9065
▁ठंडा	-9066
▁डिपो	-9067
▁तेज़	-9068
▁नाइन	-9069
▁नागा	-9070
▁निषे	-9071
▁पकड़	-9072
▁पांड	-9073
▁पाएं	-9074
▁प्रभ	-9075
▁प्ले	-9076
▁फैली	-9077
▁बंधन	-9078
▁बताई	-9079
▁बोंस	-9080
▁मैनु	-9081
▁मौका	-9082
▁रहित	-9083
▁लेंस	-9084
▁लेगा	-9085
▁लैंड	-9086
▁विरु	-9087
▁सकने	-9088
▁सर्ज	-9089
▁सुबह	-9090
▁सौदे	-9091
3.2010	-9092
आर्थिक	-9093
चेन्नई	-9094
टीन्‍स	-9095
नार्मल	-9096
मराइज़	-9097
रीक्षक	-9098
र्माना	-9099
लोकेशन	-9100
सज्जित	-9101
ाइजेसन	-9102
ेक्टिन	-9103
्लेक्स	-9104
्‍वेंस	-9105
▁अधिगम	-9106
▁असमान	-9107
▁इंटरक	-9108
▁उठाया	-9109
▁उपदान	-9110
▁उपभोग	-9111
▁काईरल	-9112
▁ख़त्म	-9113
▁गरीबी	-9114
▁गुप्त	-9115
▁घटाकर	-9116
▁टैक्स	-9117
▁डालता	-9118
▁डेवसन	-9119
▁थोड़े	-9120
▁दंडित	-9121
▁दोहरे	-9122
▁नब्बे	-9123
▁पड़ती	-9124
▁परतें	-9125
▁पेयजल	-9126
▁पॉकेट	-9127
▁फाउंड	-9128
▁बदलकर	-9129
▁बाधित	-9130
▁बायाँ	-9131
▁बाह्य	-9132
▁बुलेट	-9133
▁मजदूर	-9134
▁मलाशय	-9135
▁मारते	-9136
▁मेटाब	-9137
▁मोल्स	-9138
▁रेक्ट	-9139
▁लिपोस	-9140
▁लैक्ट	-9141
▁विपणन	-9142
▁विवेक	-9143
▁शिविर	-9144
▁संघों	-9145
▁सेल्फ	-9146
▁सोचें	-9147
▁स्केल	-9148
क्षेत्र	-9149
चाराधीन	-9150
र्डीनेट	-9151
र्सेनिक	-9152
ाइकन्‍स	-9153
ियमावली	-9154
ेप्चुअल	-9155
्रेडेशन	-9156
▁25,000	-9157
▁अनुकरण	-9158
▁अमान्य	-9159
▁अल्फ़ा	-9160
▁आपत्ति	-9161
▁आबंधों	-9162
▁आरंभिक	-9163
▁एग्लूट	-9164
▁एथेनॉल	-9165
▁कठिनाई	-9166
▁करवाना	-9167
▁कलेक्ट	-9168
▁कुशलता	-9169
▁कैंसरस	-9170
▁कैलोरी	-9171
▁कॉलोनी	-9172
▁गुर्दे	-9173
▁गोबुलर	-9174
▁ज़रूरत	-9175
▁जोड़ों	-9176
▁टिशूज़	-9177
▁टेट्रा	-9178
▁डेस्मो	-9179
▁तथ्यों	-9180
▁तिमाही	-9181
▁त्रिची	-9182
▁दाहिना	-9183
▁दिखाती	-9184
▁नर्ब्स	-9185
▁नवीकरण	-9186
▁पिछड़ा	-9187
▁पिनियल	-9188
▁पीआरपी	-9189
▁पूर्वज	-9190
▁पॉलिमर	-9191
▁प्रतीत	-9192
▁बायोमो	-9193
▁बारीकी	-9194
▁बुलाने	-9195
▁बॉंन्ड	-9196
▁मजिस्ट	-9197
▁मनुष्य	-9198
▁मायलोड	-9199
▁विभागा	-9200
▁वोटिंग	-9201
▁व्हाइट	-9202
▁शीर्षक	-9203
▁संध्या	-9204
▁सचिवों	-9205
▁समाचार	-9206
▁सम्बन्	-9207
▁सीमाओं	-9208
▁सुव्यव	-9209
▁स्टडीज	-9210
▁स्तरों	-9211
तमिलनाडु	-9212
नेक्टॉमी	-9213
फोर्मेशन	-9214
सपोर्टेड	-9215
ेजेंटेशन	-9216
ोपेक्टिन	-9217
्रैक्टरी	-9218
▁इकाइयाँ	-9219
▁इक्वेशन	-9220
▁उत्पादक	-9221
▁एट्रांस	-9222
▁एपोलिपो	-9223
▁ऑप्टिकल	-9224
▁केन्द्र	-9225
▁ग्लियाल	-9226
▁चरणबद्ध	-9227
▁चित्रित	-9228
▁जीनोमिक	-9229
▁निर्वहन	-9230
▁पहचानना	-9231
▁पहुँचते	-9232
▁प्रॉसेस	-9233
▁फर्नीचर	-9234
▁बदलावों	-9235
▁बागवानी	-9236
▁बेहतरीन	-9237
▁बॉन्डिड	-9238
▁ब्रोंको	-9239
▁मायलॉइड	-9240
▁मिक्स्ड	-9241
▁मिलेंगे	-9242
▁मूवमेंट	-9243
▁रोटेशनल	-9244
▁विविधता	-9245
▁समयावधि	-9246
▁समर्पित	-9247
▁सर्कुलर	-9248
▁स्ट्रीट	-9249
▁हरियाणा	-9250
▁हेपेटिक	-9251
▁हैबिट्स	-9252
कोलोजिस्ट	-9253
मेम्ब्रेन	-9254
ैबिलिटेशन	-9255
▁अंडरआर्म	-9256
▁अनुखंडों	-9257
▁अभिलिखित	-9258
▁असमर्थता	-9259
▁आर्गेनिक	-9260
▁उत्पादित	-9261
▁एंटीजन्स	-9262
▁एरिथ्रोज	-9263
▁एल्डोनिक	-9264
▁कंडीशन्स	-9265
▁गतिशीलता	-9266
▁ग्रेंडेल	-9267
▁जुर्माना	-9268
▁टाइपिस्ट	-9269
▁तिरूपपुर	-9270
▁थ्रिओनीन	-9271
▁निरंतरता	-9272
▁निर्गमों	-9273
▁पिक्चर्स	-9274
▁प्रबंधित	-9275
▁प्रवाहित	-9276
▁माल्टोज़	-9277
▁लि‍पिड्स	-9278
▁विधानसभा	-9279
▁शासनादेश	-9280
▁सुसज्जित	-9281
▁सेरेब्रम	-9282
▁स्टेशनों	-9283
▁स्वयंसेव	-9284
इम्यूनोएसे	-9285
▁अंतर्नियम	-9286
▁अभियंताओं	-9287
▁इंटरैक्शन	-9288
▁एजेंसियों	-9289
▁किटोज़िज़	-9290
▁टेक्निक्स	-9291
▁टेसेरेक्ट	-9292
▁डाइहेड्रल	-9293
▁डिजाइनिंग	-9294
▁निष्कर्षण	-9295
▁पुनर्गठित	-9296
▁प्राधिकृत	-9297
▁बायोलोजिक	-9298
▁मैकेनिज्म	-9299
▁योजनाबद्ध	-9300
▁रेखाचित्र	-9301
▁विचाराधीन	-9302
▁समानुपाती	-9303
▁सिक्‍वेंस	-9304
▁हिस्टियोस	-9305
▁हिस्टीडीन	-9306
क्सीप्रोलिन	-9307
▁अंतर्निहित	-9308
▁आधुनिकीकरण	-9309
▁कीमोथैरेपी	-9310
▁कोओर्डीनेट	-9311
▁ग्लूटामाइन	-9312
▁डिग्रेडेशन	-9313
▁न्यायालयों	-9314
▁प्लेसहोल्ड	-9315
▁मजिस्ट्रेट	-9316
▁मार्गदर्शन	-9317
▁संपत्तियों	-9318
▁साल्‍वन्‍ट	-9319
▁एंटीबायोटिक	-9320
▁कॉन्ट्रैक्ट	-9321
▁क्लोरोफॉर्म	-9322
▁क्षतिपूर्ति	-9323
▁पुनर्भुगतान	-9324
▁प्रतिपूर्ति	-9325
▁महानिरीक्षक	-9326
▁मेंब्रेन्‍स	-9327
▁वैज्ञानिकों	-9328
▁हस्तांतरणीय	-9329
क्रिनोलॉजिस्ट	-9330
न्यूरोलॉजिस्ट	-9331
ेप्चुअलाइजेसन	-9332
▁ट्रांसलोकेशन	-9333
▁प्रवर्त्तकों	-9334
▁प्रोग्रामिंग	-9335
▁मेनिन्जियोमा	-9336
▁लिपोसार्कोमा	-9337
▁लिम्फोसाइटों	-9338
▁विभागाध्यक्ष	-9339
▁आरडीडीबीएफ़आई	-9340
▁एमाइलोपेक्टिन	-9341
▁एस्ट्रोसाइटिक	-9342
▁ऑप्टिमाइज़ेशन	-9343
▁न्‍यूक्लिओसोम	-9344
▁माइक्रोस्कोपी	-9345
▁साइटोस्केलेटन	-9346
▁ह्यूरिस्टिक्स	-9347
▁एपोलिपोप्रोटीन	-9348
▁स्फिंगोलिपिड्स	-9349
▁ट्रांसमेम्ब्रेन	-9350
▁पॉलीपेप्‍टाइड्स	-9351
)?	-9352
,9	-9353
36	-9354
43	-9355
68	-9356
88	-9357
MA	-9358
ge	-9359
ईओ	-9360
कस	-9361
जग	-9362
टू	-9363
तो	-9364
दन	-9365
धर	-9366
नम	-9367
फ्	-9368
भौ	-9369
मॉ	-9370
रब	-9371
रै	-9372
वह	-9373
वै	-9374
▁@	-9375
EDA	-9376
ave	-9377
ilk	-9378
ita	-9379
ंगई	-9380
ंदन	-9381
ंधन	-9382
ंबई	-9383
ंभव	-9384
ंसा	-9385
एसी	-9386
ओआर	-9387
कैट	-9388
गेट	-9389
च्‍	-9390
तरे	-9391
नाक	-9392
नोर	-9393
पार	-9394
पेर	-9395
पोर	-9396
पोल	-9397
मूड	-9398
राई	-9399
र्ध	-9400
लाभ	-9401
लीट	-9402
वंट	-9403
विद	-9404
साम	-9405
हेर	-9406
ागर	-9407
ाजक	-9408
ावि	-9409
िंच	-9410
िती	-9411
ीरो	-9412
ीसि	-9413
ुति	-9414
ुरल	-9415
ेटे	-9416
ोइक	-9417
ोगु	-9418
ोसी	-9419
्ठे	-9420
▁46	-9421
▁5,	-9422
▁52	-9423
▁54	-9424
▁57	-9425
▁58	-9426
▁AT	-9427
▁Hb	-9428
▁is	-9429
▁अय	-9430
▁उल	-9431
▁झू	-9432
▁ढक	-9433
▁तह	-9434
▁नज	-9435
▁बश	-9436
▁सृ	-9437
ingh	-9438
rade	-9439
ंचना	-9440
ऊँगा	-9441
एनसी	-9442
केआई	-9443
ग्‍ल	-9444
च्छा	-9445
जगता	-9446
जुअल	-9447
ट्रा	-9448
दाता	-9449
देशक	-9450
नेज़	-9451
न्ना	-9452
पोषण	-9453
फायर	-9454
बादी	-9455
बिना	-9456
बीएम	-9457
बीएल	-9458
भाशय	-9459
मारा	-9460
मोझी	-9461
रेखण	-9462
ल्हे	-9463
वारी	-9464
विंग	-9465
विजन	-9466
शासन	-9467
सीयत	-9468
स्ते	-9469
हैया	-9470
ान्त	-9471
ासेस	-9472
िएंट	-9473
िज्म	-9474
ित्त	-9475
िनोप	-9476
िमैब	-9477
िसिन	-9478
ेंगी	-9479
ोन्स	-9480
ोफिन	-9481
ोमाइ	-9482
्युड	-9483
▁07.	-9484
▁146	-9485
▁147	-9486
▁19.	-9487
▁22.	-9488
▁23.	-9489
▁27.	-9490
▁29.	-9491
▁30.	-9492
▁447	-9493
▁5,0	-9494
▁XII	-9495
▁pKR	-9496
▁ran	-9497
▁असर	-9498
▁आएं	-9499
▁ईएस	-9500
▁ऐंट	-9501
▁ऑयल	-9502
▁कनव	-9503
▁कीम	-9504
▁घात	-9505
▁छठा	-9506
▁जेट	-9507
▁जेन	-9508
▁टाई	-9509
▁टेन	-9510
▁डिर	-9511
▁ढूं	-9512
▁तली	-9513
▁थीन	-9514
▁दबा	-9515
▁धूप	-9516
▁नती	-9517
▁नये	-9518
▁नार	-9519
▁पाल	-9520
▁भूल	-9521
▁मैथ	-9522
▁रिथ	-9523
▁रिह	-9524
▁रूम	-9525
▁लगी	-9526
▁लिप	-9527
▁लॉक	-9528
▁वीक	-9529
▁हवा	-9530
▁हैल	-9531
-2007	-9532
ilkha	-9533
अनुसू	-9534
उपचार	-9535
खंडता	-9536
त्कार	-9537
धुनगर	-9538
नीतिक	-9539
न्नोर	-9540
पेक्ष	-9541
पैथिक	-9542
बहनों	-9543
भौमिक	-9544
राज्य	-9545
र्फिक	-9546
र्बिट	-9547
लेनिक	-9548
वलिंग	-9549
वश्यक	-9550
विशेष	-9551
षिद्ध	-9552
सेल्स	-9553
ायनों	-9554
ायलूर	-9555
ायलेट	-9556
ासंभव	-9557
ीनियम	-9558
ूर्णन	-9559
ॉर्टर	-9560
ोत्तर	-9561
ोनोमी	-9562
ोफाइब	-9563
ोमिनल	-9564
ोषजनक	-9565
्रामक	-9566
▁1500	-9567
▁1974	-9568
▁1995	-9569
▁1996	-9570
▁अर्ह	-9571
▁अवैध	-9572
▁आजकल	-9573
▁आयकर	-9574
▁इनको	-9575
▁ईंधन	-9576
▁उतने	-9577
▁उद्ध	-9578
▁उल्ट	-9579
▁एनें	-9580
▁एपिम	-9581
▁एमएस	-9582
▁करुर	-9583
▁कहें	-9584
▁किसे	-9585
▁कुंड	-9586
▁खिंच	-9587
▁खींच	-9588
▁खोजा	-9589
▁गायब	-9590
▁ग्रा	-9591
▁घोड़	-9592
▁जनसं	-9593
▁जुवे	-9594
▁डाइन	-9595
▁डेरी	-9596
▁दरार	-9597
▁दोगु	-9598
▁धमनी	-9599
▁धारण	-9600
▁फायल	-9601
▁फिशर	-9602
▁बंधा	-9603
▁बंधी	-9604
▁बचना	-9605
▁बदला	-9606
▁बदली	-9607
▁बाढ़	-9608
▁बेची	-9609
▁ब्लॉ	-9610
▁मापन	-9611
▁मिनी	-9612
▁मुआव	-9613
▁मेटल	-9614
▁रावण	-9615
▁रेंज	-9616
▁रेजी	-9617
▁रेशे	-9618
▁लंबर	-9619
▁लगती	-9620
▁लिनो	-9621
▁लीटर	-9622
▁लेखन	-9623
▁लेनी	-9624
▁लोअर	-9625
▁लौटा	-9626
▁वक्ष	-9627
▁वसाय	-9628
▁वैसी	-9629
▁शोर्	-9630
▁संसद	-9631
▁सख्त	-9632
▁सबूत	-9633
▁सम्प	-9634
▁सराह	-9635
▁सीपी	-9636
▁सुदृ	-9637
▁हेटर	-9638
इंडियन	-9639
केमिकल	-9640
क्राइब	-9641
ब्लेशन	-9642
मूर्ति	-9643
म्प्ली	-9644
रीक्षण	-9645
व्यापी	-9646
शिक्षण	-9647
सरकारी	-9648
स्टर्न	-9649
स्परिक	-9650
ाइटोमा	-9651
ायोजित	-9652
िगरेशन	-9653
ियालूर	-9654
ेंडरसन	-9655
ैक्सिक	-9656
ोमिक्स	-9657
ोहेक्स	-9658
ौगोलिक	-9659
्रेसिव	-9660
▁1,000	-9661
▁5,000	-9662
▁Singh	-9663
▁अध्या	-9664
▁अर्रे	-9665
▁अव्यव	-9666
▁अस्सी	-9667
▁आँखों	-9668
▁आबादी	-9669
▁एनोमर	-9670
▁कांटे	-9671
▁किराए	-9672
▁कीटोज	-9673
▁खरीदी	-9674
▁खरीदे	-9675
▁ग्राफ	-9676
▁चुनता	-9677
▁छिड़क	-9678
▁छोड़ा	-9679
▁जलसेक	-9680
▁ज़ीरो	-9681
▁जापान	-9682
▁जीतने	-9683
▁जुलाई	-9684
▁डेन्स	-9685
▁तहसील	-9686
▁थ्रेश	-9687
▁दसवीं	-9688
▁पत्थर	-9689
▁पिक्स	-9690
▁पीएलए	-9691
▁पेन्ट	-9692
▁पेराम	-9693
▁प्रसं	-9694
▁फसलों	-9695
▁फील्ड	-9696
▁बहाली	-9697
▁बैचों	-9698
▁बोलने	-9699
▁भेजना	-9700
▁मकड़ी	-9701
▁मानना	-9702
▁मानों	-9703
▁मारकर	-9704
▁मिलान	-9705
▁मुंबई	-9706
▁मूत्र	-9707
▁मैटीर	-9708
▁मैन्न	-9709
▁रंगीन	-9710
▁राजीव	-9711
▁रोकना	-9712
▁लिफ्ट	-9713
▁लॉजिक	-9714
▁लॉन्ग	-9715
▁वक्ता	-9716
▁वसीयत	-9717
▁विंडो	-9718
▁विधवा	-9719
▁विलेय	-9720
▁संगीत	-9721
▁सजगता	-9722
▁सतहों	-9723
▁सत्रह	-9724
▁समूही	-9725
▁सर्वर	-9726
▁स्टाफ	-9727
▁स्टील	-9728
जातियों	-9729
प्ताहिक	-9730
ेंजमेंट	-9731
▁Milkha	-9732
▁अखंडता	-9733
▁अग्रणी	-9734
▁अत्यंत	-9735
▁अनुचित	-9736
▁अभिभाव	-9737
▁अभिव्य	-9738
▁अवयवों	-9739
▁अवरोधक	-9740
▁आपदाओं	-9741
▁इन्ट्र	-9742
▁उन्हीं	-9743
▁एक्विल	-9744
▁एक्शंस	-9745
▁एट्रिब	-9746
▁एन्नोर	-9747
▁एलानिन	-9748
▁करुँगी	-9749
▁कोयम्ब	-9750
▁खरीदना	-9751
▁खुलासे	-9752
▁गिरावट	-9753
▁गॉर्टर	-9754
▁घूर्णन	-9755
▁टोपिकल	-9756
▁डिराइव	-9757
▁तोड़ने	-9758
▁नेचुरल	-9759
▁पड़ोसी	-9760
▁पाठकों	-9761
▁पीएचडी	-9762
▁पॉलीसै	-9763
▁प्‍लेट	-9764
▁बंडल्स	-9765
▁बशर्ते	-9766
▁भ्रामक	-9767
▁मशीनों	-9768
▁मिनिमम	-9769
▁मिशनरी	-9770
▁मुहैया	-9771
▁मैनुअल	-9772
▁रखेंगे	-9773
▁रेज़िन	-9774
▁रोटेशन	-9775
▁विभाजक	-9776
▁वेल्यू	-9777
▁वॉचफुल	-9778
▁संरेखण	-9779
▁समाजों	-9780
▁समृद्ध	-9781
▁सुनवाई	-9782
▁सेक्टर	-9783
▁स्केले	-9784
▁स्जारी	-9785
▁स्पर्म	-9786
▁स्विंग	-9787
▁हायलूर	-9788
▁ह्यूमन	-9789
अनुसूचित	-9790
इमेच्योर	-9791
एनएमआरआई	-9792
ीसिअन्सी	-9793
ेन्डन्सी	-9794
ोनोग्राम	-9795
▁2007-08	-9796
▁अंतरिती	-9797
▁अत्यन्त	-9798
▁अदालतों	-9799
▁इंटरनेट	-9800
▁इंसुलिन	-9801
▁इकाईयाँ	-9802
▁इक्यासी	-9803
▁इफ़ेक्ट	-9804
▁इम्प्ली	-9805
▁एमएनआरई	-9806
▁एमाइलोज	-9807
▁कनवर्टर	-9808
▁कपैसिटी	-9809
▁क्रमागत	-9810
▁क्लासेस	-9811
▁गर्भाशय	-9812
▁चुनेंगे	-9813
▁जायेंगे	-9814
▁डीग्रेड	-9815
▁थ्रोम्ब	-9816
▁दर्शाने	-9817
▁निषिद्ध	-9818
▁पत्रिका	-9819
▁प्रबलता	-9820
▁प्रयोजन	-9821
▁प्रसारण	-9822
▁प्रोप्र	-9823
▁प्लैक्स	-9824
▁फाइब्रो	-9825
▁फिक्स्ड	-9826
▁बारहवीं	-9827
▁मेटैलिक	-9828
▁यथासंभव	-9829
▁रसायनों	-9830
▁रिंग्‍स	-9831
▁वेरिएबल	-9832
▁शेड्यूल	-9833
▁सर्जिकल	-9834
▁साक्ष्य	-9835
▁सूचकांक	-9836
▁स्पिंडल	-9837
▁हेंडरसन	-9838
▁होमोलॉग	-9839
इलेक्ट्रो	-9840
निर्देशों	-9841
ोहेक्सोज़	-9842
▁1,00,000	-9843
▁अवस्थाओं	-9844
▁अविभाजित	-9845
▁उल्लेखित	-9846
▁एपेंडिमल	-9847
▁ऑक्‍सीजन	-9848
▁काइमेरिक	-9849
▁क्यूआईपी	-9850
▁क्रमबद्ध	-9851
▁ग्रुप्‍स	-9852
▁ग्लोबुलर	-9853
▁जुवेनाइल	-9854
▁टेराटोमा	-9855
▁थूथुकुडी	-9856
▁धनात्‍मक	-9857
▁धर्मपुरी	-9858
▁नवीकरणीय	-9859
▁निर्णयों	-9860
▁निर्देशन	-9861
▁निर्माता	-9862
▁निष्कासन	-9863
▁पदोन्नति	-9864
▁पुरस्कृत	-9865
▁पेरेंट्स	-9866
▁पॉलिमर्स	-9867
▁प्रयोगों	-9868
▁प्रसिद्ध	-9869
▁फार्मूला	-9870
▁फ्रैक्शन	-9871
▁मार्करों	-9872
▁मेसाइलेट	-9873
▁मैक्सिमा	-9874
▁यांत्रिक	-9875
▁याचिकाओं	-9876
▁वरिष्ठता	-9877
▁वसायुक्त	-9878
▁वेलोसिटी	-9879
▁समुदायों	-9880
▁सामान्यत	-9881
▁सिरोलिमस	-9882
▁सेल्समेन	-9883
क्रोमिसिटी	-9884
दुक्कोट्टई	-9885
परिवर्तनीय	-9886
सिस्टमेटिक	-9887
ियोटैक्सिक	-9888
▁अनियमितता	-9889
▁अभ्यावेदन	-9890
▁इंटेंसिटी	-9891
▁एवोल्यूशन	-9892
▁कन्फॉर्मल	-9893
▁क्षेत्रफल	-9894
▁ग्रैन्यूल	-9895
▁ट्रैवलिंग	-9896
▁तुलनात्मक	-9897
▁दायित्वों	-9898
▁निर्देशों	-9899
▁पुनर्व्यव	-9900
▁प्रतीक्षा	-9901
▁प्रस्तुति	-9902
▁लिनोलेनिक	-9903
▁वाष्‍पशील	-9904
▁शोर्टेस्ट	-9905
▁सलाहकारों	-9906
▁साझेदारों	-9907
▁साप्ताहिक	-9908
ग्‍लाइकन्‍स	-9909
मेटास्टेटिक	-9910
लेक्‍यूल्‍स	-9911
िसप्लास्टिक	-9912
▁एक्सचेंजों	-9913
▁एम्फीपैथिक	-9914
▁ऑब्जर्वेशन	-9915
▁टैक्सोनोमी	-9916
▁डीलिस्टिंग	-9917
▁पूर्वोत्तर	-9918
▁पेप्टाइड्स	-9919
▁महालेखाकार	-9920
▁राष्ट्रपति	-9921
▁रिपोर्टिंग	-9922
▁लाइपोसोम्स	-9923
▁ल्युकीमिया	-9924
▁सार्वभौमिक	-9925
▁स्क्रीनिंग	-9926
▁स्फिंगोसिन	-9927
ोफिनोटाइपिंग	-9928
▁इन्हिबिटर्स	-9929
▁एग्लूटिनेशन	-9930
▁एनैंशिओमर्स	-9931
▁कार्यशालाएं	-9932
▁पैथोलॉजिस्ट	-9933
▁प्रतिस्थापन	-9934
▁प्रोग्राम्स	-9935
▁प्रोग्रेसिव	-9936
▁व्युत्पत्ति	-9937
▁सुव्यवस्थित	-9938
▁स्वयंसेवकों	-9939
▁फायलोजेनेटिक	-9940
▁रिहैबिलिटेशन	-9941
▁स्‍ट्रक्‍चरल	-9942
▁अंतर्नियमावली	-9943
▁न्यायाधिकरणों	-9944
▁प्रतियोगिताओं	-9945
▁लिपोप्रोटीन्स	-9946
▁लिम्फोब्लास्ट	-9947
▁स्टेकहोल्डर्स	-9948
स्टीरियोटैक्टिक	-9949
▁ग्लाइकोप्रोटीन	-9950
▁ग्लाइकोलिपिड्स	-9951
▁विभागाध्यक्षों	-9952
▁सेरेब्रोस्पिनल	-9953
▁स्टीरियोटैक्सिक	-9954
-9	-9955
/2	-9956
64	-9957
87	-9958
CD	-9959
KI	-9960
SO	-9961
os	-9962
te	-9963
th	-9964
tp	-9965
ँस	-9966
अम	-9967
कत	-9968
घा	-9969
तृ	-9970
रद	-9971
लव	-9972
शे	-9973
सो	-9974
ुव	-9975
्प	-9976
▁Q	-9977
CLC	-9978
NRE	-9979
ree	-9980
ttp	-9981
ंका	-9982
ंडी	-9983
ंडे	-9984
ंदा	-9985
आया	-9986
इंग	-9987
काम	-9988
कीम	-9989
कोई	-9990
क्ड	-9991
ज़ु	-9992
जित	-9993
डिग	-9994
तें	-9995
दुर	-9996
द्भ	-9997
पश्	-9998
पाथ	-9999
पोज	-10000
फाई	-10001
फोन	-10002
बुप	-10003
मकी	-10004
मिट	-10005
याल	-10006
र्य	-10007
लबक	-10008
लान	-10009
वान	-10010
वोट	-10011
षित	-10012
सिप	-10013
ाइए	-10014
िओल	-10015
िगत	-10016
ुकु	-10017
ुलम	-10018
ूसन	-10019
ेकन	-10020
ेनी	-10021
ेलम	-10022
ैबस	-10023
ोनि	-10024
ोबल	-10025
ोरल	-10026
ोरो	-10027
्जु	-10028
▁(7	-10029
▁34	-10030
▁79	-10031
▁91	-10032
▁97	-10033
▁BH	-10034
▁RT	-10035
▁ch	-10036
▁tR	-10037
▁wi	-10038
▁आण	-10039
▁आह	-10040
▁इथ	-10041
▁ऑर	-10042
▁जॉ	-10043
▁तल	-10044
▁तृ	-10045
▁नल	-10046
▁पन	-10047
▁वल	-10048
▁शो	-10049
▁सन	-10050
▁सभ	-10051
▁हथ	-10052
,0,0	-10053
2007	-10054
ंगलम	-10055
अप्स	-10056
आईटी	-10057
एटिव	-10058
एमडी	-10059
एलसी	-10060
एसटी	-10061
एसपी	-10062
कर्म	-10063
कलास	-10064
कुलम	-10065
कैदी	-10066
क्‍ट	-10067
क्‍व	-10068
खाने	-10069
गल्स	-10070
चीनी	-10071
छनीय	-10072
जिसे	-10073
टीआई	-10074
ड्रग	-10075
त्या	-10076
त्रु	-10077
त्‍व	-10078
नेंट	-10079
पंजी	-10080
पर्स	-10081
पीसी	-10082
फेरे	-10083
बच्च	-10084
बर्ग	-10085
ब्रो	-10086
माइड	-10087
राइट	-10088
रुरी	-10089
र्तक	-10090
र्सी	-10091
लियम	-10092
लिये	-10093
वन्ट	-10094
वेज़	-10095
सचिव	-10096
सीमा	-10097
सुगर	-10098
हरों	-10099
ांति	-10100
ागार	-10101
ायंड	-10102
िक्क	-10103
िटीज	-10104
ितली	-10105
िप्र	-10106
ियरी	-10107
ियें	-10108
ीटरम	-10109
ीवरी	-10110
ैटिड	-10111
ैण्ड	-10112
ैतिक	-10113
ोक्स	-10114
ोफिल	-10115
्‍लड	-10116
▁05.	-10117
▁141	-10118
▁28.	-10119
▁AML	-10120
▁CSF	-10121
▁www	-10122
▁अके	-10123
▁अपश	-10124
▁अरु	-10125
▁अहम	-10126
▁आइड	-10127
▁इरा	-10128
▁कदा	-10129
▁खून	-10130
▁गोप	-10131
▁चमक	-10132
▁चिट	-10133
▁छाप	-10134
▁छेद	-10135
▁छोर	-10136
▁जाँ	-10137
▁टॉस	-10138
▁डाक	-10139
▁डिं	-10140
▁डॉट	-10141
▁ढूँ	-10142
▁धब्	-10143
▁नही	-10144
▁नोब	-10145
▁पका	-10146
▁पटर	-10147
▁पीठ	-10148
▁बजा	-10149
▁बां	-10150
▁बुल	-10151
▁बोझ	-10152
▁भरो	-10153
▁मिम	-10154
▁मिस	-10155
▁मुक	-10156
▁रैय	-10157
▁रॉय	-10158
▁लंप	-10159
▁लाए	-10160
▁लेप	-10161
▁वां	-10162
▁वैय	-10163
▁वॉल	-10164
▁शुभ	-10165
▁सन्	-10166
▁सिन	-10167
▁सैट	-10168
-2008	-10169
आयामी	-10170
एमएआर	-10171
क्टेट	-10172
क्तिक	-10173
क्रोज	-10174
गापुर	-10175
टीओआर	-10176
तालों	-10177
तीकरण	-10178
द्धार	-10179
द्भुत	-10180
नेडिक	-10181
नेशनल	-10182
बच्चे	-10183
बालूर	-10184
ब्बीस	-10185
मेडुल	-10186
श्वेत	-10187
सेलबक	-10188
सोर्स	-10189
स्पति	-10190
ाइनेट	-10191
िचेरी	-10192
िडिटी	-10193
ोंगीट	-10194
ोवियल	-10195
्यूबर	-10196
्रेरी	-10197
्वाधर	-10198
▁2004	-10199
▁Sita	-10200
▁gave	-10201
▁अवगत	-10202
▁अस्व	-10203
▁आपात	-10204
▁आयरन	-10205
▁आयाम	-10206
▁उनसे	-10207
▁ऊर्ध	-10208
▁एसीट	-10209
▁ओलिक	-10210
▁कट्ट	-10211
▁कड़े	-10212
▁कराई	-10213
▁कर्ज	-10214
▁कुकर	-10215
▁कॉइल	-10216
▁कोरम	-10217
▁खतरे	-10218
▁गैसी	-10219
▁घड़ी	-10220
▁घातक	-10221
▁चमकी	-10222
▁चौथी	-10223
▁डाटा	-10224
▁डैबस	-10225
▁ढीली	-10226
▁नींव	-10227
▁न्यु	-10228
▁पड़ा	-10229
▁पतला	-10230
▁पतले	-10231
▁पाता	-10232
▁पाये	-10233
▁पिघल	-10234
▁पिता	-10235
▁पीने	-10236
▁पीला	-10237
▁पेरी	-10238
▁पौधे	-10239
▁फोटो	-10240
▁फ्यू	-10241
▁बुरे	-10242
▁बॉयल	-10243
▁बोहर	-10244
▁ब्रा	-10245
▁ब्लू	-10246
▁माइट	-10247
▁मिल्	-10248
▁मृतक	-10249
▁यूजी	-10250
▁यूवी	-10251
▁योनि	-10252
▁रोज़	-10253
▁लंदन	-10254
▁वर्क	-10255
▁विजन	-10256
▁वेंट	-10257
▁साथी	-10258
▁सिंह	-10259
▁सीने	-10260
▁सेमी	-10261
▁सेवन	-10262
▁सैंड	-10263
आईएसएच	-10264
इंटेंस	-10265
क्टोरल	-10266
टेनेंस	-10267
टोपिकल	-10268
न्टिंग	-10269
फॉर्मर	-10270
बुप्रो	-10271
रीसाइट	-10272
लिम्फो	-10273
ल्फाइड	-10274
सीबीसी	-10275
स्टेंस	-10276
स्परोव	-10277
ाइजिंग	-10278
ाइलॉइड	-10279
िनिर्ण	-10280
ुग्मित	-10281
ेक्सेस	-10282
ैक्सिस	-10283
ोटिनिब	-10284
्जुवंट	-10285
्यूटेर	-10286
्रोसिस	-10287
▁2010,	-10288
▁8,0,0	-10289
▁match	-10290
▁अंजाम	-10291
▁अंतरण	-10292
▁अक्षर	-10293
▁अन्‍य	-10294
▁आंतों	-10295
▁आएंगे	-10296
▁आपमें	-10297
▁आरएनए	-10298
▁आरओबी	-10299
▁इनहेर	-10300
▁उल्टा	-10301
▁एंडोथ	-10302
▁एननोर	-10303
▁एमिनो	-10304
▁एहसास	-10305
▁ओसीआर	-10306
▁काइरल	-10307
▁केल्स	-10308
▁कैपेस	-10309
▁क्षमा	-10310
▁घुलने	-10311
▁चलाया	-10312
▁चलेगा	-10313
▁चिन्‍	-10314
▁जरुरी	-10315
▁डर्मा	-10316
▁डाइमर	-10317
▁डिस्क	-10318
▁डीटरम	-10319
▁तितली	-10320
▁तृतीय	-10321
▁दूँगा	-10322
▁देखकर	-10323
▁द्विप	-10324
▁नक्शा	-10325
▁निचला	-10326
▁निलंब	-10327
▁पेल्व	-10328
▁पेशाब	-10329
▁पैकेट	-10330
▁प्रथा	-10331
▁फैसले	-10332
▁फ्रेम	-10333
▁बायीं	-10334
▁बुलाई	-10335
▁बेसिक	-10336
▁बेसिन	-10337
▁ब्रेड	-10338
▁ब्‍लड	-10339
▁मात्र	-10340
▁मायने	-10341
▁मायलो	-10342
▁माहिर	-10343
▁रैखिक	-10344
▁लचीला	-10345
▁लचीली	-10346
▁लिंकर	-10347
▁लेक्स	-10348
▁शत्रु	-10349
▁संकलन	-10350
▁सत्तर	-10351
▁साइनस	-10352
▁सिंपल	-10353
▁सुंदर	-10354
▁सेलेन	-10355
▁सैनिक	-10356
▁सॉलिड	-10357
▁सोचना	-10358
▁स्टिक	-10359
▁हार्ट	-10360
▁होमोज	-10361
क्‍वेंस	-10362
प्रेसिव	-10363
प्लाज्म	-10364
सामाजिक	-10365
सारकोमा	-10366
िनेटिंग	-10367
ेनोटाइप	-10368
ैक्शन्स	-10369
्युडिनल	-10370
▁अद्भुत	-10371
▁अवसरों	-10372
▁असंख्य	-10373
▁आवर्तक	-10374
▁आवश्‍य	-10375
▁इथेनॉल	-10376
▁एएसबीए	-10377
▁एस्टेट	-10378
▁ऐलोस्ट	-10379
▁कदाचार	-10380
▁कनिष्ठ	-10381
▁कमियों	-10382
▁कहलाते	-10383
▁किराया	-10384
▁कीमतों	-10385
▁कोडिंग	-10386
▁खरीदार	-10387
▁गोपनीय	-10388
▁ग्लियो	-10389
▁घोटाले	-10390
▁चुकाने	-10391
▁जाएँगे	-10392
▁जायेगी	-10393
▁जुड़ती	-10394
▁जेट्टी	-10395
▁टीकेआई	-10396
▁डीएफएस	-10397
▁तमिलों	-10398
▁तिरुवर	-10399
▁दंडनीय	-10400
▁दिखायी	-10401
▁दिवसीय	-10402
▁धाराओं	-10403
▁नामकरण	-10404
▁निकलता	-10405
▁निर्या	-10406
▁परिसंप	-10407
▁पुराना	-10408
▁पॉइन्ट	-10409
▁पोर्टल	-10410
▁प्लाईज	-10411
▁फार्मा	-10412
▁फीचर्स	-10413
▁बताएगा	-10414
▁बनाएगा	-10415
▁बांड्स	-10416
▁बांधने	-10417
▁भौतिकी	-10418
▁भ्रमित	-10419
▁मजदूरी	-10420
▁मामूली	-10421
▁मॉडलों	-10422
▁रंगहीन	-10423
▁रिजर्व	-10424
▁रेडियल	-10425
▁रोटर्स	-10426
▁लोंगीट	-10427
▁वाहिका	-10428
▁संरचित	-10429
▁साक्षा	-10430
▁सुदृढ़	-10431
▁सुपरको	-10432
▁सेवाएँ	-10433
▁स्पाइन	-10434
▁हालिया	-10435
▁हेपेटे	-10436
▁हेरफेर	-10437
अंग्रेजी	-10438
असामान्य	-10439
केंद्रीय	-10440
प्रतिदिन	-10441
र्सेक्शन	-10442
हाइड्रिन	-10443
ाइब्रेरी	-10444
ैज्ञानिक	-10445
्यूक्लीन	-10446
▁अपशिष्ट	-10447
▁अफिनिटी	-10448
▁आर्टरीज	-10449
▁इंट्राव	-10450
▁इस्तीफे	-10451
▁एक्सप्ल	-10452
▁एनोमर्स	-10453
▁एसएमएआर	-10454
▁ऑक्साइड	-10455
▁चक्रवात	-10456
▁चाहियें	-10457
▁चाहूँगा	-10458
▁चाहूँगी	-10459
▁छिड़काव	-10460
▁डालेंगे	-10461
▁डिलीवरी	-10462
▁डिसीजेस	-10463
▁निपटारा	-10464
▁निशुल्क	-10465
▁नैतिकता	-10466
▁पहचानता	-10467
▁पिक्सेल	-10468
▁प्लेट्स	-10469
▁फ़िल्टर	-10470
▁फायब्रो	-10471
▁फार्मास	-10472
▁फ्रायंड	-10473
▁बताएंगे	-10474
▁बुलेटिन	-10475
▁बेनेडिक	-10476
▁ब्लॉकों	-10477
▁भौगोलिक	-10478
▁मिश्रित	-10479
▁रिज़र्व	-10480
▁लचीलेपन	-10481
▁वाटरशेड	-10482
▁वाष्पित	-10483
▁विभागीय	-10484
▁शिवगंगई	-10485
▁समझौतों	-10486
▁समाप्ति	-10487
▁सरकारों	-10488
▁सलूशन्स	-10489
▁सहायकों	-10490
▁सिंथेज़	-10491
▁सैंडविच	-10492
▁हैसेलबक	-10493
पोजिफॉर्म	-10494
फोलिपिड्स	-10495
बुप्रोफेन	-10496
रीसाइटोमा	-10497
स्ट्रक्चर	-10498
ियोफेरिंग	-10499
ियोसाइनेट	-10500
▁अंशपूंजी	-10501
▁अड्जुवंट	-10502
▁अधिनिर्ण	-10503
▁अनुकूलता	-10504
▁अभिलेखों	-10505
▁अमाइलॉइड	-10506
▁आउटपुट्स	-10507
▁इंजेक्शन	-10508
▁इम्युनोड	-10509
▁उत्तीर्ण	-10510
▁एक्जामिन	-10511
▁एप्सिलोन	-10512
▁एसेंशियल	-10513
▁कांटेदार	-10514
▁कार्यभार	-10515
▁कास्परोव	-10516
▁ग्रूव्‍स	-10517
▁टेलीविजन	-10518
▁ट्रेडिंग	-10519
▁डिफ्यूजन	-10520
▁तस्वीरें	-10521
▁पहुँचाने	-10522
▁पूर्णांक	-10523
▁प्रकार्य	-10524
▁बंदोबस्त	-10525
▁मापदंडों	-10526
▁मिस्कलास	-10527
▁लिगैंड्स	-10528
▁विस्तारण	-10529
▁वैयक्तिक	-10530
▁सत्यापित	-10531
▁साइटोसिन	-10532
▁साल्वेंट	-10533
▁सिंगापुर	-10534
▁सिस्‍टीन	-10535
▁सेक्टोरल	-10536
▁होमोपॉली	-10537
ट्रासेलुलर	-10538
ियोसारकोमा	-10539
▁2007-2008	-10540
▁अनुपचारित	-10541
▁अब्डोमिनल	-10542
▁अस्पतालों	-10543
▁आपातकालीन	-10544
▁इन्ट्रूसन	-10545
▁उपाध्यक्ष	-10546
▁ऊर्ध्वाधर	-10547
▁एक्टिविटी	-10548
▁कंप्यूटेर	-10549
▁केल्साइंड	-10550
▁कोयम्बटूर	-10551
▁ग्लियोमास	-10552
▁ग्लूकोनिक	-10553
▁घुलनशीलता	-10554
▁झिल्लियों	-10555
▁डुप्लेक्स	-10556
▁त्रुटियों	-10557
▁पायोजेनिक	-10558
▁पारस्परिक	-10559
▁पुनरीक्षण	-10560
▁प्रतियोगी	-10561
▁फ्रन्टिंग	-10562
▁बीमारियाँ	-10563
▁मेंटेनेंस	-10564
▁रिपोर्टों	-10565
▁रिश्तेदार	-10566
▁विरुधुनगर	-10567
▁सीक्‍वेंस	-10568
▁सोनोग्राम	-10569
▁अंतरणकर्ता	-10570
▁अनुच्छेदों	-10571
▁अल्जाइमर्स	-10572
▁एंडोस्कोपी	-10573
▁एल्गोरिथ्म	-10574
▁कृष्णागिरी	-10575
▁ग्रैनुलोमा	-10576
▁ट्रांसमिशन	-10577
▁डीटरमिनेशन	-10578
▁पेरामबालूर	-10579
▁प्रभावशाली	-10580
▁प्रसंस्करण	-10581
▁फाइब्रोसिस	-10582
▁मॉलेक्‍यूल	-10583
▁हेपेटाइटिस	-10584
ोएस्ट्रोसाइट	-10585
▁अभ्यर्थियों	-10586
▁इंटरैक्‍शंस	-10587
▁इलेक्‍ट्रॉन	-10588
▁एनेंशिओमर्स	-10589
▁क्रियान्वित	-10590
▁डिपेन्डन्सी	-10591
▁दस्तावेज़ों	-10592
▁न्यायपालिका	-10593
▁प्रतिबद्धता	-10594
▁प्रयोगात्मक	-10595
▁प्लेसहोल्डर	-10596
▁बेनेडिक्ट्स	-10597
▁रिफ्रैक्टरी	-10598
▁विशेषाधिकार	-10599
▁साक्षात्कार	-10600
▁सामान्यीकरण	-10601
▁स्केलेरोसिस	-10602
्यूक्लियोटाइड	-10603
▁इंटरैैक्शन्स	-10604
▁इन्टर्सेक्शन	-10605
▁एंजियोफिब्रो	-10606
▁ट्रांसफॉर्मर	-10607
▁ट्राइऑक्साइड	-10608
▁पुदुक्कोट्टई	-10609
▁पेप्टाइडोग्ल	-10610
▁मीडियास्टिनल	-10611
▁राष्ट्रीयकरण	-10612
▁राष्ट्रीयकृत	-10613
▁शेयरहोल्डरों	-10614
▁शेयरहोल्डिंग	-10615
▁साइकोलोजिस्ट	-10616
▁साइटोजेनेटिक	-10617
▁साइन्यूक्लीन	-10618
▁इम्यूनोलॉजिकल	-10619
▁एम्बोलाइज़ेशन	-10620
▁पाठ्यपुस्तकें	-10621
▁प्रोफिलैक्सिस	-10622
▁लेखापरीक्षकों	-10623
▁लोंगीट्युडिनल	-10624
ोएस्ट्रोसाइटोमा	-10625
▁कंप्यूटेराइज्ड	-10626
▁ट्रांसपोर्टर्स	-10627
▁फाइब्रोमैटोसिस	-10628
▁उत्तराधिकारियों	-10629
▁ओलिगोडेंड्रोग्ल	-10630
▁गैंग्लियोसाइड्स	-10631
▁मिस्कलासिफिकेशन	-10632
--	-10633
-6	-10634
//	-10635
24	-10636
26	-10637
27	-10638
28	-10639
52	-10640
71	-10641
73	-10642
74	-10643
96	-10644
RC	-10645
as	-10646
ir	-10647
उद	-10648
एज	-10649
ऑफ	-10650
खे	-10651
नए	-10652
बच	-10653
भू	-10654
शी	-10655
सब	-10656
ॉर	-10657
⁄2	-10658
▁%	-10659
▁U	-10660
▁y	-10661
-06	-10662
://	-10663
HIV	-10664
PIO	-10665
TRA	-10666
ear	-10667
ent	-10668
ins	-10669
www	-10670
अभी	-10671
आइस	-10672
ईसी	-10673
उत्	-10674
किआ	-10675
केप	-10676
चलम	-10677
जतन	-10678
जनन	-10679
ज़ी	-10680
जाब	-10681
डिफ	-10682
डेट	-10683
तरी	-10684
थाई	-10685
देय	-10686
धीय	-10687
नॉल	-10688
पाठ	-10689
बदल	-10690
बाज	-10691
बीओ	-10692
माइ	-10693
मार	-10694
मोट	-10695
म्भ	-10696
म्म	-10697
लेर	-10698
वाय	-10699
विथ	-10700
वॉल	-10701
संच	-10702
स्ल	-10703
ाईट	-10704
ाणु	-10705
ाशय	-10706
िकी	-10707
िटन	-10708
ियत	-10709
ुजु	-10710
ेंथ	-10711
ैंप	-10712
ैटस	-10713
ैलप	-10714
ोकै	-10715
ोटल	-10716
ोडल	-10717
ोधक	-10718
ोमन	-10719
ोमल	-10720
ोमे	-10721
ोलो	-10722
्टई	-10723
्‍ड	-10724
▁((	-10725
▁09	-10726
▁1%	-10727
▁2%	-10728
▁4,	-10729
▁63	-10730
▁68	-10731
▁7-	-10732
▁78	-10733
▁93	-10734
▁KA	-10735
▁re	-10736
▁ऊब	-10737
▁औष	-10738
▁कू	-10739
▁गॉ	-10740
▁चि	-10741
▁छु	-10742
▁थु	-10743
▁पल	-10744
▁फल	-10745
▁बर	-10746
▁वर	-10747
▁हट	-10748
,5,3	-10749
....	-10750
ंचित	-10751
आईएन	-10752
इंफो	-10753
एनएन	-10754
एफपी	-10755
एसआई	-10756
कथित	-10757
कर्र	-10758
काशन	-10759
कॉम्	-10760
कोसा	-10761
क्कल	-10762
क्चु	-10763
क्षी	-10764
चाहे	-10765
च्‍च	-10766
ज़बल	-10767
जागर	-10768
टेनर	-10769
डक्ट	-10770
तजार	-10771
तिरु	-10772
तुओं	-10773
त्तर	-10774
दीकी	-10775
नियम	-10776
पटॉप	-10777
पूरक	-10778
प्शन	-10779
फ़्त	-10780
फॉस्	-10781
फ्री	-10782
बानी	-10783
मांड	-10784
मीटर	-10785
मीबा	-10786
यूबी	-10787
रीज़	-10788
रेंट	-10789
रेन्	-10790
रैबड	-10791
रोधक	-10792
र्वर	-10793
लीवर	-10794
लेगा	-10795
सफेद	-10796
ांतर	-10797
ाइके	-10798
ाईलन	-10799
ागली	-10800
ायटी	-10801
ालूर	-10802
ासिक	-10803
िप्ल	-10804
िब्स	-10805
ीटिड	-10806
ीन्स	-10807
ुकों	-10808
ुद्ध	-10809
ुलित	-10810
ेयूर	-10811
ैयूर	-10812
ॉफ्ट	-10813
ोक्त	-10814
ोगैस	-10815
ोजिट	-10816
ोडाय	-10817
्त्व	-10818
्युर	-10819
्राह	-10820
्वेज	-10821
▁(1)	-10822
▁06.	-10823
▁1,3	-10824
▁135	-10825
▁145	-10826
▁17.	-10827
▁185	-10828
▁21.	-10829
▁26.	-10830
▁330	-10831
▁अटक	-10832
▁अनौ	-10833
▁आधा	-10834
▁आलो	-10835
▁इको	-10836
▁इफे	-10837
▁एजी	-10838
▁एलए	-10839
▁ऑटो	-10840
▁कृत	-10841
▁खान	-10842
▁गुआ	-10843
▁गुड	-10844
▁घेर	-10845
▁चें	-10846
▁छठे	-10847
▁टाइ	-10848
▁टाओ	-10849
▁टाय	-10850
▁टैक	-10851
▁डील	-10852
▁डॉन	-10853
▁डोप	-10854
▁ढके	-10855
▁थोक	-10856
▁नमक	-10857
▁नयी	-10858
▁नेक	-10859
▁पचा	-10860
▁पदक	-10861
▁पाइ	-10862
▁पिल	-10863
▁पूल	-10864
▁पेज	-10865
▁बहस	-10866
▁माई	-10867
▁रित	-10868
▁रेत	-10869
▁रैश	-10870
▁लीज	-10871
▁लेव	-10872
▁लैब	-10873
▁वाट	-10874
▁संख	-10875
▁सकल	-10876
▁सब्	-10877
▁सैक	-10878
▁सैन	-10879
▁हेट	-10880
आइसोथ	-10881
ऊर्जा	-10882
कंपनी	-10883
कराइड	-10884
कोर्ट	-10885
क्रेन	-10886
क्लोर	-10887
गनेंट	-10888
गवर्न	-10889
गारों	-10890
ज़िंग	-10891
टिनिब	-10892
डक्शन	-10893
डरेंस	-10894
डलिंग	-10895
डिगुल	-10896
त्वचा	-10897
थुराई	-10898
दर्शी	-10899
दाबाद	-10900
पुनर्	-10901
पूल्स	-10902
पेस्ट	-10903
प्टिक	-10904
फोल्ड	-10905
बुखार	-10906
भाग्य	-10907
मानों	-10908
मान्य	-10909
मुश्त	-10910
र्करा	-10911
वर्जन	-10912
वायरस	-10913
विष्ट	-10914
शियली	-10915
श्यों	-10916
श्रित	-10917
स्तान	-10918
ाइज़र	-10919
ाइपास	-10920
ानुगत	-10921
ायत्त	-10922
ारिटी	-10923
िज्‍म	-10924
िनॉइड	-10925
िप्टी	-10926
िमेंट	-10927
ियानी	-10928
िलिपि	-10929
ेंसिट	-10930
ेक्षा	-10931
ेशियन	-10932
ैंड्स	-10933
ोरियम	-10934
ोल्यू	-10935
ोसोमल	-10936
्‍हें	-10937
▁.03.	-10938
▁1966	-10939
▁1985	-10940
▁1986	-10941
▁1993	-10942
▁http	-10943
▁अंडे	-10944
▁अदला	-10945
▁अभाव	-10946
▁अल्स	-10947
▁आईटी	-10948
▁आत्म	-10949
▁आयतन	-10950
▁ईमान	-10951
▁ईमेल	-10952
▁ऊष्‍	-10953
▁ऑन्ट	-10954
▁कन्न	-10955
▁किलर	-10956
▁केरल	-10957
▁कैसा	-10958
▁क्री	-10959
▁गलती	-10960
▁गोली	-10961
▁चिपक	-10962
▁जीता	-10963
▁टफ्ट	-10964
▁टेंड	-10965
▁टेंस	-10966
▁ढलान	-10967
▁ढूँढ	-10968
▁तरफा	-10969
▁तेरह	-10970
▁दादा	-10971
▁दिला	-10972
▁नसों	-10973
▁नौका	-10974
▁न्‍य	-10975
▁पंचर	-10976
▁पक्क	-10977
▁पोषक	-10978
▁फ्रु	-10979
▁भलाई	-10980
▁भीड़	-10981
▁भेजे	-10982
▁मुड़	-10983
▁मोटे	-10984
▁यहीं	-10985
▁रानी	-10986
▁रिअर	-10987
▁रिस्	-10988
▁लाइक	-10989
▁लिगे	-10990
▁लैंग	-10991
▁लैंप	-10992
▁वंशज	-10993
▁वेसल	-10994
▁शब्‍	-10995
▁संकट	-10996
▁सिन्	-10997
▁सिया	-10998
▁सीएम	-10999
▁सूखा	-11000
▁सोचा	-11001
▁सौदा	-11002
▁हाथी	-11003
उदाहरण	-11004
कानूनी	-11005
क्कुरल	-11006
क्लियर	-11007
क्लेचर	-11008
जरवेशन	-11009
डिंगटन	-11010
बच्चों	-11011
रेट्रो	-11012
विकसित	-11013
स्‍केप	-11014
ानिज्म	-11015
ायजेशन	-11016
िक्शनल	-11017
िक्षेप	-11018
िप्राय	-11019
ीयरेंस	-11020
ुकुड़ी	-11021
ेशनशिप	-11022
ेस्टनल	-11023
्ज़ॉर्	-11024
्यूलोज	-11025
▁0,5,3	-11026
▁2006,	-11027
▁5,0,3	-11028
▁Grade	-11029
▁अंकों	-11030
▁अकेली	-11031
▁अक्षम	-11032
▁अन्दर	-11033
▁अपकरण	-11034
▁अमीबा	-11035
▁आर्गे	-11036
▁इंग्ल	-11037
▁इक्वी	-11038
▁एपीआई	-11039
▁एसेंट	-11040
▁एस्पी	-11041
▁ऑडियो	-11042
▁कच्चे	-11043
▁कब्जा	-11044
▁किनसे	-11045
▁कुमार	-11046
▁कैटाल	-11047
▁कैटेल	-11048
▁कॉम्प	-11049
▁कॉरिड	-11050
▁कॉर्ट	-11051
▁क्षार	-11052
▁गिनती	-11053
▁चलाते	-11054
▁चेहरे	-11055
▁जगहों	-11056
▁ज़वाब	-11057
▁जाँचा	-11058
▁जायें	-11059
▁जितने	-11060
▁जिनको	-11061
▁टाईटर	-11062
▁टेंशन	-11063
▁ट्रेन	-11064
▁डाइसै	-11065
▁डालें	-11066
▁तरलता	-11067
▁दसवें	-11068
▁दिक्क	-11069
▁नवंबर	-11070
▁निशान	-11071
▁पकाने	-11072
▁पड़ते	-11073
▁पढ़ाई	-11074
▁पत्नी	-11075
▁पुनरु	-11076
▁पॉलीस	-11077
▁पोंगल	-11078
▁फिल्ट	-11079
▁फ्लैट	-11080
▁बढ़ाई	-11081
▁बेकार	-11082
▁बॉयलर	-11083
▁भरोसा	-11084
▁भीतरी	-11085
▁मध्या	-11086
▁महारा	-11087
▁मिक्स	-11088
▁मेंटल	-11089
▁मोटाई	-11090
▁मोलिक	-11091
▁रेप्ल	-11092
▁लगेगा	-11093
▁वंचित	-11094
▁वृत्त	-11095
▁व्हेल	-11096
▁शाखित	-11097
▁शासित	-11098
▁शिफ्ट	-11099
▁शीटें	-11100
▁संचयी	-11101
▁समरूप	-11102
▁सर्जन	-11103
▁सर्वि	-11104
▁साइंस	-11105
▁सिग्न	-11106
▁सिरों	-11107
▁सीएफओ	-11108
▁सीखता	-11109
▁सीरिज	-11110
▁सुचार	-11111
▁सेटअप	-11112
▁स्टीम	-11113
▁स्नात	-11114
▁स्राव	-11115
▁हार्ड	-11116
▁हिंदी	-11117
▁हेप्ट	-11118
क्रोमिक	-11119
नेगेटिव	-11120
न्नमलाई	-11121
प्रकाशन	-11122
लाभकारी	-11123
िडोमाइड	-11124
▁20,000	-11125
▁अंडाशय	-11126
▁अकाउंट	-11127
▁असिस्ट	-11128
▁आंकड़े	-11129
▁आईएनसी	-11130
▁आईबीसी	-11131
▁आयोनाइ	-11132
▁इंतजार	-11133
▁इसलिये	-11134
▁उत्प्र	-11135
▁एंग्लो	-11136
▁एक्सॉन	-11137
▁एडेनिन	-11138
▁एसिटाम	-11139
▁ऑपरेटर	-11140
▁ऑपरेशन	-11141
▁कंटेनर	-11142
▁करूंगी	-11143
▁कागजात	-11144
▁किन्तु	-11145
▁कीमतें	-11146
▁कुर्सी	-11147
▁खिंचाव	-11148
▁गंतव्य	-11149
▁गाइडेड	-11150
▁ग्‍लाइ	-11151
▁घनत्‍व	-11152
▁छब्बीस	-11153
▁छवियाँ	-11154
▁जानकार	-11155
▁जुड़ना	-11156
▁जुड़ाव	-11157
▁टर्शरी	-11158
▁टेलिंग	-11159
▁डिजिटल	-11160
▁डिप्टी	-11161
▁डिलीशन	-11162
▁तृतीयक	-11163
▁दूरस्थ	-11164
▁नतीजतन	-11165
▁निकलती	-11166
▁निभाती	-11167
▁निरोधक	-11168
▁नॉर्मल	-11169
▁पंक्चर	-11170
▁पत्रों	-11171
▁परेशान	-11172
▁पश्चात	-11173
▁पहचाने	-11174
▁पूर्वा	-11175
▁पूर्वी	-11176
▁प्रजनन	-11177
▁प्रभार	-11178
▁प्रोसे	-11179
▁फीडबैक	-11180
▁फुटपाथ	-11181
▁बांधता	-11182
▁बांधते	-11183
▁बाइपास	-11184
▁बायपास	-11185
▁बालिका	-11186
▁बीएफएस	-11187
▁बेंजीन	-11188
▁भिन्‍न	-11189
▁महानगर	-11190
▁मिल्खा	-11191
▁यात्री	-11192
▁यूरिया	-11193
▁राइबोन	-11194
▁रुकावट	-11195
▁रेकर्र	-11196
▁रेक्टम	-11197
▁रेग्यू	-11198
▁लम्बाई	-11199
▁लिंक्ड	-11200
▁लिखतों	-11201
▁लैपटॉप	-11202
▁ल्यूको	-11203
▁वंशागत	-11204
▁विक्रे	-11205
▁विस्फो	-11206
▁शर्करा	-11207
▁सकेंगे	-11208
▁समझाने	-11209
▁सर्टेन	-11210
▁साइटोस	-11211
▁सिग्मा	-11212
▁सीएलएल	-11213
▁सीमाएं	-11214
▁स्कैलप	-11215
▁स्क्ले	-11216
▁स्टेनो	-11217
▁स्टैंड	-11218
▁स्वच्छ	-11219
▁हीलियम	-11220
▁हैलोजन	-11221
गवर्नेंस	-11222
टाइपिस्ट	-11223
्यूबरियस	-11224
▁अंदरूनी	-11225
▁अभिभावक	-11226
▁अविडिटी	-11227
▁अस्पताल	-11228
▁आखिरकार	-11229
▁इकाईयों	-11230
▁इन्सर्ट	-11231
▁इफेक्‍ट	-11232
▁इस्तीफा	-11233
▁एकमुश्त	-11234
▁एक्सिशन	-11235
▁एपिमर्स	-11236
▁एब्लेशन	-11237
▁एसएफआईओ	-11238
▁कंक्रीट	-11239
▁कम्पलीट	-11240
▁कार्टून	-11241
▁कैंसर्स	-11242
▁क्लिनिक	-11243
▁गड़बड़ी	-11244
▁ग्राउंड	-11245
▁जनशक्ति	-11246
▁टेलीफोन	-11247
▁टैंगल्स	-11248
▁ट्रान्स	-11249
▁ट्रेकिआ	-11250
▁तकनीकें	-11251
▁दीवारों	-11252
▁निक्षेप	-11253
▁निर्यात	-11254
▁पक्कर्ड	-11255
▁पटरियों	-11256
▁परिणामी	-11257
▁पहुंचता	-11258
▁पांचवां	-11259
▁पेन्टोज	-11260
▁पेल्विस	-11261
▁पैपूल्स	-11262
▁प्रभारी	-11263
▁प्लेक्स	-11264
▁फोटोडाय	-11265
▁बाइलेयर	-11266
▁बायोगैस	-11267
▁बोलियों	-11268
▁ब्रेड्थ	-11269
▁भावनाओं	-11270
▁भूमिहीन	-11271
▁मल्टीफो	-11272
▁महत्त्व	-11273
▁महिलाएं	-11274
▁योजनाएँ	-11275
▁रिकरेंट	-11276
▁रिडक्शन	-11277
▁रिडोक्स	-11278
▁रेडिक्स	-11279
▁रेलवन्ट	-11280
▁लैक्टोज	-11281
▁वस्तुएं	-11282
▁विद्वान	-11283
▁वेसेल्स	-11284
▁संख्‍या	-11285
▁संयोजित	-11286
▁संसाधित	-11287
▁सन्दर्भ	-11288
▁सापेक्ष	-11289
▁सियालिक	-11290
▁सुक्रोज	-11291
▁सूचनाओं	-11292
▁सेलेनोस	-11293
▁सोसायटी	-11294
एक्स्ट्रा	-11295
ेनेक्टॉमी	-11296
्रावायलेट	-11297
▁अग्रेषित	-11298
▁अधिग्राह	-11299
▁अनावश्यक	-11300
▁अब्ज़ॉर्	-11301
▁अभिकर्ता	-11302
▁अभिप्राय	-11303
▁एंजियोमा	-11304
▁एप्साईलन	-11305
▁कम्प्यूट	-11306
▁कार्यवाह	-11307
▁कैपेसिटी	-11308
▁कोरिलेशन	-11309
▁गैसीफायर	-11310
▁चेकपॉइंट	-11311
▁जिन्‍हें	-11312
▁टर्शियरी	-11313
▁टारगेटिड	-11314
▁डायवर्जन	-11315
▁तर्कसंगत	-11316
▁दिलचस्पी	-11317
▁निकलेंगे	-11318
▁निर्भरता	-11319
▁पंचायतों	-11320
▁पुस्तिका	-11321
▁पेडिएट्र	-11322
▁पैकेजिंग	-11323
▁पैथोलॉजी	-11324
▁प्रतिभाग	-11325
▁प्रतिरूप	-11326
▁प्रयासों	-11327
▁प्रोफाइल	-11328
▁प्लॉज़बल	-11329
▁फाउंडेशन	-11330
▁फिनाइलएल	-11331
▁भूमिकाएं	-11332
▁मानचित्र	-11333
▁मुख्यालय	-11334
▁राजनीतिक	-11335
▁राज्यपाल	-11336
▁लाइपोसोम	-11337
▁लाभार्थी	-11338
▁वाडिंगटन	-11339
▁विजेताओं	-11340
▁शीर्षकों	-11341
▁शुक्राणु	-11342
▁संतोषजनक	-11343
▁संशोधनों	-11344
▁सक्रियता	-11345
▁सहक्रिया	-11346
▁सिग्नल्स	-11347
▁स्वायत्त	-11348
▁स्‍पष्‍ट	-11349
▁हिंडरेंस	-11350
▁हेक्सोज़	-11351
इन्टेस्टनल	-11352
कॉम्बिनेशन	-11353
कॉम्बीनेशन	-11354
चाइल्ड्हुड	-11355
ेंसिटाइज़र	-11356
ोवैज्ञानिक	-11357
▁2006-2007	-11358
▁अनौपचारिक	-11359
▁अवधारणाओं	-11360
▁अवस्‍थाओं	-11361
▁इंटरनेशनल	-11362
▁इनहेरिटेड	-11363
▁उधारकर्ता	-11364
▁एग्रीगेशन	-11365
▁एफिशिएंसी	-11366
▁एसोसिएटेड	-11367
▁एस्पीरेशन	-11368
▁कैटेलिटिक	-11369
▁क्लीयरेंस	-11370
▁गैरकानूनी	-11371
▁ग्लोब्युल	-11372
▁ठेकेदारों	-11373
▁डिराइव्‍ड	-11374
▁न्यूक्लिए	-11375
▁न्यूरोसाइ	-11376
▁पार्शियली	-11377
▁प्रतिलिपि	-11378
▁प्रयोजनों	-11379
▁फ्रिक्शनल	-11380
▁फ्रुक्टोज	-11381
▁बुद्धिमान	-11382
▁ब्लास्टिक	-11383
▁महानिदेशक	-11384
▁मेटास्टेस	-11385
▁रणनीतियाँ	-11386
▁रिलेशनशिप	-11387
▁लाइब्रेरी	-11388
▁विद्युतीय	-11389
▁विशिष्टता	-11390
▁संयुग्मित	-11391
▁सब्स्टेंस	-11392
▁सिग्नलिंग	-11393
▁अपेक्षाकृत	-11394
▁इंटीग्रिटी	-11395
▁एंगस्ट्रॉम	-11396
▁एक्सपर्ट्स	-11397
▁एसिटाइलग्ल	-11398
▁एस्ट्रागली	-11399
▁करोड़रुपये	-11400
▁कार्टेशियन	-11401
▁कोम्बिनेशन	-11402
▁जेनेटिक्‍स	-11403
▁डिस्क्राइब	-11404
▁डीग्रेडेशन	-11405
▁डॉनोमाइसिन	-11406
▁थ्रेशहोल्ड	-11407
▁निरीक्षकों	-11408
▁निष्पक्षता	-11409
▁प्रजातियों	-11410
▁फिल्ट्रेशन	-11411
▁महाराष्ट्र	-11412
▁मेनिन्जियल	-11413
▁मैंब्रेन्स	-11414
▁मैट्रिक्‍स	-11415
▁म्युटेशन्स	-11416
▁लैंडस्‍केप	-11417
▁विकासात्मक	-11418
कोप्रोटीन्‍स	-11419
ट्रांसप्लांट	-11420
न्यूरोलॉजिकल	-11421
साइटोजेनेटिक	-11422
ोपैथोलॉजिस्ट	-11423
्रास्ट्रक्चर	-11424
▁अधिनिर्णायक	-11425
▁अनुप्रयुक्त	-11426
▁औपचारिकताओं	-11427
▁कन्फोर्मेशन	-11428
▁कापोजिफॉर्म	-11429
▁टर्मिनेटिंग	-11430
▁डाइसैकेराइड	-11431
▁डेरिवेटिव्स	-11432
▁नागापट्टिनम	-11433
▁निनहाइड्रिन	-11434
▁न्यायमूर्ति	-11435
▁प्रत्यारोपण	-11436
▁प्रेजेंटेशन	-11437
▁फिनाइलआइसोथ	-11438
▁मांसपेशियां	-11439
▁मेटास्टेसिस	-11440
▁रिअरेंजमेंट	-11441
▁रेग्यूलेटरी	-11442
▁इम्‍प्रिंटेड	-11443
▁तिरुवन्नमलाई	-11444
▁प्राप्तकर्ता	-11445
▁फोटोडायनामिक	-11446
▁शत्रुतापूर्ण	-11447
▁आवश्यकतानुसार	-11448
▁एक्विलिब्रियम	-11449
▁टेस्टोस्टेरोन	-11450
▁प्रक्रियात्मक	-11451
▁क्रानियोफेरिंग	-11452
▁पॉलीसैकेराइड्स	-11453
▁सेलेनोसिस्‍टीन	-11454
एसाइलग्लिसरॉल्‍स	-11455
मेडुलोब्लास्टोमा	-11456
▁इम्यूनोसप्रेसिव	-11457
▁इलेक्ट्रोकेमिकल	-11458
▁एक्स्ट्रासेलुलर	-11459
▁एक्‍सट्रासेलुलर	-11460
▁ऑलिगोसैकेराइड्स	-11461
▁हाइपरक्रोमिसिटी	-11462
▁हिस्टियोसाइटोमा	-11463
-3	-11464
-5	-11465
/6	-11466
16	-11467
39	-11468
61	-11469
66	-11470
67	-11471
69	-11472
84	-11473
95	-11474
99	-11475
AB	-11476
NF	-11477
OR	-11478
ay	-11479
bo	-11480
id	-11481
mp	-11482
mw	-11483
ur	-11484
अथ	-11485
इर	-11486
एई	-11487
डन	-11488
डो	-11489
थन	-11490
थी	-11491
थु	-11492
दो	-11493
नन	-11494
़ल	-11495
िआ	-11496
ौल	-11497
▁[	-11498
,08	-11499
CSF	-11500
IPG	-11501
KIs	-11502
MAT	-11503
rom	-11504
ंजल	-11505
ंदी	-11506
एजी	-11507
ऐज़	-11508
कमज	-11509
करा	-11510
काब	-11511
कीस	-11512
खून	-11513
गमन	-11514
गमु	-11515
चलन	-11516
चास	-11517
टरन	-11518
टिश	-11519
डाइ	-11520
डीए	-11521
तिज	-11522
थुप	-11523
दमे	-11524
दिव	-11525
नाड	-11526
पुल	-11527
फिर	-11528
फिस	-11529
मंद	-11530
मसल	-11531
मीय	-11532
मैट	-11533
यदि	-11534
रात	-11535
रिट	-11536
र्ख	-11537
लिं	-11538
लीक	-11539
लुक	-11540
विल	-11541
व्ड	-11542
समा	-11543
हिम	-11544
ाडर	-11545
ापक	-11546
ापर	-11547
ायण	-11548
ायम	-11549
ारण	-11550
ाही	-11551
िपा	-11552
ीनस	-11553
ेंक	-11554
ेरक	-11555
ैमस	-11556
ोधी	-11557
ोपॉ	-11558
ोमच	-11559
ोलर	-11560
ोलु	-11561
्ता	-11562
▁-1	-11563
▁0,	-11564
▁03	-11565
▁56	-11566
▁64	-11567
▁72	-11568
▁73	-11569
▁CH	-11570
▁an	-11571
▁de	-11572
▁tM	-11573
▁tn	-11574
▁ऑय	-11575
▁कद	-11576
▁चय	-11577
▁छत	-11578
▁टै	-11579
▁तु	-11580
▁बं	-11581
▁भट	-11582
▁रफ	-11583
▁लु	-11584
/200	-11585
AIDS	-11586
irst	-11587
rote	-11588
ंटों	-11589
आईबी	-11590
आरसी	-11591
आर्ड	-11592
इन्स	-11593
एचसी	-11594
एड्स	-11595
एनएच	-11596
एफसी	-11597
कक्ष	-11598
करों	-11599
कुडी	-11600
खंडन	-11601
गोरि	-11602
घरों	-11603
जीवन	-11604
जीवी	-11605
जेडी	-11606
टकों	-11607
टेक्	-11608
ट्रे	-11609
ड्रॉ	-11610
ड्रो	-11611
देखा	-11612
नीति	-11613
न्तर	-11614
न्या	-11615
पिंग	-11616
फेनी	-11617
बचपन	-11618
बाजी	-11619
मकों	-11620
मैटर	-11621
रेबल	-11622
र्टी	-11623
लीज़	-11624
वाकि	-11625
वेरी	-11626
समान	-11627
सीसी	-11628
सूची	-11629
ाइटी	-11630
ाइमल	-11631
ानवे	-11632
ामिक	-11633
ायीं	-11634
ारिज	-11635
िअरी	-11636
िएटर	-11637
िटिस	-11638
ियंस	-11639
िलरी	-11640
िलिक	-11641
िशमन	-11642
ूनतम	-11643
ेलिक	-11644
ैतिज	-11645
ैरेज	-11646
ॉइडल	-11647
ॉमिक	-11648
ॉल्स	-11649
ोइको	-11650
ोडीन	-11651
ोफिज	-11652
ोलॉग	-11653
्म्स	-11654
्रिब	-11655
्रुव	-11656
्रोच	-11657
्वास	-11658
्‍शन	-11659
‍हें	-11660
▁08.	-11661
▁102	-11662
▁125	-11663
▁143	-11664
▁148	-11665
▁164	-11666
▁182	-11667
▁234	-11668
▁33.	-11669
▁400	-11670
▁5,3	-11671
▁52.	-11672
▁80%	-11673
▁lov	-11674
▁the	-11675
▁आँक	-11676
▁आंत	-11677
▁आदत	-11678
▁उरो	-11679
▁एडी	-11680
▁कंब	-11681
▁कईं	-11682
▁कवच	-11683
▁कीं	-11684
▁कूप	-11685
▁खां	-11686
▁गले	-11687
▁गाइ	-11688
▁चिक	-11689
▁चॉक	-11690
▁जीओ	-11691
▁टोल	-11692
▁डिए	-11693
▁ढेर	-11694
▁थर्	-11695
▁दाख	-11696
▁निः	-11697
▁नील	-11698
▁पते	-11699
▁पाट	-11700
▁पिक	-11701
▁प्व	-11702
▁फजी	-11703
▁फीस	-11704
▁बाँ	-11705
▁बाउ	-11706
▁बिग	-11707
▁भूत	-11708
▁मछु	-11709
▁मैस	-11710
▁यथा	-11711
▁यौन	-11712
▁रूल	-11713
▁लेग	-11714
▁वार	-11715
▁शीथ	-11716
▁सदी	-11717
▁सोर	-11718
▁होल	-11719
TRANS	-11720
earch	-11721
एआईडी	-11722
एफ़आर	-11723
कामना	-11724
कार्ट	-11725
कीर्ण	-11726
कोलीन	-11727
क्टेड	-11728
क्लिन	-11729
खानों	-11730
गैडोल	-11731
जातीय	-11732
जेस्ट	-11733
टरनरी	-11734
टेटरी	-11735
तानों	-11736
द्रिक	-11737
नोलोल	-11738
न्तरण	-11739
प्रज़	-11740
प्राप	-11741
प्लेट	-11742
फेनिब	-11743
मरेज़	-11744
मुख्य	-11745
र्निय	-11746
लीकरण	-11747
ल्‍यू	-11748
वित्त	-11749
ामहिम	-11750
ायकों	-11751
ायर्ड	-11752
ालिटी	-11753
ावधान	-11754
िटिकल	-11755
िन्दु	-11756
ियल्स	-11757
िरियल	-11758
िरियो	-11759
िलिटी	-11760
ीयरिक	-11761
ेटर्स	-11762
ेरन्स	-11763
ेरिंग	-11764
ेलिंग	-11765
्याशय	-11766
्यूरा	-11767
्वोलर	-11768
्‍ययन	-11769
▁112,	-11770
▁1971	-11771
▁1975	-11772
▁1988	-11773
▁3000	-11774
▁4000	-11775
▁5000	-11776
▁BCLC	-11777
▁DIPG	-11778
▁best	-11779
▁अक्व	-11780
▁अद्व	-11781
▁असली	-11782
▁आइये	-11783
▁आइसो	-11784
▁आकाश	-11785
▁आचार	-11786
▁आयात	-11787
▁इनसे	-11788
▁उतार	-11789
▁उभरी	-11790
▁एट्ट	-11791
▁एन्ट	-11792
▁एपिक	-11793
▁एफसी	-11794
▁ओरिज	-11795
▁ओवरी	-11796
▁कटऑफ	-11797
▁कहने	-11798
▁कीटो	-11799
▁कैरी	-11800
▁कॉफी	-11801
▁कोइल	-11802
▁खड़े	-11803
▁गारे	-11804
▁गॉल्	-11805
▁घटित	-11806
▁घाटा	-11807
▁चट्ट	-11808
▁चुनौ	-11809
▁चेंज	-11810
▁ज़ेर	-11811
▁जुर्	-11812
▁जेटा	-11813
▁टकरा	-11814
▁टाटा	-11815
▁टोटल	-11816
▁डंडे	-11817
▁डक्ट	-11818
▁डाले	-11819
▁तरंग	-11820
▁ताला	-11821
▁नकदी	-11822
▁नाईट	-11823
▁नाते	-11824
▁निस्	-11825
▁नींद	-11826
▁नेता	-11827
▁परिल	-11828
▁पाइप	-11829
▁पाइर	-11830
▁पायर	-11831
▁पूछा	-11832
▁पेड़	-11833
▁फायर	-11834
▁फोरम	-11835
▁बंधक	-11836
▁बकेट	-11837
▁बताए	-11838
▁बदतर	-11839
▁बल्ल	-11840
▁बेचा	-11841
▁बेचे	-11842
▁बोली	-11843
▁ब्रे	-11844
▁भण्ड	-11845
▁भूरे	-11846
▁मदों	-11847
▁महेश	-11848
▁मानी	-11849
▁माने	-11850
▁राजू	-11851
▁रिले	-11852
▁रैयत	-11853
▁लगाव	-11854
▁लाइव	-11855
▁लायक	-11856
▁वक्त	-11857
▁वल्ल	-11858
▁वायर	-11859
▁व्ही	-11860
▁शराब	-11861
▁शिशु	-11862
▁शैली	-11863
▁शोधन	-11864
▁सबको	-11865
▁सल्‍	-11866
▁साईट	-11867
▁सामु	-11868
▁सीईओ	-11869
▁सुलभ	-11870
▁सोशल	-11871
▁हटाए	-11872
▁हिंड	-11873
▁हीटर	-11874
▁हेक्	-11875
कारिता	-11876
कोत्तर	-11877
क्षणों	-11878
क्षरों	-11879
च्छेदन	-11880
ज़िटिव	-11881
टीवेशन	-11882
ट्रेंट	-11883
डीआरपी	-11884
नीलिंग	-11885
परिवार	-11886
फंक्शन	-11887
फिसिअल	-11888
मंडलीय	-11889
मिकल्स	-11890
मिलिंग	-11891
रेमाइड	-11892
रेलिटी	-11893
रेसेंस	-11894
लेकुलर	-11895
वांस्ड	-11896
विष्टि	-11897
सपोर्ट	-11898
सीएलसी	-11899
सेक्शन	-11900
ाइम्‍स	-11901
ाज्मिक	-11902
ारीकरण	-11903
ावस्था	-11904
िज़िज़	-11905
िज़ेशन	-11906
िनेट्स	-11907
िनोलोन	-11908
ियारों	-11909
िस्टिक	-11910
िस्थित	-11911
ेंडंसी	-11912
ैंचिंग	-11913
ोट्रोप	-11914
ोलिपिड	-11915
्ज़िशन	-11916
्यक्ता	-11917
▁first	-11918
▁prote	-11919
▁three	-11920
▁अनट्र	-11921
▁अपडेट	-11922
▁अपनाई	-11923
▁अमाशय	-11924
▁अर्ली	-11925
▁आगामी	-11926
▁आणविक	-11927
▁इनवॉल	-11928
▁इरादे	-11929
▁ईसीबी	-11930
▁उच्‍च	-11931
▁उजागर	-11932
▁उठाना	-11933
▁उपखंड	-11934
▁उर्वर	-11935
▁एडमैन	-11936
▁एमओपी	-11937
▁कराएं	-11938
▁कैन्स	-11939
▁कोस्ट	-11940
▁खारिज	-11941
▁खोजना	-11942
▁घटाना	-11943
▁घोड़े	-11944
▁चक्कर	-11945
▁चलाना	-11946
▁चालान	-11947
▁चौड़ी	-11948
▁जीनों	-11949
▁टोक्स	-11950
▁तदर्थ	-11951
▁दशकों	-11952
▁दायीं	-11953
▁देंगी	-11954
▁दोस्त	-11955
▁दोहरी	-11956
▁नामों	-11957
▁निकला	-11958
▁निषेध	-11959
▁पंजाब	-11960
▁पड़ना	-11961
▁पढ़ते	-11962
▁पाथवे	-11963
▁पीआईओ	-11964
▁पैचेस	-11965
▁प्रसव	-11966
▁फर्जी	-11967
▁फैलती	-11968
▁फ्लाई	-11969
▁बंधने	-11970
▁बांटा	-11971
▁बेस्ट	-11972
▁मानता	-11973
▁मालूम	-11974
▁मिलना	-11975
▁रिमोट	-11976
▁रोटेट	-11977
▁लगाता	-11978
▁लड़ती	-11979
▁ल्‍यू	-11980
▁वर्गम	-11981
▁वाटसन	-11982
▁विक्ष	-11983
▁विचलन	-11984
▁विसंग	-11985
▁वेपोर	-11986
▁समेकन	-11987
▁सांस्	-11988
▁सिवाय	-11989
▁सैल्स	-11990
▁सौंपी	-11991
▁स्पिल	-11992
▁स्मूथ	-11993
▁स्वीट	-11994
▁स्‍तर	-11995
▁हटाते	-11996
▁ह्युर	-11997
उत्पादन	-11998
क्चुअरी	-11999
क्सिमैब	-12000
जेंटेशन	-12001
डब्ल्यू	-12002
फोल्डेड	-12003
रैबडॉइड	-12004
विटेशनल	-12005
स्ट्रिक	-12006
िज़ुमाब	-12007
ुरक्षित	-12008
ोजेन्‍स	-12009
ोलिज्‍म	-12010
्राज़िन	-12011
▁30,000	-12012
▁search	-12013
▁अग्रसर	-12014
▁अनदेखा	-12015
▁अपनाना	-12016
▁अपनाया	-12017
▁अप्रूव	-12018
▁अर्थों	-12019
▁अर्हता	-12020
▁अस्थिर	-12021
▁आइडिया	-12022
▁आउटलुक	-12023
▁आयोडीन	-12024
▁आरटीआई	-12025
▁आर्गोन	-12026
▁आलोचना	-12027
▁इंडियन	-12028
▁इक्कीस	-12029
▁इन्फ्ल	-12030
▁एसिडिक	-12031
▁ऑर्बिट	-12032
▁काईटिन	-12033
▁काउंटर	-12034
▁कावेरी	-12035
▁कूल्हे	-12036
▁कैपिटल	-12037
▁कोआर्ड	-12038
▁कोइल्ड	-12039
▁गुजरने	-12040
▁छत्तीस	-12041
▁छुट्टी	-12042
▁जांचते	-12043
▁टफ्टेड	-12044
▁टर्मिन	-12045
▁टेल्‍स	-12046
▁डर्माट	-12047
▁डाइक्र	-12048
▁डिमांड	-12049
▁धब्बों	-12050
▁नजदीकी	-12051
▁निकाली	-12052
▁निराशा	-12053
▁परिवेश	-12054
▁पीपीटी	-12055
▁पैकिंग	-12056
▁प्रेरण	-12057
▁प्रेषण	-12058
▁बनेंगे	-12059
▁बिलियन	-12060
▁बीपीजी	-12061
▁बुद्धि	-12062
▁बैठाने	-12063
▁ब्यूरो	-12064
▁भूमिगत	-12065
▁भेदभाव	-12066
▁मास्टर	-12067
▁मिनटों	-12068
▁मिलाने	-12069
▁मुनाफे	-12070
▁मेडुलो	-12071
▁मेथनॉल	-12072
▁मैक्रो	-12073
▁मैत्री	-12074
▁मोनोसै	-12075
▁मोहरों	-12076
▁यूजीसी	-12077
▁रास्ते	-12078
▁रिंग्स	-12079
▁रैबडोम	-12080
▁रोस्टर	-12081
▁लैंगमु	-12082
▁लैप्रो	-12083
▁लोकसभा	-12084
▁वाचफुल	-12085
▁विखंडन	-12086
▁वेर्टे	-12087
▁समकक्ष	-12088
▁समझाता	-12089
▁सरफराज	-12090
▁सातवें	-12091
▁साधनों	-12092
▁सिंक्र	-12093
▁सीजेडी	-12094
▁सुचारू	-12095
▁सेवकों	-12096
▁सोमवार	-12097
▁स्टोमच	-12098
▁स्पंजी	-12099
▁स्‍थान	-12100
▁हिपबोन	-12101
▁हीटिंग	-12102
एफआईएसएच	-12103
टायरोसिन	-12104
टेस्टाइन	-12105
पुनर्वास	-12106
प्राइमरी	-12107
ब्ल्यूडी	-12108
माइकोसिस	-12109
मेस्ट्री	-12110
रेटिनॉइड	-12111
लिम्फोमा	-12112
सपोर्टिड	-12113
सेल्युलर	-12114
सोर्सिंग	-12115
स्टेरॉइड	-12116
ोग्लाइके	-12117
ोल्यूसिन	-12118
▁अक्षमता	-12119
▁अक्षरों	-12120
▁अग्रेकन	-12121
▁अध्‍ययन	-12122
▁अमोनिया	-12123
▁आंकड़ों	-12124
▁इंट्राल	-12125
▁इटरेटिव	-12126
▁उरोस्थि	-12127
▁ऊर्जाओं	-12128
▁एजेंटों	-12129
▁एल्डोज़	-12130
▁कारखाने	-12131
▁कैपिलरी	-12132
▁कॉइल्‍ड	-12133
▁कॉन्फ्र	-12134
▁क्षैतिज	-12135
▁गाइरेज़	-12136
▁ग्लैण्ड	-12137
▁छिद्रों	-12138
▁टर्नओवर	-12139
▁टिप्पणी	-12140
▁टेट्राप	-12141
▁टेट्राम	-12142
▁टॉन्सिल	-12143
▁डब्ल्यू	-12144
▁डाइमर्स	-12145
▁डिस्पर्	-12146
▁डैबसाइल	-12147
▁तथाकथित	-12148
▁तालुकों	-12149
▁थायरॉयड	-12150
▁दृश्यों	-12151
▁दोहराता	-12152
▁नोडइंफो	-12153
▁पदोन्नत	-12154
▁पेरिप्ल	-12155
▁प्रत्यय	-12156
▁प्रत्या	-12157
▁प्रपत्र	-12158
▁प्रिंटर	-12159
▁मल्टीपल	-12160
▁महामहिम	-12161
▁मूल्यों	-12162
▁मेडिसिन	-12163
▁मैक्सिम	-12164
▁मोटिफ्स	-12165
▁मौद्रिक	-12166
▁रास्तों	-12167
▁रेजीमें	-12168
▁रेप्रज़	-12169
▁रैंकिंग	-12170
▁लिपियों	-12171
▁वनस्पति	-12172
▁विचारों	-12173
▁विलंबित	-12174
▁विश्लेष	-12175
▁संचारित	-12176
▁संतानों	-12177
▁संतुलित	-12178
▁संस्कार	-12179
▁समवर्ती	-12180
▁समावेशी	-12181
▁साथियों	-12182
▁सिरोसिस	-12183
▁सिस्टिक	-12184
▁सूचनाएं	-12185
▁सूचीकरण	-12186
▁सेंसिंग	-12187
▁सेपरेटर	-12188
▁स्टोरेज	-12189
▁हायड्रॉ	-12190
▁ह्यूमेन	-12191
इंटरफेरॉन	-12192
कार्टोइको	-12193
क्रोमैटिन	-12194
प्रशिक्षण	-12195
मूल्यांकन	-12196
र्मिनोमास	-12197
स्टेरॉइडल	-12198
हिस्टियोस	-12199
्यूबेरन्स	-12200
्रिब्यूशन	-12201
▁5,00,000	-12202
▁proteins	-12203
▁अद्वितीय	-12204
▁अनुरोधों	-12205
▁अपरिपक्व	-12206
▁अपरिवर्त	-12207
▁अरियालूर	-12208
▁अवस्थाएँ	-12209
▁आर्सेनिक	-12210
▁इंग्लैंड	-12211
▁इंटरकलेट	-12212
▁इन्जेस्ट	-12213
▁उदारीकरण	-12214
▁एक्सिश़न	-12215
▁एक्स्ट्र	-12216
▁एबनार्मल	-12217
▁एब्डोमेन	-12218
▁एरोमेटिक	-12219
▁एरोमैटिक	-12220
▁एसिटाइलम	-12221
▁ऑर्गेनिक	-12222
▁कम्पोजिट	-12223
▁कामगारों	-12224
▁कारखानों	-12225
▁किलियानी	-12226
▁कैथेटर्स	-12227
▁कॉपीराइट	-12228
▁घटनाक्रम	-12229
▁चयनात्मक	-12230
▁छात्राओं	-12231
▁जनसंख्या	-12232
▁ज़ेरॉक्स	-12233
▁जुर्माने	-12234
▁टर्शिअरी	-12235
▁डिंडिगुल	-12236
▁डोपामाइन	-12237
▁तहसीलदार	-12238
▁नवीनीकृत	-12239
▁नाममात्र	-12240
▁नियामकों	-12241
▁निर्णायक	-12242
▁न्‍यूनतम	-12243
▁पर्यटकों	-12244
▁पहुँचाना	-12245
▁पहुंचाते	-12246
▁पाइपलाइन	-12247
▁पासपोर्ट	-12248
▁पुनर्निय	-12249
▁प्रतिदिन	-12250
▁प्रतियों	-12251
▁प्रोटीएज	-12252
▁प्रोसेसर	-12253
▁फायदेमंद	-12254
▁बाउंडिंग	-12255
▁भूमिकाओं	-12256
▁मध्यावधि	-12257
▁मायकोसिस	-12258
▁मेलिगेंट	-12259
▁म्यूकोसा	-12260
▁ल्‍यूसीन	-12261
▁वंशानुगत	-12262
▁वाष्पशील	-12263
▁विकासशील	-12264
▁वैलोसिटी	-12265
▁शिक्षावि	-12266
▁शुभकामना	-12267
▁शोधकर्ता	-12268
▁संतुष्टि	-12269
▁संस्थापक	-12270
▁समायोजित	-12271
▁समूहीकरण	-12272
▁सम्बन्धी	-12273
▁साइटोसोल	-12274
▁सेरेबेलम	-12275
▁स्केलपेल	-12276
▁स्टिरियो	-12277
▁स्पष्टता	-12278
▁स्वीकर्त	-12279
▁स्वेलिंग	-12280
कार्सिनोमा	-12281
गैडोलिनियम	-12282
चिकित्सकीय	-12283
प्लेटलेट्स	-12284
▁अग्न्याशय	-12285
▁अधिकांशतः	-12286
▁अधिग्राहण	-12287
▁अधिनियमित	-12288
▁अनट्रीटिड	-12289
▁अल्पकालिक	-12290
▁असिस्टेंट	-12291
▁आइसोफॉर्म	-12292
▁आवश्यक्ता	-12293
▁आवश्‍यकता	-12294
▁इंडस्ट्री	-12295
▁इंद्रियां	-12296
▁इन्डोलेंट	-12297
▁उपइकाईयाँ	-12298
▁एंजाइम्‍स	-12299
▁एंडोस्कोप	-12300
▁एक्टीवेशन	-12301
▁एनसीएलएटी	-12302
▁ऑटोइम्यून	-12303
▁ऑन्टोलॉजी	-12304
▁ऑब्जरवेशन	-12305
▁ऑर्बिटल्स	-12306
▁काईरेलिटी	-12307
▁केराटिन्स	-12308
▁क्रियाशील	-12309
▁क्वाटरनरी	-12310
▁टॉन्सिल्स	-12311
▁ट्यूबरियस	-12312
▁ट्रान्सफर	-12313
▁डिपेंडंसी	-12314
▁डिफ्यूज़न	-12315
▁पद्धतियों	-12316
▁परिपक्वता	-12317
▁पार्टियों	-12318
▁प्रकाशकों	-12319
▁प्रविष्टि	-12320
▁प्रायोगिक	-12321
▁प्रोटीऐज़	-12322
▁प्रोफेशनल	-12323
▁प्रोस्टेट	-12324
▁बीआईएफ़आर	-12325
▁बीमारियां	-12326
▁ब्रिज़िज़	-12327
▁ब्रैंचिंग	-12328
▁मल्टीफोकल	-12329
▁मेलिगनेंट	-12330
▁मेलीगनेंट	-12331
▁यूनिवर्सल	-12332
▁योग्यताएं	-12333
▁रणनीतियों	-12334
▁रेकर्रेंट	-12335
▁लिम्फेटिक	-12336
▁विकलांगता	-12337
▁विनिर्माण	-12338
▁वेंट्रिकल	-12339
▁व्यवहार्य	-12340
▁श्रेणियां	-12341
▁संयंत्रों	-12342
▁साइनोवियल	-12343
▁सामुदायिक	-12344
▁सुविधाजनक	-12345
▁सेल्यूलोज	-12346
▁स्क्रीनों	-12347
▁स्विंगिंग	-12348
मेटास्टैटिक	-12349
िकोस्टेरॉइड	-12350
▁इंटेस्टाइन	-12351
▁इलेक्ट्रोड	-12352
▁उत्प्रेरित	-12353
▁उदाहरणार्थ	-12354
▁उपप्रकारों	-12355
▁एंटीरेट्रो	-12356
▁ऑब्जेक्ट्स	-12357
▁कंप्यूटरों	-12358
▁कार्यकर्ता	-12359
▁गैडोलीनियम	-12360
▁जर्मिनोमास	-12361
▁ट्रिप्टोफन	-12362
▁डायग्नोसिस	-12363
▁थ्रोम्बोक्	-12364
▁नियमितीकरण	-12365
▁न्यूक्लीअर	-12366
▁न्यूक्लीअस	-12367
▁परियोजनाएँ	-12368
▁पुनरुद्धार	-12369
▁प्रतिरक्षी	-12370
▁प्रतिष्ठित	-12371
▁फाइब्रिल्स	-12372
▁ब्रेस्टबोन	-12373
▁रेप्लिकेशन	-12374
▁रेसीड्यूज़	-12375
▁वायुमंडलीय	-12376
▁सांस्कृतिक	-12377
▁सुपरफिसिअल	-12378
▁सूचीबद्धता	-12379
▁सैंक्चुअरी	-12380
▁स्पेक्ट्रा	-12381
▁आईबुप्रोफेन	-12382
▁ऐलोस्टीयरिक	-12383
▁क्रिस्टलाइन	-12384
▁क्रोमोसोम्स	-12385
▁ग्रेविटेशनल	-12386
▁ट्रान्ज़िशन	-12387
▁ट्रेडमिलिंग	-12388
▁नियुक्तियों	-12389
▁न्यूक्लिएशन	-12390
▁न्यूरोसर्जन	-12391
▁न्‍यूक्लियर	-12392
▁पाठ्यपुस्तक	-12393
▁प्रासंगिकता	-12394
▁मैत्रीपूर्ण	-12395
▁रेप्रज़ेन्ट	-12396
▁लेखापरीक्षक	-12397
▁विद्युतीकरण	-12398
▁वेपोरायजेशन	-12399
▁स्थानान्तरण	-12400
▁स्नातकोत्तर	-12401
इंटेंसिफिकेशन	-12402
▁इनवॉल्यूटिंग	-12403
▁कार्यवाहियों	-12404
▁कोआर्डिनेट्स	-12405
▁प्रतिनिधियों	-12406
▁प्रतिभागियों	-12407
▁प्रतिभूतियाँ	-12408
▁प्रतिष्ठानों	-12409
▁प्रतिस्पर्धी	-12410
▁प्रोप्रनोलोल	-12411
▁फिनाइलएलानिन	-12412
▁माइलोब्लास्ट	-12413
▁रिप्रजेंटेशन	-12414
▁साइटोप्लाज्म	-12415
▁हाइड्रोलाइज़	-12416
▁हाइपरक्रोमिक	-12417
▁हेपेटेक्टॉमी	-12418
हिस्टियोसाइटिक	-12419
▁अल्ट्रावायलेट	-12420
▁इम्‍प्रिंटिंग	-12421
▁एंजियोजेनेसिस	-12422
▁कार्बोक्सिलिक	-12423
▁कॉन्फ्रेंसिंग	-12424
▁जिम्मेदारियों	-12425
▁ब्रोंकोस्कोपी	-12426
▁इम्प्लीमेंटेशन	-12427
▁एंजियोफिब्रोमा	-12428
▁टेट्रापेप्टाइड	-12429
▁डिस्ट्रिब्यूशन	-12430
▁प्रोट्यूबेरन्स	-12431
▁मोनोसेकेराइड्स	-12432
▁हाइब्रिडाइजेशन	-12433
▁गैलेक्टोलिपिड्स	-12434
▁प्रौद्योगिकियों	-12435
▁माइलोमोनोसाइटिक	-12436
,।	-12437
-(	-12438
.,	-12439
.।	-12440
1,	-12441
2)	-12442
32	-12443
33	-12444
38	-12445
41	-12446
58	-12447
62	-12448
91	-12449
CM	-12450
EG	-12451
EL	-12452
FE	-12453
FN	-12454
HV	-12455
MR	-12456
MW	-12457
NH	-12458
RP	-12459
TC	-12460
av	-12461
ly	-12462
og	-12463
ot	-12464
td	-12465
uc	-12466
us	-12467
ँग	-12468
अध	-12469
इक	-12470
उप	-12471
उस	-12472
चय	-12473
पह	-12474
यड	-12475
लए	-12476
लट	-12477
लर	-12478
सस	-12479
़ड	-12480
ाड	-12481
ुन	-12482
ूद	-12483
ेह	-12484
ोश	-12485
▁v	-12486
,24	-12487
-14	-12488
-19	-12489
-20	-12490
-79	-12491
.15	-12492
/18	-12493
12.	-12494
ANG	-12495
CBC	-12496
EGF	-12497
ESO	-12498
FNA	-12499
MML	-12500
NRI	-12501
TOR	-12502
ali	-12503
ate	-12504
ide	-12505
ind	-12506
ंजक	-12507
ंजन	-12508
ंथथ	-12509
अपी	-12510
ओएस	-12511
ओसी	-12512
कीन	-12513
केम	-12514
कोण	-12515
गाव	-12516
गुण	-12517
गुल	-12518
गोट	-12519
घटन	-12520
जनल	-12521
जली	-12522
ज़म	-12523
ज़ो	-12524
टाई	-12525
टेज	-12526
तया	-12527
तीन	-12528
दीक	-12529
पहर	-12530
पीड	-12531
बरी	-12532
बाई	-12533
बॉन	-12534
माब	-12535
मॉल	-12536
याम	-12537
यूर	-12538
रां	-12539
लेख	-12540
वाइ	-12541
विम	-12542
वीए	-12543
वोक	-12544
श़न	-12545
संश	-12546
साइ	-12547
सोस	-12548
ाइश	-12549
ायो	-12550
िरे	-12551
िवत	-12552
िसी	-12553
ीज़	-12554
ुरत	-12555
ूडन	-12556
ेयक	-12557
ॉजी	-12558
ोजक	-12559
्मा	-12560
्यन	-12561
्यो	-12562
्वत	-12563
्स्	-12564
▁08	-12565
▁1-	-12566
▁2,	-12567
▁2-	-12568
▁53	-12569
▁82	-12570
▁AB	-12571
▁IX	-12572
▁LA	-12573
▁Ms	-12574
▁TA	-12575
▁co	-12576
▁fo	-12577
▁fx	-12578
▁gi	-12579
▁sh	-12580
▁आउ	-12581
▁कप	-12582
▁चक	-12583
▁चर	-12584
▁छप	-12585
▁तै	-12586
▁थक	-12587
▁दल	-12588
▁नग	-12589
▁पठ	-12590
▁बफ	-12591
▁बू	-12592
▁बौ	-12593
-0-0	-12594
.02.	-12595
2008	-12596
EDCO	-12597
ESOP	-12598
MNRE	-12599
ical	-12600
ंजना	-12601
ंत्व	-12602
ंध्र	-12603
आरएस	-12604
इल्ड	-12605
ऊँगी	-12606
एंटी	-12607
एनेस	-12608
करार	-12609
कराव	-12610
किनी	-12611
कोकस	-12612
क्री	-12613
गुडी	-12614
ग्रह	-12615
ग्रा	-12616
चानक	-12617
चारी	-12618
च्छे	-12619
जिनी	-12620
ज्ञा	-12621
टिशू	-12622
टेंट	-12623
टेरो	-12624
ड़कन	-12625
डिओल	-12626
तकनी	-12627
थ्री	-12628
थ्रो	-12629
दण्ड	-12630
दिंग	-12631
नल्ल	-12632
निंग	-12633
निजी	-12634
न्ने	-12635
फाइड	-12636
फाइन	-12637
फोरे	-12638
बैंक	-12639
बोटल	-12640
ब्ज़	-12641
भागी	-12642
मतली	-12643
माइन	-12644
मानक	-12645
माना	-12646
म्पल	-12647
यविक	-12648
यानी	-12649
रनेट	-12650
र्जर	-12651
वारत	-12652
वाली	-12653
वासन	-12654
सीजर	-12655
सेरा	-12656
ाइजर	-12657
ाइना	-12658
ाउंट	-12659
ाजुक	-12660
ानंद	-12661
ापें	-12662
ारंभ	-12663
ाराम	-12664
िएली	-12665
िकॉन	-12666
िकोर	-12667
िदान	-12668
िनोम	-12669
िराम	-12670
िवरी	-12671
ुवीए	-12672
ेटिड	-12673
ेड्स	-12674
ेप्ड	-12675
ेरपी	-12676
ेरिन	-12677
ैमिन	-12678
ोज़न	-12679
ोपीय	-12680
ोसिट	-12681
्टेज	-12682
्रॉइ	-12683
्लेस	-12684
्वान	-12685
्‍ली	-12686
▁(5.	-12687
▁0/0	-12688
▁1,2	-12689
▁1,5	-12690
▁103	-12691
▁115	-12692
▁166	-12693
▁179	-12694
▁206	-12695
▁212	-12696
▁225	-12697
▁230	-12698
▁24.	-12699
▁25.	-12700
▁26%	-12701
▁260	-12702
▁271	-12703
▁4,2	-12704
▁412	-12705
▁433	-12706
▁49%	-12707
▁700	-12708
▁CML	-12709
▁PDQ	-12710
▁अगल	-12711
▁अचल	-12712
▁अब्	-12713
▁आंग	-12714
▁आर्	-12715
▁इजी	-12716
▁इनऑ	-12717
▁ईपो	-12718
▁उपच	-12719
▁उपज	-12720
▁ऊंच	-12721
▁एटा	-12722
▁एने	-12723
▁एपो	-12724
▁ऐपर	-12725
▁कैब	-12726
▁कैम	-12727
▁खिल	-12728
▁घना	-12729
▁चीन	-12730
▁छंट	-12731
▁छान	-12732
▁जात	-12733
▁टरब	-12734
▁डिक	-12735
▁डिम	-12736
▁ढकी	-12737
▁तंत	-12738
▁दशा	-12739
▁दूँ	-12740
▁नान	-12741
▁निभ	-12742
▁नौस	-12743
▁पकर	-12744
▁फाल	-12745
▁फीट	-12746
▁फुल	-12747
▁फेट	-12748
▁फॉस	-12749
▁फोन	-12750
▁बंग	-12751
▁बिट	-12752
▁बिस	-12753
▁बीत	-12754
▁बीन	-12755
▁बेर	-12756
▁बेल	-12757
▁बोट	-12758
▁भाप	-12759
▁माफ	-12760
▁मुख	-12761
▁मूड	-12762
▁रुझ	-12763
▁रूक	-12764
▁लोस	-12765
▁वाई	-12766
▁विद	-12767
▁वें	-12768
▁वैक	-12769
▁वैन	-12770
▁शंट	-12771
▁शोल	-12772
▁समत	-12773
▁सहज	-12774
▁सेड	-12775
▁सैल	-12776
▁हर्	-12777
▁हाव	-12778
-2006	-12779
.....	-12780
एबीएल	-12781
काबले	-12782
कारों	-12783
क्रॉन	-12784
क्लास	-12785
क्सटर	-12786
क्‍शन	-12787
खंडों	-12788
टिफिक	-12789
ट्रिए	-12790
ड़ीसा	-12791
डेमिक	-12792
दाश्त	-12793
देयता	-12794
द्धिक	-12795
धारित	-12796
नाइज़	-12797
नेटेड	-12798
नेरिक	-12799
न्त्र	-12800
पनिंग	-12801
पीकरण	-12802
पोंडी	-12803
प्रेस	-12804
प्लाई	-12805
फरेज़	-12806
फाइलो	-12807
फेनीब	-12808
फोबिक	-12809
फोसिस	-12810
फ्तों	-12811
बाजार	-12812
ब्लॉक	-12813
मंगलम	-12814
मार्क	-12815
मितीय	-12816
मैक्स	-12817
यालूर	-12818
रियों	-12819
र्किट	-12820
र्टीज	-12821
र्मूल	-12822
लीकृत	-12823
लेटिड	-12824
वायरल	-12825
विधिक	-12826
वेंशन	-12827
वेटिव	-12828
संदेह	-12829
संशोध	-12830
सीएटी	-12831
सेन्ट	-12832
सेरेब	-12833
स्कूल	-12834
स्पेस	-12835
हेयरी	-12836
ाइलीन	-12837
ाकिनी	-12838
ानोडल	-12839
िकाना	-12840
िज़्ड	-12841
िशियन	-12842
िश्रण	-12843
िष्‍ट	-12844
ीसिटी	-12845
ूडियो	-12846
ेगासस	-12847
ेट्टई	-12848
ेबाजी	-12849
ेयर्स	-12850
ेरियन	-12851
ेलेंट	-12852
ैरजीन	-12853
ैलेमस	-12854
ैशन्स	-12855
ॉक्सी	-12856
ोजेबल	-12857
ोप्रो	-12858
्युजन	-12859
▁11⁄2	-12860
▁1908	-12861
▁1923	-12862
▁1948	-12863
▁1949	-12864
▁1954	-12865
▁1957	-12866
▁1978	-12867
▁1987	-12868
▁2018	-12869
▁2500	-12870
▁31.0	-12871
▁BHEL	-12872
▁IMRT	-12873
▁TEDA	-12874
▁mTOR	-12875
▁अनसे	-12876
▁अभिन	-12877
▁अवसा	-12878
▁आईपी	-12879
▁आईयु	-12880
▁आजीव	-12881
▁उभरे	-12882
▁एसपी	-12883
▁ऑर्थ	-12884
▁कड़ी	-12885
▁कतार	-12886
▁कन्स	-12887
▁करूँ	-12888
▁काइल	-12889
▁कूडन	-12890
▁कूपन	-12891
▁कॉपर	-12892
▁कोंफ	-12893
▁खड़ा	-12894
▁खुशी	-12895
▁खोले	-12896
▁गयीं	-12897
▁गियर	-12898
▁गोले	-12899
▁घिरा	-12900
▁घुले	-12901
▁चंदा	-12902
▁चाले	-12903
▁चूहे	-12904
▁छिया	-12905
▁जंगल	-12906
▁जमने	-12907
▁जयेश	-12908
▁जाला	-12909
▁टीज़	-12910
▁टैंक	-12911
▁डिले	-12912
▁डिसे	-12913
▁ढीले	-12914
▁थियो	-12915
▁दरें	-12916
▁दाएं	-12917
▁दौड़	-12918
▁धार्	-12919
▁धोने	-12920
▁नियत	-12921
▁नीला	-12922
▁नीली	-12923
▁नोमन	-12924
▁पदेन	-12925
▁पर्फ	-12926
▁पाती	-12927
▁पीले	-12928
▁पूँछ	-12929
▁पेंट	-12930
▁पेटी	-12931
▁पैदल	-12932
▁फेंक	-12933
▁फैशन	-12934
▁बंजर	-12935
▁बर्न	-12936
▁बलों	-12937
▁बाएँ	-12938
▁बीकर	-12939
▁बीपी	-12940
▁ब्रू	-12941
▁ब्रै	-12942
▁भरना	-12943
▁भावी	-12944
▁मनोर	-12945
▁माईल	-12946
▁मारक	-12947
▁मिमी	-12948
▁मृदा	-12949
▁मेनू	-12950
▁यादृ	-12951
▁युयु	-12952
▁राशन	-12953
▁रिमॉ	-12954
▁लापर	-12955
▁लिखी	-12956
▁लिखे	-12957
▁लिपट	-12958
▁विवे	-12959
▁शेअथ	-12960
▁संकल	-12961
▁सबका	-12962
▁सिटी	-12963
▁सिमु	-12964
▁सिवा	-12965
▁सीसी	-12966
▁सुईं	-12967
▁सुगम	-12968
▁सुझा	-12969
▁सृजन	-12970
▁सेंक	-12971
▁सेरा	-12972
▁स्तन	-12973
▁स्लम	-12974
▁स्ली	-12975
▁स्‍थ	-12976
▁हवाई	-12977
▁हेमी	-12978
▁होटल	-12979
ंत्वना	-12980
एंग्लो	-12981
एचपीवी	-12982
एटोमिक	-12983
एनडीपी	-12984
एसपीवी	-12985
कमजोरी	-12986
कात्मक	-12987
केंद्र	-12988
कोलेजन	-12989
कोसिटी	-12990
क्टेबल	-12991
क्लियस	-12992
ग्नेंट	-12993
चुरेशन	-12994
च्युअल	-12995
ज़ुमैब	-12996
टेनोइक	-12997
णात्मक	-12998
तकनीकी	-12999
दृष्टि	-13000
धिकारी	-13001
नीमारा	-13002
न्यूरो	-13003
प्रोंग	-13004
बलाइज़	-13005
म्बरान	-13006
रेक्टर	-13007
रेमिशन	-13008
र्डर्स	-13009
र्वर्ड	-13010
लेमिया	-13011
लेरिया	-13012
विमर्श	-13013
विरोधी	-13014
शिक्षा	-13015
स्टर्स	-13016
ाइवर्स	-13017
ानोलोल	-13018
ान्तरण	-13019
ामवेज़	-13020
िकोरिन	-13021
िशिएंट	-13022
ुजुमाब	-13023
ेक्टिव	-13024
ैपिलरी	-13025
ैमिनिक	-13026
ैरेजिन	-13027
ॉक्सिन	-13028
ॉर्फिक	-13029
ोपॉलीस	-13030
ोफिलाम	-13031
ोमिनोप	-13032
्याप्त	-13033
्युल्स	-13034
्यूमों	-13035
▁2,000	-13036
▁2008,	-13037
▁2010)	-13038
▁2010.	-13039
▁8-0-0	-13040
▁watch	-13041
▁अंशों	-13042
▁अचानक	-13043
▁अमाइन	-13044
▁अल्सर	-13045
▁अवगुण	-13046
▁असत्य	-13047
▁इंवोक	-13048
▁इमाइन	-13049
▁उत्सव	-13050
▁उधारी	-13051
▁उनचास	-13052
▁ऋणभार	-13053
▁एजीएम	-13054
▁एडिपो	-13055
▁एडिशन	-13056
▁ऑयल्स	-13057
▁ऑरियस	-13058
▁ऑर्गे	-13059
▁ऑस्मो	-13060
▁कटौती	-13061
▁कब्जे	-13062
▁कमरों	-13063
▁कमांड	-13064
▁कमाना	-13065
▁कराता	-13066
▁करीबी	-13067
▁कस्बे	-13068
▁कागज़	-13069
▁कालिक	-13070
▁किसने	-13071
▁किससे	-13072
▁किसोम	-13073
▁किस्त	-13074
▁कुर्स	-13075
▁कॉन्ड	-13076
▁कोविद	-13077
▁क्रिक	-13078
▁क्लॉज	-13079
▁खुजली	-13080
▁खुलती	-13081
▁खेलना	-13082
▁गन्ना	-13083
▁गाढ़ा	-13084
▁गार्ड	-13085
▁ग्लास	-13086
▁चंद्र	-13087
▁चाहें	-13088
▁चेंबर	-13089
▁जनहित	-13090
▁जरिये	-13091
▁जरुरत	-13092
▁जानें	-13093
▁जिसको	-13094
▁ज्याम	-13095
▁टकराव	-13096
▁टास्क	-13097
▁ट्रैक	-13098
▁डालना	-13099
▁डिजिट	-13100
▁डीटीई	-13101
▁डेवेल	-13102
▁डेस्क	-13103
▁तेज़ी	-13104
▁तैरने	-13105
▁तोड़ा	-13106
▁थकावट	-13107
▁थर्मो	-13108
▁थिएटर	-13109
▁दोपहर	-13110
▁धड़कन	-13111
▁ध्रुव	-13112
▁नक्शे	-13113
▁नाजुक	-13114
▁निचली	-13115
▁पठनीय	-13116
▁पायलट	-13117
▁पारगम	-13118
▁पीरिय	-13119
▁पूछना	-13120
▁प्रदू	-13121
▁प्रमो	-13122
▁प्रिक	-13123
▁फोटोक	-13124
▁फोर्क	-13125
▁बचाती	-13126
▁बफर्स	-13127
▁बारिश	-13128
▁बिगड़	-13129
▁बिलों	-13130
▁बेसिस	-13131
▁बैक्ट	-13132
▁ब्राउ	-13133
▁ब्लैक	-13134
▁भारित	-13135
▁भेजता	-13136
▁मंदिर	-13137
▁मरीज़	-13138
▁मरीजो	-13139
▁मानिए	-13140
▁मारना	-13141
▁मुड़ा	-13142
▁मेथिल	-13143
▁मेम्‍	-13144
▁मैप्ड	-13145
▁यंत्र	-13146
▁रखेगा	-13147
▁राउंड	-13148
▁रिजिड	-13149
▁रिलीज	-13150
▁रेजिन	-13151
▁रेसिप	-13152
▁रोल्स	-13153
▁लिगेज	-13154
▁लूँगा	-13155
▁लॉन्च	-13156
▁वर्दी	-13157
▁वाष्प	-13158
▁विजेट	-13159
▁विहीन	-13160
▁शॉर्ट	-13161
▁संपदा	-13162
▁सबस्ट	-13163
▁सर्कल	-13164
▁सहारा	-13165
▁साइनो	-13166
▁सारणी	-13167
▁सियान	-13168
▁सुरंग	-13169
▁सुलझा	-13170
▁सेंटी	-13171
▁सेक्स	-13172
▁सैन्य	-13173
▁सोचने	-13174
▁सोचिए	-13175
▁स्कीम	-13176
▁स्कोर	-13177
▁स्पीच	-13178
▁स्‍टे	-13179
ANGEDCO	-13180
ANTRANS	-13181
अधिनियम	-13182
अविकसित	-13183
एक्सिशन	-13184
क्रिस्ट	-13185
क्लिएज़	-13186
क्लीव्ड	-13187
चुरैटिड	-13188
टिफिकेट	-13189
ड्यूस्ड	-13190
त्तियां	-13191
पंजीकरण	-13192
प्राप्त	-13193
फेरेसिस	-13194
फोरेसिस	-13195
मान्यता	-13196
म्प्लीट	-13197
म्बक्कम	-13198
लएथेनॉल	-13199
विज्ञान	-13200
हिस्टोन	-13201
ाइलेटेड	-13202
ाउंटेंट	-13203
िहाइड्स	-13204
ेरिनियल	-13205
ॉलेकुलर	-13206
ोकैमिकल	-13207
ोफिब्रो	-13208
ोमीटर्स	-13209
्रॉइटिन	-13210
्‍यंजना	-13211
▁अंशदान	-13212
▁अक्षीय	-13213
▁अपनाने	-13214
▁अरुंथथ	-13215
▁आबंधित	-13216
▁आवागमन	-13217
▁आवेशों	-13218
▁इकट्ठे	-13219
▁इनफार्	-13220
▁इलाजों	-13221
▁ईएसओपी	-13222
▁उड़ीसा	-13223
▁उत्साह	-13224
▁उद्धरण	-13225
▁उर्वरक	-13226
▁एक्वाट	-13227
▁एटॉमिक	-13228
▁एनआरआई	-13229
▁एम्बेड	-13230
▁एसपीवी	-13231
▁ऐपरैटस	-13232
▁ऑलिगोड	-13233
▁ओरिजिन	-13234
▁करवाएं	-13235
▁कराधान	-13236
▁कर्त्त	-13237
▁कस्बों	-13238
▁किनारा	-13239
▁केराटन	-13240
▁कॉइल्स	-13241
▁क्लियर	-13242
▁क्वांट	-13243
▁खदानों	-13244
▁खरीदते	-13245
▁गुआनिन	-13246
▁गुच्छे	-13247
▁गुजरता	-13248
▁गुजरती	-13249
▁गुजरते	-13250
▁गुजरात	-13251
▁गॉल्जी	-13252
▁ग्रंथि	-13253
▁ग्रस्त	-13254
▁ग्लोबल	-13255
▁घुमाया	-13256
▁चलेंगे	-13257
▁चुनेगा	-13258
▁चौराहे	-13259
▁छवियां	-13260
▁जांचना	-13261
▁जुटाना	-13262
▁जैसेकि	-13263
▁टरबाइन	-13264
▁टर्न्स	-13265
▁ट्राईए	-13266
▁ट्रिगर	-13267
▁डिवाइस	-13268
▁डीआईएन	-13269
▁डीएनेस	-13270
▁डीटीटी	-13271
▁डेवलपर	-13272
▁त्रुटि	-13273
▁दांतों	-13274
▁दाखिला	-13275
▁दिक्कत	-13276
▁दिखाना	-13277
▁दोगुना	-13278
▁धातुओं	-13279
▁धाराएँ	-13280
▁नवीनता	-13281
▁निकलना	-13282
▁निवारक	-13283
▁नीतिगत	-13284
▁पढ़ाया	-13285
▁परिक्ष	-13286
▁परिधीय	-13287
▁पहुंचे	-13288
▁पायरोल	-13289
▁पुलिया	-13290
▁पूर्ति	-13291
▁पेड़ों	-13292
▁पेनलेस	-13293
▁पेपर्स	-13294
▁पेरेंट	-13295
▁पोस्टल	-13296
▁प्राइम	-13297
▁प्रेरक	-13298
▁फिल्टर	-13299
▁फुलनेस	-13300
▁बत्तीस	-13301
▁बाधाओं	-13302
▁बाॉन्ड	-13303
▁बिन्दु	-13304
▁बीसीएल	-13305
▁बुलाया	-13306
▁बेवाकि	-13307
▁बॉन्डस	-13308
▁ब्लाडर	-13309
▁भेदिया	-13310
▁मशीनें	-13311
▁मांगने	-13312
▁मिलाते	-13313
▁मुकदमे	-13314
▁मॉडल्स	-13315
▁राइट्स	-13316
▁रिलीज़	-13317
▁लड़कों	-13318
▁लाइब्र	-13319
▁लेखकों	-13320
▁लेवल्स	-13321
▁लौटाता	-13322
▁वजाइना	-13323
▁विकृति	-13324
▁विधिवत	-13325
▁विधेयक	-13326
▁वीआईपी	-13327
▁व्यस्त	-13328
▁शिपिंग	-13329
▁संपन्न	-13330
▁संविदा	-13331
▁समझाना	-13332
▁सराहना	-13333
▁सिगरेट	-13334
▁सेवारत	-13335
▁स्मारक	-13336
▁स्‍मॉल	-13337
▁हजारों	-13338
▁हफ्तों	-13339
▁हयालूर	-13340
▁हेट्रो	-13341
▁हेरिंग	-13342
क्रेनियल	-13343
क्लोराइड	-13344
परिवर्तन	-13345
पेप्टाइड	-13346
बीसीएलसी	-13347
रोथेरेपी	-13348
वेलेंट्स	-13349
सिरोलिमस	-13350
सेलरेटेड	-13351
स्पेक्टस	-13352
ोजिनेटेड	-13353
ोफाइब्रो	-13354
ोमावायरस	-13355
्रुवीयता	-13356
▁2005-06	-13357
▁अधीक्षक	-13358
▁अनुबद्ध	-13359
▁अमोनियम	-13360
▁अल्गोरि	-13361
▁अवशिष्ट	-13362
▁अस्वस्थ	-13363
▁आजीविका	-13364
▁आवेदकों	-13365
▁आवेदनों	-13366
▁इकाइयां	-13367
▁इनिशियल	-13368
▁उपलब्धि	-13369
▁एंडोथेल	-13370
▁एनीडिओल	-13371
▁एनीमेशन	-13372
▁एमटीओआर	-13373
▁कंपार्ट	-13374
▁कंबाइंड	-13375
▁कंस्ट्र	-13376
▁काइनेज़	-13377
▁कास्टिक	-13378
▁कीटोन्स	-13379
▁कृत्यों	-13380
▁कोलेजेन	-13381
▁क्रानिक	-13382
▁जनजातीय	-13383
▁जन्तुओं	-13384
▁जालीदार	-13385
▁जीवनकाल	-13386
▁जेनेरिक	-13387
▁टुकड़ों	-13388
▁ट्रस्टी	-13389
▁ट्वेल्व	-13390
▁डीऑक्सी	-13391
▁डीपनिंग	-13392
▁डेनियली	-13393
▁थायराइड	-13394
▁थेरेपीज	-13395
▁दर्शायी	-13396
▁दोहराने	-13397
▁द्विपरत	-13398
▁धार्मिक	-13399
▁निकलेगा	-13400
▁निदानित	-13401
▁निर्णयन	-13402
▁नीतियां	-13403
▁पढ़ेंगे	-13404
▁पहुँचना	-13405
▁पहुंचते	-13406
▁पांचवीं	-13407
▁पायेंगे	-13408
▁पूछेंगे	-13409
▁पेट्रोल	-13410
▁प्रजाति	-13411
▁प्रतिपु	-13412
▁प्रशंसा	-13413
▁प्रॉप्स	-13414
▁फाइब्रश	-13415
▁बताऊँगा	-13416
▁बनायेगा	-13417
▁बांडिंग	-13418
▁बाईलेयर	-13419
▁बायोफिज	-13420
▁बैक्सटर	-13421
▁बौद्धिक	-13422
▁भण्डारण	-13423
▁मजदूरों	-13424
▁मुकाबले	-13425
▁मेजबानी	-13426
▁मेट्रोप	-13427
▁मेडिस्ट	-13428
▁मेलिग़न	-13429
▁मैथेड्स	-13430
▁मैन्नोज	-13431
▁मैलिग्न	-13432
▁मौजूदगी	-13433
▁यूरोपीय	-13434
▁रणनीतिक	-13435
▁रिप्लेस	-13436
▁रूपांतर	-13437
▁लाभकारी	-13438
▁लिखेंगे	-13439
▁लेक्सिट	-13440
▁वर्गमूल	-13441
▁वाक्यों	-13442
▁वायरसेस	-13443
▁विकारों	-13444
▁विक्षेप	-13445
▁विधवाओं	-13446
▁विधानों	-13447
▁विवाहों	-13448
▁विशुद्ध	-13449
▁विस्फोट	-13450
▁वृत्तिक	-13451
▁वेतनमान	-13452
▁वैक्यूम	-13453
▁वोल्टेज	-13454
▁व्यायाम	-13455
▁श्रेष्ठ	-13456
▁संकीर्ण	-13457
▁संतृप्त	-13458
▁संभाव्य	-13459
▁सम्पर्क	-13460
▁सरलीकृत	-13461
▁सल्‍फेट	-13462
▁सहदायिक	-13463
▁सीटीएलए	-13464
▁सुलझाने	-13465
▁सेंटिनल	-13466
▁स्थानिक	-13467
▁स्पास्ट	-13468
▁हाउसिंग	-13469
▁हामीदार	-13470
▁हितधारक	-13471
▁हीटजिनी	-13472
ANTRANSCO	-13473
प्लाज्मिक	-13474
फाइलोकोकस	-13475
बायोलोजिक	-13476
िज़ोटिनिब	-13477
िथेलियोमा	-13478
ोमाइक्रॉन	-13479
▁अग्निशमन	-13480
▁अग्रेसिव	-13481
▁अध्ययनरत	-13482
▁अनिश्चित	-13483
▁अनुभागों	-13484
▁अल्जाइमर	-13485
▁अवस्थाएं	-13486
▁असंतृप्त	-13487
▁इंडोलेंट	-13488
▁इंफ्यूजन	-13489
▁इकोसापें	-13490
▁ईमानदारी	-13491
▁एंटीसेरा	-13492
▁एक्सप्लो	-13493
▁एक्सिसनल	-13494
▁एडजुवेंट	-13495
▁एप्सिलॉन	-13496
▁ऑर्थोलॉग	-13497
▁कलेक्टिव	-13498
▁कार्बन्स	-13499
▁कार्यशील	-13500
▁कूडनकुलम	-13501
▁केमिकल्स	-13502
▁कोवेलेंट	-13503
▁क्वार्टर	-13504
▁गणपूर्ति	-13505
▁ग्रुपिंग	-13506
▁चिन्‍हों	-13507
▁चौड़ीकरण	-13508
▁जंक्शनों	-13509
▁ज़वाबदेह	-13510
▁जीआईएसटी	-13511
▁डायफ्राम	-13512
▁डिजाइनों	-13513
▁डेस्मोइड	-13514
▁तिरुवरूर	-13515
▁देनदारों	-13516
▁नुक्लियस	-13517
▁न्यूरोनल	-13518
▁पाइरेनोज	-13519
▁पार्टिशन	-13520
▁पुनर्मूल	-13521
▁पुनर्वसन	-13522
▁पेशेवरों	-13523
▁पॉज़िटिव	-13524
▁प्रोडक्ट	-13525
▁प्रोसीजर	-13526
▁प्लेटलेट	-13527
▁फॉर्वर्ड	-13528
▁फ्लोराइड	-13529
▁बॉंन्डिड	-13530
▁मंदाकिनी	-13531
▁महाविद्य	-13532
▁मिश्रणों	-13533
▁मेम्बरान	-13534
▁मोलारिटी	-13535
▁मोलालिटी	-13536
▁राजनैतिक	-13537
▁रेटिनोइक	-13538
▁लापरवाही	-13539
▁लैंगमुइर	-13540
▁लैंग्वेज	-13541
▁लोकतंत्र	-13542
▁विशिष्‍ट	-13543
▁वेस्टर्न	-13544
▁व्यवसायी	-13545
▁संयोजनों	-13546
▁सपोर्टिव	-13547
▁समस्याएँ	-13548
▁समाविष्ट	-13549
▁समितियां	-13550
▁सर्विसेज	-13551
▁सांत्वना	-13552
▁सांविधिक	-13553
▁सेरेमाइड	-13554
▁सॉल्यूशन	-13555
▁स्टूडियो	-13556
▁स्थिरांक	-13557
▁स्नायविक	-13558
▁स्वर्णिम	-13559
▁हाइड्रेट	-13560
▁हाईकोर्ट	-13561
केमेस्ट्री	-13562
कोलेस्ट्रो	-13563
ियोलॉजिस्ट	-13564
्यूक्लिएज़	-13565
्रोस्पाइनल	-13566
▁अंतःस्राव	-13567
▁अंतर्वेशन	-13568
▁अपर्याप्त	-13569
▁अपेक्षाओं	-13570
▁अस्पैरजीन	-13571
▁आइसोमेरिक	-13572
▁इंटरफेरॉन	-13573
▁इनड्यूस्ड	-13574
▁उत्पादकता	-13575
▁उपइकाईयों	-13576
▁एकाउंटेंट	-13577
▁कार्बोनेट	-13578
▁कुंडलीदार	-13579
▁कैटालिटिक	-13580
▁क्रोमोसोम	-13581
▁ग्रंथियों	-13582
▁ग्रेडिएंट	-13583
▁ट्राइमर्स	-13584
▁ट्रामवेज़	-13585
▁डाईमराइज़	-13586
▁डायमेंशनल	-13587
▁डायहाइड्र	-13588
▁डिस्क्रीट	-13589
▁डेरीवेटिव	-13590
▁तंत्रिकीय	-13591
▁तकनीकियों	-13592
▁तात्कालिक	-13593
▁दुर्भाग्य	-13594
▁ध्रुवीकृत	-13595
▁नगरपालिका	-13596
▁निकटवर्ती	-13597
▁निराश्रित	-13598
▁न्यायसंगत	-13599
▁पांडिचेरी	-13600
▁पारिस्थित	-13601
▁पूर्वाकलन	-13602
▁प्रतिधारण	-13603
▁प्रतिरोधी	-13604
▁प्रतिवर्ष	-13605
▁प्रिंटिंग	-13606
▁फ़ेनोटाइप	-13607
▁फ्रेगमेंट	-13608
▁ब्रूज़िंग	-13609
▁ब्रेकवाटर	-13610
▁ब्लास्ट्स	-13611
▁भागीदारों	-13612
▁भावनात्मक	-13613
▁मध्यस्थों	-13614
▁मायक्सॉइड	-13615
▁मिनीमैक्स	-13616
▁यादृच्छिक	-13617
▁रिमॉडलिंग	-13618
▁रूपान्तरण	-13619
▁रेज्यूमों	-13620
▁वायुमार्ग	-13621
▁विकासवादी	-13622
▁विनिर्देश	-13623
▁विस्थापित	-13624
▁वैश्वासिक	-13625
▁शुद्धिकरण	-13626
▁साहित्यिक	-13627
▁सेगमेंट्स	-13628
▁सेवाकालीन	-13629
▁स्टार्टअप	-13630
▁स्थितियाँ	-13631
इंफ्लेमेटरी	-13632
ट्रांसफरेज़	-13633
डीप्लास्टिक	-13634
पेरीसाइटोमा	-13635
रितुक्सिमाब	-13636
ोग्लाइकेन्स	-13637
▁अनुपस्थिति	-13638
▁अभिव्यक्ति	-13639
▁अव्यवस्थित	-13640
▁इंडस्ट्रीज	-13641
▁इनऑर्गेनिक	-13642
▁इनफार्मेशन	-13643
▁उपचारात्मक	-13644
▁उपयोगिताओं	-13645
▁उपलब्धियां	-13646
▁एट्रिब्यूट	-13647
▁एब्डोमिनोप	-13648
▁एस्पैरेजिन	-13649
▁कोंफिगरेशन	-13650
▁टिप्पणियों	-13651
▁डाइऑक्साइड	-13652
▁डायरेक्टली	-13653
▁डिजिटलीकरण	-13654
▁डिसऑर्डर्स	-13655
▁डेवेलपमेंट	-13656
▁थिरुक्कुरल	-13657
▁निर्देशिका	-13658
▁निष्कर्षों	-13659
▁नॉनक्लीव्ड	-13660
▁नोमनक्लेचर	-13661
▁न्युक्लियर	-13662
▁पंक्तिबद्ध	-13663
▁पर्यवेक्षण	-13664
▁पिलोसाइटिक	-13665
▁पॉलीक्लोनल	-13666
▁पोलारिज़्ड	-13667
▁प्रतिबंधों	-13668
▁प्राधिकारी	-13669
▁प्रॉपर्टीज	-13670
▁बायोकैमिकल	-13671
▁बैक्टिरियल	-13672
▁मात्रात्मक	-13673
▁मेम्‍ब्रेन	-13674
▁मेलीग्नेंट	-13675
▁मैटीरियल्स	-13676
▁म्यूच्युअल	-13677
▁विस्कोसिटी	-13678
▁श्रृंखलाओं	-13679
▁संगठनात्मक	-13680
▁सर्टिफिकेट	-13681
▁सेंटीग्रेड	-13682
▁सैकेराइड्स	-13683
▁स्ट्रैंड्स	-13684
▁हयालूरोनिक	-13685
▁हेटरोपॉलीस	-13686
सबक्यूटेनियस	-13687
▁अभिक्रियाएं	-13688
▁अभिव्‍यंजना	-13689
▁आइसोल्यूसिन	-13690
▁आउटसोर्सिंग	-13691
▁एक्वाटोरियल	-13692
▁एडिपोसाइट्स	-13693
▁एल्डिहाइड्स	-13694
▁एसएमएआरसीबी	-13695
▁कनेक्टिविटी	-13696
▁कोवैलेन्टली	-13697
▁क्रिस्टलाइज	-13698
▁ट्रांसडक्शन	-13699
▁दृष्टिकोणों	-13700
▁निक्षेपागार	-13701
▁न्यूरोसाइंस	-13702
▁पीडब्ल्यूडी	-13703
▁प्रतीकात्मक	-13704
▁प्रोटोफिलाम	-13705
▁फार्मास्यूट	-13706
▁फॉस्फोलिपेस	-13707
▁रेखाचित्रों	-13708
▁लाइब्रेरियन	-13709
▁लिपिडोमिक्स	-13710
▁लैप्रोस्कोप	-13711
▁ल्यूकोट्रिए	-13712
▁संरचनात्‍मक	-13713
▁हाइड्राज़िन	-13714
▁हाइड्रोनियम	-13715
▁हाइड्रोलाइज	-13716
▁ह्युरिस्टिक	-13717
एंजियोजेनेसिस	-13718
कार्टोइकोइड्स	-13719
िनोब्लास्टोमा	-13720
▁अनाप्लास्टिक	-13721
▁एम्बोलिज़ेशन	-13722
▁कीटोहेक्सोज़	-13723
▁कुशलतापूर्वक	-13724
▁कॉन्ड्रॉइटिन	-13725
▁पॉलीसेकेराइड	-13726
▁प्रदर्शनियों	-13727
▁प्रधानमंत्री	-13728
▁बायोमॉलेकुलर	-13729
▁मेटाबोलिज्‍म	-13730
▁मोनोसैकेराइड	-13731
▁सबक्यूटेनियस	-13732
▁स्पास्टीसिटी	-13733
▁स्फिंगोलिपिड	-13734
▁स्वीकारकर्ता	-13735
ोफिब्रोसारकोमा	-13736
▁इंटेंसिफिकेशन	-13737
▁एंटीबायोटिक्स	-13738
▁काइलोमाइक्रॉन	-13739
▁पुनर्व्यवस्था	-13740
▁पॉलीसैकराइड्स	-13741
▁मॉलेक्‍यूल्‍स	-13742
▁विश्लेषणात्मक	-13743
▁सावधानीपूर्वक	-13744
▁स्टेफाइलोकोकस	-13745
ोफाइब्रोमैटोसिस	-13746
▁इंट्रासेल्युलर	-13747
▁इकोसापेंटेनोइक	-13748
▁उत्तरदायित्वों	-13749
▁कॉन्ट्रैक्टाइल	-13750
▁ट्राइग्लिसराइड	-13751
▁पुनर्मूल्यांकन	-13752
▁स्प्लेनेक्टॉमी	-13753
▁हाइड्रोजिनेटेड	-13754
कोलेस्ट्रोलेमिया	-13755
▁ट्रांसक्रिप्‍शन	-13756
▁डेस्मोप्लास्टिक	-13757
▁मायलोमोनोसाइटिक	-13758
▁लेक्सिट्रोप्सिन	-13759
▁विश्वविद्यालयों	-13760
./	-13761
11	-13762
37	-13763
42	-13764
65	-13765
81	-13766
89	-13767
92	-13768
97	-13769
:0	-13770
BO	-13771
CE	-13772
DA	-13773
DL	-13774
FC	-13775
ap	-13776
aw	-13777
ok	-13778
um	-13779
up	-13780
ία	-13781
ημ	-13782
ँह	-13783
ंछ	-13784
अभ	-13785
अव	-13786
आय	-13787
कई	-13788
छा	-13789
टम	-13790
ण्	-13791
थि	-13792
दख	-13793
धू	-13794
पस	-13795
बु	-13796
मब	-13797
मय	-13798
रप	-13799
वय	-13800
वॉ	-13801
षक	-13802
षद	-13803
हल	-13804
़ँ	-13805
ोई	-13806
▁!	-13807
▁o	-13808
▁q	-13809
▁χ	-13810
▁ष	-13811
,65	-13812
-1,	-13813
-15	-13814
.05	-13815
11.	-13816
22.	-13817
50%	-13818
700	-13819
ALL	-13820
ART	-13821
CCL	-13822
ELA	-13823
IDs	-13824
IPO	-13825
NCL	-13826
ash	-13827
esh	-13828
gin	-13829
ine	-13830
int	-13831
ist	-13832
net	-13833
nti	-13834
ted	-13835
und	-13836
ंजस	-13837
ंपा	-13838
इडल	-13839
एसई	-13840
ओटी	-13841
करई	-13842
काउ	-13843
कॉन	-13844
क्ज	-13845
क्फ	-13846
खने	-13847
खलन	-13848
गढ़	-13849
गरी	-13850
गें	-13851
गैर	-13852
ग्म	-13853
च्ड	-13854
छित	-13855
जिस	-13856
झसे	-13857
टरी	-13858
टेक	-13859
टैक	-13860
टॉप	-13861
डोर	-13862
तमक	-13863
तरा	-13864
दुल	-13865
दोष	-13866
नाग	-13867
न्द	-13868
पोस	-13869
फ़े	-13870
फिं	-13871
फेस	-13872
फॉर	-13873
बहू	-13874
बुक	-13875
बुल	-13876
भेद	-13877
माय	-13878
मिथ	-13879
मैं	-13880
यती	-13881
योत	-13882
रूम	-13883
रॉन	-13884
रोड	-13885
लीफ	-13886
लें	-13887
वरम	-13888
विस	-13889
वीय	-13890
वेज	-13891
वेत	-13892
वेव	-13893
शनी	-13894
शित	-13895
शिश	-13896
संय	-13897
सां	-13898
सिल	-13899
सिव	-13900
हां	-13901
हेल	-13902
़लत	-13903
ाके	-13904
ाज़	-13905
ाता	-13906
ामर	-13907
ासी	-13908
िंथ	-13909
िंस	-13910
िडम	-13911
िफ़	-13912
िवा	-13913
िसन	-13914
िसल	-13915
ुगन	-13916
ूठी	-13917
ूदी	-13918
ूपी	-13919
ेपन	-13920
ेमट	-13921
ॉली	-13922
ोएड	-13923
ोखे	-13924
ोजी	-13925
ोपो	-13926
ोफ़	-13927
ोबै	-13928
ोरु	-13929
्टम	-13930
्रि	-13931
्‍त	-13932
▁(6	-13933
▁05	-13934
▁1)	-13935
▁2)	-13936
▁7,	-13937
▁71	-13938
▁77	-13939
▁81	-13940
▁89	-13941
▁92	-13942
▁BL	-13943
▁GI	-13944
▁LP	-13945
▁gr	-13946
▁or	-13947
▁अक	-13948
▁इज	-13949
▁इल	-13950
▁ऑट	-13951
▁ओव	-13952
▁खि	-13953
▁गी	-13954
▁चा	-13955
▁चो	-13956
▁जठ	-13957
▁बक	-13958
▁मध	-13959
▁्र	-13960
-104	-13961
0000	-13962
1999	-13963
7.19	-13964
GIST	-13965
IMRT	-13966
SFIO	-13967
TNEB	-13968
avan	-13969
rans	-13970
tnre	-13971
ंटेड	-13972
ंट्स	-13973
ंडेल	-13974
ंदों	-13975
ंबरम	-13976
अमीन	-13977
आरजी	-13978
आरों	-13979
एमजी	-13980
एमटी	-13981
ओनिन	-13982
किमी	-13983
किसी	-13984
कोटई	-13985
क्टा	-13986
गणित	-13987
गादम	-13988
गामी	-13989
चिपा	-13990
चिया	-13991
चुरी	-13992
छाती	-13993
जिगर	-13994
जोखा	-13995
झिशन	-13996
टरों	-13997
टायन	-13998
टीके	-13999
ट्रब	-14000
डीएल	-14001
डोनर	-14002
णानि	-14003
ताएं	-14004
तेजी	-14005
थाईल	-14006
धवार	-14007
धाकृ	-14008
नलोड	-14009
नीचे	-14010
न्शल	-14011
न्‍य	-14012
परोट	-14013
पेंड	-14014
पेरु	-14015
प्रा	-14016
प्री	-14017
फज़ी	-14018
फ़ेस	-14019
फाफे	-14020
फ्था	-14021
फ्रे	-14022
फ्लो	-14023
बीटा	-14024
मरीज	-14025
मिनर	-14026
मीयर	-14027
मोनो	-14028
म्मच	-14029
योगी	-14030
रचित	-14031
रलोक	-14032
राइब	-14033
रियर	-14034
र्ची	-14035
र्टन	-14036
र्थक	-14037
र्फ़	-14038
लाइट	-14039
लाबी	-14040
ल्मा	-14041
ल्सी	-14042
वर्ग	-14043
शनिक	-14044
शुगर	-14045
ष्ठी	-14046
ष्णन	-14047
सड़क	-14048
सामी	-14049
सीधे	-14050
स्तु	-14051
स्‍प	-14052
हार्	-14053
ाइंग	-14054
ाइंट	-14055
ाज्य	-14056
ाटिन	-14057
ापित	-14058
ामीन	-14059
ाम्प	-14060
ालने	-14061
ालॉग	-14062
ालों	-14063
ाल्स	-14064
िंदा	-14065
िज़न	-14066
िटाइ	-14067
िटेट	-14068
िडेट	-14069
ितों	-14070
िनाइ	-14071
िनॉल	-14072
िनोज	-14073
िबें	-14074
िमित	-14075
िमुख	-14076
िमेन	-14077
िम्फ	-14078
ियूर	-14079
ियोल	-14080
ुलती	-14081
ुल्य	-14082
ुष्ट	-14083
ूकोस	-14084
ूर्त	-14085
ेंटी	-14086
ेनिल	-14087
ेनेज	-14088
ेरिट	-14089
ेरेप	-14090
ैटिस	-14091
ैमिक	-14092
ैरिन	-14093
ैसेज	-14094
ॉट्स	-14095
ॉम्स	-14096
ोडिक	-14097
ोनरी	-14098
ोबाय	-14099
ोमिन	-14100
ोल्स	-14101
ोषित	-14102
्रोन	-14103
▁(2)	-14104
▁(31	-14105
▁1,0	-14106
▁104	-14107
▁113	-14108
▁12,	-14109
▁133	-14110
▁149	-14111
▁152	-14112
▁161	-14113
▁165	-14114
▁178	-14115
▁188	-14116
▁2,7	-14117
▁210	-14118
▁285	-14119
▁3,2	-14120
▁350	-14121
▁36.	-14122
▁380	-14123
▁4,1	-14124
▁40.	-14125
▁42.	-14126
▁47.	-14127
▁51%	-14128
▁51.	-14129
▁6.0	-14130
▁800	-14131
▁900	-14132
▁IIA	-14133
▁IIB	-14134
▁Ltd	-14135
▁NSA	-14136
▁SMA	-14137
▁VII	-14138
▁and	-14139
▁min	-14140
▁nic	-14141
▁χημ	-14142
▁अधू	-14143
▁अफ्	-14144
▁आकर	-14145
▁इंद	-14146
▁इंफ	-14147
▁इकठ	-14148
▁इम्	-14149
▁उडन	-14150
▁उदय	-14151
▁उलझ	-14152
▁ऋणी	-14153
▁एंट	-14154
▁एको	-14155
▁एनो	-14156
▁एबी	-14157
▁एसए	-14158
▁एस्	-14159
▁ऐम्	-14160
▁औचक	-14161
▁कलर	-14162
▁कलै	-14163
▁कां	-14164
▁किक	-14165
▁किर	-14166
▁कोह	-14167
▁खबर	-14168
▁खरब	-14169
▁खरा	-14170
▁गंध	-14171
▁गें	-14172
▁गॉस	-14173
▁ग्व	-14174
▁जमी	-14175
▁जिय	-14176
▁जेड	-14177
▁जेब	-14178
▁टैग	-14179
▁डीम	-14180
▁डैन	-14181
▁ढील	-14182
▁तैं	-14183
▁थाई	-14184
▁थिट	-14185
▁थिर	-14186
▁थुथ	-14187
▁थुर	-14188
▁दमन	-14189
▁दीप	-14190
▁धान	-14191
▁नज़	-14192
▁नहर	-14193
▁निध	-14194
▁निव	-14195
▁पति	-14196
▁पीस	-14197
▁पेल	-14198
▁पैन	-14199
▁पोस	-14200
▁फेव	-14201
▁फेह	-14202
▁बचत	-14203
▁भंग	-14204
▁भोग	-14205
▁मनो	-14206
▁माध	-14207
▁मिं	-14208
▁मैग	-14209
▁यूब	-14210
▁योक	-14211
▁रीड	-14212
▁रेफ	-14213
▁रॉक	-14214
▁लाय	-14215
▁लिय	-14216
▁लीव	-14217
▁लेस	-14218
▁वकी	-14219
▁वोम	-14220
▁शमन	-14221
▁शरद	-14222
▁शान	-14223
▁शैल	-14224
▁सटे	-14225
▁साय	-14226
▁सिट	-14227
▁सूट	-14228
▁हेम	-14229
▁हॉल	-14230
ester	-14231
ginet	-14232
ंजस्य	-14233
आइसोम	-14234
आईएनए	-14235
इसमें	-14236
ईकोमा	-14237
एडीपी	-14238
एपीएल	-14239
काप्प	-14240
क्लिक	-14241
क्सेट	-14242
ग्नार	-14243
ज़र्स	-14244
जूगेट	-14245
जोखिम	-14246
टेटेड	-14247
टेरिक	-14248
टेलिज	-14249
टॉन्स	-14250
ट्राल	-14251
ट्रिप	-14252
डियोल	-14253
तमकरण	-14254
निक्स	-14255
नेन्ट	-14256
न्टिग	-14257
न्नाम	-14258
पट्टी	-14259
पर्सन	-14260
पलायम	-14261
पीएसी	-14262
पीटोप	-14263
पुरुष	-14264
पेंशन	-14265
पोसिस	-14266
फेटेड	-14267
फ्लाई	-14268
बयानी	-14269
बिल्ड	-14270
बीसों	-14271
माइलो	-14272
मानना	-14273
मुद्र	-14274
मोमाब	-14275
रिब्स	-14276
रिहार	-14277
रेन्स	-14278
रोसीन	-14279
र्सिन	-14280
ल्पित	-14281
वाड़ी	-14282
विराम	-14283
वेशित	-14284
सिजनल	-14285
सूचना	-14286
सेकंड	-14287
सेन्स	-14288
स्खलन	-14289
स्टेट	-14290
स्तूर	-14291
स्थगन	-14292
स्प्ल	-14293
ाइक्स	-14294
ाइज़ड	-14295
ाइनरी	-14296
ान्तर	-14297
ारेनल	-14298
िएन्ट	-14299
िओमास	-14300
िकुलम	-14301
िनिमा	-14302
िन्‍स	-14303
ियेपन	-14304
िश्रम	-14305
िसेंस	-14306
ीटिंग	-14307
ीडियम	-14308
ीमेंट	-14309
ुपालन	-14310
ूटेशन	-14311
ेंसीज	-14312
ेशियम	-14313
ेशिया	-14314
ैप्सड	-14315
ॉलिटन	-14316
ोक्ता	-14317
ोजेंस	-14318
ोपैथी	-14319
ोफेरी	-14320
ोफॉस्	-14321
ोलोजी	-14322
ोष्ठी	-14323
ोसाइड	-14324
ोसिंथ	-14325
्यूअस	-14326
्रहित	-14327
्रापी	-14328
्‍यान	-14329
्‍वेत	-14330
▁(200	-14331
▁103.	-14332
▁11,2	-14333
▁15.0	-14334
▁15/-	-14335
▁1600	-14336
▁1947	-14337
▁1960	-14338
▁1965	-14339
▁1972	-14340
▁1973	-14341
▁1976	-14342
▁2017	-14343
▁2020	-14344
▁CTLA	-14345
▁IIIA	-14346
▁IIIE	-14347
▁JMML	-14348
▁RELA	-14349
▁TKIs	-14350
▁VEGF	-14351
▁VIII	-14352
▁anti	-14353
▁dash	-14354
▁from	-14355
▁went	-14356
▁अट्र	-14357
▁अड्ड	-14358
▁अधिव	-14359
▁अनुर	-14360
▁अनुश	-14361
▁अन्व	-14362
▁अबनो	-14363
▁अभिर	-14364
▁अरिव	-14365
▁अरैब	-14366
▁अल्क	-14367
▁अवां	-14368
▁आंसू	-14369
▁आईडी	-14370
▁आउटर	-14371
▁आएगा	-14372
▁आदमी	-14373
▁आपसी	-14374
▁इन्व	-14375
▁इसपर	-14376
▁ईसीओ	-14377
▁एकोज	-14378
▁एचपी	-14379
▁एन्व	-14380
▁एफटी	-14381
▁एम्प	-14382
▁एलटी	-14383
▁एसीओ	-14384
▁ऑफ़र	-14385
▁ऑर्ड	-14386
▁ऑस्ट	-14387
▁ओस्ट	-14388
▁औसतन	-14389
▁कंची	-14390
▁कन्व	-14391
▁कमाई	-14392
▁कराए	-14393
▁काँच	-14394
▁कांख	-14395
▁कागज	-14396
▁काटा	-14397
▁कालम	-14398
▁काला	-14399
▁काली	-14400
▁कॉज़	-14401
▁कोइफ	-14402
▁कोने	-14403
▁क्लब	-14404
▁खिलौ	-14405
▁गहरी	-14406
▁ग़लत	-14407
▁गिना	-14408
▁गोता	-14409
▁घिरे	-14410
▁चलकर	-14411
▁चीरे	-14412
▁छाया	-14413
▁जबरद	-14414
▁जमान	-14415
▁जीजी	-14416
▁जेली	-14417
▁झूठी	-14418
▁डायस	-14419
▁डेंड	-14420
▁डोज़	-14421
▁ड्यू	-14422
▁ताकत	-14423
▁ताजा	-14424
▁थ्रे	-14425
▁दरवा	-14426
▁दलों	-14427
▁दसवी	-14428
▁दार्	-14429
▁दावे	-14430
▁धुंध	-14431
▁नग्न	-14432
▁निधन	-14433
▁नियर	-14434
▁निवल	-14435
▁नुकी	-14436
▁नेचर	-14437
▁नॉनज	-14438
▁पम्प	-14439
▁परोप	-14440
▁पाइल	-14441
▁पारा	-14442
▁पूंछ	-14443
▁पूजा	-14444
▁पैली	-14445
▁प्यू	-14446
▁फर्क	-14447
▁फ़ीड	-14448
▁फ़ैस	-14449
▁फीडर	-14450
▁फेटल	-14451
▁फेमा	-14452
▁फोलो	-14453
▁फ्रै	-14454
▁बजाए	-14455
▁बजाज	-14456
▁बस्त	-14457
▁बाँध	-14458
▁बाइक	-14459
▁बाइड	-14460
▁बिचौ	-14461
▁बीटी	-14462
▁बुरी	-14463
▁बेंड	-14464
▁बैठे	-14465
▁ब्री	-14466
▁भट्ट	-14467
▁भुगत	-14468
▁भूजल	-14469
▁भ्रम	-14470
▁मकान	-14471
▁मनोज	-14472
▁मलिग	-14473
▁माँग	-14474
▁मातृ	-14475
▁मिसे	-14476
▁मुँह	-14477
▁मोटी	-14478
▁म्यु	-14479
▁म्‍य	-14480
▁यकीन	-14481
▁यूपी	-14482
▁रसोई	-14483
▁रहीं	-14484
▁रेटी	-14485
▁रोका	-14486
▁रोचक	-14487
▁रोधक	-14488
▁लगाई	-14489
▁लाइफ	-14490
▁लाता	-14491
▁लिंफ	-14492
▁लेवी	-14493
▁वक्फ	-14494
▁वर्ड	-14495
▁वल्व	-14496
▁वेटर	-14497
▁वॉकर	-14498
▁वॉटर	-14499
▁वोयड	-14500
▁शादी	-14501
▁संवै	-14502
▁सत्‍	-14503
▁सफाई	-14504
▁सब्ज	-14505
▁साइब	-14506
▁सिखा	-14507
▁सीआर	-14508
▁सीएच	-14509
▁सूजी	-14510
▁सूजे	-14511
▁सेंस	-14512
▁सेडि	-14513
▁सोडा	-14514
▁स्पो	-14515
▁स्वत	-14516
▁हरकत	-14517
▁हर्ट	-14518
▁हावी	-14519
▁हियर	-14520
▁हेमो	-14521
▁हैऔर	-14522
ंटिस्ट	-14523
आंतरिक	-14524
आउटपुट	-14525
आरटीपी	-14526
आवश्यक	-14527
ईकोमास	-14528
एमडीएस	-14529
कृष्‍ट	-14530
क्‍टीर	-14531
ग्मन्ट	-14532
जनजाति	-14533
ज़निंग	-14534
जीआईएस	-14535
टीएनआर	-14536
ड़ियाँ	-14537
डीएचसी	-14538
ड्यूसर	-14539
णानिधि	-14540
त्राशय	-14541
द्वारा	-14542
ध्यापक	-14543
निवासी	-14544
न्तरिक	-14545
न्याया	-14546
न्यूरा	-14547
पश्चिम	-14548
पेशेंट	-14549
प्रमुख	-14550
प्रेषण	-14551
फार्मर	-14552
फोलियो	-14553
मॉड्यू	-14554
रांत्र	-14555
रियर्स	-14556
र्टनेस	-14557
लिंग्स	-14558
लेनोमा	-14559
वैल्यू	-14560
वॉचफुल	-14561
शिक्षक	-14562
शिशुओं	-14563
सलियों	-14564
सीएमएल	-14565
स्टेंट	-14566
ारातीत	-14567
ार्किक	-14568
िकर्ता	-14569
िमिटेड	-14570
ियोट्स	-14571
िशिष्ट	-14572
ुमोमाब	-14573
ेंड्रो	-14574
ेसिटाइ	-14575
ॉर्टिक	-14576
ोग्राफ	-14577
ोप्रोल	-14578
ोमेसेन	-14579
ोसर्जन	-14580
ोहिस्ट	-14581
्यूम्स	-14582
▁10000	-14583
▁2,500	-14584
▁2007,	-14585
▁Ravan	-14586
▁trans	-14587
▁अग्नि	-14588
▁अटेंड	-14589
▁अनडिफ	-14590
▁अनोखे	-14591
▁अपघटन	-14592
▁अपलोड	-14593
▁अफ्री	-14594
▁अभिनव	-14595
▁अय्यन	-14596
▁आंध्र	-14597
▁आच्छा	-14598
▁आठवें	-14599
▁आब्ज़	-14600
▁आर्गन	-14601
▁आश्रय	-14602
▁इमारत	-14603
▁इविंग	-14604
▁इशारा	-14605
▁उंडेल	-14606
▁उठाएं	-14607
▁उठाते	-14608
▁उपनाम	-14609
▁उपर्य	-14610
▁एडर्स	-14611
▁एनरॉन	-14612
▁एनिमल	-14613
▁एपीएल	-14614
▁एमाइड	-14615
▁एसएफ़	-14616
▁एसएसए	-14617
▁एस्पर	-14618
▁ऐट्रब	-14619
▁ऑपरेट	-14620
▁ऑलिगो	-14621
▁कंटीन	-14622
▁कदमों	-14623
▁कमाया	-14624
▁कराएँ	-14625
▁कविता	-14626
▁काउंस	-14627
▁काटकर	-14628
▁किनेस	-14629
▁क्रिस	-14630
▁क्रीक	-14631
▁क्लोथ	-14632
▁खतरों	-14633
▁खासकर	-14634
▁खेलता	-14635
▁खेलते	-14636
▁खेलों	-14637
▁खोखले	-14638
▁गणवेश	-14639
▁गेस्ट	-14640
▁ग्रीन	-14641
▁ग्लिस	-14642
▁घटाने	-14643
▁घटाया	-14644
▁घूमते	-14645
▁घेरता	-14646
▁चढ़ाई	-14647
▁चमकती	-14648
▁चम्मच	-14649
▁चुकता	-14650
▁चेयूर	-14651
▁चौबीस	-14652
▁जहा़ँ	-14653
▁जिसपर	-14654
▁जुलती	-14655
▁जेलों	-14656
▁जॉइंट	-14657
▁टिशुज	-14658
▁टीएजी	-14659
▁टेंडर	-14660
▁ट्यूट	-14661
▁ट्रिस	-14662
▁डिएनए	-14663
▁डिफ्र	-14664
▁डिबें	-14665
▁डिमें	-14666
▁डेक्स	-14667
▁तुच्छ	-14668
▁थ्रेस	-14669
▁दर्जे	-14670
▁दर्शन	-14671
▁दावों	-14672
▁देखती	-14673
▁नासोफ	-14674
▁निकली	-14675
▁निभाई	-14676
▁नेत्र	-14677
▁नोबेल	-14678
▁नौवीं	-14679
▁न्यास	-14680
▁पढ़ें	-14681
▁परमान	-14682
▁परिषद	-14683
▁पाउंड	-14684
▁पाटने	-14685
▁पीडिए	-14686
▁पूछते	-14687
▁पेम्ब	-14688
▁पेरें	-14689
▁पैराम	-14690
▁पॉलिए	-14691
▁पॉलिस	-14692
▁प्यास	-14693
▁प्रिड	-14694
▁प्रिय	-14695
▁प्लाक	-14696
▁प्‍ला	-14697
▁फैलना	-14698
▁फॉल्स	-14699
▁फॉस्‍	-14700
▁फ्रेग	-14701
▁बंदूक	-14702
▁बचाता	-14703
▁बचाना	-14704
▁बच्चा	-14705
▁बढ़ें	-14706
▁बताये	-14707
▁बनाकर	-14708
▁बनायी	-14709
▁बनेगा	-14710
▁बालों	-14711
▁बीजों	-14712
▁बॉवेल	-14713
▁ब्रेथ	-14714
▁ब्लॉट	-14715
▁भट्ठा	-14716
▁भवानी	-14717
▁मशरूम	-14718
▁मांगी	-14719
▁माउंट	-14720
▁मिस्र	-14721
▁मुझसे	-14722
▁मुड़ी	-14723
▁मूर्ख	-14724
▁मेट्र	-14725
▁मैसेज	-14726
▁मॉलीक	-14727
▁मोहरा	-14728
▁यहूदी	-14729
▁रंगों	-14730
▁रहेगी	-14731
▁रिलीव	-14732
▁रुकने	-14733
▁रेस्प	-14734
▁रोटरी	-14735
▁लंप्स	-14736
▁लेग्स	-14737
▁लैटिस	-14738
▁लॉरिक	-14739
▁वर्कर	-14740
▁वर्गी	-14741
▁वल्वर	-14742
▁विराम	-14743
▁विल्ल	-14744
▁विस्क	-14745
▁शब्‍द	-14746
▁शील्ड	-14747
▁शॉफ्ट	-14748
▁शोधों	-14749
▁श्रील	-14750
▁संघटन	-14751
▁संघीय	-14752
▁संदेह	-14753
▁संभाग	-14754
▁सर्वा	-14755
▁सल्फर	-14756
▁सस्ती	-14757
▁साइज़	-14758
▁साउंड	-14759
▁साड़ी	-14760
▁सुनते	-14761
▁सूर्य	-14762
▁सृजित	-14763
▁सेरिब	-14764
▁स्त्र	-14765
▁स्पीड	-14766
▁स्फिं	-14767
▁स्मॉल	-14768
▁स्लैश	-14769
▁स्वाद	-14770
▁स्वेट	-14771
▁हटाएं	-14772
▁हटाकर	-14773
▁हराया	-14774
▁हर्पी	-14775
▁हल्के	-14776
▁हूबहू	-14777
▁हेड्स	-14778
अधिकांश	-14779
एनएचएआई	-14780
औपचारिक	-14781
ग्राउंड	-14782
ट्रोस्‍	-14783
त्याशित	-14784
धारपुरम	-14785
नाइजेशन	-14786
नेमिक्स	-14787
परोटॉमी	-14788
पुलियों	-14789
फर्मेशन	-14790
फेरोसिस	-14791
फॉरवर्ड	-14792
ब्धियों	-14793
मेट्रिक	-14794
मैटरियल	-14795
राफेनिब	-14796
रिहार्य	-14797
रेंशियल	-14798
लग्लिसर	-14799
विधियों	-14800
वैक्सीन	-14801
व्यक्ति	-14802
व्यवहार	-14803
सोसिएशन	-14804
स्टीबुल	-14805
स्‍वरूप	-14806
ाइज़िंग	-14807
ान्तरित	-14808
ार्डेशन	-14809
िंगनल्ल	-14810
िरियोनल	-14811
ेटाइज्ड	-14812
ोबैक्टर	-14813
ोमाइलीन	-14814
ोमिक्सर	-14815
ोस्फॉस्	-14816
्यूरियन	-14817
▁15,000	-14818
▁अंतरों	-14819
▁अपनाते	-14820
▁अपूर्ण	-14821
▁अब्दुल	-14822
▁अभिन्न	-14823
▁अभिमुख	-14824
▁अमाउंट	-14825
▁अय्यान	-14826
▁आँकड़े	-14827
▁आईबीएम	-14828
▁आकारों	-14829
▁आधारों	-14830
▁आयोनिक	-14831
▁आरबीसी	-14832
▁आरयूबी	-14833
▁आरोपों	-14834
▁आर्टरी	-14835
▁आह्वान	-14836
▁इरविंग	-14837
▁उत्सुक	-14838
▁उद्धृत	-14839
▁ऊष्‍मा	-14840
▁ऋणपत्र	-14841
▁एक्सेस	-14842
▁एट्टीन	-14843
▁एनकोडर	-14844
▁एपीटोप	-14845
▁एमिनोप	-14846
▁एरियाज	-14847
▁एलकेजी	-14848
▁एलपीडी	-14849
▁एसबीआई	-14850
▁ओवरलोड	-14851
▁ओवर्टन	-14852
▁कस्तूर	-14853
▁कहूँगा	-14854
▁केएमएस	-14855
▁केटायन	-14856
▁कैनिबल	-14857
▁कॉन्फ़	-14858
▁कॉम्बी	-14859
▁गड़बड़	-14860
▁गारंटर	-14861
▁गुलाबी	-14862
▁गॉसियन	-14863
▁ग्रीवा	-14864
▁चक्रीय	-14865
▁चार्जड	-14866
▁चार्टर	-14867
▁चित्रण	-14868
▁चॉकलेट	-14869
▁छोड़ता	-14870
▁जनरेशन	-14871
▁टीएसपी	-14872
▁ट्रैन्	-14873
▁ट्रोपो	-14874
▁डायपोल	-14875
▁डिज़िज	-14876
▁डीपीआर	-14877
▁डुप्ली	-14878
▁तंतुओं	-14879
▁तत्पश्	-14880
▁तरंगें	-14881
▁थिट्टम	-14882
▁थियोरी	-14883
▁देखिये	-14884
▁दोहराए	-14885
▁ध्‍यान	-14886
▁नारायण	-14887
▁निषेधा	-14888
▁नीलामी	-14889
▁नेगेशन	-14890
▁नोडुलर	-14891
▁नोबिता	-14892
▁पंपसेट	-14893
▁परिमाण	-14894
▁पाइरोल	-14895
▁पीएमजी	-14896
▁पीडीएल	-14897
▁पीपीएम	-14898
▁पेगासस	-14899
▁पेल्मा	-14900
▁पोंटीन	-14901
▁प्यादा	-14902
▁प्रायः	-14903
▁प्रोजे	-14904
▁फंडिंग	-14905
▁फ़ैक्ट	-14906
▁फिलहाल	-14907
▁फिलिंग	-14908
▁फैसलों	-14909
▁फोल्‍ड	-14910
▁फ्रिडम	-14911
▁फ्रेंड	-14912
▁बढ़िया	-14913
▁बरकरार	-14914
▁बराबरी	-14915
▁बर्बाद	-14916
▁बलिदान	-14917
▁बाइनरी	-14918
▁बायआउट	-14919
▁बायबैक	-14920
▁बिलकुल	-14921
▁बुधवार	-14922
▁बैंड्स	-14923
▁ब्रांड	-14924
▁भूतकाल	-14925
▁मांगों	-14926
▁मायनों	-14927
▁मिनिमा	-14928
▁मुआवजे	-14929
▁मुक्ति	-14930
▁मुनाफा	-14931
▁मुफ़्त	-14932
▁यथार्थ	-14933
▁यूडीपी	-14934
▁यूवीबी	-14935
▁रचनाओं	-14936
▁राजकीय	-14937
▁राधाकृ	-14938
▁रामनाद	-14939
▁रिडण्ड	-14940
▁रिश्वत	-14941
▁लिफाफे	-14942
▁लैमिनर	-14943
▁वर्ल्ड	-14944
▁विजुअल	-14945
▁विजेता	-14946
▁विधायक	-14947
▁व्यथित	-14948
▁व्यर्थ	-14949
▁शाखाएं	-14950
▁शानदार	-14951
▁संकलित	-14952
▁संकेतन	-14953
▁संगठित	-14954
▁सचिवीय	-14955
▁सबफ्रे	-14956
▁सभ्यता	-14957
▁समाहित	-14958
▁समुच्च	-14959
▁सर्वाइ	-14960
▁साइटें	-14961
▁सातवीं	-14962
▁सिग्ने	-14963
▁सिर्फ़	-14964
▁सीआरआई	-14965
▁सीमेंट	-14966
▁सुईयों	-14967
▁सुधारा	-14968
▁सुसंगत	-14969
▁सेविंग	-14970
▁स्टोरी	-14971
▁स्ट्रॉ	-14972
▁स्थगित	-14973
▁स्थानन	-14974
▁स्पर्श	-14975
▁स्मीयर	-14976
▁स्वभाव	-14977
▁स्‍टेन	-14978
▁हड़ताल	-14979
▁हेटेरो	-14980
आर्सेनिक	-14981
इमैटिनिब	-14982
क्लिनिकल	-14983
ट्रालाइन	-14984
थुपेट्टई	-14985
न्नामलाई	-14986
प्लाज्मा	-14987
फ्रामेनी	-14988
फ्लेमेशन	-14989
मराइजेशन	-14990
राईज़ेशन	-14991
राधिकारी	-14992
र्वाइज़ड	-14993
वापेक्षा	-14994
शक्तियों	-14995
सूचीबद्ध	-14996
सैकेराइड	-14997
स्टेरॉयड	-14998
ांतिकारी	-14999
ाइक्सोइड	-15000
ालाइजेशन	-15001
िनोस्कोप	-15002
ेप्‍टाइड	-15003
ॉर्मेन्स	-15004
ोजिनेसिस	-15005
ोपैपिलरी	-15006
ोप्रोटीन	-15007
ोफेरींजल	-15008
ोमैटोसिस	-15009
्युलिटिस	-15010
्यूरामिक	-15011
्राडियोल	-15012
▁watched	-15013
▁अंशदायी	-15014
▁अध्यापक	-15015
▁अनुकंपा	-15016
▁अनुकूलन	-15017
▁अपग्रेड	-15018
▁अपराधों	-15019
▁अपवादों	-15020
▁अभिदत्त	-15021
▁अवमानना	-15022
▁अवशेषों	-15023
▁आइसोमेर	-15024
▁आन्तरिक	-15025
▁इंटेलिज	-15026
▁इंप्रिं	-15027
▁इंसिजनल	-15028
▁इच्छाओं	-15029
▁इथीडियम	-15030
▁उडनगुडी	-15031
▁उत्साही	-15032
▁उन्‍हें	-15033
▁एल्वोलर	-15034
▁कट्टुमा	-15035
▁कन्निया	-15036
▁क़ानूनी	-15037
▁कार्सिन	-15038
▁कैदियों	-15039
▁कैबिनेट	-15040
▁कॉरिडोर	-15041
▁कोम्प्ल	-15042
▁कोरोनरी	-15043
▁कोलोस्ट	-15044
▁क्वांटम	-15045
▁खेलूंगा	-15046
▁ग्रास्प	-15047
▁ग्लूकोस	-15048
▁ग्वानिन	-15049
▁घोटालों	-15050
▁चिपचिपा	-15051
▁चुनिंदा	-15052
▁चेयरमैन	-15053
▁चौबीसों	-15054
▁जन्मदिन	-15055
▁टाइफाइड	-15056
▁टेट्राह	-15057
▁ट्यूबों	-15058
▁ट्वेंटी	-15059
▁ठेकेदार	-15060
▁डाउनलोड	-15061
▁डिफरेंट	-15062
▁डिफरेन्	-15063
▁डिफॉल्ट	-15064
▁डिविज़न	-15065
▁डिसेन्ट	-15066
▁डेंड्रल	-15067
▁डेनिएली	-15068
▁ड्रेनेज	-15069
▁थ्रिओज़	-15070
▁दर्शकों	-15071
▁दूरियों	-15072
▁देयताओं	-15073
▁दोहराना	-15074
▁धारणाएं	-15075
▁निकालता	-15076
▁निगेटिव	-15077
▁निधियों	-15078
▁निन्यान	-15079
▁नियोजित	-15080
▁निरर्थक	-15081
▁निलंबित	-15082
▁निवेशों	-15083
▁पचहत्तर	-15084
▁परिक्षण	-15085
▁परिश्रम	-15086
▁पहुंचना	-15087
▁पहुंचाई	-15088
▁पासवर्ड	-15089
▁पुलियों	-15090
▁पूर्णता	-15091
▁पृष्ठों	-15092
▁पेरियार	-15093
▁पैरालॉग	-15094
▁पोर्सिन	-15095
▁प्रमाणन	-15096
▁प्रशामक	-15097
▁प्रेरणा	-15098
▁प्वाइंट	-15099
▁फाइलिंग	-15100
▁फोर्सेस	-15101
▁फ्रेम्स	-15102
▁फ्लोरीन	-15103
▁बाजारों	-15104
▁बुर्किट	-15105
▁बैंकरों	-15106
▁ब्लॉक्स	-15107
▁भोगियों	-15108
▁मछुआरों	-15109
▁मलेरिया	-15110
▁मानदण्ड	-15111
▁मिनरलोक	-15112
▁मिलेंगी	-15113
▁मैच्योर	-15114
▁मैसेंजर	-15115
▁मॉडलिंग	-15116
▁मोतियों	-15117
▁यूज़र्स	-15118
▁यूबिक्व	-15119
▁रसायनिक	-15120
▁रिकरन्ट	-15121
▁रियायती	-15122
▁रिलेटिड	-15123
▁रिस्पों	-15124
▁रेजिमेन	-15125
▁रेटिनॉल	-15126
▁रोज़गार	-15127
▁लगाएंगे	-15128
▁लर्नर्स	-15129
▁लाइटिंग	-15130
▁लिंकिंग	-15131
▁विलक्षण	-15132
▁व्याकरण	-15133
▁संज्ञान	-15134
▁समतुल्य	-15135
▁समयसीमा	-15136
▁सीएमएज़	-15137
▁सीमांकन	-15138
▁सेंटर्स	-15139
▁सैकड़ों	-15140
▁स्टाम्प	-15141
▁स्रावित	-15142
▁स्वीट्स	-15143
▁स्‍पर्म	-15144
▁हिपैरिन	-15145
▁हेप्टाड	-15146
tnreginet	-15147
एपीडीआरपी	-15148
क्‍टीरिया	-15149
डाइमेंशनल	-15150
धिकारियों	-15151
न्यूराडिय	-15152
बायोलॉजिक	-15153
लेक्यूल्स	-15154
वित्तपोषण	-15155
स्टीपेस्ट	-15156
स्ट्रॉम्स	-15157
ियोटाइड्स	-15158
ेप्टिडेज़	-15159
ैलिडोमाइड	-15160
▁अंशकालिक	-15161
▁अक्षरेखा	-15162
▁अड़तालीस	-15163
▁अनापत्ति	-15164
▁अनुक्रमण	-15165
▁अनुपयोगी	-15166
▁अनुवादों	-15167
▁अप्रूव्ड	-15168
▁अबनोर्मल	-15169
▁अभ्यासों	-15170
▁अवांछनीय	-15171
▁अविभाज्य	-15172
▁अहमदाबाद	-15173
▁आश्रितों	-15174
▁इंटरफ़ेस	-15175
▁इंट्राके	-15176
▁इंफेक्शन	-15177
▁इनफिनिटी	-15178
▁इन्सिश़न	-15179
▁उत्सर्जन	-15180
▁एंजाइमों	-15181
▁एग्जामिन	-15182
▁एडवांस्ड	-15183
▁एपीडेमिक	-15184
▁एसएसएलसी	-15185
▁एस्परजीन	-15186
▁कंचीपुरम	-15187
▁कन्जूगेट	-15188
▁कोनीमारा	-15189
▁कोशिकाएँ	-15190
▁क्यूआईबी	-15191
▁क्रिटिकल	-15192
▁खरीदारों	-15193
▁गलतबयानी	-15194
▁गोपनीयता	-15195
▁जठरांत्र	-15196
▁टायरोसीन	-15197
▁टोक्सिंस	-15198
▁ट्रायोज़	-15199
▁डाइक्रोइ	-15200
▁डाइरेक्ट	-15201
▁डिहाइड्र	-15202
▁डेवलपर्स	-15203
▁थ्रेओनिन	-15204
▁दार्शनिक	-15205
▁धर्मार्थ	-15206
▁नाइट्रिक	-15207
▁निःशुल्क	-15208
▁नियन्त्र	-15209
▁निर्देशक	-15210
▁न्यूट्रल	-15211
▁पत्तियों	-15212
▁परोपकारी	-15213
▁पहुँचाया	-15214
▁पहुंचाता	-15215
▁पहुंचाया	-15216
▁पार्टिकल	-15217
▁पालिकाओं	-15218
▁पीडीडीएल	-15219
▁पीढ़ियों	-15220
▁पुडुचेरी	-15221
▁पैंतालीस	-15222
▁पैलीएटिव	-15223
▁पॉलीएटिव	-15224
▁पोटेशियम	-15225
▁प्रचारित	-15226
▁प्रशस्ति	-15227
▁प्रारम्भ	-15228
▁फाइब्रिन	-15229
▁फाइब्रोम	-15230
▁फार्मेशन	-15231
▁फ्लाईओवर	-15232
▁बढ़ाएंगे	-15233
▁बस्तियों	-15234
▁बॉन्ड्स्	-15235
▁ब्रीदिंग	-15236
▁भारतीयों	-15237
▁माइक्रोस	-15238
▁माध्यमों	-15239
▁मैक्सिमम	-15240
▁मैटीरियल	-15241
▁याचिकाएं	-15242
▁राजस्थान	-15243
▁रियायतें	-15244
▁रेजीमेंस	-15245
▁रैयतवारी	-15246
▁विकिरणों	-15247
▁विक्रेता	-15248
▁विश्वकोश	-15249
▁वोमिटिंग	-15250
▁शोर्टनेस	-15251
▁संकेतकों	-15252
▁संगोष्ठी	-15253
▁संवर्धित	-15254
▁संस्थाएं	-15255
▁सर्दियों	-15256
▁सहकारिता	-15257
▁साइटोकिन	-15258
▁सामंजस्य	-15259
▁सिक्वेंस	-15260
▁सिस्टमिक	-15261
▁सेंकचुरी	-15262
▁सेल्समैन	-15263
▁स्क्वैमस	-15264
▁स्वच्छता	-15265
आरटीपीसीआर	-15266
थुराईपोंडी	-15267
न्टिग्यूअस	-15268
मोनोक्लोनल	-15269
साईलग्लिसर	-15270
स्टर्नबर्ग	-15271
हाइड्रिन्स	-15272
▁अंतक्रिया	-15273
▁अधिकतमकरण	-15274
▁अधिग्रहित	-15275
▁अनुपस्थित	-15276
▁अनुवादकों	-15277
[...]
