<unk>	0
<s>	0
</s>	0
▁क	-0
▁स	-1
▁ह	-2
▁म	-3
▁प	-4
्र	-5
▁के	-6
ार	-7
ें	-8
ने	-9
▁है	-10
या	-11
▁ब	-12
▁ज	-13
▁अ	-14
ों	-15
▁व	-16
▁में	-17
▁द	-18
▁र	-19
▁ल	-20
▁की	-21
▁न	-22
र्	-23
▁उ	-24
ान	-25
▁को	-26
▁औ	-27
▁और	-28
▁कि	-29
ता	-30
▁कर	-31
▁आ	-32
▁इ	-33
्य	-34
▁ग	-35
▁त	-36
▁भ	-37
िक	-38
▁से	-39
▁का	-40
▁प्र	-41
ना	-42
▁ने	-43
▁पर	-44
स्	-45
▁ए	-46
ाल	-47
▁श	-48
िल	-49
क्	-50
ित	-51
▁य	-52
▁च	-53
▁इस	-54
हा	-55
▁हैं	-56
िए	-57
ही	-58
िय	-59
न्	-60
त्र	-61
▁हो	-62
िया	-63
वा	-64
ड़	-65
▁वि	-66
ाम	-67
▁फ	-68
▁थ	-69
ति	-70
ेश	-71
▁जा	-72
▁ख	-73
▁सं	-74
▁स्	-75
ते	-76
के	-77
▁लिए	-78
ाज	-79
▁एक	-80
ती	-81
ला	-82
से	-83
ंग	-84
हीं	-85
▁भी	-86
ले	-87
▁(	-88
्या	-89
री	-90
ोग	-91
▁सम	-92
सी	-93
रा	-94
▁सा	-95
▁किया	-96
▁नहीं	-97
▁बा	-98
क्ष	-99
त्	-100
िस	-101
्ट	-102
▁अप	-103
नी	-104
कार	-105
▁मु	-106
कि	-107
▁कहा	-108
गा	-109
का	-110
▁यह	-111
▁नि	-112
▁ट	-113
ंत्र	-114
▁1	-115
▁हु	-116
▁भार	-117
्व	-118
▁हम	-119
कर	-120
ली	-121
्री	-122
ाय	-123
▁2	-124
▁ड	-125
्म	-126
▁दे	-127
ुर	-128
ुल	-129
न्ह	-130
▁करने	-131
ंद	-132
ियों	-133
▁उन	-134
▁गया	-135
ां	-136
ाह	-137
▁अध	-138
की	-139
▁कार	-140
▁ले	-141
▁उन्ह	-142
ारी	-143
▁राज	-144
▁पह	-145
▁था	-146
▁अन	-147
ैं	-148
ास	-149
▁रह	-150
▁जो	-151
▁उस	-152
▁साथ	-153
▁ही	-154
मा	-155
दी	-156
रे	-157
्‍	-158
िन	-159
सा	-160
▁सि	-161
ष्ट	-162
▁तो	-163
दा	-164
▁घ	-165
ारा	-166
देश	-167
▁या	-168
ंत्री	-169
ुम	-170
भा	-171
ल्	-172
▁लोग	-173
ंड	-174
▁पू	-175
िव	-176
ोंने	-177
▁भारत	-178
द्	-179
िला	-180
▁सु	-181
ढ़	-182
ओं	-183
िर	-184
तर	-185
्ष	-186
▁दो	-187
स्त	-188
▁सक	-189
्रे	-190
गी	-191
था	-192
पी	-193
गे	-194
▁वाल	-195
भी	-196
में	-197
▁दिया	-198
▁सर	-199
▁सी	-200
▁रा	-201
▁उप	-202
स्ट	-203
्त	-204
▁।	-205
वि	-206
ोज	-207
▁उन्होंने	-208
""	-209
च्	-210
टी	-211
धान	-212
▁20	-213
ेल	-214
▁अपने	-215
▁वह	-216
▁ध	-217
ारे	-218
जी	-219
▁मह	-220
ंच	-221
▁आप	-222
▁बाद	-223
रो	-224
▁सरकार	-225
▁छ	-226
वी	-227
▁तक	-228
▁अधिक	-229
▁पा	-230
▁ला	-231
▁रहे	-232
ंध	-233
पा	-234
▁कु	-235
▁बी	-236
नों	-237
िश	-238
▁दी	-239
▁हुए	-240
▁प्रति	-241
▁पुल	-242
ूप	-243
ेट	-244
▁ऐ	-245
जा	-246
▁पुलिस	-247
▁गई	-248
ार्	-249
▁थी	-250
▁चु	-251
▁थे	-252
ये	-253
ौर	-254
▁वे	-255
▁मो	-256
गर	-257
▁माम	-258
▁जिस	-259
▁मे	-260
ीन	-261
▁मा	-262
▁मौ	-263
▁चाह	-264
र्व	-265
▁मिल	-266
▁लोगों	-267
▁विश	-268
मंत्री	-269
▁निर्	-270
▁द्व	-271
▁जी	-272
▁क्ष	-273
▁बना	-274
टर	-275
▁देश	-276
ूर	-277
खा	-278
ाना	-279
▁रहा	-280
▁जब	-281
▁जाए	-282
ानी	-283
िम	-284
ुप	-285
▁राज्य	-286
▁रूप	-287
तीय	-288
▁स्थ	-289
▁कुछ	-290
ज़	-291
00	-292
बंध	-293
▁‘	-294
क्र	-295
को	-296
▁करते	-297
▁इन	-298
▁कोई	-299
▁रही	-300
▁वर्	-301
द्ध	-302
्रीय	-303
बी	-304
▁मैं	-305
▁कार्य	-306
एस	-307
▁कम	-308
▁अं	-309
▁उत्	-310
▁सब	-311
▁बात	-312
▁तर	-313
ड़ा	-314
वर	-315
क्षा	-316
▁फिल	-317
कों	-318
▁द्वारा	-319
▁गए	-320
स्थ	-321
▁पी	-322
▁बह	-323
▁तुम	-324
वं	-325
द्र	-326
बर	-327
ंह	-328
ाइ	-329
▁3	-330
आई	-331
शन	-332
ूल	-333
मान	-334
▁बढ़	-335
क्त	-336
▁अनु	-337
▁विक	-338
▁इसके	-339
▁उनके	-340
▁भा	-341
योग	-342
ड़ी	-343
र्ट	-344
ेत्र	-345
▁पहले	-346
▁भारतीय	-347
िंग	-348
्स	-349
ंप	-350
▁हि	-351
र्म	-352
िका	-353
▁सिंह	-354
▁मुख	-355
किन	-356
▁किसी	-357
▁श्री	-358
▁क्षेत्र	-359
▁बता	-360
▁राष्ट	-361
▁दिल	-362
च्च	-363
▁ऑ	-364
चार	-365
धार	-366
▁साम	-367
डी	-368
िप	-369
ूस	-370
ोक	-371
▁अपनी	-372
हां	-373
▁लेकिन	-374
▁ओ	-375
▁201	-376
▁अम	-377
▁ये	-378
▁वाले	-379
ब्	-380
▁तथा	-381
ाप	-382
ुत	-383
िट	-384
▁व्य	-385
▁रुप	-386
▁फिल्म	-387
हर	-388
▁बे	-389
▁काम	-390
▁जान	-391
्यों	-392
ेंगे	-393
▁लगा	-394
▁एवं	-395
▁होने	-396
▁कै	-397
▁'	-398
ोल	-399
ोट	-400
ार्ट	-401
्यू	-402
ोड़	-403
्रेस	-404
▁क्या	-405
एम	-406
▁टी	-407
वे	-408
▁सभी	-409
▁कह	-410
▁करना	-411
▁हाल	-412
द्य	-413
▁मंत्री	-414
िज	-415
बा	-416
▁उन्हें	-417
सर	-418
ड़े	-419
▁प्रधान	-420
र्थ	-421
ुन	-422
ेर	-423
▁रख	-424
▁हुई	-425
▁खिला	-426
▁मामले	-427
▁तरह	-428
▁हुआ	-429
्ली	-430
ष्	-431
▁सह	-432
▁मुख्य	-433
▁शाम	-434
▁अव	-435
▁जै	-436
वाल	-437
▁सू	-438
जे	-439
▁शुर	-440
▁5	-441
▁सो	-442
▁मोदी	-443
च्छ	-444
र्ज	-445
▁अभ	-446
म्म	-447
▁देख	-448
▁मै	-449
ाई	-450
्ल	-451
▁समय	-452
▁""	-453
▁बै	-454
ंट	-455
▁4	-456
▁दिन	-457
▁स्ट	-458
▁होगा	-459
वार	-460
दान	-461
्ञ	-462
▁शामिल	-463
ूर्	-464
▁लिया	-465
यर	-466
▁दिल्ली	-467
▁सकता	-468
ृत	-469
▁हर	-470
गत	-471
▁पहु	-472
▁आई	-473
▁कांग	-474
▁दौर	-475
लों	-476
▁प्रधानमंत्री	-477
▁चाहिए	-478
श्	-479
ोजना	-480
▁मान	-481
▁आय	-482
न्न	-483
मी	-484
▁-	-485
▁अन्य	-486
▁कई	-487
धी	-488
चा	-489
▁बहुत	-490
▁जाता	-491
▁कांग्रेस	-492
▁किए	-493
ंस	-494
▁आरो	-495
ून	-496
▁ई	-497
▁फिर	-498
▁बार	-499
▁ज़	-500
▁बीच	-501
▁संबंध	-502
▁उसके	-503
ियम	-504
▁केंद	-505
▁रुपये	-506
दि	-507
▁दोनों	-508
ुख	-509
▁हू	-510
▁पि	-511
▁ना	-512
▁गु	-513
▁बताया	-514
▁दौरान	-515
▁सकते	-516
एं	-517
▁पूर्व	-518
ालय	-519
जू	-520
▁करता	-521
▁पास	-522
दार	-523
▁वर्ष	-524
▁जन	-525
▁दूस	-526
▁जाने	-527
▁क्र	-528
जन	-529
▁खु	-530
▁शिक	-531
लय	-532
झे	-533
▁बारे	-534
▁मंत्र	-535
ंक	-536
नाव	-537
▁ता	-538
भाव	-539
स्प	-540
▁पहुंच	-541
▁पै	-542
▁उनकी	-543
▁वा	-544
▁कप	-545
दर्	-546
▁प्रदेश	-547
▁क्यों	-548
ोर	-549
्‍य	-550
क्ति	-551
स्तान	-552
▁खिलाफ	-553
वन	-554
▁नाम	-555
्यक्ष	-556
▁शुरू	-557
▁बि	-558
▁विकास	-559
णा	-560
▁न्या	-561
क्रम	-562
▁लग	-563
ोन	-564
ग्र	-565
▁इं	-566
फी	-567
▁सबसे	-568
स्‍	-569
▁राष्ट्र	-570
▁लि	-571
ज्ञ	-572
ीड	-573
▁उसे	-574
▁परिव	-575
▁सुर	-576
िति	-577
▁दि	-578
र्स	-579
शी	-580
पर	-581
▁जारी	-582
ाने	-583
▁ख़	-584
▁6	-585
पति	-586
टना	-587
हत	-588
दे	-589
▁करोड़	-590
▁फै	-591
म्	-592
ताओं	-593
रण	-594
चित	-595
▁जु	-596
▁कंप	-597
आर	-598
चना	-599
त्व	-600
▁होता	-601
▁जि	-602
▁नी	-603
क्स	-604
▁जर	-605
▁लेकर	-606
क्ट	-607
वाद	-608
प्र	-609
ाजपा	-610
ेष	-611
ूम	-612
▁स्व	-613
कारी	-614
▁चल	-615
▁ठ	-616
▁पाकि	-617
▁पार्ट	-618
▁बन	-619
▁गां	-620
▁हा	-621
▁कारण	-622
▁परि	-623
ोध	-624
▁आज	-625
▁टीम	-626
▁इंड	-627
ानों	-628
▁जांच	-629
▁देने	-630
ेड	-631
सार	-632
▁पु	-633
वाई	-634
▁दर्ज	-635
ंब	-636
्ड	-637
▁भाजपा	-638
▁जाएगा	-639
▁करें	-640
ुक	-641
्रा	-642
▁बैं	-643
20	-644
ेज	-645
र्ड	-646
▁यु	-647
▁चुनाव	-648
वास	-649
▁झ	-650
▁“	-651
▁महिला	-652
▁सद	-653
ोष	-654
▁हूं	-655
ोर्ट	-656
▁इससे	-657
▁अब	-658
सभा	-659
▁वाली	-660
्ह	-661
िये	-662
▁ग्र	-663
स्था	-664
▁19	-665
▁अधिकार	-666
▁निक	-667
▁बद	-668
▁मंत्रालय	-669
ध्य	-670
नि	-671
▁पार्टी	-672
जर	-673
▁तीन	-674
▁ट्र	-675
▁आरोप	-676
▁डॉ	-677
न्‍	-678
▁प्रा	-679
▁"	-680
▁बैठ	-681
▁करे	-682
शत	-683
ैन	-684
▁ऐसा	-685
ोह	-686
ाली	-687
▁अध्यक्ष	-688
ियां	-689
▁स्वा	-690
▁मुझे	-691
▁अच्छ	-692
▁साल	-693
▁इसमें	-694
करण	-695
त्म	-696
माण	-697
▁कॉ	-698
मत	-699
▁विध	-700
▁एस	-701
..	-702
▁तै	-703
▁अल	-704
▁7	-705
▁हमारे	-706
ीस	-707
पूर्	-708
ेंद्र	-709
▁आधार	-710
▁वै	-711
▁योजना	-712
▁बच्च	-713
ेशन	-714
▁यू	-715
्यादा	-716
द्योग	-717
▁हों	-718
▁10	-719
ुक्त	-720
तिक	-721
मुख	-722
▁जिन	-723
फ़	-724
ीर	-725
▁बो	-726
▁अपना	-727
धिक	-728
▁लोक	-729
▁पाकिस्तान	-730
▁सेवा	-731
▁किस	-732
ियो	-733
ची	-734
▁प्रतिशत	-735
▁मुख्यमंत्री	-736
दन	-737
भाग	-738
▁विशेष	-739
िकी	-740
ष्ठ	-741
▁समझ	-742
ुमार	-743
ंत	-744
▁गिर	-745
▁जैसे	-746
▁वित	-747
▁विश्व	-748
▁ऐसे	-749
▁ओर	-750
▁तुम्ह	-751
पूर्ण	-752
▁एन	-753
▁प्रश	-754
▁इसे	-755
-1	-756
▁मन	-757
▁8	-758
िता	-759
ूत	-760
टा	-761
पुर	-762
▁लाख	-763
▁बु	-764
▁गो	-765
दों	-766
हम	-767
▁यहां	-768
▁ऊ	-769
▁पिछ	-770
▁अमेर	-771
ाप्त	-772
▁घटना	-773
▁इस्	-774
▁मौत	-775
यी	-776
▁आर	-777
धा	-778
▁हमें	-779
वल	-780
▁टे	-781
स्ता	-782
एल	-783
▁ली	-784
▁होगी	-785
▁अग	-786
लाह	-787
▁अंतर	-788
▁मार्	-789
▁अभी	-790
ीय	-791
▁जबकि	-792
ांकि	-793
सं	-794
▁राष्ट्रीय	-795
त्रा	-796
ुनिया	-797
▁सच	-798
म्मी	-799
▁सुन	-800
वर्	-801
▁राह	-802
▁”	-803
▁सुरक्षा	-804
▁विभ	-805
▁हालांकि	-806
▁अला	-807
▁क्योंकि	-808
▁पं	-809
▁दा	-810
ैंड	-811
▁राष्ट्रपति	-812
श्य	-813
▁उठ	-814
क़	-815
▁आए	-816
▁अगर	-817
▁उम्मी	-818
ख्या	-819
क्षण	-820
▁प्रमुख	-821
▁काफी	-822
▁जिसमें	-823
▁ऑफ	-824
▁मद	-825
▁शिक्ष	-826
▁कुमार	-827
▁अलावा	-828
यन	-829
▁उम्मीद	-830
▁नई	-831
ताल	-832
एन	-833
▁बैंक	-834
लिए	-835
▁होती	-836
),	-837
हार	-838
▁:	-839
धि	-840
▁खान	-841
▁केंद्र	-842
▁पद	-843
ियन	-844
▁मौजू	-845
▁तैय	-846
▁ची	-847
▁ज्यादा	-848
फ्त	-849
▁गांधी	-850
ांच	-851
ेंट	-852
▁घर	-853
ायर	-854
▁स्प	-855
▁तहत	-856
▁दु	-857
▁जानकारी	-858
▁छा	-859
न्द	-860
▁डी	-861
लो	-862
्यालय	-863
वेश	-864
इन	-865
▁कार्यक्रम	-866
▁महा	-867
एफ	-868
श्म	-869
▁सदस	-870
▁कृ	-871
▁मांग	-872
बाज	-873
▁न्याया	-874
क्‍	-875
▁ब्र	-876
▁आगे	-877
▁करेंगे	-878
▁उपल	-879
▁पिछले	-880
▁ख़ु	-881
▁व्या	-882
▁फैस	-883
▁उसकी	-884
▁मदद	-885
▁हिस्	-886
िन्न	-887
▁डि	-888
िले	-889
तों	-890
▁बैठक	-891
▁स्क	-892
▁वहीं	-893
▁नेता	-894
▁प्रदर्	-895
▁परिवार	-896
▁दर	-897
▁कंपनी	-898
▁बल्	-899
ेयर	-900
▁पुर	-901
▁खा	-902
▁पूरी	-903
ार्थ	-904
▁9	-905
▁कान	-906
र्ष	-907
त्य	-908
▁भाग	-909
ेन	-910
▁बनाने	-911
▁मूल	-912
▁अनुसार	-913
णी	-914
ाया	-915
पाल	-916
▁अस्प	-917
ंबर	-918
▁पर्	-919
▁12	-920
▁परी	-921
▁विभाग	-922
▁सम्म	-923
▁अधिकारी	-924
्ला	-925
▁उत्तर	-926
▁खेल	-927
▁इसलिए	-928
▁निय	-929
▁नर	-930
▁आयोज	-931
▁इसका	-932
बाद	-933
त्या	-934
▁बॉ	-935
▁इंडिया	-936
ाला	-937
▁अस	-938
इट	-939
▁भूम	-940
▁हमने	-941
तम	-942
▁रो	-943
ताब	-944
कृत	-945
▁चौ	-946
▁घोष	-947
लि	-948
▁उनका	-949
▁तब	-950
क्टर	-951
तन	-952
▁आव	-953
रि	-954
ेक	-955
▁एम	-956
▁व्यक्ति	-957
▁योग	-958
▁बड़ी	-959
▁मैच	-960
▁सकती	-961
▁प्राप्त	-962
▁प्रो	-963
▁चार	-964
तु	-965
▁स्‍	-966
तार	-967
▁दूसरे	-968
▁सीट	-969
▁विचार	-970
▁बेह	-971
▁शर्	-972
▁अर	-973
ूट	-974
ियर	-975
▁उपलब्	-976
ेंस	-977
न्द्र	-978
▁शु	-979
।"	-980
प्	-981
▁मत	-982
फल	-983
000	-984
▁केंद्रीय	-985
▁मिले	-986
▁तैयार	-987
▁रिप	-988
▁दिखा	-989
▁ख़ुदा	-990
▁मेरे	-991
यान	-992
दारी	-993
शल	-994
श्च	-995
शा	-996
▁कुल	-997
▁तौर	-998
▁सूचना	-999
र्क	-1000
▁संग	-1001
▁जहां	-1002
▁अल्	-1003
▁ढ	-1004
ामी	-1005
▁अभि	-1006
▁कल	-1007
▁स्थिति	-1008
▁विदेश	-1009
बल	-1010
▁उपयोग	-1011
▁रेल	-1012
▁उसने	-1013
ंगे	-1014
▁गिरफ्त	-1015
िकेट	-1016
▁जीत	-1017
▁करी	-1018
in	-1019
▁जीवन	-1020
▁फ़	-1021
▁संख्या	-1022
▁दुनिया	-1023
टन	-1024
श्मीर	-1025
यास	-1026
▁आने	-1027
▁मामला	-1028
▁उत्पा	-1029
▁पत्र	-1030
▁उच्च	-1031
▁आत	-1032
▁प्रकार	-1033
▁अस्पताल	-1034
ोवा	-1035
▁संय	-1036
▁मज	-1037
▁याद	-1038
▁दिए	-1039
▁पहली	-1040
ज्ञान	-1041
▁विभिन्न	-1042
▁प्रभाव	-1043
मेश	-1044
▁मीड	-1045
▁अलग	-1046
ूरत	-1047
चे	-1048
▁नए	-1049
▁राम	-1050
▁लिये	-1051
िश्	-1052
▁सर्व	-1053
दम	-1054
▁शाह	-1055
स्थ्य	-1056
▁अवसर	-1057
▁पो	-1058
▁प्रदान	-1059
▁उपलब्ध	-1060
▁शा	-1061
गार	-1062
▁मीडिया	-1063
मेंट	-1064
▁आम	-1065
रिक	-1066
धन	-1067
▁लॉ	-1068
▁पूरा	-1069
▁पार	-1070
▁आस	-1071
वान	-1072
▁सामने	-1073
▁पढ़	-1074
▁15	-1075
▁मौके	-1076
ायल	-1077
▁पेश	-1078
▁व्यव	-1079
▁बड़ा	-1080
ासन	-1081
हाय	-1082
▁जाना	-1083
श्यक	-1084
▁होंगे	-1085
▁स्वास्थ्य	-1086
▁रिपोर्ट	-1087
▁जल	-1088
▁देशों	-1089
्वी	-1090
ंबई	-1091
▁क़	-1092
▁आपको	-1093
▁बंद	-1094
▁इसी	-1095
ूह	-1096
▁सहयोग	-1097
▁वाला	-1098
▁पंजा	-1099
▁महत्व	-1100
▁फीस	-1101
▁केवल	-1102
▁करती	-1103
रल	-1104
▁पता	-1105
▁कीमत	-1106
स्थान	-1107
▁इसकी	-1108
▁शिक्षा	-1109
▁निर्माण	-1110
ष्ट्र	-1111
▁प्रदर्शन	-1112
▁जग	-1113
▁बाज	-1114
▁होते	-1115
▁पड़	-1116
▁लड़	-1117
▁कोर्ट	-1118
▁जाती	-1119
ल्ड	-1120
▁आवश्यक	-1121
जय	-1122
क्रिया	-1123
▁200	-1124
on	-1125
काश	-1126
▁यदि	-1127
श्व	-1128
▁हे	-1129
त्रों	-1130
▁पांच	-1131
▁यहोवा	-1132
▁क्रिकेट	-1133
▁श्र	-1134
वाह	-1135
▁स्थित	-1136
▁शर्मा	-1137
माल	-1138
ेस	-1139
▁मौजूद	-1140
▁सहाय	-1141
जेपी	-1142
▁नरेंद्र	-1143
हाँ	-1144
▁कभी	-1145
र्फ	-1146
▁अधिकारियों	-1147
▁नजर	-1148
▁सौ	-1149
ाइल	-1150
▁बढ़ा	-1151
▁विधान	-1152
▁‘‘	-1153
भव	-1154
ायत	-1155
▁गै	-1156
▁भर	-1157
कृ	-1158
▁शहर	-1159
▁पंजाब	-1160
▁निर्देश	-1161
▁स्तर	-1162
पित	-1163
▁मुंबई	-1164
यू	-1165
▁अनुम	-1166
▁कर्म	-1167
टक	-1168
▁ते	-1169
▁सचिव	-1170
जार	-1171
▁अंत	-1172
नाथ	-1173
▁उद्	-1174
▁वो	-1175
▁समर्थ	-1176
▁व्याप	-1177
▁आया	-1178
▁नौ	-1179
त्री	-1180
▁सके	-1181
▁मिला	-1182
▁’	-1183
षा	-1184
्यान	-1185
▁लाभ	-1186
हन	-1187
लर	-1188
▁सेना	-1189
▁अद	-1190
डा	-1191
काल	-1192
▁राजनी	-1193
वरी	-1194
▁ऐसी	-1195
ुट	-1196
▁11	-1197
▁बस	-1198
▁आग	-1199
ियोजना	-1200
ठन	-1201
▁चि	-1202
कर्	-1203
बंधन	-1204
▁कौ	-1205
▁अमेरिका	-1206
▁डे	-1207
▁दक्ष	-1208
▁राहुल	-1209
▁बड़े	-1210
▁स्म	-1211
▁नागर	-1212
▁स्थान	-1213
षण	-1214
▁बीजेपी	-1215
▁परियोजना	-1216
भार	-1217
▁मुद्	-1218
▁प्रयास	-1219
▁जवा	-1220
▁शी	-1221
▁गिरफ्तार	-1222
▁दर्	-1223
▁न्यायालय	-1224
▁कपूर	-1225
▁हमारी	-1226
तंत्र	-1227
▁अफ	-1228
ंगा	-1229
ष्‍	-1230
यों	-1231
षि	-1232
▁दिव	-1233
मता	-1234
डे	-1235
an	-1236
▁जाएगी	-1237
▁माल	-1238
ग्रह	-1239
ृह	-1240
▁प्रक्रिया	-1241
▁न्यू	-1242
ूरी	-1243
द्धि	-1244
भग	-1245
▁मही	-1246
▁सदस्य	-1247
▁मामलों	-1248
▁मध्य	-1249
▁करके	-1250
▁बाहर	-1251
▁.	-1252
हरा	-1253
▁जल्	-1254
जह	-1255
इस	-1256
▁देते	-1257
▁भे	-1258
▁कैसे	-1259
▁छोड़	-1260
्ले	-1261
▁न्याय	-1262
ायक	-1263
▁पूछ	-1264
ुष	-1265
▁चर्	-1266
▁बर	-1267
वीर	-1268
▁फोन	-1269
▁क्षेत्रों	-1270
▁गा	-1271
▁अति	-1272
▁उसका	-1273
▁वीड	-1274
▁पत्	-1275
▁परमेश	-1276
▁जिसके	-1277
ालन	-1278
,000	-1279
ष्ट्रीय	-1280
▁नागरिक	-1281
ुद	-1282
लिया	-1283
▁वृ	-1284
▁ताकि	-1285
▁बयान	-1286
▁चला	-1287
▁करेगा	-1288
ंका	-1289
▁मैंने	-1290
नल	-1291
▁चे	-1292
तेमाल	-1293
▁विरो	-1294
श्चिम	-1295
▁संप	-1296
ेंद	-1297
▁ध्यान	-1298
ुआ	-1299
र्थिक	-1300
▁वजह	-1301
▁गं	-1302
▁तरफ	-1303
▁जे	-1304
▁लेने	-1305
▁आतंक	-1306
▁रहने	-1307
गू	-1308
ात	-1309
▁S	-1310
▁लगभग	-1311
▁शेयर	-1312
▁राज्यों	-1313
▁संबंधित	-1314
▁स्कूल	-1315
▁गयी	-1316
▁पीएम	-1317
▁करीब	-1318
▁दक्षि	-1319
er	-1320
▁धारा	-1321
▁चीन	-1322
ांत	-1323
▁प्रण	-1324
▁जिले	-1325
सम	-1326
्प	-1327
ंदी	-1328
्‍वर	-1329
▁होना	-1330
▁भूमिका	-1331
▁कार्र	-1332
▁फैसला	-1333
▁अल्लाह	-1334
▁नियम	-1335
▁रोक	-1336
मिक	-1337
▁तेल	-1338
▁वीडियो	-1339
▁स्था	-1340
▁उम्मीदवार	-1341
▁रे	-1342
गढ़	-1343
▁आदेश	-1344
रात	-1345
▁महत्वपूर्ण	-1346
▁फर	-1347
▁विधानसभा	-1348
▁परीक्षा	-1349
िक्ष	-1350
तना	-1351
▁संघ	-1352
ैल	-1353
बार	-1354
▁लिख	-1355
▁निवेश	-1356
िशा	-1357
ल्प	-1358
▁सहित	-1359
▁कार्रवाई	-1360
▁14	-1361
▁दूर	-1362
▁आयोग	-1363
▁सीमा	-1364
ुड	-1365
▁मिली	-1366
व्य	-1367
▁जगह	-1368
▁कोश	-1369
▁जिसे	-1370
ar	-1371
▁मं	-1372
▁कोवि	-1373
▁आर्थिक	-1374
▁13	-1375
▁माध्य	-1376
▁रखा	-1377
▁इस्तेमाल	-1378
▁फीसदी	-1379
▁पानी	-1380
▁दिनों	-1381
फा	-1382
▁कृषि	-1383
al	-1384
भीर	-1385
िनियम	-1386
▁मिश	-1387
▁कानून	-1388
▁I	-1389
द्यालय	-1390
▁रक्षा	-1391
▁आरोपी	-1392
▁तरी	-1393
▁पूर्	-1394
चान	-1395
▁घायल	-1396
▁चुके	-1397
▁मृत	-1398
▁अर्थ	-1399
शि	-1400
▁सुवि	-1401
▁सफल	-1402
▁मजब	-1403
म्मू	-1404
▁जवाब	-1405
▁इला	-1406
शु	-1407
▁वित्त	-1408
▁शिव	-1409
▁महारा	-1410
ित्र	-1411
िक्स	-1412
▁रन	-1413
▁विष	-1414
▁बच्चों	-1415
▁दल	-1416
▁18	-1417
त्‍	-1418
▁आद	-1419
▁वरि	-1420
▁बाजार	-1421
▁गति	-1422
ंदर	-1423
▁उद्योग	-1424
▁बनाए	-1425
्टी	-1426
▁अदाल	-1427
▁हिस्सा	-1428
▁समूह	-1429
र्च	-1430
ोस	-1431
त्ता	-1432
▁टेस्ट	-1433
▁कर्	-1434
▁पश्चिम	-1435
▁हाथ	-1436
▁खे	-1437
▁C	-1438
▁सिर्फ	-1439
▁अधिनियम	-1440
▁रखने	-1441
▁अहम	-1442
त्मक	-1443
▁जिन्ह	-1444
▁खुद	-1445
ताबिक	-1446
▁मुताबिक	-1447
▁सामान	-1448
ॉल	-1449
▁बनाया	-1450
▁जिससे	-1451
▁जम्मू	-1452
जों	-1453
▁डाल	-1454
▁कश्मीर	-1455
▁सुधार	-1456
▁चर्चा	-1457
तियों	-1458
▁वहां	-1459
▁परमेश्‍वर	-1460
▁सड़	-1461
क्षित	-1462
ग्	-1463
▁बोर्ड	-1464
▁लगाया	-1465
ख़	-1466
▁जनता	-1467
▁बेट	-1468
▁जाते	-1469
▁अभिने	-1470
बीआई	-1471
▁चाहते	-1472
▁गृह	-1473
▁गंभीर	-1474
▁खरी	-1475
सेना	-1476
▁पूरे	-1477
▁R	-1478
▁आयोजित	-1479
▁चुन	-1480
सल	-1481
▁हास	-1482
▁एज	-1483
▁रुपए	-1484
▁P	-1485
▁सार	-1486
िस्ट	-1487
at	-1488
▁समिति	-1489
हरी	-1490
▁समा	-1491
▁बिल	-1492
▁यात्रा	-1493
▁रोज	-1494
...	-1495
▁25	-1496
▁मेरी	-1497
▁धन	-1498
▁देता	-1499
▁सुविधा	-1500
स्थित	-1501
▁जरूरत	-1502
▁गुज	-1503
▁A	-1504
झा	-1505
▁ट्रे	-1506
िरा	-1507
▁संयुक्त	-1508
▁समर्थन	-1509
ष्‍ट	-1510
▁मार	-1511
वरण	-1512
िटी	-1513
▁वाप	-1514
▁थीं	-1515
▁बंग	-1516
ील	-1517
▁लागू	-1518
▁महाराष्ट्र	-1519
भर	-1520
▁अच्छा	-1521
मर	-1522
▁स्वी	-1523
▁"""	-1524
▁हासिल	-1525
▁अदालत	-1526
मे	-1527
स्या	-1528
हास	-1529
▁एयर	-1530
▁शिकायत	-1531
ानि	-1532
▁लिखा	-1533
▁कदम	-1534
▁वरिष्ठ	-1535
ेट्र	-1536
र्जी	-1537
▁पक्ष	-1538
ंभ	-1539
▁दक्षिण	-1540
▁बल्कि	-1541
▁डा	-1542
▁तुम्हारे	-1543
▁सांस	-1544
▁लक्ष	-1545
हाल	-1546
▁संस	-1547
▁धर्म	-1548
▁रस	-1549
▁दौ	-1550
▁संभाव	-1551
▁वायर	-1552
▁पोस्ट	-1553
ीक	-1554
िम्म	-1555
ांस	-1556
प्री	-1557
▁दृ	-1558
▁कहना	-1559
▁जिला	-1560
ियान	-1561
वादी	-1562
उन	-1563
▁जल्द	-1564
ियाणा	-1565
▁16	-1566
ज़ा	-1567
▁माध्यम	-1568
▁किसानों	-1569
▁दें	-1570
-19	-1571
सत	-1572
▁लोकसभा	-1573
▁बज	-1574
ण्ड	-1575
▁१	-1576
▁फ्र	-1577
कट	-1578
्तान	-1579
धिकार	-1580
रों	-1581
▁इंटर	-1582
िवार	-1583
▁सहायता	-1584
▁सरकारी	-1585
ल्स	-1586
▁नीति	-1587
"""	-1588
र्गत	-1589
▁रण	-1590
देशक	-1591
ॉन	-1592
्क	-1593
तिम	-1594
▁,	-1595
▁2020	-1596
▁समस्या	-1597
▁कोशिश	-1598
▁घोषणा	-1599
▁प्रकाश	-1600
▁व्यक्त	-1601
▁बेहतर	-1602
▁हरियाणा	-1603
▁2019	-1604
र्जा	-1605
▁महीने	-1606
क्ता	-1607
▁प्रौ	-1608
▁अप्र	-1609
▁हत्या	-1610
ष्टि	-1611
es	-1612
त्ति	-1613
वुड	-1614
▁तम	-1615
▁हजार	-1616
ंडी	-1617
तरी	-1618
टे	-1619
▁पिता	-1620
▁अन्	-1621
बू	-1622
बे	-1623
मु	-1624
▁पैदा	-1625
▁सवाल	-1626
्‍या	-1627
स्ताव	-1628
लाई	-1629
▁उल्	-1630
वेदन	-1631
तिहास	-1632
▁बदल	-1633
▁बल	-1634
राज	-1635
▁प्रौद्योग	-1636
▁30	-1637
णाम	-1638
▁आपके	-1639
▁देखा	-1640
िश्चित	-1641
▁संब	-1642
▁प्रस्ताव	-1643
▁तीस	-1644
▁समाज	-1645
काब	-1646
िकल	-1647
▁दूसरी	-1648
ेम	-1649
▁यही	-1650
▁गुजरात	-1651
▁बिहार	-1652
▁संर	-1653
▁ज़र	-1654
मन	-1655
▁बचा	-1656
▁पहचान	-1657
▁लगे	-1658
ांति	-1659
▁निर्ण	-1660
▁भेज	-1661
▁विरोध	-1662
▁तस्	-1663
र्ग	-1664
▁गेंद	-1665
▁सें	-1666
कृति	-1667
विद्यालय	-1668
कल	-1669
▁कोविड	-1670
▁कहते	-1671
▁बदला	-1672
वीं	-1673
▁क्षमता	-1674
▁गये	-1675
▁सै	-1676
▁एंड	-1677
नीय	-1678
ंद्र	-1679
▁युवा	-1680
स्तव	-1681
अप	-1682
▁कंपन	-1683
▁चुकी	-1684
▁उठा	-1685
ंडल	-1686
▁परिणाम	-1687
पन	-1688
गल	-1689
▁ठीक	-1690
▁मंद	-1691
▁पुन	-1692
एच	-1693
▁करो	-1694
▁प्रयोग	-1695
▁यून	-1696
लीवुड	-1697
विष	-1698
▁गल	-1699
▁विप	-1700
▁उनसे	-1701
ूर्ति	-1702
▁50	-1703
▁मी	-1704
▁मार्ग	-1705
▁B	-1706
▁सम्मान	-1707
ोप	-1708
ांड	-1709
स्ट्रे	-1710
▁भाई	-1711
▁पीछ	-1712
शोध	-1713
▁पर्या	-1714
▁ट्वी	-1715
▁अच्छी	-1716
▁0	-1717
▁वेब	-1718
तरा	-1719
ग्री	-1720
▁सही	-1721
▁सोशल	-1722
▁उद	-1723
▁एक्स	-1724
▁वृद्धि	-1725
▁शुरुआ	-1726
ेशा	-1727
▁पे	-1728
▁रि	-1729
चन	-1730
▁भु	-1731
स्कार	-1732
▁गांव	-1733
▁अमेरिकी	-1734
▁बिना	-1735
▁आदि	-1736
ेद	-1737
▁सैन	-1738
▁पट	-1739
▁कैम	-1740
▁अतिरिक	-1741
▁24	-1742
▁मुकाब	-1743
▁प्रशासन	-1744
▁देना	-1745
लू	-1746
ायी	-1747
▁व्यवस्था	-1748
▁भारी	-1749
▁सार्व	-1750
▁महिलाओं	-1751
ब्द	-1752
▁ट्वीट	-1753
▁चिक	-1754
▁हूँ	-1755
▁गुर	-1756
तृ	-1757
▁वन	-1758
▁वाय	-1759
▁वी	-1760
▁एल	-1761
िम्मे	-1762
▁रिक	-1763
▁रै	-1764
▁लगता	-1765
स्ट्रेलिया	-1766
ानीय	-1767
or	-1768
▁जय	-1769
▁भविष	-1770
मो	-1771
सीसी	-1772
नेट	-1773
▁M	-1774
वाले	-1775
▁निश	-1776
▁कोरो	-1777
▁पत्नी	-1778
▁मंदिर	-1779
▁17	-1780
▁हमले	-1781
▁भाषा	-1782
ंसा	-1783
▁—	-1784
▁उसी	-1785
▁उससे	-1786
▁पहला	-1787
शिया	-1788
▁चुका	-1789
99	-1790
en	-1791
▁प्रौद्योगिकी	-1792
▁हमेशा	-1793
▁खबर	-1794
▁लगातार	-1795
▁अवधि	-1796
▁सिद्ध	-1797
▁नियंत्र	-1798
▁प्रत्य	-1799
▁कमी	-1800
▁2018	-1801
ाजिक	-1802
.5	-1803
▁क्ल	-1804
खंड	-1805
▁राजनीतिक	-1806
▁अर्	-1807
एँ	-1808
▁स्पष्ट	-1809
▁बंगाल	-1810
किंग	-1811
▁विषय	-1812
▁मॉ	-1813
चीत	-1814
▁2017	-1815
अल	-1816
▁बने	-1817
▁संगठन	-1818
▁सुनिश्चित	-1819
▁दिशा	-1820
सान	-1821
▁इनमें	-1822
▁अगले	-1823
▁बिज	-1824
▁बाइ	-1825
▁ईमान	-1826
▁ऊर्जा	-1827
ंगल	-1828
चल	-1829
▁वाह	-1830
▁हाई	-1831
▁बातचीत	-1832
▁रेलवे	-1833
चिका	-1834
ुओं	-1835
▁सल	-1836
▁ऋ	-1837
साह	-1838
शनल	-1839
जनिक	-1840
▁किये	-1841
िली	-1842
र्ती	-1843
▁समुद	-1844
ारोह	-1845
▁भाव	-1846
▁लाल	-1847
सित	-1848
▁आधारित	-1849
▁सलाह	-1850
▁वास्तव	-1851
रिया	-1852
▁ज्ञ	-1853
बाजी	-1854
▁शि	-1855
लब	-1856
▁नोट	-1857
▁कोह	-1858
▁मजबूत	-1859
ार्म	-1860
▁समारोह	-1861
▁कोरोना	-1862
▁चाल	-1863
▁बॉलीवुड	-1864
▁सड़क	-1865
क्शन	-1866
▁भविष्य	-1867
▁सामाजिक	-1868
▁उद्देश	-1869
▁छोट	-1870
उस	-1871
ेलन	-1872
ार्ड	-1873
▁विमान	-1874
▁भू	-1875
▁निजी	-1876
तमान	-1877
ेंड	-1878
▁निर्णय	-1879
▁बल्ले	-1880
▁चाहता	-1881
▁सामान्य	-1882
▁अंतिम	-1883
▁विस्त	-1884
▁बच	-1885
▁सार्वजनिक	-1886
▁छात्रों	-1887
ेत	-1888
▁यादव	-1889
▁तेज	-1890
▁बाल	-1891
न्म	-1892
▁चिकित	-1893
▁संभावना	-1894
्ब	-1895
चर	-1896
▁विद्य	-1897
▁नगर	-1898
लाइन	-1899
▁खास	-1900
▁लौ	-1901
ूब	-1902
फोन	-1903
▁डॉलर	-1904
▁वालों	-1905
▁याचिका	-1906
▁प्रतिनि	-1907
▁प्रणाली	-1908
नर	-1909
रीज	-1910
मैं	-1911
▁विधायक	-1912
▁स्थानीय	-1913
▁अभियान	-1914
▁कराया	-1915
▁एफ	-1916
डल	-1917
▁ती	-1918
▁शव	-1919
राब	-1920
▁हाद	-1921
▁सुप्री	-1922
▁समझौ	-1923
▁चुनौ	-1924
▁प्रभावित	-1925
▁भर्ती	-1926
घा	-1927
ंख	-1928
▁समान	-1929
▁संस्	-1930
▁व्यापार	-1931
मित	-1932
विध	-1933
▁अतिरिक्त	-1934
▁विश्वविद्यालय	-1935
पू	-1936
▁तस्वीर	-1937
पट	-1938
▁गठ	-1939
कृतिक	-1940
निर्	-1941
▁पीछे	-1942
▁शरी	-1943
▁तुल	-1944
▁अपरा	-1945
▁N	-1946
▁मना	-1947
▁कार्ड	-1948
▁चरण	-1949
▁हिंद	-1950
▁केस	-1951
▁एड	-1952
▁विज्ञान	-1953
▁विरा	-1954
ड्ड	-1955
वें	-1956
▁(1	-1957
फ्	-1958
▁चा	-1959
मीन	-1960
साइट	-1961
▁राजस्थान	-1962
▁प्रशिक्ष	-1963
▁करा	-1964
शील	-1965
▁दुर्	-1966
सि	-1967
ामीण	-1968
▁वर्तमान	-1969
ic	-1970
▁विकेट	-1971
सू	-1972
▁तेजी	-1973
▁साह	-1974
फर	-1975
ब्ल	-1976
तः	-1977
ोजन	-1978
ाज़	-1979
▁पस	-1980
▁मेरा	-1981
▁तला	-1982
▁मुला	-1983
▁मिलने	-1984
▁वर्ग	-1985
▁बच्चे	-1986
ॉय	-1987
▁वापस	-1988
▁प्रबंधन	-1989
▁100	-1990
और	-1991
ौल	-1992
▁पुरस्कार	-1993
ंज	-1994
▁अंग	-1995
दीप	-1996
तक	-1997
▁परिवर्	-1998
▁कप्तान	-1999
▁नेताओं	-2000
▁स्मार्ट	-2001
▁कोहली	-2002
है	-2003
▁फोट	-2004
▁निभा	-2005
▁जिसका	-2006
▁नया	-2007
▁उनमें	-2008
▁आवश्यकता	-2009
▁रसूल	-2010
▁उत्पादन	-2011
किल	-2012
▁सित	-2013
▁संबोध	-2014
▁कौन	-2015
म्प	-2016
▁सुप्रीम	-2017
न्स	-2018
▁इल	-2019
▁ग्रामीण	-2020
▁पर्य	-2021
▁मानव	-2022
ड़ों	-2023
ियल	-2024
▁गण	-2025
▁एक्ट	-2026
▁फिलहाल	-2027
▁संशोध	-2028
मार	-2029
▁मोह	-2030
▁मि	-2031
पना	-2032
▁प्रत्येक	-2033
▁धो	-2034
न्‍ह	-2035
ट्ट	-2036
बह	-2037
▁अमित	-2038
▁हमला	-2039
▁मंजू	-2040
▁सूची	-2041
▁शै	-2042
करी	-2043
लेख	-2044
▁ब्ल	-2045
▁सांसद	-2046
राष्ट्रीय	-2047
▁नेतृ	-2048
▁बढ़ाने	-2049
लैंड	-2050
▁श्रे	-2051
▁लॉन्	-2052
वासी	-2053
▁देव	-2054
▁बोल	-2055
▁पेट्र	-2056
▁तकनी	-2057
▁मर	-2058
▁आध	-2059
▁वक्त	-2060
▁राय	-2061
जल	-2062
नाटक	-2063
▁वार	-2064
र्न	-2065
.0	-2066
▁वही	-2067
▁मगर	-2068
▁मल	-2069
सन	-2070
गम	-2071
ंगी	-2072
▁निर्धार	-2073
▁तुलना	-2074
▁जमा	-2075
▁देखते	-2076
▁कंपनियों	-2077
▁जून	-2078
बद्ध	-2079
▁पृ	-2080
त्त	-2081
▁मार्च	-2082
▁परिष	-2083
▁पाया	-2084
यक	-2085
▁कारो	-2086
▁अप्रैल	-2087
▁त्र	-2088
▁गिरा	-2089
▁राशि	-2090
▁शीर्ष	-2091
यह	-2092
राह	-2093
▁दिवस	-2094
▁शांति	-2095
▁विकसित	-2096
क्‍त	-2097
▁आयोजन	-2098
▁मंजूरी	-2099
▁एच	-2100
▁तू	-2101
▁21	-2102
▁आन	-2103
▁अली	-2104
▁विश्	-2105
▁अंक	-2106
▁संस्था	-2107
▁गुण	-2108
▁दावा	-2109
▁प्रव	-2110
ेंसी	-2111
कात	-2112
▁रिज	-2113
▁दिख	-2114
▁विवाद	-2115
▁आवेदन	-2116
▁स्वीकार	-2117
▁शुरुआत	-2118
▁विन	-2119
ॉप	-2120
▁सामना	-2121
िद	-2122
▁सात	-2123
ब्र	-2124
▁प्रत	-2125
▁तमिल	-2126
▁कर्नाटक	-2127
▁नुक	-2128
▁करेगी	-2129
▁सदस्यों	-2130
ोरे	-2131
र्य	-2132
▁संबंधी	-2133
ित्य	-2134
▁जुड़े	-2135
▁सोच	-2136
यात	-2137
▁संच	-2138
▁अध्य	-2139
▁ड्र	-2140
▁जिम्मे	-2141
▁आरोपियों	-2142
▁तरीके	-2143
▁पड़ा	-2144
▁कला	-2145
▁खरीद	-2146
ंदा	-2147
ॉर्ड	-2148
▁निदेशक	-2149
▁तय	-2150
201	-2151
▁वेबसाइट	-2152
ंतर	-2153
▁शो	-2154
्यु	-2155
▁विश्वास	-2156
▁पेट्रोल	-2157
मारी	-2158
▁जाएंगे	-2159
ियाँ	-2160
वधान	-2161
फ्ट	-2162
▁पक	-2163
खिल	-2164
▁यी	-2165
▁शादी	-2166
▁नेतृत्व	-2167
▁बेटे	-2168
क्षी	-2169
▁अनुमति	-2170
▁यहाँ	-2171
▁जता	-2172
▁जरिए	-2173
.1	-2174
▁रेड	-2175
▁घोषित	-2176
▁तुम्हें	-2177
▁सीटों	-2178
▁सम्मेलन	-2179
वाला	-2180
▁आतंकवाद	-2181
डु	-2182
▁फैसले	-2183
▁समी	-2184
▁देखने	-2185
▁राज्‍य	-2186
▁ऊपर	-2187
▁बदलाव	-2188
न्तु	-2189
ैक	-2190
ित्व	-2191
▁संवि	-2192
▁स्थापित	-2193
▁संसद	-2194
▁अथ	-2195
वस्था	-2196
▁रहते	-2197
▁घंट	-2198
▁अपराध	-2199
ुस	-2200
▁बारिश	-2201
▁नंबर	-2202
तान	-2203
▁मां	-2204
▁लेख	-2205
▁आख	-2206
▁छात्र	-2207
▁लॉन्च	-2208
स्ल	-2209
कर्ता	-2210
▁संसा	-2211
▁अने	-2212
▁फाइ	-2213
▁यीशु	-2214
▁स्वतंत्र	-2215
▁शान	-2216
▁हमारा	-2217
▁बनी	-2218
▁ति	-2219
▁छह	-2220
▁समेत	-2221
▁उन्‍ह	-2222
▁विदेशी	-2223
ठी	-2224
▁अच्छे	-2225
▁नरे	-2226
▁अनुर	-2227
लेज	-2228
▁लगाने	-2229
▁खिलाड़ी	-2230
▁सीबीआई	-2231
▁रात	-2232
▁शक्ति	-2233
▁आत्म	-2234
श्विक	-2235
ॉक	-2236
▁मूल्य	-2237
▁अंतर्गत	-2238
ion	-2239
संधान	-2240
▁किलो	-2241
▁नुकसान	-2242
▁आंक	-2243
▁जन्म	-2244
स्क	-2245
ट्र	-2246
▁फॉ	-2247
रीब	-2248
▁रंग	-2249
▁लिम	-2250
▁मुक	-2251
धीश	-2252
ाहरण	-2253
▁चीज़	-2254
ग़	-2255
▁निकाल	-2256
इड	-2257
साथ	-2258
▁प्राथ	-2259
▁जिनमें	-2260
▁कैमरा	-2261
▁लो	-2262
▁पड़े	-2263
▁अनुसंधान	-2264
▁रोग	-2265
▁कार्यालय	-2266
रु	-2267
ोत्	-2268
▁जैसा	-2269
▁माना	-2270
▁उनको	-2271
it	-2272
▁ब्रिट	-2273
▁विश्‍	-2274
िड	-2275
कत	-2276
▁कराने	-2277
▁वैश्विक	-2278
▁मसी	-2279
▁मुलाकात	-2280
▁समुदाय	-2281
▁पहल	-2282
▁ऑन	-2283
▁लक्ष्य	-2284
▁पाए	-2285
▁नीचे	-2286
▁रखते	-2287
▁ट्रंप	-2288
ूं	-2289
▁प्रेर	-2290
कर्म	-2291
▁इंग	-2292
▁रोह	-2293
▁22	-2294
▁अंतर्रा	-2295
वै	-2296
▁दोष	-2297
ॉट	-2298
ूबर	-2299
▁भुगत	-2300
▁सच्च	-2301
▁अरब	-2302
▁जेल	-2303
▁राष्‍ट	-2304
्यता	-2305
▁ऑस्ट्रेलिया	-2306
▁बेहद	-2307
न्व	-2308
▁जैसी	-2309
▁अनेक	-2310
▁केन्द्र	-2311
▁पूर्ण	-2312
▁इतिहास	-2313
यं	-2314
▁उपस्थित	-2315
▁परिषद	-2316
▁युद्ध	-2317
▁कोल	-2318
▁पहुंचे	-2319
िकों	-2320
▁अधीन	-2321
▁लाने	-2322
▁संस्थान	-2323
▁जनवरी	-2324
वट	-2325
▁जानते	-2326
▁नियंत्रण	-2327
▁संक्रम	-2328
िटेड	-2329
स्ते	-2330
स्त्र	-2331
▁भेजा	-2332
▁हादसे	-2333
▁अध्ययन	-2334
ूक	-2335
पोर्ट	-2336
तनी	-2337
▁एशिया	-2338
▁बध	-2339
▁उदाहरण	-2340
▁उम	-2341
्‍त	-2342
▁बढ़ावा	-2343
▁बेटी	-2344
▁बिजली	-2345
ामा	-2346
एसटी	-2347
st	-2348
ंघ	-2349
▁प्रार	-2350
एक	-2351
्तीय	-2352
▁अंतरराष्ट्रीय	-2353
▁वर्षों	-2354
▁दिस	-2355
▁केरल	-2356
▁हार	-2357
▁इलाज	-2358
▁किसान	-2359
▁किताब	-2360
▁प्ल	-2361
▁मेगा	-2362
ताह	-2363
▁दूसरा	-2364
▁मुद्दे	-2365
▁क्व	-2366
र्श	-2367
्वर	-2368
▁संविधान	-2369
▁नम	-2370
▁चलते	-2371
▁इंस्ट	-2372
पक	-2373
▁तारी	-2374
▁होकर	-2375
▁हित	-2376
▁टै	-2377
▁मिलेगा	-2378
कारा	-2379
▁अक्ष	-2380
▁रज	-2381
▁पंच	-2382
▁सभा	-2383
▁उत्पाद	-2384
▁इले	-2385
▁उद्देश्य	-2386
▁विराट	-2387
▁कट	-2388
▁कहीं	-2389
▁मौजूदा	-2390
▁संबोधित	-2391
▁पति	-2392
▁केन्द	-2393
फे	-2394
मार्	-2395
▁–	-2396
.2	-2397
▁प्रशिक्षण	-2398
▁नव	-2399
▁ठा	-2400
▁योगदान	-2401
▁T	-2402
▁वायरस	-2403
कर्ताओं	-2404
म्मद	-2405
▁परीक्षण	-2406
िटल	-2407
▁बधाई	-2408
▁वित्तीय	-2409
मीटर	-2410
पूर्व	-2411
▁पीड़	-2412
▁सोन	-2413
▁प्रवेश	-2414
.3	-2415
सों	-2416
बाइल	-2417
▁माह	-2418
▁छोटे	-2419
▁गैर	-2420
▁मई	-2421
▁फोटो	-2422
▁करवा	-2423
व्यवस्था	-2424
्रो	-2425
di	-2426
▁जोर	-2427
▁रु	-2428
▁प्य	-2429
▁न्यायाधीश	-2430
▁प्रतिक	-2431
▁केन्द्रीय	-2432
▁बिक	-2433
▁भूमि	-2434
▁फाय	-2435
▁लड़ा	-2436
▁भुगतान	-2437
▁सफलता	-2438
▁मू	-2439
▁गौर	-2440
▁निकल	-2441
▁लगी	-2442
▁वायु	-2443
भाल	-2444
▁प्रिय	-2445
▁मिस	-2446
▁युव	-2447
▁परिवर्तन	-2448
▁आश	-2449
▁सत्र	-2450
चारियों	-2451
जूद	-2452
▁उसमें	-2453
▁तत्	-2454
▁प्रस्त	-2455
.4	-2456
▁सर्	-2457
▁सलमान	-2458
▁अभिनेता	-2459
▁उत्‍	-2460
▁अपील	-2461
▁सुना	-2462
ज़र	-2463
▁कठ	-2464
स्व	-2465
▁प्रचार	-2466
▁डेट	-2467
दू	-2468
▁परेश	-2469
काम	-2470
ष्ण	-2471
▁निर	-2472
ँच	-2473
ाइम	-2474
▁संभव	-2475
▁सां	-2476
▁चयन	-2477
▁2016	-2478
▁प्रतिनिध	-2479
▁फी	-2480
▁इंग्ल	-2481
ड़ने	-2482
बि	-2483
▁अग्र	-2484
▁संपर्क	-2485
▁प्रभ	-2486
▁दू	-2487
▁साफ	-2488
-2	-2489
▁अनुभव	-2490
▁वोट	-2491
ोद	-2492
▁पहुंची	-2493
फ्र	-2494
म्बर	-2495
ड़ियों	-2496
▁घा	-2497
▁इन्	-2498
टल	-2499
GB	-2500
जो	-2501
▁40	-2502
▁गलत	-2503
▁वस्त	-2504
▁23	-2505
न्होंने	-2506
▁जरूरी	-2507
▁सुनवाई	-2508
▁जुलाई	-2509
▁कैं	-2510
▁संदेश	-2511
▁लिमिटेड	-2512
▁सीरीज	-2513
▁28	-2514
▁जिन्होंने	-2515
कश्मीर	-2516
प्ताह	-2517
50	-2518
्याण	-2519
गो	-2520
नियर	-2521
▁बाइबल	-2522
▁कथ	-2523
जीत	-2524
▁असम	-2525
▁हिस्से	-2526
▁भ्र	-2527
▁31	-2528
▁खुश	-2529
▁मिलकर	-2530
▁जित	-2531
▁अनुमान	-2532
▁साइ	-2533
▁विजय	-2534
▁इनकार	-2535
▁निपट	-2536
कारों	-2537
धिकारिक	-2538
▁प्ले	-2539
साय	-2540
जरी	-2541
▁नेट	-2542
▁डाय	-2543
▁कर्मचारियों	-2544
▁छो	-2545
▁चिं	-2546
बीर	-2547
▁बाव	-2548
▁रिली	-2549
▁अथवा	-2550
▁अफ्री	-2551
कम	-2552
▁हवाई	-2553
▁इका	-2554
कु	-2555
▁सुरक्षित	-2556
▁लागत	-2557
क्षक	-2558
▁जाये	-2559
▁स्मार्टफोन	-2560
▁कल्याण	-2561
▁जस्ट	-2562
le	-2563
▁आधिकारिक	-2564
▁प्रग	-2565
▁प्राथमिक	-2566
▁राजनीति	-2567
▁1,	-2568
▁निर्धारित	-2569
▁G	-2570
▁बांग	-2571
▁जिसने	-2572
▁सत	-2573
.7	-2574
▁मोबाइल	-2575
स्लिम	-2576
▁विल	-2577
▁पढ़ें	-2578
त्मा	-2579
▁प्रवक्ता	-2580
▁जिन्हें	-2581
यल	-2582
िरी	-2583
▁बजट	-2584
▁आईपी	-2585
ोम	-2586
▁उल्लेख	-2587
▁आठ	-2588
▁धर	-2589
▁उपाय	-2590
▁महान	-2591
▁डर	-2592
तने	-2593
▁विस्तार	-2594
ँव	-2595
▁H	-2596
केट	-2597
ांक	-2598
▁ग़	-2599
▁शुभ	-2600
▁दिखाई	-2601
▁परिज	-2602
▁लें	-2603
▁विधे	-2604
▁मिशन	-2605
ख्त	-2606
थम	-2607
▁मुकाबले	-2608
▁पाठ	-2609
▁शानदार	-2610
▁अर्थव्यवस्था	-2611
▁कारोबार	-2612
दर्भ	-2613
रेलू	-2614
▁सुबह	-2615
साद	-2616
।"""	-2617
वत	-2618
राबाद	-2619
ंकी	-2620
▁बावजूद	-2621
ार्ज	-2622
▁परवर	-2623
▁राजा	-2624
▁चिकित्	-2625
▁बल्लेबाज	-2626
▁मेड	-2627
▁रोजगार	-2628
▁स्वयं	-2629
त्रियों	-2630
▁इलाके	-2631
क्ट्र	-2632
▁सीएम	-2633
्रिय	-2634
▁टा	-2635
सूस	-2636
.6	-2637
▁लंब	-2638
▁चुनौती	-2639
▁डॉक्टर	-2640
▁पसंद	-2641
▁बजे	-2642
▁प्रेम	-2643
▁ट्रेन	-2644
▁हालत	-2645
उट	-2646
▁पुरुष	-2647
ियोग	-2648
▁रहेगा	-2649
ुल्क	-2650
गन	-2651
त्ती	-2652
▁बनने	-2653
▁घरेलू	-2654
▁साझा	-2655
▁समीक्षा	-2656
▁जनरल	-2657
धे	-2658
▁शब्द	-2659
▁संग्रह	-2660
ियार	-2661
पान	-2662
क्षर	-2663
▁26	-2664
▁रू	-2665
ायद	-2666
हान	-2667
▁विधि	-2668
▁हिंसा	-2669
▁सुपर	-2670
▁खो	-2671
बित	-2672
ro	-2673
दु	-2674
▁गठबंधन	-2675
▁फरवरी	-2676
▁इंग्लैंड	-2677
्रिया	-2678
▁संशोधन	-2679
▁खर्च	-2680
▁अंतर्राष्ट्रीय	-2681
▁गैस	-2682
▁भवन	-2683
▁संजय	-2684
खर	-2685
am	-2686
िको	-2687
घाटन	-2688
ख्	-2689
▁सप्ताह	-2690
कर्ष	-2691
ॉम	-2692
▁उन्‍होंने	-2693
▁जस्टिस	-2694
ग्राम	-2695
▁गतिविध	-2696
▁तु	-2697
▁यूरो	-2698
.8	-2699
▁समाधान	-2700
▁सारे	-2701
▁कानू	-2702
▁अश	-2703
▁/	-2704
स्तानी	-2705
▁नदी	-2706
▁मिलेगी	-2707
▁हैद	-2708
▁ज्ञान	-2709
▁२	-2710
▁ऑनलाइन	-2711
ापन	-2712
न्ध	-2713
▁रहेंगे	-2714
▁आता	-2715
मैन	-2716
थि	-2717
जु	-2718
पु	-2719
नाडु	-2720
▁प्यार	-2721
▁मश	-2722
▁राहत	-2723
▁मुस्लिम	-2724
बारी	-2725
▁दोस्त	-2726
▁अका	-2727
ंजी	-2728
पे	-2729
▁D	-2730
▁भावना	-2731
रान	-2732
▁मौसम	-2733
दिगार	-2734
प्त	-2735
▁चाहे	-2736
▁प्रगति	-2737
▁पर्यावरण	-2738
उंड	-2739
▁मतलब	-2740
▁सक्रिय	-2741
▁रोहित	-2742
टरी	-2743
रासत	-2744
▁टिप	-2745
िमंडल	-2746
स्ती	-2747
▁विधेयक	-2748
यु	-2749
▁पटेल	-2750
िलों	-2751
▁वैज्ञान	-2752
▁बढ़कर	-2753
िफ	-2754
उंट	-2755
▁किर	-2756
▁अगस्त	-2757
▁परवरदिगार	-2758
▁माइ	-2759
िक्सल	-2760
▁हिरासत	-2761
▁27	-2762
▁आंध	-2763
▁खत्म	-2764
▁तलाश	-2765
▁गिरावट	-2766
▁हॉ	-2767
▁पीठ	-2768
▁अन्त	-2769
▁नार	-2770
ed	-2771
राने	-2772
वाही	-2773
▁चुना	-2774
▁व्यापक	-2775
▁कब्	-2776
▁मतदान	-2777
ार्थियों	-2778
▁खाद्य	-2779
▁किलोमीटर	-2780
्लादेश	-2781
▁लं	-2782
▁मारे	-2783
▁महसूस	-2784
▁प्रसार	-2785
▁माता	-2786
▁सेवाओं	-2787
▁उद्य	-2788
▁खूब	-2789
▁उपचार	-2790
▁निष्	-2791
\\	-2792
▁परिवहन	-2793
▁समाप्त	-2794
गु	-2795
▁कॉलेज	-2796
ेंज	-2797
▁उद्घाटन	-2798
▁दिसंबर	-2799
▁चंद्र	-2800
▁मुद्दों	-2801
▁37	-2802
▁पॉ	-2803
▁तमिलनाडु	-2804
▁ज़्यादा	-2805
▁पालन	-2806
▁प्रस्तुत	-2807
उन्होंने	-2808
▁खुला	-2809
▁बर्	-2810
मार्ट	-2811
ज्	-2812
द्द	-2813
▁चिकित्सा	-2814
▁संत	-2815
▁नेशनल	-2816
▁श्रद्ध	-2817
▁उम्मीदवारों	-2818
▁नरेन्द्र	-2819
▁नवा	-2820
ंदगी	-2821
▁फा	-2822
▁भरो	-2823
िंट	-2824
्रीन	-2825
▁हट	-2826
▁शरीर	-2827
▁नो	-2828
▁करनी	-2829
वंबर	-2830
▁प्रियंका	-2831
▁री	-2832
▁अभिनेत्री	-2833
▁ऋण	-2834
्‍म	-2835
▁रिकॉर्ड	-2836
▁सुश	-2837
▁इस्ल	-2838
ामद	-2839
▁देगा	-2840
▁लै	-2841
▁अध्यक्षता	-2842
▁खंड	-2843
जब	-2844
दर्श	-2845
स्‍थ	-2846
▁डिज	-2847
▁प्रमाण	-2848
जरीवाल	-2849
ंटी	-2850
▁निगम	-2851
▁चोट	-2852
▁बातें	-2853
▁आपकी	-2854
▁तुर	-2855
▁पुस्त	-2856
▁सितंबर	-2857
▁खोज	-2858
▁प्रतिबंध	-2859
▁शायद	-2860
▁संरक्षण	-2861
▁फ्ल	-2862
▁आइ	-2863
▁देंगे	-2864
अलग	-2865
ार्क	-2866
▁अर्ज	-2867
▁2014	-2868
▁रव	-2869
▁परियोजनाओं	-2870
पास	-2871
▁संसाधन	-2872
▁जिसकी	-2873
▁संदर्भ	-2874
▁हैदराबाद	-2875
▁तीसरे	-2876
न्‍न	-2877
▁सजा	-2878
▁उपकरण	-2879
▁भीतर	-2880
▁टन	-2881
▁इच्छ	-2882
ोरी	-2883
▁परिस	-2884
▁थो	-2885
▁स्थापना	-2886
▁हस्ता	-2887
▁इंडियन	-2888
▁बरा	-2889
ेप	-2890
▁इस्ती	-2891
▁केजरीवाल	-2892
▁शहरी	-2893
▁अत्य	-2894
पात	-2895
▁गर्	-2896
▁चले	-2897
▁साबित	-2898
कोर्ट	-2899
▁202	-2900
▁चिंता	-2901
▁संगठ	-2902
▁टिक	-2903
▁दबा	-2904
▁एजेंसी	-2905
▁लेते	-2906
▁गाँव	-2907
▁भागी	-2908
घटना	-2909
▁उचित	-2910
▁नवंबर	-2911
▁बांग्लादेश	-2912
▁s	-2913
▁ट्व	-2914
▁उत्तरा	-2915
▁प्रावधान	-2916
▁भग	-2917
▁रहता	-2918
▁सूत्रों	-2919
."	-2920
िटर	-2921
▁कड़ी	-2922
त्साह	-2923
ारिज	-2924
ूंगा	-2925
पि	-2926
▁पर्यटन	-2927
▁लगाए	-2928
▁वाहन	-2929
विल	-2930
▁हेतु	-2931
▁विकल्प	-2932
▁अंदर	-2933
▁मृत्यु	-2934
▁ताप	-2935
▁जिलों	-2936
दारों	-2937
ताव	-2938
चारी	-2939
क्सी	-2940
सीआई	-2941
▁शास	-2942
▁निम्	-2943
गाह	-2944
फार	-2945
▁आदमी	-2946
▁प्रभा	-2947
्रेट	-2948
ध्यक्ष	-2949
▁उपभ	-2950
▁''	-2951
▁अमरी	-2952
▁जर्म	-2953
▁अफ्रीका	-2954
▁पृथ	-2955
जाम	-2956
▁इंत	-2957
▁सिल	-2958
▁मुश्	-2959
ूड	-2960
▁राजधान	-2961
ब्ल्यू	-2962
▁प्री	-2963
▁हथ	-2964
▁कथित	-2965
▁दश	-2966
▁उत्प	-2967
▁प्रोत्साह	-2968
▁संवाद	-2969
▁डिग्री	-2970
भारत	-2971
▁घट	-2972
▁प्रबंध	-2973
च्‍	-2974
▁बिक्री	-2975
▁नागरिकों	-2976
▁इतना	-2977
धर	-2978
▁प्रथम	-2979
▁निम्न	-2980
▁टिप्प	-2981
▁बरामद	-2982
▁हल	-2983
▁परिजनों	-2984
ांश	-2985
▁लौट	-2986
▁खुशी	-2987
िब	-2988
▁दुर्घटना	-2989
▁मेडिकल	-2990
▁प्रदर्श	-2991
▁लाइ	-2992
ठा	-2993
▁उपा	-2994
▁2015	-2995
▁आंध्र	-2996
▁दिला	-2997
▁दुख	-2998
▁नवी	-2999
▁निर्यात	-3000
▁राजधानी	-3001
▁जम	-3002
▁पुष्टि	-3003
▁मस	-3004
▁आवा	-3005
ुनिक	-3006
▁F	-3007
▁मॉडल	-3008
्रेड	-3009
ाब	-3010
▁बनाई	-3011
▁क्रम	-3012
▁स्वच्छ	-3013
णिज	-3014
शाला	-3015
om	-3016
▁सुल	-3017
▁तैना	-3018
▁उड़	-3019
▁वार्	-3020
▁आपूर्ति	-3021
▁खारिज	-3022
ैर	-3023
▁प्रतिक्रिया	-3024
▁गुप	-3025
▁पदक	-3026
▁झू	-3027
▁पाकिस्तानी	-3028
▁पारी	-3029
▁यानी	-3030
▁जीबी	-3031
▁पल	-3032
▁शिवसेना	-3033
माने	-3034
▁शोध	-3035
▁उद्यम	-3036
▁असर	-3037
▁कौशल	-3038
▁नै	-3039
▁रिलीज	-3040
▁गोली	-3041
▁बें	-3042
▁मोहम्मद	-3043
▁पोर्ट	-3044
▁निर्मा	-3045
▁संगी	-3046
▁अनुप	-3047
दर	-3048
▁टीवी	-3049
▁स्वर	-3050
▁29	-3051
▁(2	-3052
▁निगर	-3053
▁सीख	-3054
▁तत्काल	-3055
▁निर्वा	-3056
पत्र	-3057
▁निधन	-3058
▁गी	-3059
ंखला	-3060
ोलन	-3061
▁शासन	-3062
▁राज्यपाल	-3063
वर्क	-3064
देन	-3065
मोह	-3066
▁मैदान	-3067
▁सहायक	-3068
▁मुश्किल	-3069
िल्म	-3070
▁मात्रा	-3071
राष्ट्र	-3072
▁विशेषज्ञ	-3073
कू	-3074
▁अरु	-3075
र्ण	-3076
▁32	-3077
▁वकी	-3078
▁हरा	-3079
▁हटा	-3080
काता	-3081
▁गठन	-3082
▁रखी	-3083
▁जानता	-3084
्ति	-3085
▁सोम	-3086
▁दस	-3087
▁संबंधों	-3088
च्छेद	-3089
ेह	-3090
▁कोच	-3091
्राम	-3092
श्न	-3093
▁प्रसाद	-3094
▁उम्र	-3095
▁199	-3096
▁सश	-3097
▁पाने	-3098
ंदन	-3099
▁निगरानी	-3100
▁मेगाप	-3101
▁यूपी	-3102
▁दम	-3103
▁तुरंत	-3104
▁नती	-3105
▁माँ	-3106
▁गुरु	-3107
ंडा	-3108
▁संके	-3109
▁मक	-3110
▁देखें	-3111
▁ओवर	-3112
▁प्रेरित	-3113
▁अय	-3114
▁आते	-3115
वालों	-3116
▁विशि	-3117
▁शुल्क	-3118
▁जेट	-3119
▁फिल्मों	-3120
श्चित	-3121
▁गुणव	-3122
ज्ञा	-3123
टो	-3124
▁इलेक्ट्र	-3125
▁चालक	-3126
्डी	-3127
द्दी	-3128
▁प्राधिक	-3129
▁दर्श	-3130
▁शुक्र	-3131
.9	-3132
re	-3133
▁रहती	-3134
मार्ग	-3135
▁वाणिज	-3136
▁सुझा	-3137
▁आयु	-3138
मण	-3139
जिए	-3140
▁सिक	-3141
स्टम	-3142
▁रूस	-3143
▁घंटे	-3144
शिप	-3145
हो	-3146
▁चेन्न	-3147
▁ग्राह	-3148
▁संस्कृति	-3149
▁मुद्र	-3150
▁देकर	-3151
▁पूछता	-3152
लेट	-3153
ृंखला	-3154
▁स्टेशन	-3155
ार्मिक	-3156
▁E	-3157
▁रब	-3158
▁भरोसा	-3159
क्षम	-3160
▁धार्मिक	-3161
थी	-3162
्ता	-3163
▁मनो	-3164
णे	-3165
द्व	-3166
▁इलाकों	-3167
▁बुरा	-3168
▁स्वागत	-3169
न्हें	-3170
लंका	-3171
क्षीय	-3172
▁तारीख	-3173
▁प्रतियोग	-3174
▁प्रती	-3175
श्‍	-3176
▁बैंकों	-3177
▁अंग्रे	-3178
चु	-3179
▁बुनिया	-3180
▁चीनी	-3181
खित	-3182
फारिश	-3183
▁नाय	-3184
▁स्वतंत्रता	-3185
▁बेश	-3186
▁रोकने	-3187
▁हालात	-3188
▁हिंदू	-3189
▁दस्ता	-3190
▁चीज	-3191
▁उसको	-3192
▁अनुरोध	-3193
▁चंडी	-3194
▁कोलकाता	-3195
▁निश्चित	-3196
▁मनुष	-3197
▁मैचों	-3198
▁उल	-3199
▁हाईकोर्ट	-3200
चीन	-3201
स्टर	-3202
्याज	-3203
▁कब	-3204
▁सिफारिश	-3205
▁बहु	-3206
▁सेट	-3207
यम	-3208
▁जाय	-3209
ंतु	-3210
▁c	-3211
▁दौरे	-3212
▁मेगापिक्सल	-3213
▁दवा	-3214
▁आशा	-3215
धारा	-3216
▁बाकी	-3217
दाताओं	-3218
▁शहरों	-3219
▁उठाए	-3220
▁K	-3221
मार्टम	-3222
▁राजनाथ	-3223
▁in	-3224
शाली	-3225
▁आंद	-3226
▁गतिविधियों	-3227
िवर्स	-3228
▁आनंद	-3229
▁तीनों	-3230
▁सकें	-3231
▁समु	-3232
हरे	-3233
▁’’	-3234
▁उपभो	-3235
▁रखना	-3236
▁In	-3237
▁गरीब	-3238
▁35	-3239
दाता	-3240
▁हिंदी	-3241
▁देती	-3242
नगर	-3243
▁करार	-3244
सिक	-3245
▁जीव	-3246
▁डो	-3247
▁60	-3248
▁सत्ता	-3249
▁किरदार	-3250
▁गेंदबाज	-3251
सगढ़	-3252
▁मौका	-3253
▁स्थानों	-3254
एसपी	-3255
▁आसान	-3256
▁खराब	-3257
दिन	-3258
ाचार	-3259
▁नियुक्त	-3260
▁पहुंचा	-3261
▁सन्	-3262
▁प्रयासों	-3263
▁समझौता	-3264
▁श्रीलंका	-3265
▁दीप	-3266
▁प्रभावी	-3267
न्‍द्र	-3268
▁डेटा	-3269
▁सक्षम	-3270
ेगा	-3271
▁सुझाव	-3272
▁गौ	-3273
ंकर	-3274
▁कार्यों	-3275
▁पोस्टमार्टम	-3276
पथ	-3277
▁ठहरा	-3278
▁डिजिटल	-3279
▁जिनके	-3280
हित	-3281
▁क्षेत्रीय	-3282
▁कहानी	-3283
क्टूबर	-3284
▁बातों	-3285
वाली	-3286
▁आपका	-3287
्न	-3288
▁औद्योग	-3289
ाइड	-3290
▁सीटें	-3291
ct	-3292
नतम	-3293
▁प्रारंभ	-3294
्यूट	-3295
▁जिम्मेदारी	-3296
डू	-3297
▁फुट	-3298
▁संकट	-3299
▁आतंकी	-3300
▁झार	-3301
▁टिकट	-3302
▁तकनीकी	-3303
मती	-3304
▁आवास	-3305
ोरेज	-3306
कारात्मक	-3307
युक्त	-3308
▁पूछताछ	-3309
▁कहने	-3310
▁मिलता	-3311
▁इंजी	-3312
स्थिति	-3313
▁इज	-3314
▁वायरल	-3315
▁जीएसटी	-3316
▁पैसे	-3317
प्ट	-3318
स्थानों	-3319
▁चंडीगढ़	-3320
▁अक्	-3321
▁ऊंच	-3322
म्ब	-3323
▁बराबर	-3324
त्कार	-3325
▁जाति	-3326
▁हिमा	-3327
▁अफग	-3328
▁होनी	-3329
▁ज़ि	-3330
▁लेना	-3331
आईटी	-3332
▁प्राकृतिक	-3333
▁शे	-3334
▁खोल	-3335
▁प्रकाशित	-3336
वेद	-3337
▁शूट	-3338
ra	-3339
वासियों	-3340
▁घाय	-3341
▁मानना	-3342
कल्प	-3343
▁रॉय	-3344
▁व्यक्तियों	-3345
▁नियमों	-3346
▁दस्तावे	-3347
▁पीड़ित	-3348
▁दाय	-3349
लम	-3350
▁O	-3351
▁प्रतिबद्ध	-3352
ing	-3353
el	-3354
▁पाल	-3355
न्ना	-3356
▁दायर	-3357
▁चेन्नई	-3358
▁लड़ाई	-3359
▁पर्याप्त	-3360
▁श्रेणी	-3361
▁फरार	-3362
ेंशन	-3363
▁घायलों	-3364
▁संस्थानों	-3365
▁सुनी	-3366
िनी	-3367
▁अनिल	-3368
▁बेशक	-3369
▁रणनी	-3370
▁रहें	-3371
सलमान	-3372
▁साझे	-3373
▁ग्राम	-3374
▁बुला	-3375
▁नेटवर्क	-3376
▁पव	-3377
▁इनके	-3378
▁अक्षय	-3379
▁अनुच्छेद	-3380
▁मुझ	-3381
प्रदेश	-3382
▁अक्टूबर	-3383
▁विशिष्ट	-3384
▁L	-3385
▁दौरा	-3386
▁संगीत	-3387
▁पूर्वी	-3388
▁कार्या	-3389
▁क्रिया	-3390
▁स्टोरेज	-3391
कता	-3392
▁छत्ती	-3393
▁गुणवत्ता	-3394
धरी	-3395
श्रे	-3396
▁बुनियादी	-3397
▁कॉन्	-3398
▁जापान	-3399
▁नये	-3400
ोषण	-3401
▁वाणिज्य	-3402
▁कर्मचारी	-3403
▁राजी	-3404
▁मंगल	-3405
▁ट्विटर	-3406
▁तापमान	-3407
▁पंजी	-3408
▁कुर	-3409
▁सामग्री	-3410
्यो	-3411
▁अपे	-3412
▁मिन	-3413
▁स्टी	-3414
▁सफ	-3415
बाल	-3416
▁सरकारों	-3417
▁संगठनों	-3418
विंद	-3419
स्कृतिक	-3420
▁[	-3421
▁t	-3422
लंघ	-3423
▁औद्योगिक	-3424
▁मिलियन	-3425
▁ब्रिटेन	-3426
▁लंबे	-3427
लिखित	-3428
▁परन्तु	-3429
▁विधाय	-3430
▁वहाँ	-3431
कुर	-3432
ज़ी	-3433
▁इंस	-3434
▁मुखर्जी	-3435
▁खिलाड़ियों	-3436
▁सिस्टम	-3437
रिए	-3438
नाएं	-3439
▁गुना	-3440
▁संक्रमण	-3441
▁स्टार	-3442
कीय	-3443
30	-3444
वां	-3445
▁हिमाचल	-3446
▁फ़िल्म	-3447
आईआर	-3448
राष्ट्रपति	-3449
नेस	-3450
▁इंद	-3451
तीश	-3452
▁हथियार	-3453
▁सृ	-3454
▁परिच	-3455
▁खुदा	-3456
सीय	-3457
us	-3458
▁वास्तविक	-3459
▁समझौते	-3460
ेड़	-3461
▁बिग	-3462
ज़ाब	-3463
▁एक्सप	-3464
▁रोड	-3465
▁सराह	-3466
अन	-3467
मूर्ति	-3468
कां	-3469
▁पाई	-3470
▁व्‍य	-3471
▁फाइनल	-3472
िक्र	-3473
▁नयी	-3474
▁छत्तीसगढ़	-3475
मति	-3476
▁अज	-3477
फोट	-3478
▁चाहती	-3479
▁हस्ताक्षर	-3480
▁छूट	-3481
▁रोल	-3482
र्प	-3483
▁यात्रियों	-3484
▁तनाव	-3485
▁सैन्य	-3486
▁आती	-3487
▁ज़मीन	-3488
ैट	-3489
▁पूछा	-3490
▁आदित्य	-3491
न्त	-3492
ot	-3493
▁दाम	-3494
रीन	-3495
्वा	-3496
एसएस	-3497
▁फायदा	-3498
▁मुद्रा	-3499
▁झारखंड	-3500
सव	-3501
लंघन	-3502
▁कहता	-3503
▁कही	-3504
तें	-3505
▁सौंप	-3506
▁तुम्हारी	-3507
▁प्रार्थ	-3508
▁नक	-3509
▁दबाव	-3510
▁भ्रष्ट	-3511
▁महामारी	-3512
सीपी	-3513
▁टेली	-3514
▁राव	-3515
नाक	-3516
▁V	-3517
▁श्रृंखला	-3518
▁U	-3519
संग	-3520
▁पड़ता	-3521
ूँ	-3522
▁अध्या	-3523
ol	-3524
▁व्यवहार	-3525
सच	-3526
▁सांस्कृतिक	-3527
फो	-3528
ोग्राम	-3529
▁डायरे	-3530
▁सिर	-3531
▁रैम	-3532
▁भाषण	-3533
▁रद्द	-3534
▁बनाना	-3535
▁जमीन	-3536
ल्ट	-3537
रद	-3538
डीपी	-3539
▁आजा	-3540
▁मंच	-3541
▁विजे	-3542
▁ग्रह	-3543
▁जाकर	-3544
▁जुड़ी	-3545
▁मुकाबला	-3546
200	-3547
▁फेस	-3548
दाबाद	-3549
▁सहमति	-3550
▁आंदोलन	-3551
▁जहाँ	-3552
क्‍ति	-3553
▁महानि	-3554
▁बीमा	-3555
▁मित्र	-3556
▁शुभकाम	-3557
▁चैन	-3558
राव	-3559
▁योजनाओं	-3560
▁वकील	-3561
▁आतंकवादी	-3562
▁आगामी	-3563
▁मंत्रिमंडल	-3564
▁रहना	-3565
ंजन	-3566
▁मसीह	-3567
▁चुनावों	-3568
ent	-3569
▁दलों	-3570
un	-3571
भाष	-3572
ंव	-3573
▁टिप्पणी	-3574
▁आलो	-3575
▁संचालन	-3576
▁प्रार्थना	-3577
▁सेंसर	-3578
▁आउट	-3579
तिहासिक	-3580
▁198	-3581
▁पुस्तक	-3582
▁प्रेस	-3583
▁स्टेट	-3584
▁मीटर	-3585
▁अन्तर्गत	-3586
▁सर्वश्रे	-3587
▁सर्वे	-3588
▁लड़की	-3589
निस	-3590
▁स्थिर	-3591
▁फ्रांस	-3592
णन	-3593
▁इमर	-3594
▁नही	-3595
▁सोमवार	-3596
ौन	-3597
▁तैनात	-3598
▁वॉ	-3599
▁मध	-3600
▁मिट	-3601
▁उल्लंघन	-3602
▁संकेत	-3603
▁इस्तीफा	-3604
▁मस्	-3605
▁संघर्ष	-3606
थे	-3607
लोड	-3608
मक	-3609
नो	-3610
▁फल	-3611
▁चौधरी	-3612
▁डीजल	-3613
▁W	-3614
ीप	-3615
▁धोनी	-3616
▁70	-3617
▁भगवान	-3618
▁संपत्ति	-3619
▁शख	-3620
▁फंड	-3621
ानिस्तान	-3622
▁तोड़	-3623
▁सम्ब	-3624
as	-3625
▁एप	-3626
साइ	-3627
▁राज्यसभा	-3628
▁खुल	-3629
▁युवाओं	-3630
▁देर	-3631
▁अक	-3632
्हा	-3633
ूद	-3634
▁हस्त	-3635
▁दोषी	-3636
▁जाएँ	-3637
्रम	-3638
▁सेवाएं	-3639
ड्डा	-3640
▁उच्चतम	-3641
▁छोड़कर	-3642
is	-3643
▁दृष्ट	-3644
▁कंट	-3645
▁जरूर	-3646
▁विवाह	-3647
et	-3648
धारण	-3649
▁समाचार	-3650
▁निपटने	-3651
दूर	-3652
ंगाना	-3653
▁बच्चन	-3654
बुक	-3655
▁आग्रह	-3656
▁कानूनी	-3657
▁सत्य	-3658
िसू	-3659
सीटी	-3660
▁बचाव	-3661
▁राष्‍ट्रीय	-3662
िपक्षीय	-3663
▁सेल	-3664
▁धरती	-3665
▁वार्ता	-3666
▁चेयर	-3667
▁इकाई	-3668
▁सोनिया	-3669
▁ऑफिस	-3670
▁यूनिवर्स	-3671
▁चढ़	-3672
▁शपथ	-3673
खी	-3674
▁कैंसर	-3675
▁जोड़	-3676
▁शख्स	-3677
वर्ती	-3678
▁सवार	-3679
▁इंजीनियर	-3680
हाद	-3681
प्रिय	-3682
▁निकट	-3683
▁सिवा	-3684
बत	-3685
▁सारी	-3686
▁हाउस	-3687
ैंप	-3688
▁जला	-3689
▁युवक	-3690
नै	-3691
पाद	-3692
ियत	-3693
▁इन्हें	-3694
▁धी	-3695
▁अक्सर	-3696
रू	-3697
▁नायडू	-3698
▁विधायकों	-3699
▁80	-3700
▁दाखिल	-3701
▁लु	-3702
▁बाढ़	-3703
▁वनडे	-3704
▁वेस्ट	-3705
▁खाते	-3706
▁न्यायमूर्ति	-3707
दीय	-3708
ब्‍	-3709
्यास	-3710
▁आकर्ष	-3711
▁भागीदारी	-3712
,5	-3713
▁जानी	-3714
कै	-3715
▁शब्	-3716
▁प्रश्न	-3717
तरे	-3718
▁परमाण	-3719
दो	-3720
▁शही	-3721
▁2013	-3722
ारों	-3723
सीए	-3724
िश्ते	-3725
▁उठाया	-3726
▁लाए	-3727
▁आखिर	-3728
▁जहा	-3729
▁जवान	-3730
▁कब्जे	-3731
▁चित्र	-3732
ॉस	-3733
▁कने	-3734
▁एक्ट्रेस	-3735
▁प्राप	-3736
▁लीटर	-3737
▁सारा	-3738
क्रो	-3739
▁चोप	-3740
कोर	-3741
श्चा	-3742
▁कोरिया	-3743
▁नियमित	-3744
कूल	-3745
गें	-3746
▁पूंजी	-3747
▁ईरान	-3748
जीव	-3749
▁गोल	-3750
▁सर्वश्रेष्ठ	-3751
▁लेंगे	-3752
▁तैयारी	-3753
ाले	-3754
ch	-3755
▁आएंगे	-3756
▁अजय	-3757
▁पहुँ	-3758
▁रिट	-3759
▁रखता	-3760
▁परेशान	-3761
▁वैज्ञानिक	-3762
▁नौसेना	-3763
▁बहन	-3764
▁घरों	-3765
▁सीधे	-3766
▁तेलंगाना	-3767
▁लॉक	-3768
▁ओड	-3769
▁ऐतिहासिक	-3770
▁चोपड़ा	-3771
▁एडम	-3772
ोने	-3773
▁इच्छा	-3774
▁झु	-3775
▁अनिवार	-3776
▁भोजन	-3777
▁विवरण	-3778
▁गोवा	-3779
घु	-3780
▁अखिल	-3781
्षिक	-3782
▁आसपास	-3783
िकोण	-3784
▁आयात	-3785
निक	-3786
▁|	-3787
▁किन	-3788
▁कराई	-3789
बान	-3790
जीलैंड	-3791
▁मुक्त	-3792
▁शूटिंग	-3793
बिनेट	-3794
▁सका	-3795
▁बलों	-3796
▁सम्मानित	-3797
▁पृथ्वी	-3798
▁ओल	-3799
▁राजमार्ग	-3800
▁कक्षा	-3801
स्‍ट	-3802
मानत	-3803
आत	-3804
▁आधुनिक	-3805
फॉ	-3806
▁राजीव	-3807
▁आरोपों	-3808
▁इंस्टा	-3809
▁शुक्रवार	-3810
▁ठाकुर	-3811
▁आखिरी	-3812
▁डिजा	-3813
▁रोम	-3814
▁अभिन	-3815
▁मिलती	-3816
सचिव	-3817
▁धार	-3818
ोतरी	-3819
▁लोकतंत्र	-3820
▁परमाणु	-3821
ार्द	-3822
कुल	-3823
▁उन्	-3824
▁सेक्टर	-3825
▁तुम्हारा	-3826
▁प्रतिष्ठ	-3827
▁सिविल	-3828
▁बीमारी	-3829
बादी	-3830
▁नियु	-3831
▁मरी	-3832
▁छोटी	-3833
▁डिप	-3834
▁अशोक	-3835
▁रखे	-3836
▁नेपाल	-3837
▁चर	-3838
▁टूर्	-3839
▁इरा	-3840
▁चीफ	-3841
▁खड़े	-3842
▁डाला	-3843
▁टाटा	-3844
िएशन	-3845
चि	-3846
फ्रेंस	-3847
▁दृष्टि	-3848
▁अधिकांश	-3849
▁कीमतों	-3850
▁द्विपक्षीय	-3851
खन	-3852
ालित	-3853
मोहन	-3854
▁दिखाया	-3855
डीए	-3856
शे	-3857
इयों	-3858
▁कार्यक्रमों	-3859
वर्धन	-3860
एसई	-3861
▁बजाय	-3862
बो	-3863
ुरु	-3864
▁नज़र	-3865
पादन	-3866
▁वितरण	-3867
रिएंट	-3868
▁सोने	-3869
▁ग्रुप	-3870
)।	-3871
क्षेप	-3872
▁जीता	-3873
▁निर्वाचन	-3874
वह	-3875
राज्य	-3876
▁कोय	-3877
▁दिये	-3878
नामेंट	-3879
▁हवा	-3880
▁दीपिका	-3881
▁विनिर्	-3882
▁तस्वीरें	-3883
▁मिलते	-3884
रुख	-3885
▁पूजा	-3886
▁नोटिस	-3887
▁सराहना	-3888
▁सुख	-3889
▁मुसलमान	-3890
लान	-3891
▁खुलासा	-3892
▁निर्भर	-3893
पीएफ	-3894
▁अधिसू	-3895
▁स्रो	-3896
▁जेटली	-3897
सीसीआई	-3898
▁प्राधिकरण	-3899
जोर	-3900
्‍ली	-3901
▁टूर्नामेंट	-3902
▁उत्पन्न	-3903
▁प्रतियोगिता	-3904
▁रवि	-3905
▁कार्यकर्ताओं	-3906
▁संरचना	-3907
ंश	-3908
डि	-3909
टका	-3910
▁कारणों	-3911
ढ़ी	-3912
▁काउ	-3913
डाउन	-3914
▁अहमद	-3915
▁संसदीय	-3916
▁2012	-3917
भू	-3918
▁प्रदू	-3919
दृ	-3920
▁कैबिनेट	-3921
▁शासित	-3922
▁यूनिवर्सिटी	-3923
▁विद्यार्थियों	-3924
▁बेंगल	-3925
▁अंतरिक्ष	-3926
श्वर	-3927
▁इंस्टाग्राम	-3928
▁अरविंद	-3929
ठे	-3930
▁अनिवार्य	-3931
मह	-3932
▁समक्ष	-3933
ul	-3934
▁चक्र	-3935
▁इस्लाम	-3936
▁निशाना	-3937
▁सेंटर	-3938
▁मनी	-3939
भाषा	-3940
▁फैला	-3941
▁विश्‍वास	-3942
▁योगी	-3943
▁वाहनों	-3944
छा	-3945
▁सप	-3946
▁सम्	-3947
▁पौ	-3948
▁पाक	-3949
▁सौर	-3950
▁पश्चिमी	-3951
▁इंटरनेट	-3952
डब्ल्यू	-3953
▁बाय	-3954
▁बुध	-3955
▁वार्षिक	-3956
रुद्ध	-3957
▁कमांड	-3958
▁प्रभु	-3959
्लो	-3960
▁योग्य	-3961
क्कर	-3962
फान	-3963
▁पां	-3964
▁2011	-3965
▁प्रत्या	-3966
▁जागर	-3967
▁उठाने	-3968
▁बढ़ोतरी	-3969
ल्ल	-3970
▁चै	-3971
रेट	-3972
▁कॉल	-3973
▁विज्ञ	-3974
▁पदार्थ	-3975
टिल	-3976
▁अधिकतम	-3977
▁अफगानिस्तान	-3978
▁रहेगी	-3979
-0	-3980
▁अज़ाब	-3981
▁रैली	-3982
▁पेंशन	-3983
▁न्यूनतम	-3984
il	-3985
म्‍	-3986
▁शाहरुख	-3987
▁इमरान	-3988
द्दीन	-3989
▁आरंभ	-3990
▁p	-3991
▁शुभकामनाएं	-3992
देव	-3993
ांज	-3994
स्म	-3995
,4	-3996
न्‍य	-3997
▁जाह	-3998
▁500	-3999
▁गईं	-4000
दाय	-4001
न्या	-4002
▁तत्व	-4003
▁स्थल	-4004
▁पवित्र	-4005
▁महासचिव	-4006
▁उपराष्ट्रपति	-4007
▁व्यक्तिगत	-4008
▁जताई	-4009
▁उत्पादों	-4010
ay	-4011
ांतर	-4012
▁न्यायिक	-4013
▁जर्मनी	-4014
▁अके	-4015
▁सलाहकार	-4016
▁डिजाइन	-4017
▁भीड़	-4018
बारा	-4019
▁सूच	-4020
▁ताकत	-4021
पूर्वक	-4022
▁चलता	-4023
▁धन्य	-4024
▁निरा	-4025
▁लीग	-4026
ार्थी	-4027
श्वास	-4028
▁लाया	-4029
स्‍त	-4030
▁राष्‍ट्र	-4031
▁64	-4032
▁भ्रष्टाचार	-4033
खे	-4034
▁भट्ट	-4035
न्हा	-4036
▁गर्म	-4037
न्वयन	-4038
▁बताते	-4039
भूत	-4040
▁अब्द	-4041
▁आकाश	-4042
▁J	-4043
▁गाय	-4044
▁लाइन	-4045
▁आयुक्त	-4046
ोत्तर	-4047
▁लोकप्रिय	-4048
▁आपने	-4049
▁स्कूलों	-4050
▁ड्राइ	-4051
▁जिम्मेदार	-4052
▁मनुष्य	-4053
▁बढ़ती	-4054
▁पारित	-4055
▁रजिस्ट	-4056
▁48	-4057
▁काल	-4058
▁निश्च	-4059
▁सीमित	-4060
▁कार्यकारी	-4061
ुरा	-4062
▁मूसा	-4063
▁परिवारों	-4064
▁ब्याज	-4065
▁अल्प	-4066
▁न्यूजीलैंड	-4067
MP	-4068
▁जीतने	-4069
संख	-4070
▁36	-4071
▁तथ	-4072
▁जाओ	-4073
▁छुट	-4074
▁बीमार	-4075
▁आईटी	-4076
वानों	-4077
▁होंगी	-4078
▁आईपीएल	-4079
▁सिंध	-4080
ौती	-4081
▁197	-4082
▁समृ	-4083
▁मंगलवार	-4084
▁चलने	-4085
ov	-4086
▁जरिये	-4087
▁शब्दों	-4088
▁टाइ	-4089
▁सिंग	-4090
▁हिन्द	-4091
पो	-4092
▁आह	-4093
▁प्राचीन	-4094
एमसी	-4095
▁भंड	-4096
▁रखें	-4097
▁कमा	-4098
▁ओडिशा	-4099
▁थाना	-4100
▁राजप	-4101
,1	-4102
जर्स	-4103
▁फ्रंट	-4104
▁हिस्सों	-4105
▁पहा	-4106
▁तंत्र	-4107
▁विस्तृत	-4108
▁बुधवार	-4109
.201	-4110
▁सदन	-4111
▁श्रीमती	-4112
▁दूरी	-4113
▁बेहत	-4114
▁नौकरी	-4115
▁मोटर	-4116
▁विपक्ष	-4117
▁पकड़	-4118
▁विरोधी	-4119
रत	-4120
००	-4121
ाये	-4122
▁समस्याओं	-4123
▁गुप्ता	-4124
▁लंबी	-4125
▁गिरफ्तारी	-4126
डर	-4127
▁रिल	-4128
नाम	-4129
▁चेयरमैन	-4130
▁अंड	-4131
▁पर्व	-4132
रीय	-4133
▁सख्त	-4134
ाइन	-4135
▁पश्चा	-4136
▁बुरी	-4137
▁प्लान	-4138
▁लिखित	-4139
विक	-4140
▁अंब	-4141
▁डाउन	-4142
र्द	-4143
▁वीर	-4144
▁अर्था	-4145
ंपिक	-4146
िताभ	-4147
▁शिखर	-4148
▁निर्माता	-4149
्मा	-4150
▁औसत	-4151
नन	-4152
iv	-4153
मल	-4154
▁45	-4155
▁किंग	-4156
▁गोयल	-4157
▁पावर	-4158
ir	-4159
▁छि	-4160
▁मैने	-4161
▁दया	-4162
xa	-4163
सिद्ध	-4164
▁हफ्	-4165
▁जमानत	-4166
ur	-4167
▁बढ़ने	-4168
दूस	-4169
▁मेह	-4170
▁इतनी	-4171
▁बेच	-4172
▁लॉकडाउन	-4173
’’	-4174
्मी	-4175
्कुल	-4176
▁ओपन	-4177
▁विश्‍व	-4178
▁सर्वो	-4179
▁रिस	-4180
▁१९	-4181
▁वर्षीय	-4182
▁अर्जुन	-4183
सु	-4184
▁विज	-4185
वाणी	-4186
▁लंदन	-4187
▁उद्ध	-4188
▁जाएं	-4189
▁अनुसू	-4190
▁आलोचना	-4191
▁यात्री	-4192
▁दृष्टिकोण	-4193
गज	-4194
▁खतरा	-4195
▁आबादी	-4196
▁नागरिकता	-4197
▁मंत्रियों	-4198
रक	-4199
▁गहरा	-4200
▁निवासी	-4201
▁कवि	-4202
▁नाग	-4203
खिम	-4204
दमा	-4205
पीसी	-4206
सेज	-4207
▁दुक	-4208
▁अवै	-4209
▁एचडी	-4210
▁एजेंस	-4211
तो	-4212
जनक	-4213
घ्र	-4214
▁विरुद्ध	-4215
ation	-4216
▁हिस	-4217
नाल्ड	-4218
▁प्राथमिकता	-4219
▁आकार	-4220
कियों	-4221
▁देवी	-4222
▁ट्रै	-4223
ृति	-4224
▁आपदा	-4225
▁कमजोर	-4226
आप	-4227
रप	-4228
▁अकाउंट	-4229
मुझे	-4230
मर्श	-4231
▁सिन्हा	-4232
▁वस्तु	-4233
▁v	-4234
▁जाया	-4235
▁यक़	-4236
▁शौ	-4237
▁अमिताभ	-4238
▁गंगा	-4239
▁बढ	-4240
तावनी	-4241
▁जल्दी	-4242
▁हफ्ते	-4243
▁पुनर्	-4244
▁बनर्जी	-4245
▁वापसी	-4246
पीय	-4247
▁नित	-4248
▁वेतन	-4249
िना	-4250
▁बहुम	-4251
▁रिजर्व	-4252
हे	-4253
▁निशान	-4254
▁हर्ष	-4255
▁दूसरों	-4256
लाइ	-4257
▁पुराने	-4258
▁चेतावनी	-4259
▁शुरूआत	-4260
▁दंड	-4261
▁स्वस्थ	-4262
-20	-4263
हैया	-4264
▁उपाध्यक्ष	-4265
▁फेसबुक	-4266
▁महि	-4267
वायु	-4268
▁चेक	-4269
▁संह	-4270
क्का	-4271
▁मैन	-4272
ाजन	-4273
▁बिल्कुल	-4274
▁जोखिम	-4275
▁अब्दुल	-4276
▁कर्ज	-4277
▁ज़रूरत	-4278
▁अपेक्षा	-4279
ाजी	-4280
▁मेल	-4281
▁तट	-4282
वेट	-4283
▁विश्ले	-4284
,99	-4285
▁ग्रहण	-4286
▁चौहान	-4287
ad	-4288
▁बोले	-4289
▁विस्	-4290
▁शन	-4291
▁पहुंचने	-4292
▁सेंट	-4293
▁बल्लेबाजी	-4294
▁रिजल्ट	-4295
कप	-4296
▁एसोस	-4297
▁स्क्रीन	-4298
▁मेट्र	-4299
ड्र	-4300
स्ट्री	-4301
▁अगली	-4302
▁इंतजार	-4303
▁सकेगा	-4304
ॉजी	-4305
▁रचना	-4306
▁वें	-4307
▁हल्	-4308
▁निम्नलिखित	-4309
लीय	-4310
▁बनाकर	-4311
▁सचिन	-4312
▁अह	-4313
▁अवैध	-4314
▁समुद्र	-4315
▁लेन	-4316
र्पित	-4317
▁मिनट	-4318
कंप	-4319
▁खेला	-4320
▁विशाल	-4321
▁मान्यता	-4322
▁दास	-4323
▁अरुण	-4324
ंद्रा	-4325
▁भेजे	-4326
▁शाखा	-4327
▁सोना	-4328
▁स्‍वा	-4329
▁मिश्रा	-4330
▁मसीही	-4331
▁संहिता	-4332
्यूटर	-4333
▁वचन	-4334
▁महत्	-4335
▁गड	-4336
▁दिल्‍ली	-4337
ण्डल	-4338
▁33	-4339
ंपरा	-4340
▁तकनीक	-4341
▁""""	-4342
▁धन्यवाद	-4343
एससी	-4344
▁90	-4345
▁अंग्रेजी	-4346
▁एक्टर	-4347
▁लगने	-4348
▁मनाया	-4349
▁मुहैया	-4350
▁कहां	-4351
▁महीनों	-4352
▁माहौल	-4353
▁निकाय	-4354
एफसी	-4355
चर्स	-4356
▁ब्रिटिश	-4357
▁रैं	-4358
▁बौ	-4359
▁शनिवार	-4360
साई	-4361
▁साक्ष	-4362
▁नाइ	-4363
▁देखभाल	-4364
कुमार	-4365
▁साझेदारी	-4366
▁परिसर	-4367
▁नियुक्ति	-4368
▁मरीजों	-4369
स्ट्र	-4370
एगा	-4371
▁2010	-4372
▁खड़ा	-4373
्टर	-4374
▁मुकदमा	-4375
▁प्लेट	-4376
▁वर्ल्ड	-4377
▁संचार	-4378
▁सहयोगी	-4379
▁ऐप	-4380
▁वेरिएंट	-4381
देह	-4382
▁पदों	-4383
▁)	-4384
ेक्ट	-4385
▁सुनील	-4386
▁महानिदेशक	-4387
▁मेहन	-4388
▁फो	-4389
▁संक्रमित	-4390
▁किन्तु	-4391
▁रविवार	-4392
▁ऐलान	-4393
▁तह	-4394
▁खाने	-4395
▁उड़ान	-4396
▁मुद्दा	-4397
करे	-4398
▁उत्तरी	-4399
▁सॉ	-4400
▁रिश	-4401
id	-4402
रोध	-4403
▁प्रदूषण	-4404
▁सुशांत	-4405
▁आवं	-4406
▁मानते	-4407
▁आत्मा	-4408
ww	-4409
▁आसमान	-4410
▁लगाई	-4411
▁सैनिकों	-4412
▁m	-4413
and	-4414
▁रूपये	-4415
पिता	-4416
▁ममता	-4417
▁ग्रे	-4418
▁जुट	-4419
स्वा	-4420
▁सौं	-4421
▁मालिक	-4422
▁पेट्रोलियम	-4423
▁मनमोहन	-4424
▁निश्चय	-4425
न्दी	-4426
▁शीघ्र	-4427
▁प्रभार	-4428
▁अधि	-4429
▁प्रोसे	-4430
पै	-4431
▁होम	-4432
चारिक	-4433
▁34	-4434
▁जनजा	-4435
dia	-4436
ig	-4437
स्थल	-4438
▁शहीद	-4439
▁थाने	-4440
▁परंपरा	-4441
ंती	-4442
▁प्रय	-4443
▁निरंतर	-4444
▁विस्फोट	-4445
सैन	-4446
▁दर्द	-4447
▁समर्पित	-4448
▁सकारात्मक	-4449
,6	-4450
▁सिटी	-4451
▁सड़कों	-4452
▁पूर्वोत्तर	-4453
दिष्ट	-4454
▁क्लिक	-4455
▁चारों	-4456
थर	-4457
▁साध	-4458
कश	-4459
▁टाइम	-4460
▁पटना	-4461
▁राजस्व	-4462
▁निदेश	-4463
\""	-4464
▁बैटरी	-4465
▁मण	-4466
▁मज़	-4467
▁196	-4468
▁शेष	-4469
ेटी	-4470
क्या	-4471
▁अनुकूल	-4472
▁फे	-4473
ंटर	-4474
▁रेट	-4475
▁जायेगा	-4476
▁वास्ते	-4477
▁इंजन	-4478
्यूल	-4479
▁अतः	-4480
▁बढ़त	-4481
,3	-4482
कारियों	-4483
वरूप	-4484
▁मानसिक	-4485
▁राजपूत	-4486
हत्या	-4487
▁खुले	-4488
▁अभिय	-4489
▁जलवायु	-4490
ूली	-4491
▁अना	-4492
▁जमकर	-4493
▁पड़ी	-4494
▁बीते	-4495
▁ज्यादातर	-4496
▁बीसीसीआई	-4497
▁सुविधाओं	-4498
▁बदले	-4499
पत	-4500
▁कहती	-4501
वती	-4502
▁मछ	-4503
दर्शन	-4504
▁साहित्य	-4505
▁किश	-4506
▁उत्तराखंड	-4507
धानिक	-4508
▁इंसान	-4509
आरसी	-4510
▁विविध	-4511
▁द्वीप	-4512
▁कम्प	-4513
▁सेक	-4514
▁कपिल	-4515
ट्स	-4516
,7	-4517
▁रणवीर	-4518
धीन	-4519
र्या	-4520
▁ढंग	-4521
▁धम	-4522
▁गुम	-4523
▁विजेता	-4524
▁कमेटी	-4525
▁पृष्ठ	-4526
▁पैर	-4527
ज्ञात	-4528
▁पाठ्य	-4529
▁प्रकट	-4530
▁रोज़	-4531
▁इंच	-4532
▁डिस्प	-4533
विड	-4534
▁रियर	-4535
▁बेहतरीन	-4536
▁जुड़ा	-4537
र्धा	-4538
▁एक्सप्रेस	-4539
▁75	-4540
▁गेंदबाजी	-4541
तौर	-4542
▁2009	-4543
ीकरण	-4544
▁हाथों	-4545
बिल	-4546
▁शोक	-4547
▁मशीन	-4548
▁जागरूक	-4549
▁Re	-4550
ाँ	-4551
ष्का	-4552
▁विवे	-4553
माही	-4554
▁आदर्श	-4555
▁सर्वा	-4556
▁रिश्ते	-4557
▁दोबारा	-4558
▁सबूत	-4559
▁विद्युत	-4560
▁आंकड़ों	-4561
▁टीमों	-4562
ईओ	-4563
भूम	-4564
त्‍व	-4565
▁पहुँच	-4566
▁जोड़ी	-4567
▁उपबंध	-4568
ग्ध	-4569
▁ट्रांस	-4570
▁पत्रकार	-4571
िशन	-4572
▁चार्ज	-4573
▁प्राइ	-4574
ेंडर	-4575
▁काबू	-4576
▁फैल	-4577
▁अभिष	-4578
▁कच्च	-4579
▁स्वर्ण	-4580
कालीन	-4581
▁अस्थ	-4582
▁स्वामी	-4583
▁छात्रा	-4584
▁पुत्र	-4585
▁ढांच	-4586
▁आसानी	-4587
बंदी	-4588
▁राजद	-4589
फॉर्म	-4590
त्मिक	-4591
िग	-4592
▁चिकित्स	-4593
कॉम	-4594
लाल	-4595
▁स्‍थ	-4596
श्‍य	-4597
▁विचारों	-4598
▁खेलों	-4599
▁परिस्थित	-4600
▁सीतार	-4601
▁डाउनलोड	-4602
▁ओलंपिक	-4603
▁तुमसे	-4604
▁पुलिसकर्म	-4605
वरों	-4606
संख्य	-4607
▁कठिन	-4608
▁भौ	-4609
ंधन	-4610
▁समझा	-4611
▁खेले	-4612
,8	-4613
▁पेज	-4614
▁पोल	-4615
पीड	-4616
▁सिने	-4617
दूसरे	-4618
▁पवार	-4619
▁कार्यवाही	-4620
जि	-4621
▁आमंत्र	-4622
कांक	-4623
ौम	-4624
▁रास्ते	-4625
▁कार्यकर्ता	-4626
▁रेड्डी	-4627
▁जिनका	-4628
▁व्याव	-4629
▁क्षति	-4630
▁प्रतिनिधि	-4631
ृत्ति	-4632
▁हड़	-4633
▁अधिकारों	-4634
बीन	-4635
▁बाग	-4636
▁पराम	-4637
▁दोहरा	-4638
▁वर्मा	-4639
▁उत्साह	-4640
▁कामया	-4641
▁नील	-4642
▁मालूम	-4643
▁महिलाएं	-4644
दियों	-4645
फिर	-4646
मेर	-4647
▁सर्वेक्षण	-4648
▁श्रम	-4649
▁सूचकांक	-4650
▁प्रदेशों	-4651
▁प्रतिभा	-4652
▁खेलने	-4653
▁मेहनत	-4654
▁प्रशासनिक	-4655
क्म	-4656
▁कितना	-4657
▁ग्राहकों	-4658
▁प्रोड	-4659
▁टैक्स	-4660
▁वस्तुओं	-4661
कान	-4662
▁लघु	-4663
िन्‍न	-4664
▁गवर्	-4665
ंडीज	-4666
ांजलि	-4667
▁भंडार	-4668
ोरम	-4669
▁आध्या	-4670
▁वैसे	-4671
▁कृष्ण	-4672
▁ट्रक	-4673
अपने	-4674
वेयर	-4675
▁धवन	-4676
▁टेक्	-4677
▁करीना	-4678
▁जॉ	-4679
▁लखन	-4680
▁संभाल	-4681
▁घटनाओं	-4682
▁संकल्प	-4683
▁पशु	-4684
ख़िर	-4685
▁मनोहर	-4686
▁स्टूड	-4687
▁डोनाल्ड	-4688
ंकन	-4689
टीआई	-4690
▁?	-4691
▁फार्म	-4692
▁विपक्षी	-4693
ेन्द्र	-4694
▁मास	-4695
्यूब	-4696
▁रुख	-4697
▁मोहन	-4698
▁फसल	-4699
▁पौल	-4700
▁प्ला	-4701
ोरेट	-4702
▁प्रसिद्ध	-4703
▁चली	-4704
सब	-4705
▁घोट	-4706
ायण	-4707
▁जॉन	-4708
▁बनाम	-4709
▁गठित	-4710
▁थोड़ा	-4711
लोक	-4712
▁गू	-4713
▁निर्देशन	-4714
▁इनकी	-4715
▁नेहर	-4716
▁केंद्रित	-4717
▁सर्वोच्च	-4718
ांकन	-4719
▁बू	-4720
▁तीसरा	-4721
▁पड़ेगा	-4722
▁वाई	-4723
▁अन्‍य	-4724
▁जिंदगी	-4725
▁पुणे	-4726
फिक	-4727
,9	-4728
▁काट	-4729
▁सपा	-4730
▁बैठे	-4731
▁ढांचे	-4732
▁व्हा	-4733
▁पौलुस	-4734
▁सिखा	-4735
ुति	-4736
▁टक्कर	-4737
▁चैंप	-4738
▁आध्यात्मिक	-4739
▁तभी	-4740
नेशनल	-4741
पल	-4742
▁माध	-4743
टिंग	-4744
▁फॉर	-4745
▁देखकर	-4746
▁समूहों	-4747
▁सिद्धांत	-4748
द्या	-4749
ाइयों	-4750
▁पक्षों	-4751
▁अनुष्का	-4752
▁रक्त	-4753
▁मजदूर	-4754
राग	-4755
न्‍द	-4756
▁X	-4757
▁साथी	-4758
न्दर	-4759
ेंट्स	-4760
ंतरिक	-4761
▁स्थायी	-4762
ैंस	-4763
धिकारी	-4764
▁सन	-4765
मात्र	-4766
▁प्रदर्शित	-4767
▁हिम	-4768
▁शिल	-4769
▁नीतीश	-4770
▁जवानों	-4771
कीन	-4772
▁संस्करण	-4773
बरा	-4774
पचारिक	-4775
▁बदलने	-4776
▁जाम	-4777
▁यूरोप	-4778
▁पायल	-4779
तियां	-4780
▁बीएस	-4781
▁नामक	-4782
▁ब्रे	-4783
▁अनुरूप	-4784
▁लीड	-4785
▁सिख	-4786
▁प्राय	-4787
▁o	-4788
▁...	-4789
▁कां	-4790
▁छोटा	-4791
ज़ार	-4792
-3	-4793
th	-4794
मेल	-4795
ॉर्क	-4796
▁परामर्श	-4797
▁जानें	-4798
▁दिलच	-4799
फेसर	-4800
▁क्रमश	-4801
▁प्रोत्साहित	-4802
▁तुमको	-4803
▁सपोर्ट	-4804
▁अमरीकी	-4805
▁सेव	-4806
▁तरीका	-4807
▁व्यवसाय	-4808
कोट	-4809
क्के	-4810
ितीय	-4811
▁अदा	-4812
▁करियर	-4813
ia	-4814
▁गुल	-4815
▁कटौती	-4816
▁निर्देशक	-4817
एसएम	-4818
ब्लिक	-4819
▁प्रकृति	-4820
▁सकेंगे	-4821
▁दिग्	-4822
44	-4823
ार्दिक	-4824
▁प्रत्यक्ष	-4825
▁2021	-4826
,2	-4827
▁छाप	-4828
▁फायर	-4829
्रेडिट	-4830
▁प्रोज	-4831
कलन	-4832
प्रीत	-4833
▁पांडे	-4834
▁प्रतिनिधित्व	-4835
▁पैसा	-4836
▁हुक्म	-4837
▁अभ्यास	-4838
▁यौन	-4839
गण	-4840
भूमि	-4841
ोलॉजी	-4842
▁एकता	-4843
▁मेट्रो	-4844
▁तुमने	-4845
ॉर्ट	-4846
▁कमल	-4847
▁वादा	-4848
▁कौर	-4849
▁चुनावी	-4850
▁सिक्	-4851
▁आंतरिक	-4852
जिट	-4853
▁चलाने	-4854
▁प्रसारण	-4855
एसआई	-4856
▁अध्‍य	-4857
▁संयंत्र	-4858
द्दा	-4859
डम	-4860
स्य	-4861
▁हटाने	-4862
मंत्र	-4863
▁रिया	-4864
▁रेखा	-4865
▁निर्मित	-4866
▁हार्दिक	-4867
ि‍	-4868
▁डिस्प्ले	-4869
दय	-4870
▁प्रस	-4871
▁गर्व	-4872
▁इस्रा	-4873
▁एजेंसियों	-4874
▁सच्चाई	-4875
▁३	-4876
▁मानक	-4877
▁लखनऊ	-4878
▁विषयों	-4879
▁चिद	-4880
▁दशक	-4881
▁दान	-4882
▁क्ला	-4883
▁हिसाब	-4884
--	-4885
▁शराब	-4886
तलब	-4887
संद	-4888
▁अगु	-4889
▁बला	-4890
ायंस	-4891
▁आएगा	-4892
▁बचाने	-4893
कोण	-4894
▁कर्मियों	-4895
▁आदित्यनाथ	-4896
▁खाना	-4897
ाफ	-4898
▁अट	-4899
▁आतंकवादियों	-4900
▁तमाम	-4901
▁प्रजा	-4902
ध्या	-4903
▁तृ	-4904
स्‍था	-4905
▁हद	-4906
▁डॉक्टरों	-4907
▁रॉ	-4908
▁फिट	-4909
▁गवाह	-4910
▁कायम	-4911
10	-4912
मूल	-4913
▁मरने	-4914
म्भ	-4915
▁उतर	-4916
▁इमार	-4917
▁ऑटो	-4918
▁मण्डल	-4919
▁बहस	-4920
▁रास्ता	-4921
ेश्वर	-4922
▁करण	-4923
▁ज़रूर	-4924
▁विद्यालय	-4925
आईए	-4926
▁प्रणब	-4927
▁हिस्सेदारी	-4928
▁मिश्र	-4929
▁n	-4930
फाइ	-4931
शंकर	-4932
राम	-4933
▁दूध	-4934
स्वरूप	-4935
▁करवाया	-4936
▁तिथि	-4937
▁आत्महत्या	-4938
राधिक	-4939
me	-4940
▁खतर	-4941
▁नमू	-4942
▁ठाकरे	-4943
▁लेखक	-4944
▁लिस्ट	-4945
▁150	-4946
▁इतने	-4947
▁तिमाही	-4948
▁गडकरी	-4949
▁मद्	-4950
▁व्‍या	-4951
▁नज	-4952
▁कितनी	-4953
▁अहमदाबाद	-4954
▁जंग	-4955
एंगे	-4956
▁क्रेडिट	-4957
▁आस्ट्रेलिया	-4958
▁2008	-4959
बु	-4960
स्वी	-4961
न्यास	-4962
▁एह	-4963
▁शक	-4964
▁एशियाई	-4965
यां	-4966
ारीरिक	-4967
▁चोरी	-4968
▁धा	-4969
▁प्रोफेसर	-4970
▁क़ौम	-4971
तालों	-4972
▁नेहरू	-4973
▁चुनौतियों	-4974
▁f	-4975
▁सेल्	-4976
▁आलिया	-4977
▁संचालित	-4978
▁370	-4979
▁पार्क	-4980
▁कीजिए	-4981
पार	-4982
▁तीसरी	-4983
▁दर्शा	-4984
वानी	-4985
ce	-4986
▁स्रोत	-4987
▁इलेक्ट्रॉन	-4988
▁पाठ्यक्रम	-4989
ोगे	-4990
▁आये	-4991
▁दावे	-4992
▁उल्लेखनीय	-4993
▁एफआईआर	-4994
▁भड़	-4995
▁घंटों	-4996
▁हिंदु	-4997
ठभ	-4998
▁जयंती	-4999
▁मुख्यालय	-5000
▁डाटा	-5001
रानी	-5002
▁कैमरे	-5003
▁स्वच्छता	-5004
पीएस	-5005
▁निल	-5006
ल्पना	-5007
▁तर्क	-5008
▁होटल	-5009
▁अमर	-5010
▁लड़ने	-5011
▁सीजन	-5012
▁गांवों	-5013
▁धोखा	-5014
क्षेत्र	-5015
▁जिनकी	-5016
▁गिल	-5017
▁पेट	-5018
▁रहीं	-5019
▁निंदा	-5020
तायात	-5021
▁अधिकतर	-5022
▁खतरे	-5023
ज्ज	-5024
▁एसोसिएशन	-5025
▁महात्मा	-5026
▁परेशानी	-5027
▁यूरोपीय	-5028
▁जू	-5029
▁दर्शन	-5030
▁मांगी	-5031
▁मृतक	-5032
▁कोविंद	-5033
श्त	-5034
गि	-5035
▁नाथ	-5036
िथ	-5037
▁प्रवर्	-5038
▁मुठभ	-5039
▁पैमाने	-5040
▁श्रद्धांजलि	-5041
▁एक्	-5042
▁प्रतिस्प	-5043
▁प्रस्तावित	-5044
,0	-5045
▁अश्व	-5046
▁कना	-5047
इंडीज	-5048
▁मद्देन	-5049
णु	-5050
ंत्रिक	-5051
▁इंजीनियरिंग	-5052
▁माफी	-5053
▁देखना	-5054
▁बढ़ाया	-5055
▁विभिन्‍न	-5056
▁बोली	-5057
▁वक्‍त	-5058
▁शैतान	-5059
▁संभावित	-5060
▁चैनल	-5061
▁किमी	-5062
▁अड्ड	-5063
▁देखी	-5064
▁लिंक	-5065
▁लाखों	-5066
मै	-5067
▁जोशी	-5068
▁अत्या	-5069
▁अज्ञात	-5070
▁शारीरिक	-5071
▁सागर	-5072
▁सिलस	-5073
▁ढां	-5074
▁घाटी	-5075
▁पेशे	-5076
न्‍द्रीय	-5077
▁भूल	-5078
ग्रहण	-5079
▁सुरेश	-5080
एनएस	-5081
▁पहुँचा	-5082
▁जताया	-5083
▁पायलट	-5084
▁दर्शकों	-5085
▁b	-5086
▁मिसाल	-5087
▁आयुष	-5088
राइ	-5089
▁उपभोक्ता	-5090
▁क्रिकेटर	-5091
▁यातायात	-5092
▁माय	-5093
▁कार्यकाल	-5094
▁भारती	-5095
▁सालों	-5096
▁मुख्‍य	-5097
▁कोयला	-5098
▁आज्ञा	-5099
्वान	-5100
▁इसको	-5101
▁फॉर्म	-5102
मला	-5103
ुलकर	-5104
▁उत	-5105
ब्दी	-5106
-201	-5107
▁सर्वाधिक	-5108
करार	-5109
▁195	-5110
▁सहमत	-5111
▁शिकार	-5112
▁बंदर	-5113
▁प्रीम	-5114
ेडियम	-5115
▁42	-5116
▁सिनेमा	-5117
os	-5118
ेंगी	-5119
▁जगत	-5120
▁आमिर	-5121
▁एंड्र	-5122
▁आशी	-5123
▁वाक	-5124
▁प्रभारी	-5125
▁गीत	-5126
▁तेरे	-5127
▁खाता	-5128
▁राष्‍ट्रपति	-5129
▁बहुमत	-5130
▁शुरुआती	-5131
तुम	-5132
▁गौरतलब	-5133
pp	-5134
▁स्कोर	-5135
▁#	-5136
वंत	-5137
▁साक्षी	-5138
▁लिखे	-5139
स्टिक	-5140
▁बढ़ते	-5141
▁(3	-5142
▁38	-5143
▁दोप	-5144
▁खाली	-5145
▁यक़ीन	-5146
ांसी	-5147
▁एकमात्र	-5148
▁आमंत्रित	-5149
▁पंचायत	-5150
▁भारतीयों	-5151
ंबरम	-5152
▁रिलायंस	-5153
▁अमरीका	-5154
कीम	-5155
▁प्रोत्साहन	-5156
▁मंज	-5157
▁नाज़	-5158
▁केन्‍द्रीय	-5159
सद	-5160
सीबी	-5161
▁रमेश	-5162
▁तिर	-5163
▁शतक	-5164
▁वायुसेना	-5165
डेट	-5166
▁दीपक	-5167
ायन	-5168
सीआर	-5169
▁नितिन	-5170
हीन	-5171
▁फें	-5172
▁सुंदर	-5173
▁सूचित	-5174
▁इंडस्ट्री	-5175
▁फाइल	-5176
▁मनोज	-5177
▁उतार	-5178
▁स्ट्र	-5179
▁धमकी	-5180
▁सम्बन्ध	-5181
▁विभागों	-5182
▁साज	-5183
ोई	-5184
िकाओं	-5185
▁सम्प	-5186
▁राजन	-5187
▁हक	-5188
▁गाड़ी	-5189
,999	-5190
▁पूछे	-5191
वर्ष	-5192
▁हाँ	-5193
▁सैनिक	-5194
▁संसाध	-5195
▁शुद्ध	-5196
▁गृहमंत्री	-5197
पेट	-5198
▁बाज़	-5199
▁शरीफ	-5200
▁रकम	-5201
ोरेशन	-5202
▁स्‍व	-5203
▁रणनीति	-5204
▁परिचालन	-5205
संच	-5206
▁पादु	-5207
▁उन्न	-5208
▁आफ	-5209
▁समझने	-5210
▁मुठभेड़	-5211
▁वेस्टइंडीज	-5212
▁44	-5213
▁ज्ञापन	-5214
▁फायदे	-5215
र्डर	-5216
▁काफ़	-5217
▁गाने	-5218
▁ब्लैक	-5219
▁रणबीर	-5220
▁आर्	-5221
▁सावधान	-5222
▁इसने	-5223
▁सीसीटी	-5224
▁बीज	-5225
परेशन	-5226
▁लाइस	-5227
▁बॉक्स	-5228
▁चिदंबरम	-5229
▁माइक्रो	-5230
▁दुकान	-5231
▁पथ	-5232
ापुर	-5233
▁भिन्न	-5234
▁कंपनियां	-5235
▁स्टेडियम	-5236
ियस	-5237
▁इंटरनेशनल	-5238
ंगिक	-5239
▁300	-5240
▁बाइक	-5241
▁ठोस	-5242
▁आकर	-5243
▁लंबा	-5244
▁समुद्री	-5245
▁भाषाओं	-5246
▁वाज	-5247
▁साउ	-5248
▁राज्‍यों	-5249
▁जानने	-5250
▁डेब	-5251
▁51	-5252
▁आपराधिक	-5253
▁दस्तावेज	-5254
▁हालाँ	-5255
▁हालाँकि	-5256
▁बढ़ाकर	-5257
▁बादल	-5258
▁पादुकोण	-5259
▁रहो	-5260
▁अग्रवाल	-5261
डीआर	-5262
▁आइए	-5263
▁स्‍ट	-5264
सील	-5265
▁पीड़िता	-5266
▁अधिव	-5267
विमर्श	-5268
ोध्या	-5269
▁आह्वान	-5270
कृष्ट	-5271
वैधानिक	-5272
▁संशोधित	-5273
▁अस्पतालों	-5274
▁अल्पसंख्य	-5275
▁सीईओ	-5276
▁यूजर्स	-5277
▁हृ	-5278
▁हक़	-5279
▁केंद्रों	-5280
▁कितने	-5281
▁उपलब्‍	-5282
▁एसपी	-5283
▁Pro	-5284
▁सरल	-5285
▁देशभर	-5286
▁परंतु	-5287
ोसी	-5288
दल	-5289
वीय	-5290
▁प्राइम	-5291
▁गुजर	-5292
▁आईसीसी	-5293
्रीट	-5294
▁संदि	-5295
▁वर्षा	-5296
▁शिक्षक	-5297
▁पढ़ाई	-5298
▁बट	-5299
कांग	-5300
▁मंड	-5301
▁अनुसूचित	-5302
भाग्य	-5303
ैस	-5304
पक्ष	-5305
घर	-5306
▁सेल्स	-5307
▁दिग्गज	-5308
▁ब्यू	-5309
▁जिक्र	-5310
▁आशंका	-5311
▁नतीजे	-5312
▁सीसीटीवी	-5313
्‍स	-5314
▁उपलब्‍ध	-5315
▁तेंद	-5316
▁ढांचा	-5317
▁ध्व	-5318
धारकों	-5319
▁पोर्टल	-5320
▁यूनिट	-5321
▁चौथे	-5322
न्ट	-5323
▁49	-5324
▁ज़रूरी	-5325
▁एयरपोर्ट	-5326
▁बेटा	-5327
▁टेक्न	-5328
▁कलाकार	-5329
▁एकल	-5330
▁ज़िंदगी	-5331
▁चैंपियन	-5332
▁नियंत्रित	-5333
▁मुना	-5334
▁कुशल	-5335
क्षणिक	-5336
▁श्रीनगर	-5337
डि़	-5338
आईपी	-5339
्यांकन	-5340
जिद	-5341
▁प्रशंसा	-5342
▁कंप्यूटर	-5343
▁अधिसूचना	-5344
बरी	-5345
▁परिस्थितियों	-5346
▁चीजें	-5347
असल	-5348
▁धीरे	-5349
▁बताई	-5350
▁मद्देनजर	-5351
▁आंख	-5352
ंथ	-5353
▁विफल	-5354
▁मंडल	-5355
आईएम	-5356
ोड	-5357
▁सशक्त	-5358
▁कॉरप	-5359
▁फर्	-5360
ारक	-5361
तरीय	-5362
हल	-5363
▁भय	-5364
▁संसार	-5365
he	-5366
ैंक	-5367
▁रनों	-5368
▁प्रोट	-5369
▁समन्व	-5370
▁इम	-5371
▁कोष	-5372
मंडल	-5373
▁निधि	-5374
▁शिविर	-5375
ंबित	-5376
▁जानिए	-5377
स्‍थ्‍य	-5378
्‍यू	-5379
स्को	-5380
▁लिखी	-5381
▁फीचर्स	-5382
▁भो	-5383
▁सुष	-5384
▁खेती	-5385
▁लिहा	-5386
▁लाइसेंस	-5387
▁गूगल	-5388
▁त्य	-5389
▁कारोबारी	-5390
▁प्रत्याशी	-5391
िपुर	-5392
▁किल	-5393
▁घुस	-5394
▁टू	-5395
▁लक्षण	-5396
श्री	-5397
▁युग	-5398
▁कार्यान्वयन	-5399
ult	-5400
▁झूठ	-5401
किस्तान	-5402
दंड	-5403
▁सृजन	-5404
▁हितों	-5405
▁उपस्थिति	-5406
40	-5407
▁अयोध्या	-5408
▁चालू	-5409
▁संदिग्ध	-5410
▁ऑल	-5411
▁इंट	-5412
क्टिव	-5413
▁हवाले	-5414
▁बंदरगाह	-5415
▁प्रोसेसर	-5416
नाइट	-5417
▁द्र	-5418
▁जाहिर	-5419
▁प्रोजेक्ट	-5420
▁शुभार	-5421
▁भेद	-5422
हमने	-5423
▁आपात	-5424
▁सीबी	-5425
▁श्रमिक	-5426
▁सुविधाएं	-5427
▁बैंकिंग	-5428
कप्तान	-5429
▁देगी	-5430
▁कृत	-5431
▁क्रिस	-5432
▁बॉस	-5433
▁संतोष	-5434
▁उपायों	-5435
▁दिवसीय	-5436
▁फीसद	-5437
▁झग	-5438
▁आईए	-5439
यामत	-5440
▁बौद्ध	-5441
▁सीतारमण	-5442
▁नाज़िल	-5443
रीत	-5444
▁43	-5445
▁पंजीकरण	-5446
▁संसाधनों	-5447
हि	-5448
▁रवाना	-5449
▁कैप्ट	-5450
▁65	-5451
▁प्रयोगशाला	-5452
▁आपस	-5453
▁जौ	-5454
▁प्रता	-5455
▁डेविड	-5456
▁सीए	-5457
▁पार्	-5458
ग्रस्त	-5459
ीट	-5460
्तों	-5461
र्मी	-5462
▁चुने	-5463
वेदनशील	-5464
▁समझते	-5465
▁अवि	-5466
▁आना	-5467
▁आयकर	-5468
▁सकी	-5469
▁पुरानी	-5470
स्त्री	-5471
▁सेल्फी	-5472
खण्ड	-5473
▁सीआर	-5474
▁स्पेश	-5475
▁नामांकन	-5476
▁बलात्कार	-5477
▁अंकों	-5478
णियों	-5479
-18	-5480
संख्या	-5481
▁तिव	-5482
▁फं	-5483
▁39	-5484
▁तल	-5485
▁जुर्म	-5486
क्चर	-5487
▁बसपा	-5488
▁जज	-5489
▁कच्चे	-5490
▁निकाला	-5491
▁निच	-5492
▁इस्राएल	-5493
िंगटन	-5494
▁आवाज	-5495
▁फ्री	-5496
▁मात्र	-5497
मतौर	-5498
▁मुक़	-5499
▁नारे	-5500
▁अध्‍यक्ष	-5501
▁भरा	-5502
▁तिवारी	-5503
चक	-5504
▁d	-5505
▁कमाई	-5506
▁प्रदर्शनकारियों	-5507
▁बैरल	-5508
▁एकत्र	-5509
▁दक्षिणी	-5510
▁वाइ	-5511
▁आएगी	-5512
ुता	-5513
▁पेशकश	-5514
▁क्लब	-5515
▁यातना	-5516
▁पिछली	-5517
ग्न	-5518
▁सेमी	-5519
▁डाक	-5520
म्स	-5521
▁कनाडा	-5522
फिया	-5523
▁चाहिये	-5524
कुछ	-5525
▁स्‍वास्‍थ्‍य	-5526
▁मस्जिद	-5527
न्ड	-5528
▁जगहों	-5529
ितों	-5530
▁एंट	-5531
▁टूट	-5532
▁कैसा	-5533
चानक	-5534
▁दुष्	-5535
▁पंड	-5536
▁भूकंप	-5537
▁किरा	-5538
▁लेता	-5539
ड़न	-5540
19	-5541
डीएस	-5542
▁ज़िले	-5543
▁दोपहर	-5544
आईसी	-5545
▁नॉ	-5546
▁दरअसल	-5547
वों	-5548
▁इकट	-5549
▁रिसर्च	-5550
▁शेयरों	-5551
▁दौड़	-5552
पालिका	-5553
ाजित	-5554
▁बम	-5555
▁महेंद्र	-5556
▁खरीदने	-5557
लील	-5558
▁बनाते	-5559
▁गुरुवार	-5560
▁परमेश्वर	-5561
▁55	-5562
▁सदी	-5563
▁उर्व	-5564
▁मेघ	-5565
▁इनका	-5566
इंट	-5567
▁कोर	-5568
▁हेड	-5569
▁बुद्ध	-5570
▁कॉन्फ्रेंस	-5571
mi	-5572
▁मुआ	-5573
▁मोर्	-5574
▁प्रतिबद्धता	-5575
▁निरी	-5576
▁विंड	-5577
्रोल	-5578
ंपरिक	-5579
▁निर्मला	-5580
ab	-5581
पीए	-5582
केज	-5583
ुदा	-5584
▁विपरीत	-5585
▁सरदार	-5586
त्न	-5587
▁गेम	-5588
▁घटनास्थल	-5589
गैर	-5590
▁विरासत	-5591
▁गोल्ड	-5592
▁कुलदीप	-5593
BI	-5594
हूर	-5595
▁अचानक	-5596
▁इकट्	-5597
▁प्रेरणा	-5598
▁अभिषेक	-5599
ृत्त	-5600
▁ज़िम्मे	-5601
रूप	-5602
▁खूबस	-5603
▁मरीज	-5604
▁जस	-5605
▁बढ़े	-5606
▁यश	-5607
सायिक	-5608
▁इंदिरा	-5609
-17	-5610
किम	-5611
▁एंटी	-5612
▁मूल्यांकन	-5613
▁विनिर्माण	-5614
फ्टी	-5615
▁छान	-5616
हाबाद	-5617
▁काउंस	-5618
▁हजारों	-5619
60	-5620
80	-5621
▁vs	-5622
▁लड़कियों	-5623
▁करूंगा	-5624
क्ताओं	-5625
▁मलिक	-5626
प्पा	-5627
िंटन	-5628
▁हुईं	-5629
▁आंकड़े	-5630
▁रैंकिंग	-5631
▁शुरु	-5632
▁चीजों	-5633
▁बाधा	-5634
▁समग्र	-5635
िने	-5636
पीएम	-5637
▁अटल	-5638
▁खी	-5639
ोजित	-5640
▁बाजारों	-5641
▁अधी	-5642
िंस	-5643
▁मणिपुर	-5644
▁प्रतिनिधियों	-5645
▁आमतौर	-5646
▁शिक्षकों	-5647
▁अभिव	-5648
▁लेखा	-5649
▁जागरूकता	-5650
▁स्पिन	-5651
▁स्ना	-5652
▁भेजने	-5653
▁देखिए	-5654
वानिव	-5655
प्रति	-5656
▁आजादी	-5657
पया	-5658
▁स्टॉक	-5659
▁परिप	-5660
ब्ब	-5661
▁कैप्टन	-5662
▁उपयुक्त	-5663
▁आकलन	-5664
▁सच्चे	-5665
▁प्राइवेट	-5666
▁बैक	-5667
ut	-5668
▁दरवा	-5669
▁बनाये	-5670
कांत	-5671
▁शिम	-5672
▁अपमान	-5673
यत	-5674
डियो	-5675
▁एका	-5676
कालिक	-5677
▁मरा	-5678
▁मुसलमानों	-5679
▁अंश	-5680
▁उपकरणों	-5681
▁तथ्य	-5682
▁ख़बर	-5683
▁वाता	-5684
सिंह	-5685
▁शरद	-5686
▁खिता	-5687
संचार	-5688
▁अकेले	-5689
▁इश	-5690
ीकृत	-5691
▁शाहिद	-5692
▁बरकरार	-5693
▁टीमें	-5694
▁पत्थर	-5695
▁वायदा	-5696
▁सर्विस	-5697
▁&	-5698
▁योग्यता	-5699
▁कलर	-5700
▁सफाई	-5701
▁निर्धारण	-5702
्ज	-5703
▁हराया	-5704
▁निवेशकों	-5705
▁प्रसं	-5706
▁महत्त्व	-5707
▁बिता	-5708
▁शरण	-5709
ूती	-5710
दर्शी	-5711
स्वामी	-5712
▁मध्यम	-5713
प्शन	-5714
्‍प	-5715
▁कवर	-5716
ंदाज	-5717
▁कोड	-5718
▁उत्कृष्ट	-5719
अर	-5720
▁ओब	-5721
▁टुक	-5722
▁सैफ	-5723
गांव	-5724
▁भाइयों	-5725
▁हृदय	-5726
व्र	-5727
एमएस	-5728
▁स्मृति	-5729
▁इट	-5730
▁भले	-5731
▁विश्लेषण	-5732
नेश	-5733
▁आख़िर	-5734
▁अख	-5735
▁गुनाह	-5736
▁आंकड़ा	-5737
▁दिखाने	-5738
एनए	-5739
हाई	-5740
▁ऑपरेशन	-5741
▁शैक्षणिक	-5742
▁शिर	-5743
▁जीते	-5744
▁वातावरण	-5745
▁प्रारंभिक	-5746
▁उभर	-5747
वीस	-5748
▁पारंपरिक	-5749
▁जियो	-5750
▁धूम	-5751
▁डायरेक्टर	-5752
▁पहुंचाने	-5753
▁स्वर्ग	-5754
▁हिन्दी	-5755
▁उत्‍पादन	-5756
स्कर	-5757
▁बाहरी	-5758
▁बांध	-5759
▁पैनल	-5760
▁पात्र	-5761
▁उधर	-5762
▁आवश्‍य	-5763
▁पाप	-5764
द्दाख	-5765
▁पड़ोसी	-5766
ुली	-5767
▁औपचारिक	-5768
दास	-5769
सिया	-5770
वेज	-5771
▁मुझसे	-5772
एनयू	-5773
▁तहसील	-5774
▁मुह	-5775
▁उद्योगों	-5776
▁जयपुर	-5777
गीय	-5778
▁तेंदुलकर	-5779
▁पत्रकारों	-5780
▁अंध	-5781
▁मौल	-5782
▁चांदी	-5783
▁जह	-5784
▁आर्ट	-5785
▁कंग	-5786
्वे	-5787
ष्‍ट्रीय	-5788
▁नौकर	-5789
▁बढ़ी	-5790
▁प्रवाह	-5791
▁मृतकों	-5792
▁यहू	-5793
▁एक्सच	-5794
▁छु	-5795
▁महत्‍व	-5796
रेन	-5797
।""	-5798
▁ठहराया	-5799
ैनिक	-5800
जै	-5801
िप्त	-5802
▁जिम	-5803
▁सबको	-5804
▁वैज्ञानिकों	-5805
▁कानूनों	-5806
ियंस	-5807
केश	-5808
▁फ़ाइल	-5809
टीय	-5810
▁इंस्टीट	-5811
▁जोड़ने	-5812
▁प्रशंस	-5813
झी	-5814
गित	-5815
ट्रिक	-5816
▁महार	-5817
▁क्षमा	-5818
▁जोड़ा	-5819
▁स्वराज	-5820
▁जीवित	-5821
▁पेर	-5822
▁अनुश	-5823
11	-5824
▁त्या	-5825
▁निस्	-5826
फाइनल	-5827
▁मुंह	-5828
▁आपसी	-5829
▁मशहूर	-5830
ew	-5831
▁आजाद	-5832
ऊदी	-5833
▁बाप	-5834
हीम	-5835
▁चम	-5836
▁i	-5837
▁संतुल	-5838
ॉड	-5839
▁व्याख्या	-5840
▁ब्रांड	-5841
▁कैप	-5842
▁नीर	-5843
त्तर	-5844
od	-5845
▁h	-5846
मुख्य	-5847
शाह	-5848
▁a	-5849
▁46	-5850
ुसार	-5851
साम	-5852
▁तौ	-5853
लिंग	-5854
▁128	-5855
रन	-5856
▁नवीन	-5857
▁पाय	-5858
चुनाव	-5859
▁टॉप	-5860
ाहिर	-5861
▁संग्रहण	-5862
▁बन्	-5863
▁करेंगी	-5864
वेल	-5865
र्की	-5866
ुरू	-5867
रीबी	-5868
▁भेंट	-5869
▁प्राप्‍त	-5870
▁थोड़ी	-5871
धित	-5872
▁शता	-5873
▁ईंधन	-5874
▁अंजाम	-5875
▁पहन	-5876
▁सांसदों	-5877
स्टार	-5878
▁निर्देशित	-5879
वो	-5880
▁नजदी	-5881
▁सिंगापुर	-5882
▁वाणिज्यिक	-5883
▁प्रोग्राम	-5884
▁दीर्	-5885
▁हस्तक्षेप	-5886
च्‍छ	-5887
टकों	-5888
▁यक़ीनन	-5889
▁झुठ	-5890
-4	-5891
▁कंट्रोल	-5892
▁सूक्ष	-5893
▁52	-5894
▁जनसंख्या	-5895
▁तरीकों	-5896
▁किलोग्राम	-5897
▁एनसीपी	-5898
▁47	-5899
▁साउथ	-5900
िक्	-5901
ment	-5902
▁सैम	-5903
ri	-5904
▁ब्रह	-5905
▁पुरुषों	-5906
▁जितना	-5907
▁रामनाथ	-5908
ंदे	-5909
▁दृढ़	-5910
▁माने	-5911
▁मिट्टी	-5912
▁अत्यधिक	-5913
▁पाते	-5914
▁संदेह	-5915
पेयी	-5916
▁जोन	-5917
स्तर	-5918
टीन	-5919
▁प्रतीक	-5920
▁ब्यूरो	-5921
▁विशेषज्ञों	-5922
कीपर	-5923
▁झुठला	-5924
▁आँ	-5925
▁सुषमा	-5926
▁बिजनेस	-5927
▁दत्त	-5928
▁लद्दाख	-5929
▁पहुंचाया	-5930
िशियल	-5931
▁स्टाफ	-5932
▁गह	-5933
▁तारीफ	-5934
फेल	-5935
▁IP	-5936
▁संस्थाओं	-5937
▁संवेदनशील	-5938
तल	-5939
▁स्मिथ	-5940
सेक्स	-5941
मैंने	-5942
▁स्त्री	-5943
ंचाई	-5944
सेट	-5945
▁असफल	-5946
अगर	-5947
्‍यों	-5948
▁अर्थात्	-5949
▁झटका	-5950
▁नीतियों	-5951
▁मध्यप्रदेश	-5952
▁सॉफ्ट	-5953
ter	-5954
जात	-5955
▁सुभाष	-5956
▁हरी	-5957
▁दोस्तों	-5958
वली	-5959
▁दह	-5960
▁ताल	-5961
दमी	-5962
रित	-5963
▁बिंद	-5964
▁आतंकियों	-5965
▁बोला	-5966
▁बलि	-5967
▁194	-5968
▁लम्	-5969
▁मजबूती	-5970
▁छानबीन	-5971
डीएम	-5972
ांतों	-5973
▁गौतम	-5974
▁बुल	-5975
▁मारा	-5976
▁वित्‍त	-5977
▁जीतकर	-5978
▁फैंस	-5979
▁आरबीआई	-5980
▁फूल	-5981
▁सिद्धार्थ	-5982
▁अनुवाद	-5983
▁खासकर	-5984
▁दायरे	-5985
▁मिलाकर	-5986
▁टक	-5987
▁ग्लो	-5988
संदेह	-5989
लोग	-5990
▁\""	-5991
▁वारदा	-5992
शिंगटन	-5993
▁स्वरूप	-5994
▁शुभारंभ	-5995
ेशनों	-5996
हैं	-5997
▁लगाते	-5998
ax	-5999
भाजपा	-6000
▁साथियों	-6001
▁स्वि	-6002
▁त्रिप	-6003
इंड	-6004
▁सऊदी	-6005
▁41	-6006
बॉल	-6007
▁जाएंगी	-6008
▁गोलीबारी	-6009
ोदय	-6010
▁रवी	-6011
▁राजेश	-6012
▁खिताब	-6013
रोज	-6014
ूहिक	-6015
▁प्रांत	-6016
▁परिवर्त	-6017
आइ	-6018
▁पीढ़ी	-6019
▁ख्या	-6020
▁पुनः	-6021
▁आश्वास	-6022
खल	-6023
▁डु	-6024
▁हां	-6025
▁मार्केट	-6026
टर्स	-6027
क्तियों	-6028
▁जाएँगे	-6029
नम	-6030
▁India	-6031
मंद	-6032
▁बंध	-6033
▁शर्म	-6034
▁माया	-6035
▁नवाचार	-6036
▁बच्ची	-6037
▁जन्मदिन	-6038
▁सोचा	-6039
▁कार्ब	-6040
▁औष	-6041
▁सुश्री	-6042
▁बेंगलुरु	-6043
▁बांट	-6044
▁गवर्नर	-6045
▁दूरसंचार	-6046
फाई	-6047
ाजत	-6048
▁निर्द	-6049
संघ	-6050
▁पैकेज	-6051
▁मिलेंगे	-6052
ऊद	-6053
▁उन्हीं	-6054
▁पोषण	-6055
▁पेय	-6056
▁आयी	-6057
▁अस्त	-6058
▁कराए	-6059
▁आरएसएस	-6060
▁भोपाल	-6061
बीसी	-6062
▁अधीक्षक	-6063
कला	-6064
ुक्‍त	-6065
har	-6066
▁उत्स	-6067
▁जटिल	-6068
▁प्रवासी	-6069
▁सज़ा	-6070
▁जुड़	-6071
▁आकर्षित	-6072
up	-6073
▁मेजब	-6074
▁प्रसन्न	-6075
▁सम्मिल	-6076
▁लालू	-6077
ग़म्बर	-6078
▁प्रारूप	-6079
▁बोझ	-6080
▁फार	-6081
one	-6082
ूनी	-6083
esult	-6084
▁स्पेशल	-6085
जान	-6086
सेस	-6087
▁जाँच	-6088
ैश	-6089
▁Red	-6090
तांत्रिक	-6091
▁मनोर	-6092
▁एकीकृत	-6093
▁गंभीरता	-6094
▁साइट	-6095
▁एक्सचेंज	-6096
▁बुलाया	-6097
▁गुस्	-6098
▁निभाई	-6099
▁खतरनाक	-6100
▁सतर्क	-6101
ूंकि	-6102
िडी	-6103
▁मनीष	-6104
ढ़ा	-6105
▁हाइ	-6106
▁पढ़ने	-6107
▁छोड़ने	-6108
ऊँ	-6109
▁अत	-6110
▁ईश्वर	-6111
्यूज	-6112
▁सेन	-6113
▁प्रावधानों	-6114
इंग	-6115
▁सामूहिक	-6116
ल्थ	-6117
▁सीनियर	-6118
वाड़ा	-6119
ायतों	-6120
▁स्‍था	-6121
र्र	-6122
▁बेस	-6123
▁गलती	-6124
▁सेहत	-6125
▁न्यूज	-6126
▁हड़ताल	-6127
िकेशन	-6128
▁यकीन	-6129
णों	-6130
▁नैतिक	-6131
▁किशोर	-6132
▁नष्ट	-6133
▁आरक्षण	-6134
कन	-6135
▁गोर	-6136
▁कामों	-6137
णाचल	-6138
▁मकसद	-6139
▁कल्पना	-6140
▁सूर्य	-6141
▁इकाइयों	-6142
▁अंबानी	-6143
एसए	-6144
हारी	-6145
▁जहाज	-6146
▁उपधारा	-6147
▁उक्त	-6148
▁गार	-6149
▁न्यूय	-6150
▁ट्रेड	-6151
ेट्टी	-6152
▁कर्त	-6153
▁फिल्‍म	-6154
▁नरेन्‍द्र	-6155
▁सोल	-6156
▁स्वीकृति	-6157
▁आश्वासन	-6158
▁अधिग्रहण	-6159
▁चैम्प	-6160
▁आपत्ति	-6161
▁ढेर	-6162
पुट	-6163
▁नसी	-6164
ष्णा	-6165
▁कठोर	-6166
्रीम	-6167
▁फ़र	-6168
द्यपि	-6169
▁सुनने	-6170
टेल	-6171
▁डिव	-6172
टों	-6173
▁अगुवाई	-6174
▁मिसाइल	-6175
▁निलंबित	-6176
▁g	-6177
▁रिम	-6178
▁जब्त	-6179
▁स्तरीय	-6180
▁त्रिपुरा	-6181
▁सदस्यीय	-6182
▁बुद्धि	-6183
वर्ड	-6184
डीसी	-6185
▁कॉर्प	-6186
▁सब्स	-6187
व्यू	-6188
▁अत्यंत	-6189
▁देरी	-6190
▁अभिनय	-6191
क्‍ट	-6192
▁समृद्ध	-6193
▁कमान	-6194
▁कृपया	-6195
निर्देश	-6196
▁उड़ा	-6197
▁दृश्य	-6198
▁ग्राहक	-6199
▁चलाया	-6200
▁अवस्था	-6201
▁चिंत	-6202
▁पवन	-6203
▁2007	-6204
▁यो	-6205
ायती	-6206
▁रावत	-6207
▁साधारण	-6208
▁परिणामस्वरूप	-6209
ोड़े	-6210
्रेशन	-6211
▁भरे	-6212
त्तियों	-6213
▁रानी	-6214
राई	-6215
▁गार्ड	-6216
▁अतिथि	-6217
ष्‍ठ	-6218
▁कामक	-6219
▁उनपर	-6220
ag	-6221
साइड	-6222
▁सर्ज	-6223
▁व्यक्‍ति	-6224
▁मुफ्त	-6225
▁राजकुमार	-6226
▁इसल	-6227
▁यूनियन	-6228
▁तेलु	-6229
▁Redmi	-6230
▁खूबसूरत	-6231
▁रोगियों	-6232
▁संबोधन	-6233
फ्तार	-6234
▁करीबी	-6235
िड़	-6236
जुट	-6237
▁कॉम	-6238
▁भरी	-6239
▁स्त	-6240
▁इस्‍	-6241
▁सूत्र	-6242
▁मुज	-6243
▁ड्राइवर	-6244
▁लाइफ	-6245
▁लूट	-6246
▁कामयाब	-6247
▁आदान	-6248
▁जैव	-6249
▁गिरोह	-6250
▁दीवार	-6251
▁गरीबी	-6252
पीड़न	-6253
▁मार्गदर्शन	-6254
ँह	-6255
▁नारायण	-6256
▁सम्मिलित	-6257
▁इंस्टीट्यूट	-6258
यो	-6259
▁अड्डे	-6260
▁हिन्दू	-6261
▁लड़के	-6262
जेंसी	-6263
टीएम	-6264
▁कैद	-6265
▁व्यावसायिक	-6266
पूर	-6267
▁वैध	-6268
▁जुटी	-6269
▁प्रको	-6270
▁उन्‍हें	-6271
र्पण	-6272
▁दर्जा	-6273
art	-6274
ुरी	-6275
▁ऑफर	-6276
▁रेप	-6277
▁जवाहर	-6278
▁54	-6279
▁प्रे	-6280
▁द्वितीय	-6281
est	-6282
िक्क	-6283
▁हुसैन	-6284
ap	-6285
▁संस्कृत	-6286
▁जाल	-6287
▁दैनिक	-6288
्रल	-6289
ट्टर	-6290
▁स्‍तर	-6291
▁पत्रिका	-6292
▁संस्‍थ	-6293
▁समाजवादी	-6294
▁निया	-6295
ुमान	-6296
▁इस्पात	-6297
वित	-6298
▁खींच	-6299
▁केन्‍द्र	-6300
▁अर्ध	-6301
▁शैली	-6302
▁काले	-6303
▁दायित्व	-6304
▁ऑप	-6305
क्तूबर	-6306
▁खबरों	-6307
▁एकजुट	-6308
धारी	-6309
रुण	-6310
▁फेर	-6311
▁जुर्माना	-6312
▁जबरद	-6313
▁मुकेश	-6314
▁स्पेस	-6315
12	-6316
▁भौतिक	-6317
▁शेट्टी	-6318
▁व्यय	-6319
▁सीधा	-6320
णित	-6321
▁of	-6322
▁पीयू	-6323
▁पद्ध	-6324
▁आएंगी	-6325
यिक	-6326
▁संवैधानिक	-6327
स्‍तान	-6328
▁अमे	-6329
▁(1)	-6330
▁ऑफ़	-6331
li	-6332
▁भागों	-6333
ेबल	-6334
▁अनंत	-6335
क्की	-6336
डन	-6337
ल्डर	-6338
▁मुआव	-6339
▁प्रमो	-6340
▁पड़ने	-6341
▁शौच	-6342
▁गौरव	-6343
▁प्रतिष्ठित	-6344
▁छवि	-6345
▁हंग	-6346
▁मूल्यों	-6347
ंजा	-6348
▁मचा	-6349
▁एग्	-6350
▁कैफ	-6351
▁दाऊद	-6352
▁निराश	-6353
▁सुनाई	-6354
▁(19	-6355
कभी	-6356
▁संवेद	-6357
▁गहरी	-6358
▁निकालने	-6359
▁बेस्ट	-6360
▁ज़ाहिर	-6361
▁राफेल	-6362
▁हर्षवर्धन	-6363
▁फिल्में	-6364
हमें	-6365
▁अनुबंध	-6366
▁यद्यपि	-6367
▁जौहर	-6368
▁पेड़	-6369
▁किनारे	-6370
▁रिकार्ड	-6371
ख़ुदा	-6372
जित	-6373
▁सिद्धू	-6374
▁रेडियो	-6375
विधि	-6376
▁नाराज	-6377
पता	-6378
▁महज	-6379
▁फाइन	-6380
▁शताब्दी	-6381
▁पलट	-6382
ून्य	-6383
▁महिंद्रा	-6384
▁संभ	-6385
ष्क	-6386
भूति	-6387
▁राजदूत	-6388
▁खोलने	-6389
▁+	-6390
▁डालने	-6391
्तिक	-6392
▁भूप	-6393
um	-6394
▁अखिलेश	-6395
▁सेमीफाइनल	-6396
ढ़े	-6397
▁बुर	-6398
▁वरुण	-6399
।।	-6400
."""	-6401
▁मार्क	-6402
▁लंबित	-6403
''	-6404
SE	-6405
▁प्रतिदिन	-6406
कृष्ण	-6407
▁दिमा	-6408
▁सौंपा	-6409
ate	-6410
▁400	-6411
▁उपक्रम	-6412
han	-6413
ख्‍या	-6414
▁उपलब्धि	-6415
▁रंजन	-6416
▁वर्णन	-6417
▁हमलों	-6418
▁स्कीम	-6419
▁चेहरे	-6420
बूत	-6421
सीन	-6422
वामा	-6423
▁अकादमी	-6424
डोर	-6425
▁द्वार	-6426
▁वर्गों	-6427
एडा	-6428
▁रियल	-6429
▁ईडी	-6430
▁रोका	-6431
ाराण	-6432
▁घोटाले	-6433
बुल	-6434
िकरण	-6435
▁अक्तूबर	-6436
ेशिया	-6437
▁2017-18	-6438
लाइट	-6439
▁तूफान	-6440
▁मजबूर	-6441
▁दीन	-6442
▁ज्यो	-6443
▁भरने	-6444
▁मकान	-6445
▁छुट्टी	-6446
▁देवेंद्र	-6447
ोग्रा	-6448
▁राकेश	-6449
▁शत्र	-6450
▁४	-6451
हमारे	-6452
ांकित	-6453
▁सेवानिव	-6454
▁बेल	-6455
▁खड़ी	-6456
▁दब	-6457
▁सिंचाई	-6458
▁देखे	-6459
▁ब्लॉक	-6460
▁शिवराज	-6461
ाराणसी	-6462
▁इलाहाबाद	-6463
▁छिपा	-6464
▁पुकार	-6465
II	-6466
▁अपर	-6467
▁माँग	-6468
▁प्रतिनिधिमंडल	-6469
▁लुक	-6470
▁वीजा	-6471
▁दिक्क	-6472
▁करनेवाले	-6473
▁टो	-6474
▁उपास	-6475
वस्‍था	-6476
▁तीव्र	-6477
▁सूक्ष्म	-6478
▁संस्थापक	-6479
▁संवाददाताओं	-6480
खों	-6481
▁पॉल	-6482
▁56	-6483
▁अवगत	-6484
▁फाउंड	-6485
▁बेन	-6486
माश	-6487
धड़ी	-6488
▁टीका	-6489
ak	-6490
णवीस	-6491
▁ख़ास	-6492
▁देखो	-6493
रेज	-6494
▁हुये	-6495
-16	-6496
▁गें	-6497
न्दगी	-6498
उप	-6499
▁वजन	-6500
▁मारने	-6501
em	-6502
सून	-6503
िकर	-6504
▁चूंकि	-6505
काया	-6506
▁बचत	-6507
▁स्टील	-6508
▁सालाना	-6509
▁अरो	-6510
▁2000	-6511
▁अंडर	-6512
र्त	-6513
▁नग	-6514
▁पश्चात	-6515
▁बिलकुल	-6516
▁विद्व	-6517
▁पार्टियों	-6518
▁वारदात	-6519
▁सेंसेक्स	-6520
▁हता	-6521
▁संदीप	-6522
सेल	-6523
सनीय	-6524
▁साजिश	-6525
सागर	-6526
▁प्लस	-6527
▁आवंटन	-6528
▁इजाजत	-6529
▁ग्रीन	-6530
▁धमा	-6531
▁शेख	-6532
▁बोलने	-6533
ोनेशिया	-6534
ोंग	-6535
▁पहलू	-6536
मिन	-6537
▁व्हाइट	-6538
▁संपूर्ण	-6539
▁सभ	-6540
▁यथा	-6541
▁ट्रेलर	-6542
एआई	-6543
पीट	-6544
▁बख्	-6545
og	-6546
लेस	-6547
क्‍स	-6548
▁न्यायालयों	-6549
▁भूषण	-6550
▁असल	-6551
▁अध्याय	-6552
▁निदेशालय	-6553
▁शास्त्र	-6554
▁गरीबों	-6555
प्ति	-6556
▁फ्ला	-6557
ानियों	-6558
केल	-6559
चार्ज	-6560
क्षिक	-6561
▁काउंसिल	-6562
▁दिना	-6563
▁प्रवर्तन	-6564
▁फस	-6565
▁मिज	-6566
▁ज्‍या	-6567
▁सिलसिले	-6568
▁बनना	-6569
ुलर	-6570
▁प्राइमरी	-6571
नाश	-6572
▁प्रका	-6573
▁सफर	-6574
▁पीने	-6575
▁फि	-6576
रचना	-6577
▁बोलते	-6578
▁स्थानांतर	-6579
▁रणनीतिक	-6580
▁वाजपेयी	-6581
ंगुली	-6582
▁पुलवामा	-6583
स्‍ता	-6584
▁टर्म	-6585
▁ज्‍यादा	-6586
▁सशस्त्र	-6587
▁अनुदान	-6588
▁आराम	-6589
▁डाले	-6590
ामक	-6591
▁बाबा	-6592
▁अखबार	-6593
थाम	-6594
▁विशेषकर	-6595
▁ताजा	-6596
▁दरों	-6597
ंडे	-6598
▁उपचुनाव	-6599
्यूशन	-6600
▁पब्लिक	-6601
▁नोएडा	-6602
▁संबद्ध	-6603
▁बचने	-6604
▁मेहर	-6605
▁इमारत	-6606
▁व्यस्त	-6607
▁चरणों	-6608
चित्र	-6609
▁नीलामी	-6610
▁उत्पीड़न	-6611
▁लोकतांत्रिक	-6612
▁पहलुओं	-6613
▁रौ	-6614
▁विनियम	-6615
ासित	-6616
▁बहनों	-6617
▁विपणन	-6618
्वीप	-6619
▁काला	-6620
▁लगाकर	-6621
▁अभिव्य	-6622
▁इटली	-6623
▁निफ्टी	-6624
▁अग्रिम	-6625
ज़न	-6626
दिल	-6627
▁महेश	-6628
्यूस	-6629
र्देश	-6630
▁विज्ञापन	-6631
▁दोषियों	-6632
▁विविधता	-6633
▁उमर	-6634
ूष	-6635
▁वाराणसी	-6636
शक्ति	-6637
▁विवेक	-6638
▁फर्जी	-6639
मुख्यमंत्री	-6640
बॉ	-6641
▁कविता	-6642
िपल	-6643
▁हिद	-6644
▁अमृत	-6645
▁अवसरों	-6646
▁मूर्	-6647
▁कव	-6648
▁जर्मन	-6649
▁टेलीवि	-6650
▁तुर्की	-6651
पाकिस्तान	-6652
▁गढ़	-6653
▁स्थगित	-6654
नैप	-6655
पानी	-6656
▁मुँह	-6657
प्रदान	-6658
▁(4	-6659
▁बतौर	-6660
शिक	-6661
▁सबके	-6662
▁निष्कर्ष	-6663
▁निस्संदेह	-6664
▁निवास	-6665
▁पाएंगे	-6666
▁प्रतिस्पर्धा	-6667
बई	-6668
▁आईं	-6669
▁कली	-6670
▁ज्योति	-6671
अपनी	-6672
▁कड़ा	-6673
व्या	-6674
▁घूम	-6675
▁कामना	-6676
▁हिदायत	-6677
▁w	-6678
बली	-6679
विज्ञान	-6680
▁भजन	-6681
पश्चिम	-6682
स्पर	-6683
स्पी	-6684
▁पर्स	-6685
▁इक्	-6686
▁तकली	-6687
▁लैंड	-6688
▁सवालों	-6689
▁गिन	-6690
जिन	-6691
काने	-6692
▁कंगना	-6693
ईडी	-6694
▁भलाई	-6695
▁झा	-6696
प्रधान	-6697
▁जेएनयू	-6698
▁लू	-6699
▁रखो	-6700
▁मानने	-6701
▁जहन्न	-6702
▁ट्रस्ट	-6703
गंज	-6704
▁चंद	-6705
▁ईरानी	-6706
▁संयुक्‍त	-6707
▁ट्रेनों	-6708
ard	-6709
▁टॉस	-6710
▁एक्शन	-6711
▁ओबामा	-6712
▁साक्षा	-6713
क्ल	-6714
ूसु	-6715
▁बर्फ	-6716
▁पीयूष	-6717
▁श्रेय	-6718
▁किंग्स	-6719
▁मोड	-6720
▁सैक	-6721
▁गणराज्य	-6722
▁सत्या	-6723
▁एथ	-6724
▁मॉड	-6725
▁त्रुट	-6726
मानी	-6727
एसएमई	-6728
▁ग्रा	-6729
▁अवश्य	-6730
▁इंटरव्यू	-6731
▁हज	-6732
▁एडमिट	-6733
▁कपड़े	-6734
▁धोखाधड़ी	-6735
▁बताने	-6736
▁घटा	-6737
▁रफ्तार	-6738
▁फीचर	-6739
▁श्रद्धा	-6740
एनजी	-6741
▁रजत	-6742
▁माननीय	-6743
ृत्य	-6744
▁गेट	-6745
▁घटकर	-6746
णमूल	-6747
▁2019:	-6748
▁निर्दिष्ट	-6749
फाइल	-6750
द्रोह	-6751
▁बहा	-6752
▁समापन	-6753
▁प्लेटफॉर्म	-6754
▁मांस	-6755
▁बदमाश	-6756
▁शून्य	-6757
▁भला	-6758
परी	-6759
▁गांगुली	-6760
▁अमरि	-6761
▁गेह	-6762
▁आशीष	-6763
ction	-6764
▁कीमतें	-6765
▁संपाद	-6766
▁जलाश	-6767
▁लेफ्ट	-6768
लोत	-6769
▁खून	-6770
▁फांसी	-6771
▁कले	-6772
▁रीति	-6773
ेडकर	-6774
▁अपडेट	-6775
▁आईआईटी	-6776
▁दशा	-6777
▁मंत्रालयों	-6778
▁तत्कालीन	-6779
hi	-6780
▁घे	-6781
▁चर्च	-6782
▁सेंट्रल	-6783
▁67	-6784
▁53	-6785
मेरे	-6786
▁पुरी	-6787
▁एक्टिव	-6788
बर्ग	-6789
▁जाव	-6790
▁संख्‍या	-6791
▁शिमला	-6792
▁खुफिया	-6793
त्रि	-6794
▁दोग	-6795
▁72	-6796
▁कलाकारों	-6797
जिटिव	-6798
▁बढ़ता	-6799
▁अता	-6800
▁प्रदर्शनी	-6801
सो	-6802
▁प्रिंट	-6803
▁पंजीकृत	-6804
▁विशेषता	-6805
▁बिन	-6806
▁ज़रिए	-6807
▁कार्यशाला	-6808
▁लोन	-6809
गारों	-6810
ID	-6811
▁नज़	-6812
हरण	-6813
ोलिक	-6814
ोत्सव	-6815
ैग	-6816
ैया	-6817
▁सम्‍म	-6818
▁प्रसंस्	-6819
▁सतह	-6820
▁तटीय	-6821
▁मेन	-6822
▁असली	-6823
न्दा	-6824
▁डिफ	-6825
▁सेल्सियस	-6826
▁कार्तिक	-6827
▁परम	-6828
▁सीपी	-6829
▁महत्‍वपूर्ण	-6830
▁बच्चा	-6831
टित	-6832
▁जिसको	-6833
▁हादसा	-6834
वाधिकार	-6835
▁इंटरनल	-6836
भाषित	-6837
▁इसलिये	-6838
▁अत्यन्त	-6839
ne	-6840
▁एचडीएफसी	-6841
▁तरफ़	-6842
▁जैन	-6843
▁सुम	-6844
▁ऊंचाई	-6845
▁कामकाज	-6846
▁सोनम	-6847
▁फाउंडेशन	-6848
अमेर	-6849
ानिया	-6850
▁लैस	-6851
▁विश्वविद्यालयों	-6852
▁इंडोनेशिया	-6853
ालियों	-6854
▁शिक्षण	-6855
▁66	-6856
▁कराना	-6857
▁सीखने	-6858
JP	-6859
वायर	-6860
▁नबी	-6861
▁अपनाने	-6862
झाने	-6863
ाज्य	-6864
▁फरमा	-6865
alme	-6866
जीवन	-6867
▁चैम्पियन	-6868
▁विद्यार्थी	-6869
हु	-6870
ॉयड	-6871
▁संपन्न	-6872
▁निकले	-6873
▁पॉजिटिव	-6874
▁तृणमूल	-6875
धव	-6876
वाहा	-6877
▁समानता	-6878
▁समावेश	-6879
यदि	-6880
▁इजा	-6881
▁IPL	-6882
▁गोपाल	-6883
▁त्रि	-6884
▁आयतों	-6885
▁ख़िला	-6886
▁फ़ैस	-6887
▁विमानों	-6888
▁आड	-6889
ग्रा	-6890
▁खरीदा	-6891
▁विलियम	-6892
ers	-6893
हादुर	-6894
▁अनुपात	-6895
▁इकट्ठा	-6896
ॉफ	-6897
▁गहलोत	-6898
▁मूल्‍य	-6899
▁PM	-6900
िमान	-6901
▁पढ़े	-6902
▁मसीहियों	-6903
▁क्वाल	-6904
बैक	-6905
सास	-6906
▁संप्र	-6907
▁दुष्कर्म	-6908
▁भरपूर	-6909
ट्	-6910
ice	-6911
शोधन	-6912
▁पदा	-6913
रियर	-6914
▁सदस्‍	-6915
▁कमरे	-6916
▁डिस्	-6917
▁शह	-6918
▁स्टार्ट	-6919
▁कं	-6920
एँगे	-6921
▁उत्तम	-6922
▁चौक	-6923
▁टेल	-6924
▁सतत	-6925
▁परा	-6926
▁त्योह	-6927
▁विभाजन	-6928
▁गर	-6929
▁असा	-6930
▁इत्या	-6931
▁नवीकरण	-6932
▁हाइड	-6933
वारी	-6934
▁बजा	-6935
▁समन्वय	-6936
▁उत्तराखण्ड	-6937
▁सौदे	-6938
▁अब्दुल्ला	-6939
ity	-6940
▁सॉफ्टवेयर	-6941
भाई	-6942
,500	-6943
▁निरीक्षण	-6944
▁आनन्द	-6945
....	-6946
▁जमी	-6947
▁भेजी	-6948
▁हॉकी	-6949
▁अग्रणी	-6950
-12	-6951
▁बचे	-6952
▁दिमाग	-6953
▁मानकों	-6954
िस्ट्रेट	-6955
▁फंसे	-6956
क्टिविटी	-6957
▁आदम	-6958
▁किंतु	-6959
▁नाबाल	-6960
www	-6961
▁छेड़	-6962
▁रसायन	-6963
आउट	-6964
▁फड	-6965
▁गणना	-6966
▁रखती	-6967
ड्स	-6968
ंगत	-6969
▁सूर	-6970
र्इ	-6971
▁खनन	-6972
▁माप	-6973
▁कमांडर	-6974
▁डायरेक्ट	-6975
).	-6976
कॉ	-6977
▁नाकाम	-6978
▁मानवाधिकार	-6979
▁दोगु	-6980
▁ब्रा	-6981
▁ग्लोबल	-6982
▁ढूं	-6983
▁प्रकाशन	-6984
▁मलेशिया	-6985
क्ला	-6986
▁बारी	-6987
▁राज्यमंत्री	-6988
▁समृद्धि	-6989
ालैंड	-6990
▁उद्धव	-6991
▁साहिब	-6992
▁ठिक	-6993
▁बलिदान	-6994
▁शैक्षिक	-6995
▁करु	-6996
▁अवॉर्ड	-6997
नीत	-6998
▁सिम	-6999
▁पुलिसकर्मी	-7000
▁टेक्नोलॉजी	-7001
▁सत्	-7002
▁सीएस	-7003
लत	-7004
▁Realme	-7005
निर्भर	-7006
पुल	-7007
▁५	-7008
▁छू	-7009
▁चिट	-7010
बलों	-7011
चंद्र	-7012
▁गवाही	-7013
▁बनाता	-7014
▁पोस्टर	-7015
▁2022	-7016
ंथी	-7017
▁संग्रहालय	-7018
44.	-7019
▁अमल	-7020
ार्टर	-7021
▁अल्पसंख्यक	-7022
▁सपना	-7023
▁उपलब्धता	-7024
▁महत्त्वपूर्ण	-7025
स्पति	-7026
▁प्राप्ति	-7027
▁मैक्स	-7028
▁उपग्रह	-7029
%),	-7030
▁वाक़	-7031
▁दीर्घ	-7032
▁मंजूर	-7033
▁डब्ल्यू	-7034
▁मौजूदगी	-7035
टेक	-7036
ेंच	-7037
▁उतारा	-7038
▁ख्याल	-7039
धारणा	-7040
▁ड्यू	-7041
▁पढ़ा	-7042
▁58	-7043
▁नाते	-7044
जिस	-7045
▁गारंटी	-7046
▁जोड़े	-7047
▁अरोड़ा	-7048
▁रिटर्न	-7049
▁रोकथाम	-7050
ड़प	-7051
▁#44.	-7052
सीएम	-7053
▁मायावती	-7054
▁63	-7055
▁प्रताप	-7056
▁समुदायों	-7057
ैक्ट	-7058
▁खेली	-7059
▁नवाज	-7060
▁रॉयल	-7061
▁प्रक्रियाओं	-7062
▁ब्लू	-7063
▁दिनेश	-7064
ल्ला	-7065
▁पठ	-7066
नाइटेड	-7067
▁एकड़	-7068
▁निकलने	-7069
▁स्वदेश	-7070
स्‍प	-7071
बंद	-7072
▁यूसु	-7073
▁देखता	-7074
▁एसबीआई	-7075
▁2006	-7076
▁सम्‍मेलन	-7077
▁हिंदुस्तान	-7078
▁खन	-7079
▁कार्म	-7080
रज़	-7081
▁हेल	-7082
▁फेंक	-7083
▁राणा	-7084
▁खबरें	-7085
▁पैग़म्बर	-7086
▁62	-7087
▁राइ	-7088
▁जाधव	-7089
▁स्नैप	-7090
सीएस	-7091
्मण	-7092
▁सिया	-7093
▁सिक्किम	-7094
▁बुक	-7095
▁सुदृ	-7096
▁एनआरसी	-7097
▁सांप	-7098
▁करवाने	-7099
▁अरुणाचल	-7100
▁परियोजनाएं	-7101
▁फेड	-7102
70	-7103
▁डीजी	-7104
▁कठिना	-7105
▁दवाओं	-7106
▁दिनांक	-7107
▁फडणवीस	-7108
▁इत्यादि	-7109
▁जबरदस्त	-7110
दिव	-7111
ख्तर	-7112
▁लाइव	-7113
▁समाप	-7114
▁अधिकारिता	-7115
,‘	-7116
▁मुर	-7117
▁नर्स	-7118
▁सज	-7119
▁इर	-7120
ंगों	-7121
▁निवार	-7122
चार्य	-7123
राय	-7124
▁लोह	-7125
▁इंकार	-7126
ान्	-7127
त्ते	-7128
▁गेंदों	-7129
▁स्टूडेंट्स	-7130
▁तस	-7131
▁विट	-7132
्यिकी	-7133
कैया	-7134
▁तलाक	-7135
दर्शिता	-7136
वने	-7137
""""	-7138
वाने	-7139
िनेंट	-7140
▁भावनाओं	-7141
▁सीआरपीएफ	-7142
भु	-7143
बर्ट	-7144
▁भेदभाव	-7145
▁मामूली	-7146
▁पश्चात्	-7147
भारतीय	-7148
ष्‍ट्र	-7149
स्थापित	-7150
▁मज़बूत	-7151
▁स्पेन	-7152
गेट	-7153
▁कब्जा	-7154
▁स्टो	-7155
ha	-7156
▁हेली	-7157
▁मनोरंजन	-7158
यार	-7159
▁जख	-7160
▁पन	-7161
फ्रा	-7162
▁लाह	-7163
▁कच	-7164
▁अनुप्र	-7165
▁उत्‍तर	-7166
▁कस	-7167
▁परस्पर	-7168
तीत	-7169
बड़ी	-7170
▁शर्त	-7171
▁जरूरतों	-7172
▁स्टैंड	-7173
▁120	-7174
यद	-7175
▁इच्छुक	-7176
च्‍च	-7177
▁हॉल	-7178
▁85	-7179
▁बहादुर	-7180
मीर	-7181
▁दुर	-7182
▁नकदी	-7183
▁ट्रॉ	-7184
ित्रा	-7185
▁अख्तर	-7186
▁नाबालिग	-7187
अब	-7188
समय	-7189
▁घु	-7190
छाड़	-7191
▁वितरित	-7192
▁उद्देश्‍य	-7193
▁पैन	-7194
रार	-7195
▁लाइट	-7196
रेपी	-7197
शास्त्र	-7198
▁जायेगी	-7199
वाया	-7200
▁250	-7201
▁साक्षियों	-7202
बन	-7203
▁डेब्यू	-7204
▁Result	-7205
▁मजदूरों	-7206
▁74	-7207
▁सेटअप	-7208
शीलता	-7209
▁भंडारण	-7210
▁अस्तित्व	-7211
संगत	-7212
▁पदार्थों	-7213
▁हमसे	-7214
▁ऑफिशियल	-7215
▁अफसर	-7216
▁कलीसिया	-7217
▁एव	-7218
संरचना	-7219
म्‍बर	-7220
▁अंदाज	-7221
▁कृष्णा	-7222
▁बुराई	-7223
▁बेचने	-7224
▁प्रसंस्करण	-7225
▁इलेक्ट्रॉनिक	-7226
▁कैंप	-7227
▁रूट	-7228
न्‍ना	-7229
▁इंदौर	-7230
▁स्टेशनों	-7231
ैव	-7232
▁चौथा	-7233
▁लाना	-7234
▁कनेक्टिविटी	-7235
भूषण	-7236
पेक्ष	-7237
▁बुरे	-7238
शेष	-7239
▁गोग	-7240
▁सदस्यता	-7241
्‍मी	-7242
▁अधिकरण	-7243
▁नकारात्मक	-7244
आईएस	-7245
▁तुझे	-7246
▁अजी	-7247
▁निर्माताओं	-7248
▁अंतर्राष्‍ट्रीय	-7249
जनों	-7250
▁लगते	-7251
▁मांगा	-7252
▁ग्रामीणों	-7253
डिया	-7254
्‍यम	-7255
▁अपराधों	-7256
▁लगाना	-7257
कांग्रेस	-7258
▁ओम	-7259
▁1000	-7260
▁उदार	-7261
▁आयर	-7262
▁हसन	-7263
▁मतदाता	-7264
▁प्रशांत	-7265
▁महाराज	-7266
ैम	-7267
▁दर्शाता	-7268
▁ग्ल	-7269
क्रमण	-7270
न्ध्र	-7271
▁अर्पित	-7272
▁पर्यटकों	-7273
▁शवों	-7274
▁दिलों	-7275
▁मेहता	-7276
▁स्थिरता	-7277
▁न्यूयॉर्क	-7278
▁उतना	-7279
15	-7280
▁सिद्धांतों	-7281
वाना	-7282
▁कैश	-7283
▁नाटक	-7284
आन	-7285
▁कुम	-7286
▁पेशेवर	-7287
▁विमानन	-7288
▁कहेंगे	-7289
नैतिक	-7290
▁लिहाज	-7291
▁डेन	-7292
▁मजा	-7293
▁ख़ुद	-7294
▁त्व	-7295
▁वंश	-7296
▁इब्र	-7297
▁दिखाता	-7298
▁हवाला	-7299
▁छोड़ा	-7300
▁जनजातीय	-7301
ंचित	-7302
डीओ	-7303
वाट	-7304
ामिन	-7305
बहुत	-7306
CI	-7307
▁लापता	-7308
▁पहुंचकर	-7309
धिकारियों	-7310
▁हितधारकों	-7311
▁पांड	-7312
▁फसलों	-7313
▁साक्षात्कार	-7314
▁संल	-7315
▁डेवल	-7316
▁बैंड	-7317
वादियों	-7318
▁टेलीविजन	-7319
▁57	-7320
ालिम	-7321
चुअल	-7322
▁इजाफा	-7323
▁स्पी	-7324
ह्न	-7325
▁बाग़	-7326
▁मेघालय	-7327
▁टेनिस	-7328
▁तीर्थ	-7329
▁तोमर	-7330
▁फुल	-7331
▁मास्क	-7332
▁सचिवालय	-7333
जीबी	-7334
वाज	-7335
▁पाइ	-7336
▁क्यू	-7337
▁जीती	-7338
▁2016-17	-7339
▁साक्ष्य	-7340
▁2020:	-7341
तावास	-7342
▁मछली	-7343
▁लल	-7344
▁आईडी	-7345
▁कानपुर	-7346
▁चावल	-7347
▁धातु	-7348
▁फुटबॉल	-7349
▁कनेक्शन	-7350
-5	-7351
▁आश्च	-7352
▁रखेंगे	-7353
चरण	-7354
ेय	-7355
▁विद्या	-7356
▁तार	-7357
▁सोनी	-7358
▁विलय	-7359
▁सलामी	-7360
▁आन्ध्र	-7361
▁लगेगा	-7362
स्ड	-7363
एसडी	-7364
▁ईश	-7365
▁गि	-7366
▁डिवा	-7367
रेशन	-7368
▁खातों	-7369
▁हिस्‍	-7370
ंतिम	-7371
ुदाय	-7372
▁यहीं	-7373
▁मतदाताओं	-7374
बानी	-7375
▁चतु	-7376
▁उपयोगी	-7377
फ़ा	-7378
ासा	-7379
▁ब्रह्म	-7380
▁संजीव	-7381
▁पेपर	-7382
▁कप्त	-7383
▁पाँच	-7384
▁स्मारक	-7385
▁शेर	-7386
▁दुर्भाग्य	-7387
ाजील	-7388
▁साधन	-7389
▁बहाल	-7390
▁एनडीए	-7391
▁59	-7392
▁लॉग	-7393
▁परिणामों	-7394
▁सफलतापूर्वक	-7395
ैगन	-7396
▁प्रच	-7397
▁देवगन	-7398
▁युवकों	-7399
▁ग्रो	-7400
▁मैनेज	-7401
ोरेंस	-7402
▁आडवाणी	-7403
▁अर्थात	-7404
▁विभाजित	-7405
थल	-7406
▁हथियारों	-7407
▁जिनसे	-7408
▁स्टोर	-7409
▁मिजोरम	-7410
ंबा	-7411
▁2005	-7412
▁लोगो	-7413
▁कांस	-7414
▁ड्रग	-7415
▁भूट	-7416
पीपी	-7417
लेम	-7418
▁प्लास्टिक	-7419
विटी	-7420
▁टाइम्स	-7421
पह	-7422
▁चाय	-7423
स्तरीय	-7424
▁प्रत्‍	-7425
▁बीमारियों	-7426
▁एससी	-7427
▁आर्मी	-7428
▁दूतावास	-7429
पुरी	-7430
▁जादू	-7431
▁तलाशी	-7432
▁आईसीआई	-7433
▁68	-7434
▁ट्रैक	-7435
▁व्‍यापार	-7436
िनल	-7437
▁रेख	-7438
▁कन्न	-7439
ोज़	-7440
▁आवेद	-7441
▁मसले	-7442
ज़े	-7443
▁क़ुर	-7444
▁दलील	-7445
▁वेंकैया	-7446
▁सुर्	-7447
वनेश्वर	-7448
पद	-7449
▁हुड्डा	-7450
▁2018-19	-7451
):	-7452
▁हॉस्प	-7453
▁हराकर	-7454
▁e	-7455
▁त्याग	-7456
स्वतंत्र	-7457
क्‍ता	-7458
▁रिहा	-7459
▁नृत्य	-7460
▁परिभाषित	-7461
▁बृह	-7462
▁रहमान	-7463
ow	-7464
साइकिल	-7465
▁शांतिपूर्ण	-7466
र्जन	-7467
्रेन	-7468
▁आश्चर्य	-7469
▁कू	-7470
▁अधिसूचित	-7471
▁सई	-7472
▁रोगी	-7473
▁धु	-7474
▁बनकर	-7475
▁दुश्म	-7476
▁पुरूष	-7477
इए	-7478
बूल	-7479
▁शांत	-7480
▁विवादित	-7481
किट	-7482
ist	-7483
▁मेक	-7484
▁मीटिंग	-7485
▁दुआ	-7486
-21	-7487
▁माफ	-7488
▁संवाददाता	-7489
▁सुधारों	-7490
क्सीन	-7491
▁अगला	-7492
▁राधा	-7493
▁पुलिसकर्मियों	-7494
ess	-7495
▁अलर्ट	-7496
▁किरण	-7497
▁धारणा	-7498
▁सब्सिडी	-7499
▁मजिस्ट्रेट	-7500
ओसी	-7501
▁क्ली	-7502
▁वर्क	-7503
▁सूरत	-7504
▁जेम्स	-7505
▁सहकारी	-7506
▁सीमाओं	-7507
▁न्यायाधीशों	-7508
▁%	-7509
सरण	-7510
▁रेस	-7511
मान्य	-7512
▁उर्वरक	-7513
लीन	-7514
▁सीरिया	-7515
▁अभ्य	-7516
▁डिप्टी	-7517
▁विनोद	-7518
कर्मियों	-7519
कांक्षा	-7520
टके	-7521
▁(5	-7522
▁हेल्थ	-7523
▁लांच	-7524
▁73	-7525
▁रुक	-7526
▁मानी	-7527
▁लिखने	-7528
▁रोशन	-7529
▁दिव्या	-7530
▁लिप	-7531
क्क	-7532
▁चौथी	-7533
▁मायने	-7534
▁अनुमानित	-7535
▁अकबर	-7536
▁रूसी	-7537
▁हानि	-7538
▁ज़ालिम	-7539
▁दशकों	-7540
▁देशवासियों	-7541
ौदा	-7542
▁चिन्ह	-7543
▁ट्यू	-7544
▁बताता	-7545
बाह	-7546
▁वर	-7547
▁कथा	-7548
दायिक	-7549
ोजक	-7550
▁हरे	-7551
-15	-7552
▁खाड़ी	-7553
▁ऊँ	-7554
▁नमाज़	-7555
▁युक्त	-7556
▁जैक	-7557
चंद	-7558
थन	-7559
▁चुप	-7560
▁कदमों	-7561
▁सुनकर	-7562
▁ईसाई	-7563
▁मल्	-7564
▁आईसीआईसीआई	-7565
चेरी	-7566
वेस्ट	-7567
िवारिक	-7568
▁बेरोज	-7569
▁स्पीड	-7570
▁रूपए	-7571
▁काफ़ी	-7572
▁खुली	-7573
तू	-7574
▁फरी	-7575
▁समित	-7576
▁यहूदी	-7577
▁सच्चा	-7578
पिंग	-7579
▁अंतरिम	-7580
▁वाशिंगटन	-7581
▁मच	-7582
▁झेल	-7583
▁अश्विन	-7584
काय	-7585
दुनिया	-7586
▁नड्डा	-7587
▁पड़ती	-7588
▁परीक्षाओं	-7589
▁प्रीमियर	-7590
▁इलेक्ट्रिक	-7591
ूर्ण	-7592
▁नतीजा	-7593
▁भुवनेश्वर	-7594
▁>	-7595
ण्	-7596
्मान	-7597
बस	-7598
ड्डी	-7599
▁जलाशयों	-7600
▁खनिज	-7601
▁मुकदम	-7602
▁एमएसएमई	-7603
्श	-7604
गणना	-7605
▁जूनियर	-7606
▁मासिक	-7607
▁प्रतिमा	-7608
्‍च	-7609
▁शक्‍ति	-7610
▁कक्ष	-7611
्युन	-7612
▁पेयजल	-7613
▁स्पोर्ट	-7614
▁डेम	-7615
▁अवधारणा	-7616
कल्पिक	-7617
रखा	-7618
िर्	-7619
धारित	-7620
▁गणतंत्र	-7621
▁योजनाएं	-7622
▁लाई	-7623
▁डांस	-7624
▁खट्टर	-7625
op	-7626
▁उपासना	-7627
▁मतभ	-7628
सुर	-7629
▁दिलचस्पी	-7630
पीएल	-7631
▁दिश	-7632
▁कालेज	-7633
▁वैकल्पिक	-7634
▁असं	-7635
▁शिश	-7636
पीठ	-7637
आरआई	-7638
▁बचपन	-7639
▁आवंटित	-7640
▁नहर	-7641
▁मुश	-7642
▁शमी	-7643
▁उत्सव	-7644
▁ब्राजील	-7645
1)	-7646
▁मानवीय	-7647
क्टेयर	-7648
▁मार्ट	-7649
▁चिंतित	-7650
▁झड़प	-7651
▁किस्म	-7652
▁मानता	-7653
▁स्थलों	-7654
▁ख़िलाफ़	-7655
▁फास्ट	-7656
▁जद	-7657
▁चोर	-7658
▁उछ	-7659
▁अनुप्रयोग	-7660
गिज़	-7661
▁लौटने	-7662
▁अमृतसर	-7663
av	-7664
च्छा	-7665
▁साम्र	-7666
▁	-7667
ा	-7668
क	-7669
र	-7670
े	-7671
्	-7672
ि	-7673
न	-7674
स	-7675
ी	-7676
ं	-7677
ह	-7678
म	-7679
त	-7680
ल	-7681
ो	-7682
य	-7683
प	-7684
व	-7685
द	-7686
ज	-7687
ब	-7688
ग	-7689
ै	-7690
ु	-7691
ए	-7692
ट	-7693
श	-7694
।	-7695
अ	-7696
च	-7697
भ	-7698
,	-7699
ड	-7700
ू	-7701
इ	-7702
आ	-7703
ध	-7704
उ	-7705
थ	-7706
औ	-7707
ख	-7708
ष	-7709
़	-7710
फ	-7711
ई	-7712
.	-7713
ण	-7714
0	-7715
1	-7716
ौ	-7717
2	-7718
-	-7719
छ	-7720
(	-7721
)	-7722
‍	-7723
ॉ	-7724
"	-7725
ओ	-7726
ठ	-7727
घ	-7728
ृ	-7729
5	-7730
ढ	-7731
3	-7732
9	-7733
4	-7734
झ	-7735
6	-7736
8	-7737
a	-7738
7	-7739
:	-7740
e	-7741
ऐ	-7742
ँ	-7743
i	-7744
'	-7745
‘	-7746
n	-7747
o	-7748
t	-7749
r	-7750
?	-7751
s	-7752
ऑ	-7753
’	-7754
l	-7755
ञ	-7756
d	-7757
ऊ	-7758
c	-7759
u	-7760
m	-7761
“	-7762
h	-7763
I	-7764
/	-7765
S	-7766
”	-7767
P	-7768
C	-7769
A	-7770
p	-7771
B	-7772
ः	-7773
M	-7774
g	-7775
R	-7776
G	-7777
T	-7778
y	-7779
N	-7780
D	-7781
!	-7782
v	-7783
१	-7784
\	-7785
E	-7786
%	-7787
b	-7788
w	-7789
०	-7790
f	-7791
k	-7792
ऋ	-7793
O	-7794
—	-7795
L	-7796
x	-7797
H	-7798
F	-7799
|	-7800
२	-7801
–	-7802
V	-7803
U	-7804
K	-7805
W	-7806
J	-7807
९	-7808
]	-7809
[	-7810
३	-7811
५	-7812
४	-7813
X	-7814
ॅ	-7815
+	-7816
८	-7817
६	-7818
j	-7819
७	-7820
#	-7821
z	-7822
&	-7823
ॆ	-7824
>	-7825
_	-7826
Y	-7827
ऩ	-7828
Z	-7829
@	-7830
ऱ	-7831
q	-7832
॰	-7833
Q	-7834
ï	-7835
ङ	-7836
$	-7837
=	-7838
}	-7839
{	-7840
*	-7841
»	-7842
ॊ	-7843
ا	-7844
□	-7845
×	-7846
ऍ	-7847
Ó	-7848
`	-7849
ऎ	-7850
ل	-7851
°	-7852
▪	-7853
م	-7854
ر	-7855
→	-7856
☻	-7857
~	-7858
€	-7859
ن	-7860
₹	-7861
া	-7862
•	-7863
▫	-7864
ळ	-7865
·	-7866
ي	-7867
ب	-7868
و	-7869
د	-7870
;	-7871
॥	-7872
س	-7873
а	-7874
ی	-7875
μ	-7876
é	-7877
♪	-7878
α	-7879
ت	-7880
ة	-7881
ح	-7882
ল	-7883
্	-7884
⁄	-7885
£	-7886
É	-7887
ˈ	-7888
ॢ	-7889
ه	-7890
ع	-7891
<	-7892
র	-7893
ج	-7894
и	-7895
ি	-7896
о	-7897
ऽ	-7898
−	-7899
′	-7900
β	-7901
^	-7902
í	-7903
ব	-7904
р	-7905
н	-7906
ə	-7907
л	-7908
ف	-7909
◆	-7910
ق	-7911
►	-7912
ন	-7913
â	-7914
­	-7915
с	-7916
ā	-7917
е	-7918
ك	-7919
ک	-7920
்	-7921
к	-7922
জ	-7923
ρ	-7924
π	-7925
ش	-7926
á	-7927
σ	-7928
ে	-7929
λ	-7930
ম	-7931
♫	-7932
ς	-7933
❑	-7934
§	-7935
ক	-7936
̈	-7937
в	-7938
ó	-7939
у	-7940
ː	-7941
ॐ	-7942
า	-7943
¶	-7944
দ	-7945
ɪ	-7946
ν	-7947
ο	-7948
т	-7949
¡	-7950
ö	-7951
ॄ	-7952
স	-7953
γ	-7954
ü	-7955
ু	-7956
	-7957
δ	-7958
ز	-7959
َ	-7960
ॠ	-7961
♦	-7962
ι	-7963
ల	-7964
τ	-7965
్	-7966
ऌ	-7967
ী	-7968
à	-7969
ä	-7970
è	-7971
	-7972
য	-7973
Þ	-7974
	-7975
́	-7976
ہ	-7977
ε	-7978
أ	-7979
پ	-7980
গ	-7981
›	-7982
☺	-7983
Â	-7984
θ	-7985
ِ	-7986
น	-7987
ʹ	-7988
ص	-7989
ط	-7990
ా	-7991
്	-7992
φ	-7993
ī	-7994
š	-7995
й	-7996
়	-7997
ి	-7998
ы	-7999
خ	-8000
æ	-8001
ਾ	-8002
ñ	-8003
ç	-8004
κ	-8005
ত	-8006
হ	-8007
শ	-8008
க	-8009
±	-8010
б	-8011
ி	-8012
‐	-8013
প	-8014
گ	-8015
м	-8016
я	-8017
ு	-8018
Δ	-8019
η	-8020
п	-8021
ُ	-8022
ˌ	-8023
ί	-8024
ɛ	-8025
י	-8026
غ	-8027
ى	-8028
ர	-8029
̃	-8030
த	-8031
ப	-8032
©	-8033
ō	-8034
ό	-8035
ь	-8036
آ	-8037
ா	-8038
ย	-8039
ω	-8040
ظ	-8041
г	-8042
д	-8043
چ	-8044
È	-8045
С	-8046
ા	-8047
་	-8048
‡	-8049
Ô	-8050
ਰ	-8051
ర	-8052
ض	-8053
ـ	-8054
ট	-8055
ம	-8056
อ	-8057
ú	-8058
Α	-8059
ά	-8060
ה	-8061
إ	-8062
ھ	-8063
ং	-8064
≥	-8065
ʊ	-8066
χ	-8067
ו	-8068
ਸ	-8069
ง	-8070
ท	-8071
○	-8072
Ω	-8073
ো	-8074
∆	-8075
ŋ	-8076
ş	-8077
ئ	-8078
॔	-8079
ட	-8080
ɑ	-8081
Θ	-8082
ْ	-8083
ऒ	-8084
ৰ	-8085
జ	-8086
ക	-8087
®	-8088
ē	-8089
υ	-8090
ّ	-8091
ٹ	-8092
ิ	-8093
ò	-8094
ɔ	-8095
ˊ	-8096
К	-8097
ר	-8098
ਿ	-8099
ര	-8100
ต	-8101
ุ	-8102
่	-8103
■	-8104
★	-8105
ū	-8106
ذ	-8107
॑	-8108
চ	-8109
ô	-8110
ţ	-8111
ʃ	-8112
Ο	-8113
வ	-8114
ห	-8115
်	-8116
ő	-8117
̋	-8118
ॣ	-8119
ി	-8120
ช	-8121
ร	-8122
ᱟ	-8123
中	-8124
日	-8125
ù	-8126
ı	-8127
ɡ	-8128
ա	-8129
ל	-8130
ء	-8131
ভ	-8132
ર	-8133
క	-8134
√	-8135
国	-8136
本	-8137
¬	-8138
ň	-8139
ή	-8140
ψ	-8141
ц	-8142
॒	-8143
ড	-8144
ਜ	-8145
ல	-8146
⁡	-8147
❍	-8148
ー	-8149
ɒ	-8150
Б	-8151
א	-8152
מ	-8153
ٱ	-8154
ধ	-8155
ਤ	-8156
మ	-8157
ు	-8158
ന	-8159
ാ	-8160
ා	-8161
ม	-8162
แ	-8163
း	-8164
‚	-8165
✔	-8166
¤	-8167
«	-8168
ì	-8169
ð	-8170
х	-8171
আ	-8172
ਬ	-8173
ਲ	-8174
ੀ	-8175
ત	-8176
ன	-8177
న	-8178
వ	-8179
ನ	-8180
ಿ	-8181
್	-8182
ก	-8183
မ	-8184
西	-8185
	-8186
Ö	-8187
ɐ	-8188
̇	-8189
έ	-8190
ώ	-8191
А	-8192
М	-8193
П	-8194
Т	-8195
ז	-8196
વ	-8197
ે	-8198
ழ	-8199
ం	-8200
గ	-8201
ರ	-8202
ല	-8203
ശ	-8204
เ	-8205
北	-8206
̧	-8207
Ν	-8208
з	-8209
ө	-8210
ֺ	-8211
਼	-8212
ી	-8213
ச	-8214
ప	-8215
්	-8216
⇒	-8217
￼	-8218
ø	-8219
ζ	-8220
ث	-8221
ই	-8222
ঞ	-8223
ষ	-8224
ਪ	-8225
ു	-8226
ර	-8227
้	-8228
†	-8229
海	-8230
Ñ	-8231
Ü	-8232
å	-8233
Ч	-8234
ֹ	-8235
খ	-8236
ঙ	-8237
ਦ	-8238
ਹ	-8239
త	-8240
ద	-8241
ತ	-8242
ം	-8243
ട	-8244
പ	-8245
ང	-8246
ရ	-8247
ု	-8248
∞	-8249
≤	-8250
⏎	-8251
❤	-8252
南	-8253
️	-8254
ł	-8255
ś	-8256
Ÿ	-8257
ʁ	-8258
ˇ	-8259
Р	-8260
ч	-8261
ն	-8262
ऴ	-8263
ঁ	-8264
থ	-8265
ਨ	-8266
જ	-8267
સ	-8268
ய	-8269
ಮ	-8270
ಾ	-8271
മ	-8272
യ	-8273
ข	-8274
พ	-8275
ล	-8276
ั	-8277
ํ	-8278
州	-8279
þ	-8280
Ž	-8281
ʌ	-8282
Κ	-8283
Σ	-8284
И	-8285
ш	-8286
פ	-8287
ٰ	-8288
ও	-8289
ੰ	-8290
ુ	-8291
્	-8292
ந	-8293
డ	-8294
ಕ	-8295
ိ	-8296
ᆬ	-8297
ᱚ	-8298
ḥ	-8299
―	-8300
∑	-8301
●	-8302
⦁	-8303
字	-8304
	-8305
Ê	-8306
ê	-8307
ë	-8308
÷	-8309
ą	-8310
Ĺ	-8311
ů	-8312
ž	-8313
ʒ	-8314
Π	-8315
ж	-8316
ф	-8317
ի	-8318
ש	-8319
ڑ	-8320
ە	-8321
ਆ	-8322
ਕ	-8323
ਮ	-8324
ક	-8325
ન	-8326
ય	-8327
િ	-8328
ண	-8329
ள	-8330
ை	-8331
ూ	-8332
ె	-8333
ು	-8334
വ	-8335
ක	-8336
ය	-8337
ල	-8338
ි	-8339
ค	-8340
ว	-8341
โ	-8342
ོ	-8343
က	-8344
្	-8345
ᱨ	-8346
ん	-8347
ン	-8348
人	-8349
動	-8350
國	-8351
子	-8352
山	-8353
拳	-8354
新	-8355
武	-8356
江	-8357
自	-8358
	-8359
🙏	-8360
Í	-8361
ć	-8362
đ	-8363
ě	-8364
Ş	-8365
Š	-8366
ɕ	-8367
ɨ	-8368
ɹ	-8369
ɾ	-8370
̯	-8371
Г	-8372
У	-8373
Ф	-8374
э	-8375
ր	-8376
ְ	-8377
ד	-8378
ח	-8379
উ	-8380
ণ	-8381
ফ	-8382
ਅ	-8383
ੇ	-8384
દ	-8385
బ	-8386
స	-8387
ത	-8388
ള	-8389
ු	-8390
န	-8391
ာ	-8392
ồ	-8393
≈	-8394
❏	-8395
京	-8396
家	-8397
	-8398
Ç	-8399
Û	-8400
ã	-8401
î	-8402
č	-8403
ĺ	-8404
Ň	-8405
ƒ	-8406
ǔ	-8407
Ε	-8408
ύ	-8409
Н	-8410
О	-8411
Х	-8412
ю	-8413
ե	-8414
ո	-8415
ָ	-8416
כ	-8417
נ	-8418
،	-8419
এ	-8420
ঠ	-8421
ਂ	-8422
ਖ	-8423
ਵ	-8424
੍	-8425
ੱ	-8426
ગ	-8427
મ	-8428
ோ	-8429
య	-8430
ೆ	-8431
േ	-8432
ග	-8433
ත	-8434
ම	-8435
ව	-8436
ด	-8437
บ	-8438
ག	-8439
ར	-8440
ြ	-8441
„	-8442
₱	-8443
←	-8444
∅	-8445
∈	-8446
∠	-8447
⋯	-8448
七	-8449
大	-8450
姫	-8451
市	-8452
成	-8453
東	-8454
社	-8455
	-8456
	-8457
	-8458
¥	-8459
À	-8460
Ð	-8461
û	-8462
Ć	-8463
Ę	-8464
ɫ	-8465
Τ	-8466
ξ	-8467
қ	-8468
ב	-8469
ג	-8470
ں	-8471
ਗ	-8472
પ	-8473
લ	-8474
அ	-8475
ங	-8476
ే	-8477
ಂ	-8478
ಜ	-8479
ಟ	-8480
ಸ	-8481
ഷ	-8482
න	-8483
ད	-8484
ས	-8485
င	-8486
တ	-8487
ေ	-8488
္	-8489
ᱦ	-8490
ᱽ	-8491
ṭ	-8492
ẹ	-8493
ἀ	-8494
∂	-8495
☃	-8496
❖	-8497
カ	-8498
デ	-8499
会	-8500
华	-8501
和	-8502
夕	-8503
民	-8504
湖	-8505
漢	-8506
車	-8507
関	-8508
	-8509
	-8510
	-8511
Á	-8512
Æ	-8513
ư	-8514
ǎ	-8515
ǐ	-8516
ʼ	-8517
ʿ	-8518
͡	-8519
Β	-8520
Д	-8521
З	-8522
Я	-8523
і	-8524
Қ	-8525
Ө	-8526
հ	-8527
ן	-8528
ס	-8529
ؤ	-8530
ے	-8531
ঝ	-8532
ূ	-8533
ৱ	-8534
ੁ	-8535
ੂ	-8536
હ	-8537
ି	-8538
ற	-8539
ெ	-8540
ದ	-8541
ಳ	-8542
ർ	-8543
ප	-8544
ะ	-8545
ื	-8546
ู	-8547
མ	-8548
ུ	-8549
ပ	-8550
ျ	-8551
ᐅ	-8552
ត	-8553
រ	-8554
ា	-8555
ᱜ	-8556
ᱡ	-8557
ṣ	-8558
ῖ	-8559
‟	-8560
‪	-8561
⋆	-8562
◇	-8563
ⴰ	-8564
、	-8565
に	-8566
イ	-8567
ス	-8568
ッ	-8569
ト	-8570
レ	-8571
内	-8572
地	-8573
外	-8574
天	-8575
寺	-8576
島	-8577
年	-8578
式	-8579
手	-8580
株	-8581
水	-8582
秦	-8583
精	-8584
道	-8585
青	-8586
젓	-8587
	-8588
	-8589
	-8590
	-8591
Ã	-8592
Ø	-8593
ß	-8594
ý	-8595
Ā	-8596
ă	-8597
Đ	-8598
ř	-8599
ʔ	-8600
ʝ	-8601
ʻ	-8602
Γ	-8603
Λ	-8604
Μ	-8605
Л	-8606
ъ	-8607
ү	-8608
Ս	-8609
ւ	-8610
ּ	-8611
ׁ	-8612
ט	-8613
ם	-8614
ק	-8615
ً	-8616
ॡ	-8617
ঘ	-8618
ঢ	-8619
৳	-8620
ਡ	-8621
ਣ	-8622
ં	-8623
ડ	-8624
ભ	-8625
ା	-8626
ீ	-8627
ூ	-8628
చ	-8629
ట	-8630
భ	-8631
ಗ	-8632
ಪ	-8633
ಬ	-8634
ಯ	-8635
ಲ	-8636
ീ	-8637
ද	-8638
ළ	-8639
ී	-8640
จ	-8641
ส	-8642
ี	-8643
ไ	-8644
ງ	-8645
ນ	-8646
ວ	-8647
ན	-8648
ལ	-8649
ེ	-8650
ྫ	-8651
ယ	-8652
သ	-8653
ှ	-8654
ᱛ	-8655
ᱥ	-8656
ᱱ	-8657
ᱵ	-8658
‹	-8659
↓	-8660
⇨	-8661
≠	-8662
⊙	-8663
▶	-8664
◌	-8665
の	-8666
り	-8667
サ	-8668
タ	-8669
ラ	-8670
ロ	-8671
三	-8672
代	-8673
共	-8674
县	-8675
司	-8676
安	-8677
川	-8678
府	-8679
度	-8680
方	-8681
星	-8682
木	-8683
李	-8684
林	-8685
河	-8686
洛	-8687
浦	-8688
清	-8689
田	-8690
織	-8691
羽	-8692
都	-8693
金	-8694
龍	-8695
자	-8696
전	-8697
	-8698
	-8699
	-8700
	-8701
🇮	-8702
👉	-8703
🚩	-8704
¢	-8705
Å	-8706
Î	-8707
õ	-8708
ę	-8709
Ś	-8710
ơ	-8711
ǫ	-8712
ɦ	-8713
ɽ	-8714
ʾ	-8715
ˀ	-8716
̄	-8717
Ι	-8718
Υ	-8719
Χ	-8720
Ϸ	-8721
Э	-8722
ғ	-8723
Ա	-8724
զ	-8725
կ	-8726
յ	-8727
տ	-8728
ֵ	-8729
ַ	-8730
ע	-8731
ת	-8732
ٌ	-8733
ټ	-8734
ڈ	-8735
ډ	-8736
ڠ	-8737
ڭ	-8738
ۇ	-8739
۠	-8740
॓	-8741
ॽ	-8742
ঃ	-8743
অ	-8744
ৌ	-8745
ਉ	-8746
ਊ	-8747
ਚ	-8748
ਥ	-8749
ੜ	-8750
ણ	-8751
થ	-8752
બ	-8753
શ	-8754
ૃ	-8755
ો	-8756
ஷ	-8757
ே	-8758
ொ	-8759
ణ	-8760
హ	-8761
ొ	-8762
ಚ	-8763
ങ	-8764
ച	-8765
റ	-8766
സ	-8767
ൂ	-8768
െ	-8769
ං	-8770
ඩ	-8771
ස	-8772
ผ	-8773
ภ	-8774
์	-8775
ັ	-8776
ི	-8777
ྱ	-8778
ྲ	-8779
ခ	-8780
ည	-8781
ဘ	-8782
လ	-8783
ე	-8784
ᑦ	-8785
ᓄ	-8786
ᓇ	-8787
ᛀ	-8788
ទ	-8789
ប	-8790
ស	-8791
᠎	-8792
ᱤ	-8793
ᱷ	-8794
ṃ	-8795
Ṣ	-8796
ằ	-8797
ế	-8798
ờ	-8799
ἔ	-8800
‬	-8801
↔	-8802
∘	-8803
∙	-8804
➣	-8805
ⵉ	-8806
ⵏ	-8807
き	-8808
さ	-8809
た	-8810
な	-8811
ら	-8812
ア	-8813
ィ	-8814
キ	-8815
ジ	-8816
世	-8817
义	-8818
使	-8819
倭	-8820
分	-8821
力	-8822
台	-8823
唐	-8824
園	-8825
圓	-8826
太	-8827
定	-8828
寿	-8829
尔	-8830
巻	-8831
帝	-8832
德	-8833
族	-8834
明	-8835
月	-8836
検	-8837
楚	-8838
死	-8839
灣	-8840
画	-8841
畿	-8842
皇	-8843
神	-8844
祭	-8845
紫	-8846
能	-8847
華	-8848
表	-8849
解	-8850
試	-8851
近	-8852
阳	-8853
音	-8854
験	-8855
龙	-8856
강	-8857
	-8858
	-8859
	-8860
	-8861
	-8862
	-8863
	-8864
	-8865
	-8866
	-8867
	-8868
	-8869
🇳	-8870
Ò	-8871
Ú	-8872
ė	-8873
ğ	-8874
į	-8875
İ	-8876
ľ	-8877
Ō	-8878
Œ	-8879
ŕ	-8880
ũ	-8881
Ż	-8882
ż	-8883
Ɵ	-8884
ǒ	-8885
ɖ	-8886
ɯ	-8887
ɲ	-8888
ʀ	-8889
ʈ	-8890
ʋ	-8891
ʎ	-8892
ʏ	-8893
ʕ	-8894
ʜ	-8895
ʟ	-8896
˂	-8897
˧	-8898
̞	-8899
̨	-8900
̩	-8901
ͧ	-8902
Ρ	-8903
Φ	-8904
Ц	-8905
Ш	-8906
Ю	-8907
ў	-8908
Մ	-8909
թ	-8910
լ	-8911
ծ	-8912
ղ	-8913
ճ	-8914
շ	-8915
օ	-8916
ֶ	-8917
ڌ	-8918
ژ	-8919
ڙ	-8920
ښ	-8921
ګ	-8922
ێ	-8923
ܕ	-8924
ަ	-8925
ऺ	-8926
ॹ	-8927
ঈ	-8928
ছ	-8929
ৃ	-8930
ৈ	-8931
০	-8932
ਘ	-8933
ਟ	-8934
ੋ	-8935
છ	-8936
ળ	-8937
ନ	-8938
ପ	-8939
ର	-8940
ଳ	-8941
େ	-8942
୍	-8943
ஈ	-8944
உ	-8945
ஸ	-8946
ఆ	-8947
ధ	-8948
శ	-8949
ష	-8950
ీ	-8951
ಅ	-8952
ವ	-8953
ಹ	-8954
ೀ	-8955
ജ	-8956
ദ	-8957
ധ	-8958
ൃ	-8959
ൈ	-8960
ോ	-8961
අ	-8962
ජ	-8963
ට	-8964
ණ	-8965
ශ	-8966
හ	-8967
ො	-8968
ฉ	-8969
ญ	-8970
ป	-8971
ศ	-8972
ษ	-8973
ฺ	-8974
฿	-8975
ใ	-8976
็	-8977
ຈ	-8978
ພ	-8979
ຫ	-8980
ູ	-8981
ຽ	-8982
ཏ	-8983
ཐ	-8984
ཕ	-8985
བ	-8986
ཞ	-8987
ཡ	-8988
ྐ	-8989
ဂ	-8990
စ	-8991
ဒ	-8992
ီ	-8993
ူ	-8994
့	-8995
ွ	-8996
ა	-8997
ი	-8998
რ	-8999
ს	-9000
ᓗ	-9001
ᕗ	-9002
ᖅ	-9003
គ	-9004
ន	-9005
យ	-9006
ល	-9007
ុ	-9008
េ	-9009
ᠴ	-9010
ᱠ	-9011
ᱩ	-9012
ᱫ	-9013
ᱮ	-9014
ᱯ	-9015
ᱴ	-9016
ᱹ	-9017
ᴀ	-9018
ᴋ	-9019
ᴏ	-9020
ᴜ	-9021
ḍ	-9022
ḷ	-9023
ṛ	-9024
Ṭ	-9025
ả	-9026
ắ	-9027
ề	-9028
ệ	-9029
ἁ	-9030
ἄ	-9031
ὀ	-9032
Ὀ	-9033
ὼ	-9034
ᾶ	-9035
ῆ	-9036
ῦ	-9037
‰	-9038
₣	-9039
⇩	-9040
∝	-9041
∨	-9042
∪	-9043
≡	-9044
⋅	-9045
⌊	-9046
⌋	-9047
─	-9048
█	-9049
▸	-9050
☞	-9051
♥	-9052
⚡	-9053
➖	-9054
➡	-9055
➢	-9056
➤	-9057
⟩	-9058
ⵢ	-9059
う	-9060
し	-9061
ち	-9062
っ	-9063
て	-9064
ほ	-9065
ぽ	-9066
み	-9067
ウ	-9068
エ	-9069
シ	-9070
パ	-9071
ペ	-9072
ポ	-9073
メ	-9074
ュ	-9075
ヨ	-9076
ル	-9077
上	-9078
不	-9079
东	-9080
争	-9081
事	-9082
二	-9083
仏	-9084
体	-9085
保	-9086
信	-9087
光	-9088
党	-9089
公	-9090
兰	-9091
冊	-9092
功	-9093
十	-9094
印	-9095
口	-9096
合	-9097
名	-9098
城	-9099
基	-9100
士	-9101
女	-9102
孫	-9103
宁	-9104
小	-9105
少	-9106
幌	-9107
广	-9108
库	-9109
彭	-9110
慕	-9111
戦	-9112
所	-9113
才	-9114
扎	-9115
技	-9116
政	-9117
朝	-9118
札	-9119
機	-9120
正	-9121
步	-9122
殉	-9123
気	-9124
汉	-9125
泉	-9126
法	-9127
浜	-9128
港	-9129
渾	-9130
滕	-9131
滴	-9132
演	-9133
漫	-9134
澤	-9135
濃	-9136
率	-9137
王	-9138
珍	-9139
班	-9140
現	-9141
百	-9142
直	-9143
県	-9144
短	-9145
石	-9146
空	-9147
糸	-9148
經	-9149
総	-9150
羅	-9151
舞	-9152
航	-9153
色	-9154
蠡	-9155
術	-9156
記	-9157
証	-9158
語	-9159
諸	-9160
路	-9161
阿	-9162
隸	-9163
霞	-9164
马	-9165
骨	-9166
體	-9167
高	-9168
鬼	-9169
齊	-9170
남	-9171
대	-9172
삼	-9173
새	-9174
성	-9175
스	-9176
액	-9177
업	-9178
에	-9179
우	-9180
치	-9181
타	-9182
트	-9183
한	-9184
	-9185
	-9186
	-9187
	-9188
	-9189
	-9190
	-9191
	-9192
	-9193
	-9194
	-9195
	-9196
	-9197
	-9198
	-9199
	-9200
🏻	-9201
👍	-9202
💋	-9203
💐	-9204
😂	-9205
🙂	-9206
🤭	-9207
¿	-9208
Ä	-9209
Ï	-9210
Ē	-9211
Ė	-9212
Ě	-9213
ĝ	-9214
ħ	-9215
ĩ	-9216
Ł	-9217
œ	-9218
ŷ	-9219
Ź	-9220
Ǻ	-9221
ɜ	-9222
ɴ	-9223
ɵ	-9224
ʂ	-9225
ˆ	-9226
̀	-9227
̊	-9228
Η	-9229
Ѕ	-9230
І	-9231
В	-9232
Ж	-9233
щ	-9234
ё	-9235
ң	-9236
ӣ	-9237
ӯ	-9238
Գ	-9239
Ե	-9240
Հ	-9241
Յ	-9242
Վ	-9243
բ	-9244
գ	-9245
դ	-9246
է	-9247
մ	-9248
ռ	-9249
ս	-9250
վ	-9251
ց	-9252
֦	-9253
ִ	-9254
׃	-9255
צ	-9256
ٺ	-9257
ٽ	-9258
ڀ	-9259
ڪ	-9260
ڬ	-9261
ۂ	-9262
ۃ	-9263
ۍ	-9264
ې	-9265
۱	-9266
۹	-9267
ܐ	-9268
ܝ	-9269
ܢ	-9270
ܩ	-9271
ܪ	-9272
ހ	-9273
މ	-9274
ލ	-9275
ް	-9276
ࠀ	-9277
ॱ	-9278
ॲ	-9279
ঔ	-9280
ৎ	-9281
২	-9282
৮	-9283
৯	-9284
৹	-9285
ਝ	-9286
ਠ	-9287
ਯ	-9288
ੌ	-9289
੦	-9290
੯	-9291
ઃ	-9292
અ	-9293
આ	-9294
ઈ	-9295
એ	-9296
ખ	-9297
ઝ	-9298
ટ	-9299
ઠ	-9300
ધ	-9301
ફ	-9302
ષ	-9303
ૂ	-9304
ଉ	-9305
କ	-9306
ଖ	-9307
ଗ	-9308
ଛ	-9309
ଝ	-9310
ଡ	-9311
ଦ	-9312
ଧ	-9313
ଲ	-9314
଼	-9315
இ	-9316
ஏ	-9317
ஜ	-9318
ஶ	-9319
ஹ	-9320
ః	-9321
ఇ	-9322
ఉ	-9323
ఊ	-9324
ఖ	-9325
ై	-9326
ో	-9327
౹	-9328
౺	-9329
౻	-9330
౼	-9331
౽	-9332
౾	-9333
ಉ	-9334
ಡ	-9335
ಥ	-9336
ಭ	-9337
ೂ	-9338
ೇ	-9339
ೈ	-9340
ೋ	-9341
ആ	-9342
ഉ	-9343
ഗ	-9344
ണ	-9345
ഥ	-9346
ബ	-9347
ഴ	-9348
ഹ	-9349
ൻ	-9350
ධ	-9351
භ	-9352
ෑ	-9353
ූ	-9354
ณ	-9355
ถ	-9356
ธ	-9357
๥	-9358
ຄ	-9359
ຍ	-9360
ບ	-9361
ລ	-9362
ອ	-9363
ະ	-9364
ຼ	-9365
ເ	-9366
້	-9367
།	-9368
ཁ	-9369
ཆ	-9370
པ	-9371
ཚ	-9372
འ	-9373
ཤ	-9374
ཧ	-9375
ྔ	-9376
ྡ	-9377
ྤ	-9378
ྩ	-9379
ྭ	-9380
ဏ	-9381
ထ	-9382
ဖ	-9383
ဠ	-9384
အ	-9385
ါ	-9386
ဲ	-9387
დ	-9388
ვ	-9389
ზ	-9390
თ	-9391
ლ	-9392
ნ	-9393
ო	-9394
პ	-9395
ტ	-9396
ქ	-9397
ᅳ	-9398
ላ	-9399
ሐ	-9400
ሪ	-9401
ቅ	-9402
ታ	-9403
ና	-9404
ይ	-9405
ጣ	-9406
ᐃ	-9407
ᐊ	-9408
ᑖ	-9409
ᑭ	-9410
ᒃ	-9411
ᒡ	-9412
ᓯ	-9413
ᕿ	-9414
ក	-9415
ខ	-9416
ឃ	-9417
ង	-9418
ច	-9419
ជ	-9420
ព	-9421
ម	-9422
វ	-9423
អ	-9424
ៃ	-9425
ោ	-9426
ះ	-9427
័	-9428
ᠠ	-9429
ᠨ	-9430
ᠩ	-9431
ᡠ	-9432
ᨯ	-9433
ᱞ	-9434
ᱪ	-9435
ᱭ	-9436
ᱶ	-9437
ᱸ	-9438
ᴇ	-9439
ᴘ	-9440
ᷫ	-9441
Ḥ	-9442
ḭ	-9443
ṟ	-9444
ṯ	-9445
ạ	-9446
ẵ	-9447
Ọ	-9448
ọ	-9449
ố	-9450
ộ	-9451
ớ	-9452
ừ	-9453
ỳ	-9454
ỹ	-9455
ἐ	-9456
Ἔ	-9457
ἢ	-9458
Ἢ	-9459
ἰ	-9460
ἴ	-9461
ἵ	-9462
Ἵ	-9463
ὅ	-9464
ὑ	-9465
ὰ	-9466
ὴ	-9467
ὶ	-9468
ᾱ	-9469
‒	-9470
‱	-9471
‵	-9472
₩	-9473
₮	-9474
↲	-9475
⇔	-9476
∇	-9477
∕	-9478
≫	-9479
⊂	-9480
⊆	-9481
⊕	-9482
⊖	-9483
☀	-9484
☆	-9485
☬	-9486
♎	-9487
♯	-9488
⚜	-9489
⚥	-9490
⚧	-9491
✍	-9492
✲	-9493
✵	-9494
➎	-9495
➧	-9496
➾	-9497
⟨	-9498
⠀	-9499
⭐	-9500
ⴱ	-9501
ⴹ	-9502
ⴼ	-9503
ⵇ	-9504
ⵍ	-9505
ⵎ	-9506
ⵔ	-9507
ⵕ	-9508
ⵡ	-9509
》	-9510
い	-9511
お	-9512
が	-9513
ぎ	-9514
く	-9515
こ	-9516
せ	-9517
で	-9518
ど	-9519
は	-9520
ば	-9521
ひ	-9522
び	-9523
ま	-9524
や	-9525
わ	-9526
ェ	-9527
ク	-9528
ケ	-9529
コ	-9530
ゴ	-9531
セ	-9532
ゼ	-9533
ソ	-9534
ダ	-9535
チ	-9536
ド	-9537
ナ	-9538
ノ	-9539
ハ	-9540
ビ	-9541
プ	-9542
ボ	-9543
ミ	-9544
ム	-9545
モ	-9546
ャ	-9547
リ	-9548
ヶ	-9549
一	-9550
为	-9551
主	-9552
乌	-9553
乐	-9554
乗	-9555
九	-9556
乞	-9557
云	-9558
亭	-9559
什	-9560
仙	-9561
佐	-9562
何	-9563
侠	-9564
備	-9565
傲	-9566
働	-9567
儒	-9568
儲	-9569
元	-9570
克	-9571
內	-9572
关	-9573
兵	-9574
典	-9575
凰	-9576
切	-9577
券	-9578
創	-9579
加	-9580
包	-9581
匯	-9582
区	-9583
區	-9584
千	-9585
卐	-9586
原	-9587
厳	-9588
叉	-9589
发	-9590
取	-9591
叶	-9592
含	-9593
周	-9594
品	-9595
哈	-9596
喜	-9597
器	-9598
囊	-9599
四	-9600
回	-9601
土	-9602
圧	-9603
坂	-9604
坡	-9605
垣	-9606
域	-9607
場	-9608
塔	-9609
增	-9610
墨	-9611
壮	-9612
壹	-9613
夏	-9614
多	-9615
夜	-9616
央	-9617
失	-9618
套	-9619
奠	-9620
妞	-9621
始	-9622
宋	-9623
宗	-9624
实	-9625
宮	-9626
密	-9627
富	-9628
寒	-9629
屏	-9630
岗	-9631
岛	-9632
岡	-9633
工	-9634
巧	-9635
常	-9636
干	-9637
幼	-9638
庄	-9639
庙	-9640
庭	-9641
康	-9642
开	-9643
弁	-9644
引	-9645
後	-9646
微	-9647
心	-9648
忠	-9649
快	-9650
怡	-9651
性	-9652
恭	-9653
慧	-9654
战	-9655
戰	-9656
户	-9657
拉	-9658
持	-9659
指	-9660
捨	-9661
放	-9662
文	-9663
旗	-9664
无	-9665
旭	-9666
时	-9667
昆	-9668
春	-9669
普	-9670
智	-9671
曲	-9672
更	-9673
杏	-9674
材	-9675
杭	-9676
极	-9677
桂	-9678
桜	-9679
械	-9680
棚	-9681
業	-9682
楼	-9683
横	-9684
樺	-9685
殿	-9686
毒	-9687
比	-9688
毫	-9689
池	-9690
沈	-9691
治	-9692
泰	-9693
洋	-9694
洞	-9695
派	-9696
浄	-9697
浅	-9698
浪	-9699
浮	-9700
液	-9701
淑	-9702
淡	-9703
済	-9704
渓	-9705
湘	-9706
滨	-9707
潭	-9708
灯	-9709
為	-9710
焉	-9711
無	-9712
熱	-9713
爱	-9714
牙	-9715
物	-9716
特	-9717
玉	-9718
球	-9719
理	-9720
琉	-9721
琛	-9722
瑜	-9723
生	-9724
産	-9725
用	-9726
由	-9727
疆	-9728
病	-9729
症	-9730
皮	-9731
盆	-9732
相	-9733
省	-9734
真	-9735
瞳	-9736
知	-9737
磁	-9738
示	-9739
祝	-9740
祿	-9741
禁	-9742
福	-9743
秋	-9744
科	-9745
秒	-9746
稚	-9747
稲	-9748
立	-9749
章	-9750
竹	-9751
筑	-9752
箱	-9753
節	-9754
篪	-9755
簾	-9756
籠	-9757
米	-9758
紀	-9759
経	-9760
統	-9761
維	-9762
網	-9763
縣	-9764
约	-9765
纪	-9766
纳	-9767
线	-9768
组	-9769
经	-9770
绿	-9771
网	-9772
罗	-9773
羊	-9774
美	-9775
耆	-9776
聚	-9777
股	-9778
育	-9779
胖	-9780
腺	-9781
膏	-9782
臣	-9783
船	-9784
良	-9785
苔	-9786
范	-9787
草	-9788
荷	-9789
莊	-9790
菠	-9791
菩	-9792
菱	-9793
营	-9794
萨	-9795
葛	-9796
葬	-9797
蒙	-9798
蒲	-9799
薩	-9800
薫	-9801
藤	-9802
蘇	-9803
蘭	-9804
蘿	-9805
蛛	-9806
蜇	-9807
蜘	-9808
血	-9809
行	-9810
裁	-9811
裂	-9812
製	-9813
角	-9814
話	-9815
読	-9816
調	-9817
謝	-9818
论	-9819
话	-9820
说	-9821
谱	-9822
谷	-9823
豊	-9824
財	-9825
财	-9826
赛	-9827
走	-9828
越	-9829
踊	-9830
身	-9831
运	-9832
迦	-9833
送	-9834
逆	-9835
逸	-9836
遊	-9837
遠	-9838
邏	-9839
邑	-9840
邮	-9841
郎	-9842
郑	-9843
鄂	-9844
鄰	-9845
里	-9846
釦	-9847
鈕	-9848
鈴	-9849
銀	-9850
銅	-9851
錢	-9852
鎮	-9853
钦	-9854
钱	-9855
铜	-9856
银	-9857
镇	-9858
長	-9859
长	-9860
門	-9861
開	-9862
間	-9863
閣	-9864
關	-9865
间	-9866
阎	-9867
陕	-9868
陰	-9869
陳	-9870
陽	-9871
隋	-9872
雄	-9873
集	-9874
雨	-9875
零	-9876
電	-9877
震	-9878
露	-9879
静	-9880
韩	-9881
韶	-9882
頁	-9883
順	-9884
顔	-9885
项	-9886
顺	-9887
食	-9888
館	-9889
馆	-9890
首	-9891
馬	-9892
駐	-9893
驻	-9894
骄	-9895
骑	-9896
魯	-9897
鮫	-9898
鲁	-9899
鳥	-9900
鳳	-9901
鸭	-9902
黃	-9903
黑	-9904
ꆈ	-9905
ꌠ	-9906
꫰	-9907
갓	-9908
개	-9909
계	-9910
공	-9911
과	-9912
관	-9913
광	-9914
국	-9915
김	-9916
동	-9917
록	-9918
리	-9919
만	-9920
멸	-9921
명	-9922
모	-9923
민	-9924
반	-9925
백	-9926
사	-9927
실	-9928
압	-9929
양	-9930
왕	-9931
원	-9932
은	-9933
의	-9934
일	-9935
장	-9936
절	-9937
정	-9938
제	-9939
차	-9940
찬	-9941
평	-9942
풀	-9943
풍	-9944
핵	-9945
행	-9946
험	-9947
현	-9948
화	-9949
휴	-9950
	-9951
	-9952
	-9953
	-9954
	-9955
	-9956
	-9957
	-9958
	-9959
	-9960
	-9961
	-9962
	-9963
	-9964
	-9965
	-9966
	-9967
	-9968
	-9969
	-9970
	-9971
	-9972
	-9973
	-9974
	-9975
	-9976
	-9977
	-9978
	-9979
	-9980
	-9981
	-9982
	-9983
￸	-9984
𐡃	-9985
𐡅	-9986
𐡌	-9987
𐡓	-9988
𐡕	-9989
𒂍	-9990
𒅍	-9991
𒅎	-9992
𒋼	-9993
🇱	-9994
🌰	-9995
🌵	-9996
