<unk>	0
<s>	0
</s>	0
▁क	-0
▁ह	-1
▁स	-2
▁है	-3
▁प	-4
्र	-5
▁म	-6
▁के	-7
ें	-8
▁ज	-9
ार	-10
्य	-11
▁अ	-12
▁ल	-13
▁ब	-14
या	-15
ता	-16
▁में	-17
▁व	-18
▁न	-19
▁ए	-20
ों	-21
िक	-22
र्	-23
▁औ	-24
▁द	-25
▁और	-26
▁र	-27
▁हैं	-28
▁को	-29
▁प्र	-30
▁कि	-31
▁कर	-32
ने	-33
▁की	-34
▁से	-35
क्	-36
▁त	-37
▁उ	-38
▁आ	-39
▁इ	-40
▁जा	-41
▁हो	-42
िए	-43
ना	-44
▁का	-45
ित	-46
▁य	-47
स्	-48
ते	-49
▁पर	-50
▁एक	-51
ान	-52
▁ग	-53
▁ट	-54
ाइ	-55
िन	-56
्स	-57
▁लिए	-58
िय	-59
▁स्	-60
▁भ	-61
▁श	-62
▁इस	-63
▁च	-64
▁यह	-65
▁सक	-66
ती	-67
ाल	-68
▁,	-69
्यू	-70
▁वि	-71
▁नि	-72
▁या	-73
से	-74
▁सं	-75
ोग	-76
्व	-77
▁उप	-78
्ल	-79
ाम	-80
▁किया	-81
के	-82
क्ष	-83
▁जो	-84
री	-85
ाय	-86
िल	-87
नी	-88
रे	-89
ति	-90
▁फ	-91
▁अध	-92
कार	-93
▁।	-94
मा	-95
ैं	-96
ही	-97
ेश	-98
▁आप	-99
▁तो	-100
िया	-101
▁अन	-102
▁जाता	-103
▁-	-104
▁कं	-105
्या	-106
▁भी	-107
▁ड	-108
▁कंप	-109
▁दे	-110
्ट	-111
में	-112
▁करने	-113
ले	-114
सी	-115
▁थ	-116
सर	-117
ोज	-118
ड़	-119
▁ट्र	-120
हीं	-121
▁कार	-122
ाह	-123
स्ट	-124
िं	-125
▁नहीं	-126
त्र	-127
ूप	-128
शन	-129
ारा	-130
टी	-131
ल्	-132
▁सम	-133
पी	-134
वा	-135
▁ले	-136
हा	-137
▁हम	-138
िस	-139
▁कंपनी	-140
टे	-141
म्	-142
ियों	-143
▁सा	-144
योग	-145
न्	-146
रण	-147
गा	-148
▁रूप	-149
ाग	-150
ैंसर	-151
ास	-152
▁बा	-153
▁सकता	-154
▁होता	-155
▁सकते	-156
▁(	-157
▁कैंसर	-158
ाव	-159
ीट	-160
क्षण	-161
▁अधिक	-162
ओं	-163
को	-164
▁द्व	-165
चार	-166
▁पह	-167
▁द्वारा	-168
ेरे	-169
गे	-170
ां	-171
क्र	-172
▁गया	-173
का	-174
▁परी	-175
▁देख	-176
▁कु	-177
▁उपयोग	-178
ेरेपी	-179
▁2	-180
हत	-181
▁1	-182
▁वाल	-183
▁साथ	-184
▁अनु	-185
ार्	-186
्त	-187
▁ख	-188
िव	-189
ाप	-190
धार	-191
िड	-192
ल्स	-193
ीन	-194
ाइड	-195
ियम	-196
हु	-197
च्	-198
▁होते	-199
▁परीक्षण	-200
्रो	-201
ला	-202
▁प्रकार	-203
▁कुछ	-204
ंध	-205
देश	-206
ुर	-207
मेंट	-208
▁लि	-209
▁ही	-210
▁वे	-211
्यूम	-212
िंग	-213
भी	-214
क्ट	-215
▁उपचार	-216
▁रे	-217
00	-218
्ष	-219
▁जिस	-220
कि	-221
▁कार्य	-222
िर	-223
▁अं	-224
▁दो	-225
▁निर्	-226
▁ट्यूम	-227
ारे	-228
ैसे	-229
▁करते	-230
▁विभ	-231
▁होती	-232
कों	-233
की	-234
▁पू	-235
ेन	-236
क्त	-237
▁बना	-238
▁अन्य	-239
▁सी	-240
सा	-241
▁स्थ	-242
ीटमेंट	-243
▁उन	-244
▁ट्रीटमेंट	-245
ली	-246
▁विश	-247
▁प्रो	-248
▁उस	-249
रह	-250
नल	-251
स्त	-252
फो	-253
▁करता	-254
ारी	-255
त्	-256
▁जब	-257
▁तक	-258
किन	-259
िकल	-260
▁अप	-261
ंड	-262
▁आव	-263
▁ट्यूमर	-264
▁सर	-265
ेय	-266
▁अब	-267
दि	-268
दान	-269
▁इन	-270
बंध	-271
जी	-272
▁क्या	-273
ढ़	-274
ेट	-275
▁वर्	-276
ल्ड	-277
्न	-278
खा	-279
▁स्टे	-280
लिए	-281
स्थ	-282
▁रा	-283
ष्ट	-284
▁चाह	-285
मो	-286
िस्ट	-287
▁थेरेपी	-288
ुल	-289
िश	-290
ेष	-291
्यों	-292
▁मा	-293
डी	-294
ूल	-295
ज़	-296
िका	-297
ोल	-298
▁छ	-299
तर	-300
द्	-301
▁ऐ	-302
र्स	-303
▁क्ल	-304
▁वाले	-305
ौर	-306
▁पहले	-307
▁करना	-308
▁शेय	-309
▁इसलिए	-310
▁किसी	-311
ेंट	-312
▁व्य	-313
▁दू	-314
▁ध	-315
च्च	-316
▁बी	-317
▁रह	-318
भाव	-319
▁कम	-320
▁बहु	-321
कारी	-322
▁प्रति	-323
ोजना	-324
्री	-325
▁एस	-326
▁बाद	-327
चना	-328
▁मु	-329
पो	-330
▁बारे	-331
ीक	-332
िनियम	-333
ाइट	-334
रा	-335
▁तरह	-336
र्ण	-337
वि	-338
क्स	-339
ैल	-340
ोम	-341
एं	-342
▁बहुत	-343
▁ने	-344
▁यदि	-345
▁साम	-346
टर	-347
▁जाती	-348
▁हु	-349
्यक	-350
▁ये	-351
▁सु	-352
▁रेड	-353
जन	-354
▁मैं	-355
ान्य	-356
▁होने	-357
▁घ	-358
▁बढ़	-359
▁जान	-360
▁रोग	-361
ेशन	-362
ॉल	-363
▁स्व	-364
▁ट्राय	-365
ष्	-366
चा	-367
पू	-368
ंद	-369
ेल	-370
▁सभी	-371
हें	-372
▁सेल्स	-373
िम	-374
▁लेकिन	-375
▁जैसे	-376
▁शाम	-377
▁आवश	-378
▁शामिल	-379
▁सब	-380
▁वह	-381
▁कहा	-382
▁पा	-383
ोन	-384
▁भाग	-385
▁विक	-386
▁आवश्यक	-387
▁स्ट	-388
र्त	-389
▁प्राप	-390
▁विशेष	-391
▁सकती	-392
▁था	-393
▁किए	-394
ेंगे	-395
ोस	-396
िस्	-397
▁पास	-398
क्रिया	-399
ध्य	-400
▁क्ष	-401
▁प्राप्त	-402
ुप	-403
▁जिन	-404
ंत्र	-405
ये	-406
▁अधिनियम	-407
यन	-408
▁अग	-409
र्म	-410
▁माम	-411
▁चाहिए	-412
लग	-413
ृत	-414
▁संर	-415
▁लिम्	-416
ाई	-417
▁गए	-418
▁शुर	-419
▁क्यों	-420
पूर्ण	-421
▁रहा	-422
ब्	-423
▁अव	-424
िन्न	-425
▁लिं	-426
▁कोश	-427
टीन	-428
▁स्प	-429
थेरेपी	-430
▁योजना	-431
▁क्लिन	-432
▁एन	-433
▁फिर	-434
▁सह	-435
▁आपको	-436
दा	-437
▁तहत	-438
▁दिया	-439
▁क्लिनिकल	-440
▁महत	-441
िट	-442
▁सर्	-443
▁निदेश	-444
▁कोई	-445
▁ऑ	-446
िएशन	-447
▁प्रक्रिया	-448
▁एसिड	-449
गी	-450
▁उन्	-451
▁महत्व	-452
▁परि	-453
▁ग्ल	-454
▁संरचना	-455
िख	-456
क्ति	-457
▁एं	-458
मिल	-459
क्षा	-460
फोमा	-461
▁बात	-462
▁इं	-463
▁शेयर	-464
ोड़	-465
▁राज	-466
ॉन	-467
▁उद	-468
ोड	-469
रीर	-470
▁ग्र	-471
मोथेरेपी	-472
▁रहे	-473
वल	-474
▁सेल	-475
ाइन	-476
▁इसे	-477
ज्	-478
▁ऊ	-479
▁होगा	-480
▁सरकार	-481
▁इसके	-482
▁शरीर	-483
िक्ष	-484
▁डी	-485
िग	-486
▁विभिन्न	-487
र्ड	-488
▁रेडिएशन	-489
ंच	-490
ध्यम	-491
▁मान	-492
▁शुरू	-493
▁ओ	-494
▁तमिल	-495
▁अपने	-496
▁कोशिका	-497
▁गई	-498
▁सामान्य	-499
▁पु	-500
▁माध्यम	-501
▁परीक्षणों	-502
▁महत्वपूर्ण	-503
▁:	-504
ेर	-505
▁आधार	-506
▁मूल	-507
▁संबंध	-508
ेस	-509
▁3	-510
ून	-511
▁निम्	-512
ालय	-513
▁प्रोटीन	-514
▁हिस्	-515
▁कॉ	-516
िप	-517
िकित	-518
िकित्स	-519
▁निय	-520
▁कीमोथेरेपी	-521
आई	-522
▁क्योंकि	-523
▁जिसमें	-524
▁ला	-525
01	-526
▁200	-527
ॉज	-528
हुड	-529
ाइल्ड	-530
▁वा	-531
्रेन	-532
द्ध	-533
िसे	-534
स्ता	-535
▁रख	-536
माण	-537
क्शन	-538
▁जहा	-539
ेत्र	-540
ाहरण	-541
मान	-542
िति	-543
▁करती	-544
▁बच्च	-545
▁सू	-546
ियो	-547
▁जाते	-548
ोर	-549
▁उदाहरण	-550
्‍	-551
▁क्षेत्र	-552
▁लिंफोमा	-553
▁कारण	-554
▁अलग	-555
▁चाइल्ड	-556
▁वर्ष	-557
▁जाए	-558
टेड	-559
िखित	-560
▁रक्त	-561
▁दूस	-562
▁दौर	-563
▁कई	-564
कर	-565
ोक	-566
नों	-567
िज	-568
च्छ	-569
▁पी	-570
▁बन	-571
▁लाग	-572
▁सबसे	-573
▁जानकारी	-574
ंब	-575
▁कंपन	-576
▁हाइड	-577
▁अधिकार	-578
साइट	-579
▁दौरान	-580
▁तीन	-581
▁समय	-582
नलिखित	-583
▁ठ	-584
ट्र	-585
▁चिकित्स	-586
▁निम्नलिखित	-587
ाँ	-588
▁प्रभाव	-589
▁दि	-590
▁प्रश	-591
▁जै	-592
▁आवश्यकता	-593
▁समझ	-594
▁प्रत	-595
▁बीच	-596
टा	-597
▁भार	-598
▁जिसे	-599
▁लगा	-600
धान	-601
िला	-602
क्रम	-603
डल	-604
▁क्र	-605
▁बै	-606
▁समा	-607
▁कैसे	-608
वर	-609
▁जी	-610
▁दी	-611
ची	-612
▁C	-613
▁केवल	-614
▁उन्हें	-615
ेड	-616
▁यहाँ	-617
▁बे	-618
▁परिव	-619
▁विभाग	-620
ांस	-621
मिया	-622
▁ल्यू	-623
िफ	-624
▁निदेशक	-625
ेक	-626
▁प्रदान	-627
ूम	-628
▁जाना	-629
▁अध्य	-630
▁अंत	-631
▁नियम	-632
कीय	-633
▁एंटी	-634
चित	-635
▁नए	-636
▁दिखा	-637
र्ट	-638
▁नाम	-639
धिक	-640
थवा	-641
▁हमने	-642
एस	-643
▁काम	-644
▁स्क	-645
ेंस	-646
▁5	-647
प्र	-648
▁पद	-649
▁बॉ	-650
▁अथवा	-651
गम	-652
▁पता	-653
स्ताव	-654
जू	-655
केमिया	-656
▁सिस्ट	-657
एल	-658
▁जाने	-659
▁सहाय	-660
▁कंपनियों	-661
▁201	-662
▁मामले	-663
डु	-664
धि	-665
▁न्यू	-666
▁वाली	-667
ेद	-668
▁चाइल्डहुड	-669
ेप	-670
▁ठीक	-671
▁करके	-672
▁जारी	-673
स्तव	-674
▁तरी	-675
▁ल्यूकेमिया	-676
▁ट्रायल	-677
▁वास्तव	-678
▁चिकित्सकीय	-679
▁.	-680
▁शिक्ष	-681
न्ड	-682
नाडु	-683
▁प्ल	-684
▁स्टेट	-685
▁जु	-686
ख्या	-687
▁अनुस	-688
▁अगर	-689
ेक्ट	-690
▁चु	-691
▁नोड	-692
ोल्ड	-693
▁I	-694
निक	-695
वी	-696
▁गु	-697
▁कोशिकाओं	-698
मक	-699
▁इसका	-700
▁मै	-701
▁चर्	-702
▁तमिलनाडु	-703
वस	-704
ेज	-705
▁आम	-706
▁करोड़	-707
र्थ	-708
ार्थ	-709
कोमा	-710
्रोम	-711
▁चर्चा	-712
ानी	-713
ोजन	-714
▁नी	-715
▁ट्रायल्स	-716
ंग	-717
▁ची	-718
पर	-719
्यूल	-720
▁मिल	-721
▁सिस्टम	-722
▁जांच	-723
▁पै	-724
द्य	-725
ष्क	-726
▁भूम	-727
▁फैल	-728
ड़ी	-729
▁आपके	-730
▁एक्स	-731
▁मद	-732
▁आगे	-733
▁रुप	-734
ोट	-735
▁कह	-736
पन	-737
▁4	-738
▁जैसा	-739
▁व्यक्ति	-740
▁करेंगे	-741
वेश	-742
▁बद	-743
ब्ल	-744
▁अच्छ	-745
तीय	-746
ाइल	-747
स्था	-748
▁करें	-749
ल्प	-750
▁होना	-751
▁देखें	-752
मी	-753
▁संख्या	-754
▁ओर	-755
▁फै	-756
ंट	-757
ुग	-758
ज्ञ	-759
▁ब्ल	-760
आर	-761
▁ऐसे	-762
▁अध्ययन	-763
ोध	-764
▁लग	-765
▁ऐसा	-766
▁बनाने	-767
▁ट्रांस	-768
▁बेहत	-769
ंजी	-770
रेट	-771
▁सि	-772
बी	-773
ख्य	-774
जरी	-775
▁उपल	-776
करण	-777
▁सार	-778
▁बॉन्ड	-779
जा	-780
मिक	-781
▁अस	-782
▁19	-783
▁उपलब्	-784
▁ब्रेन	-785
▁टिश	-786
▁राज्य	-787
्रा	-788
▁ता	-789
▁धारा	-790
▁जाएगा	-791
▁बेहतर	-792
▁स्थिति	-793
▁टे	-794
▁चार	-795
▁उसके	-796
▁उपलब्ध	-797
▁हुआ	-798
▁उनके	-799
▁कार्	-800
▁व्या	-801
▁परिवर्त	-802
▁पेश	-803
▁लिम्फ	-804
▁अम	-805
▁विष	-806
▁बाय	-807
▁वित	-808
▁आय	-809
▁बदल	-810
▁दूसरे	-811
सरा	-812
ास्ट	-813
इड	-814
विध	-815
एन	-816
्रह	-817
ुक्त	-818
▁विकास	-819
▁बढ़ा	-820
र्श	-821
▁सड़	-822
▁बच्चों	-823
▁थी	-824
▁संबंधित	-825
▁एल	-826
▁मदद	-827
ॉजकिन	-828
▁विषय	-829
▁रुपये	-830
रहोल्ड	-831
▁शेयरहोल्ड	-832
ड़े	-833
▁उच्च	-834
▁पदार्थ	-835
▁A	-836
▁मे	-837
▁हुए	-838
▁ऋ	-839
▁पुन	-840
▁बार	-841
चे	-842
ैट	-843
्ड	-844
ाष	-845
▁सद	-846
▁भारत	-847
म्ब	-848
त्मक	-849
▁ऋण	-850
▁छो	-851
▁गति	-852
▁लंब	-853
▁इसमें	-854
पा	-855
▁हू	-856
▁प्राव	-857
र्ग	-858
▁मौ	-859
▁सदस	-860
▁उद्	-861
▁चरण	-862
▁प्रस्ताव	-863
प्ल	-864
▁मॉ	-865
ंद्र	-866
▁सर्जरी	-867
▁प्रत्य	-868
▁बैठ	-869
▁रु	-870
▁स्टेज	-871
चर	-872
न्न	-873
▁पार	-874
भव	-875
▁निर्धार	-876
लाज	-877
▁अभ	-878
लों	-879
त्रा	-880
▁उत्	-881
ाइम	-882
▁बाह	-883
▁गै	-884
▁टी	-885
▁रोक	-886
▁सेवा	-887
ूत	-888
▁लाभ	-889
▁रोगियों	-890
ँच	-891
तों	-892
वरण	-893
स्ति	-894
पिड	-895
▁निर्माण	-896
▁स्टेम	-897
▁लेने	-898
▁उद्देश	-899
ोप	-900
▁निक	-901
ीय	-902
िना	-903
▁इम	-904
▁हों	-905
स्तिष्क	-906
▁उसे	-907
▁मत	-908
ॉलिक	-909
▁इसी	-910
▁मुख्य	-911
▁इलाज	-912
▁प्रावधान	-913
▁बता	-914
▁कार्ब	-915
ूक	-916
▁N	-917
क्टर	-918
▁देखते	-919
▁लागू	-920
▁जहां	-921
▁जिन्	-922
▁लिम्फो	-923
▁हाइड्र	-924
▁प्रा	-925
▁सार्व	-926
ुख	-927
रिक	-928
्यूट	-929
▁नियंत्र	-930
था	-931
फी	-932
ैन	-933
जनिक	-934
क्ल	-935
ड़ा	-936
ोमा	-937
▁छा	-938
▁रोगी	-939
▁ड्र	-940
▁लिया	-941
▁सार्वजनिक	-942
एम	-943
डल्ट	-944
▁दोनों	-945
▁सहायता	-946
ार्ग	-947
▁लिपिड	-948
ाज	-949
▁कान	-950
▁सूची	-951
▁स्कूल	-952
▁प्रबंध	-953
ाली	-954
वसाय	-955
्रीय	-956
कर्	-957
▁टू	-958
▁प्रतिभ	-959
▁मौजू	-960
▁वन	-961
प्	-962
▁गुण	-963
▁देखा	-964
▁खोज	-965
▁नॉन	-966
▁पि	-967
ेंट्स	-968
▁मस्तिष्क	-969
हों	-970
▁सरकारी	-971
▁परिण	-972
र्व	-973
▁न्या	-974
तम	-975
िब	-976
▁2009	-977
▁परिणाम	-978
ठन	-979
▁वैल	-980
▁कॉर्	-981
▁एंटीब	-982
पोरेट	-983
ाला	-984
▁दवा	-985
▁अल्	-986
▁न्याया	-987
▁अर्थ	-988
ाइनल	-989
क्‍	-990
ीटा	-991
▁ती	-992
▁अंतर	-993
▁हमारे	-994
▁निर्धारित	-995
▁रही	-996
▁मॉलिक	-997
▁पॉ	-998
रूप	-999
स्प	-1000
▁प्रत्येक	-1001
र्क	-1002
▁दु	-1003
▁हे	-1004
▁इन्	-1005
▁बीटा	-1006
बल	-1007
नेट	-1008
▁अधिग	-1009
▁आस	-1010
▁पहु	-1011
▁मैंने	-1012
▁संभाव	-1013
▁देने	-1014
ार्कोमा	-1015
:-	-1016
ॉडी	-1017
▁मामलों	-1018
▁B	-1019
▁ब्लड	-1020
▁स्थान	-1021
▁?	-1022
ेगा	-1023
▁एम	-1024
▁जहाँ	-1025
▁ड्रग	-1026
▁एंटीबॉडी	-1027
▁प्रभावित	-1028
ूर	-1029
र्न	-1030
▁जन	-1031
िष्ट	-1032
▁6	-1033
▁बो	-1034
ंश	-1035
क्सी	-1036
▁श्र	-1037
▁हटा	-1038
▁जल	-1039
▁नै	-1040
▁हर	-1041
▁कॉर्पोरेट	-1042
▁सुधार	-1043
▁मात्रा	-1044
्रहण	-1045
▁हेल	-1046
▁शेयरों	-1047
▁ऊत	-1048
▁फॉ	-1049
▁रि	-1050
▁बैठक	-1051
▁वैल्यू	-1052
मुख	-1053
▁आर	-1054
▁भूमि	-1055
पाद	-1056
िटी	-1057
▁चीज	-1058
▁लागत	-1059
फा	-1060
▁उत	-1061
दी	-1062
▁प्रयोग	-1063
▁हाइड्रो	-1064
ुक	-1065
ालन	-1066
▁शेयरहोल्डर	-1067
▁तुल	-1068
▁माइ	-1069
▁दूसरा	-1070
▁लगाने	-1071
▁अधिग्रहण	-1072
▁प्रशास	-1073
पोर्ट	-1074
▁पुस्त	-1075
▁उद्देश्य	-1076
ित्व	-1077
▁छात्र	-1078
▁घट	-1079
▁बीम	-1080
लेक्ट	-1081
▁तुलना	-1082
▁निदान	-1083
▁देता	-1084
▁अनुसार	-1085
▁स्पष्ट	-1086
▁तब	-1087
▁लक्षण	-1088
▁शिक्षा	-1089
▁विशिष्ट	-1090
लब	-1091
▁चल	-1092
▁नीचे	-1093
▁बाहर	-1094
▁बिना	-1095
▁विवरण	-1096
कृत	-1097
▁इंटर	-1098
म्प	-1099
▁निवेश	-1100
ल्ल	-1101
ाइस	-1102
▁नम	-1103
ोब	-1104
▁पिछ	-1105
शि	-1106
▁ऐसी	-1107
▁मानक	-1108
▁तरीके	-1109
▁बच्चे	-1110
सों	-1111
▁वर्ग	-1112
▁विस्त	-1113
▁प्रमुख	-1114
तान	-1115
्यु	-1116
▁एप	-1117
▁ली	-1118
▁कभी	-1119
▁लोग	-1120
भग	-1121
ूव	-1122
ेंड	-1123
त्ति	-1124
▁संभव	-1125
▁समान	-1126
▁आधारित	-1127
▁वेब	-1128
दानिक	-1129
▁मतलब	-1130
▁संके	-1131
▁संग	-1132
▁पूरी	-1133
▁लगभग	-1134
▁वाला	-1135
▁केंद्र	-1136
▁/	-1137
काई	-1138
तौर	-1139
ंतर	-1140
ेंशन	-1141
▁बंद	-1142
ाइड्स	-1143
▁निगम	-1144
▁जिसका	-1145
▁नैदानिक	-1146
णा	-1147
्चित	-1148
▁सुर	-1149
▁जबकि	-1150
▁विकल्प	-1151
▁अला	-1152
▁सिं	-1153
स्ट्र	-1154
▁आमतौर	-1155
▁ग्रुप	-1156
ताओं	-1157
▁अंग	-1158
▁हमें	-1159
▁परिवर्तन	-1160
सित	-1161
▁चाल	-1162
धिकरण	-1163
ैय	-1164
▁आई	-1165
▁सौ	-1166
ियोजना	-1167
▁स्थाप	-1168
िनो	-1169
▁बोर्ड	-1170
▁स्ट्र	-1171
▁परियोजना	-1172
चान	-1173
ूकोज	-1174
▁पुल	-1175
▁नोड्स	-1176
ील	-1177
वाद	-1178
स्या	-1179
▁समस्या	-1180
▁ग्लूकोज	-1181
▁जिल	-1182
▁प्रव	-1183
दार	-1184
▁बैं	-1185
▁कार्यों	-1186
ुगतान	-1187
ताह	-1188
ुओं	-1189
▁अपनी	-1190
▁अच्छा	-1191
▁पहचान	-1192
▁सॉ	-1193
▁हड	-1194
▁दिव	-1195
प्ताह	-1196
▁सड़क	-1197
▁अलावा	-1198
▁दूसरी	-1199
▁हिस्सा	-1200
ुत	-1201
प्त	-1202
▁II	-1203
▁डॉ	-1204
भर	-1205
000	-1206
सेस	-1207
्तीय	-1208
ंक्शन	-1209
▁पूरा	-1210
ियल	-1211
ोजित	-1212
▁फैटी	-1213
▁वित्तीय	-1214
रो	-1215
िक्स	-1216
▁लेखा	-1217
ंक	-1218
▁लाख	-1219
▁यहां	-1220
▁कानून	-1221
▁विद्य	-1222
▁निर्भर	-1223
रल	-1224
▁वाप	-1225
▁जिसके	-1226
▁हाइड्रोजन	-1227
म्स	-1228
▁समू	-1229
्यूटर	-1230
▁इकाई	-1231
▁7	-1232
ोस्	-1233
्यून	-1234
▁शब्	-1235
क्षित	-1236
▁भुगतान	-1237
खिम	-1238
र्जा	-1239
ूतियों	-1240
‍स	-1241
फ्ट	-1242
▁थे	-1243
▁कुल	-1244
▁होगी	-1245
▁सप्ताह	-1246
-1	-1247
ाइप	-1248
िये	-1249
▁वै	-1250
▁सही	-1251
▁हाल	-1252
▁आदेश	-1253
▁होंगे	-1254
▁प्रतिभूतियों	-1255
णाली	-1256
▁कोले	-1257
▁वर्त	-1258
▁संभावना	-1259
▁T	-1260
ोग्रा	-1261
▁सेंट	-1262
▁जोखिम	-1263
▁वर्तमान	-1264
ाषा	-1265
▁कौ	-1266
▁कित	-1267
▁तैय	-1268
▁योग	-1269
ार्गे	-1270
▁इलेक्ट	-1271
▁प्रबंधन	-1272
▁प्रशिक्ष	-1273
▁10	-1274
▁राशि	-1275
▁शब्द	-1276
ाइब	-1277
▁दिए	-1278
▁जिन्हें	-1279
लय	-1280
▁एव	-1281
▁एनसी	-1282
▁छोटे	-1283
▁पेशेंट्स	-1284
▁D	-1285
▁टिशू	-1286
▁प्रका	-1287
▁वेबसाइट	-1288
ायर	-1289
▁आइ	-1290
▁किस	-1291
▁कर्म	-1292
ोष	-1293
▁अण	-1294
▁सत	-1295
पत्र	-1296
▁लेन	-1297
▁वापस	-1298
पु	-1299
▁माइक्र	-1300
ंख	-1301
क्षक	-1302
▁हूँ	-1303
▁हिस्सों	-1304
्सी	-1305
ित्र	-1306
होंने	-1307
▁जिला	-1308
▁एडल्ट	-1309
▁व्यवसाय	-1310
▁कार्यक्रम	-1311
ट्स	-1312
र्ती	-1313
ीकृत	-1314
ेप्ट	-1315
▁माय	-1316
▁हुई	-1317
तंत्र	-1318
▁व्याप	-1319
▁हिस्से	-1320
वन	-1321
▁मह	-1322
▁पूँ	-1323
▁मोन	-1324
विधा	-1325
▁नमू	-1326
▁ऊर्जा	-1327
▁व्यक्त	-1328
▁क्षेत्रों	-1329
▁खु	-1330
▁मौजूद	-1331
ब्लास्ट	-1332
▁रिक	-1333
▁संश	-1334
कोप	-1335
ुलर	-1336
▁बनाए	-1337
▁पेंशन	-1338
शील	-1339
▁साल	-1340
▁पूँजी	-1341
▁सुविधा	-1342
▁मॉलिक्यूल	-1343
▁कै	-1344
▁एवं	-1345
▁कहते	-1346
▁एसिड्स	-1347
▁छात्रों	-1348
▁कंप्यूटर	-1349
फ़	-1350
मति	-1351
ृति	-1352
▁पाठ	-1353
▁सम्	-1354
▁उल्ल	-1355
▁एंड	-1356
▁ब्र	-1357
▁दर्श	-1358
▁पूंजी	-1359
▁फंक्शन	-1360
▁चे	-1361
हॉजकिन	-1362
ष्ट्रीय	-1363
यर	-1364
ियां	-1365
▁पॉली	-1366
▁भीतर	-1367
▁जिससे	-1368
▁निर्गम	-1369
्डी	-1370
ाजित	-1371
▁जीन	-1372
▁स्वा	-1373
▁निर्ण	-1374
▁हड्डी	-1375
▁आयोजित	-1376
▁तौर	-1377
▁प्रणाली	-1378
▁ट्यूमर्स	-1379
▁स्वतंत्र	-1380
फे	-1381
वे	-1382
रीद	-1383
▁मश	-1384
नेटिक	-1385
▁देते	-1386
▁परिभ	-1387
▁पहला	-1388
▁निरूप	-1389
▁संप	-1390
▁हाई	-1391
▁सर्च	-1392
▁टार्गे	-1393
▁कर्मचार	-1394
▁'	-1395
▁री	-1396
िक्र	-1397
▁बोन	-1398
▁पंजी	-1399
▁तैयार	-1400
▁सदस्य	-1401
▁डॉक्टर	-1402
▁सार्कोमा	-1403
▁चौ	-1404
▁आदि	-1405
▁रोकने	-1406
▁कार्बन	-1407
ेदन	-1408
ालयों	-1409
स्ट्रो	-1410
एँ	-1411
दम	-1412
क्षम	-1413
▁खा	-1414
▁संय	-1415
ज्ञान	-1416
▁जोड़	-1417
▁संस्थ	-1418
)।	-1419
ंत	-1420
ीटर	-1421
्राम	-1422
▁अति	-1423
▁मशीन	-1424
▁दर्शा	-1425
▁इम्यून	-1426
▁क्रिया	-1427
▁स्ट्रक्	-1428
बद्ध	-1429
शाला	-1430
▁डाय	-1431
▁अमिनो	-1432
▁कक्षा	-1433
▁स्पाइनल	-1434
गर	-1435
बर	-1436
ॉय	-1437
्यान	-1438
▁तकनी	-1439
▁मार्ग	-1440
▁निर्णय	-1441
▁एट	-1442
▁क्रोम	-1443
▁जानते	-1444
▁लंबाई	-1445
ोग्राफी	-1446
▁विभाजित	-1447
▁न्यायाधिकरण	-1448
दर	-1449
नु	-1450
ंडल	-1451
ांच	-1452
▁कौन	-1453
▁रखा	-1454
▁रिम	-1455
▁ऑक्सी	-1456
▁सॉफ्ट	-1457
▁पदार्थों	-1458
▁लिम्फोसाइट	-1459
ोमेन	-1460
▁दिन	-1461
▁2013	-1462
▁हॉजकिन	-1463
▁रिपोर्ट	-1464
▁चित्र	-1465
▁नियंत्रण	-1466
▁सोल	-1467
▁व्यव	-1468
▁करेगा	-1469
▁0	-1470
ोप्सी	-1471
▁सीमा	-1472
▁प्रशिक्षण	-1473
▁अवधि	-1474
▁एक्ट	-1475
▁पुस्तक	-1476
▁प्रवर्त	-1477
दर्	-1478
्तर	-1479
▁यू	-1480
कोस	-1481
▁फ़	-1482
▁मही	-1483
▁मॉड	-1484
▁किये	-1485
▁स्तर	-1486
▁सूचना	-1487
ण्ड	-1488
▁माइन	-1489
▁ध्यान	-1490
▁पाठ्य	-1491
▁रिमूव	-1492
▁8	-1493
ांश	-1494
ेजी	-1495
▁बु	-1496
▁यही	-1497
्यादा	-1498
▁निरूपण	-1499
रों	-1500
▁अभी	-1501
▁पहली	-1502
▁सदस्यों	-1503
▁स्कूलों	-1504
जार	-1505
मित	-1506
▁अत	-1507
कैंसर	-1508
▁इससे	-1509
▁उनकी	-1510
▁ताकि	-1511
▁भारतीय	-1512
केर	-1513
ांट	-1514
न्नई	-1515
ीकरण	-1516
▁2010	-1517
▁लोगों	-1518
▁ऊतक	-1519
▁त्व	-1520
▁स्टै	-1521
▁निकाल	-1522
▁समिति	-1523
▁अतिरिक	-1524
▁उत्पाद	-1525
▁प्रकाश	-1526
▁प्रमाण	-1527
धे	-1528
न्ट	-1529
▁पत्र	-1530
▁सहायक	-1531
▁विकसित	-1532
▁मॉड्यूल	-1533
▁क्षम	-1534
▁विश्व	-1535
▁स्थिर	-1536
▁अतिरिक्त	-1537
▁बायोप्सी	-1538
-2	-1539
ेख	-1540
ॉयड	-1541
▁आकार	-1542
▁टेस्ट	-1543
▁एनसीआई	-1544
▁राष्ट्रीय	-1545
ग्	-1546
कभी	-1547
▁डि	-1548
▁सो	-1549
,000	-1550
▁पूरे	-1551
▁स्थित	-1552
▁भूमिका	-1553
▁प्रयोगशाला	-1554
▁9	-1555
क्व	-1556
ेरो	-1557
र्गत	-1558
▁इंज	-1559
▁समापन	-1560
▁ई	-1561
▁ढ	-1562
▁सल	-1563
ून्य	-1564
ोग्ल	-1565
▁संच	-1566
▁लेते	-1567
▁दिवाल	-1568
▁प्रोग	-1569
▁मूल्य	-1570
▁एक्यूट	-1571
▁मं	-1572
▁पुर	-1573
कर्ता	-1574
▁ग्लाइ	-1575
▁सक्षम	-1576
▁लिपिड्स	-1577
हरा	-1578
ांत	-1579
थमिक	-1580
ियाँ	-1581
▁कारक	-1582
▁जाँच	-1583
▁पूर्व	-1584
▁अनुमति	-1585
▁परीक्षा	-1586
नि	-1587
स्क	-1588
▁कृ	-1589
्यूर	-1590
▁शून्य	-1591
िक्रिया	-1592
▁चेन्नई	-1593
ात	-1594
िथ	-1595
▁स्‍	-1596
▁विधि	-1597
▁संशोध	-1598
▁ड्रग्स	-1599
▁दिवालिया	-1600
तिम	-1601
व्य	-1602
▁15	-1603
▁बनाता	-1604
▁दिखाया	-1605
▁नियुक्त	-1606
▁प्राथमिक	-1607
▁शु	-1608
हाइड	-1609
्रॉन	-1610
▁ऊपर	-1611
▁तथा	-1612
▁डोमेन	-1613
▁देखने	-1614
▁भागों	-1615
▁स्पेस	-1616
▁टिश्यू	-1617
▁वर्षों	-1618
एच	-1619
दे	-1620
र्ष	-1621
िशन	-1622
▁एना	-1623
▁बैंक	-1624
▁मंजू	-1625
▁टार्गेटेड	-1626
्ञ	-1627
एंगे	-1628
ोलॉज	-1629
▁गैर	-1630
▁ज्ञ	-1631
▁लिख	-1632
▁सरल	-1633
▁पाया	-1634
▁मॉडल	-1635
▁रखने	-1636
▁अल्फा	-1637
▁त्वचा	-1638
▁पिछले	-1639
▁संकेत	-1640
▁क्षमता	-1641
▁प्रवेश	-1642
▁:-	-1643
▁उसी	-1644
▁बंध	-1645
▁लेख	-1646
▁सुन	-1647
▁मंडल	-1648
वाई	-1649
ैंड	-1650
▁सीख	-1651
▁निजी	-1652
▁समूह	-1653
▁अवस्था	-1654
▁परीक्षक	-1655
▁प्रभावी	-1656
मत	-1657
ाउ	-1658
भाग	-1659
र्च	-1660
्‍स	-1661
▁सके	-1662
▁हूं	-1663
▁इसकी	-1664
▁अंतिम	-1665
▁ज्यादा	-1666
▁बीमारी	-1667
एफ	-1668
झे	-1669
शत	-1670
पास	-1671
ल्ट	-1672
▁यून	-1673
▁स्कैन	-1674
▁गतिविध	-1675
▁अंतर्गत	-1676
▁दिवालियापन	-1677
गत	-1678
रग	-1679
हिब	-1680
िनल	-1681
▁डाल	-1682
▁फ्ल	-1683
▁स्वी	-1684
▁जिनका	-1685
▁दिखाई	-1686
▁प्रतिशत	-1687
▁विशेषज्ञ	-1688
▁माइक्रोस्	-1689
दु	-1690
त्ता	-1691
▁आइए	-1692
ियोमा	-1693
▁फॉस्	-1694
▁नियमों	-1695
▁स्वीकार	-1696
▁स्ट्रक्चर	-1697
▁G	-1698
ायी	-1699
ुक्ति	-1700
▁विचार	-1701
▁कोलेस्ट्र	-1702
ग्र	-1703
सेल	-1704
िने	-1705
▁गण	-1706
न्‍स	-1707
▁नष्ट	-1708
▁नमूने	-1709
▁सड़कों	-1710
ग्न	-1711
त्व	-1712
ंधान	-1713
▁किन	-1714
▁खिला	-1715
▁मुझे	-1716
▁वर्ण	-1717
▁उल्लेख	-1718
▁कोशिकाएं	-1719
▁कोलेस्ट्रॉल	-1720
▁सच	-1721
▁कोड	-1722
▁गठन	-1723
▁चुके	-1724
▁चाहते	-1725
▁पूर्ण	-1726
ेप्टाइड	-1727
▁अनुसंधान	-1728
माल	-1729
▁एड	-1730
▁दस	-1731
▁ना	-1732
प्लांट	-1733
नीय	-1734
▁एफ	-1735
्लेष	-1736
▁दिश	-1737
▁वहा	-1738
ब्रेन	-1739
स्थ्य	-1740
▁थोड़	-1741
▁अधिकारियों	-1742
ॉक	-1743
िरु	-1744
रगाह	-1745
▁खंड	-1746
▁चेन	-1747
▁निश	-1748
▁अच्छी	-1749
▁स्वास्थ्य	-1750
फोब	-1751
ाइमरी	-1752
▁किमी	-1753
ण्डर्ड	-1754
रु	-1755
िवार	-1756
▁साइन	-1757
▁इन्हें	-1758
▁बंदरगाह	-1759
▁स्टैण्डर्ड	-1760
ंशिक	-1761
िश्र	-1762
▁शुग	-1763
ड्रोम	-1764
▁अंदर	-1765
▁बॉन्ड्स	-1766
▁निदेशकों	-1767
▁नियुक्ति	-1768
▁माइक्रोस्कोप	-1769
र्ति	-1770
▁सीधे	-1771
धारकों	-1772
▁विस्तार	-1773
▁सिंड्रोम	-1774
CI	-1775
मल	-1776
सू	-1777
हार	-1778
िता	-1779
▁तीस	-1780
▁अपना	-1781
▁आपने	-1782
▁निष्	-1783
▁भाषा	-1784
▁माइनस	-1785
्शन	-1786
▁अणु	-1787
▁नया	-1788
▁माप	-1789
▁लोक	-1790
▁शीट	-1791
▁माइल	-1792
▁विनियम	-1793
▁इलेक्ट्रॉन	-1794
▁हाइड्रोफोब	-1795
▁छह	-1796
▁शह	-1797
एमएल	-1798
▁अक्	-1799
ामान्य	-1800
▁बनाते	-1801
▁देखेंगे	-1802
▁प्राइमरी	-1803
▁ट्रांसप्लांट	-1804
्रिय	-1805
▁आयन	-1806
▁इस्	-1807
▁एंज	-1808
▁खरीद	-1809
▁जिले	-1810
▁अक्सर	-1811
▁पर्या	-1812
▁बढ़ने	-1813
▁प्रस्त	-1814
▁समाप्त	-1815
▁व्यक्तियों	-1816
ंभ	-1817
ट्ट	-1818
ॉइड	-1819
▁आने	-1820
▁नर्	-1821
▁रेज़	-1822
▁उत्तर	-1823
▁जाएगी	-1824
▁प्लेट	-1825
▁दस्ताव	-1826
▁पाठ्यक्रम	-1827
),	-1828
ंस	-1829
स्व	-1830
ोबिन	-1831
▁एल्	-1832
▁माना	-1833
ेनेटिक	-1834
स्ट्रोसाइट	-1835
िओ	-1836
्रल	-1837
▁12	-1838
▁इत	-1839
▁इफ	-1840
▁शा	-1841
ांकि	-1842
▁हित	-1843
▁स्क्र	-1844
▁रेडियो	-1845
▁सुरक्षा	-1846
ंबर	-1847
अलग	-1848
एनए	-1849
गोर	-1850
▁14	-1851
▁धन	-1852
▁जुड़	-1853
▁अधिकारी	-1854
▁कर्मचारियों	-1855
ठा	-1856
▁M	-1857
-10	-1858
्‍ल	-1859
▁NCI	-1860
▁चुन	-1861
▁नामक	-1862
▁लक्ष	-1863
▁लिये	-1864
▁दवाओं	-1865
▁शक्ति	-1866
▁अनुमान	-1867
▁सक्रिय	-1868
ोग्लोबिन	-1869
▁प्रशासन	-1870
▁विज्ञान	-1871
▁स्थापित	-1872
ार्ज	-1873
ोसिन	-1874
ाइसिन	-1875
▁मंजूरी	-1876
▁हालांकि	-1877
ूं	-1878
रीज	-1879
र्ज	-1880
ेज़	-1881
मार्ग	-1882
स्थित	-1883
▁इफेक्ट	-1884
▁ऑक्सीजन	-1885
फल	-1886
िटर	-1887
ेटा	-1888
▁देश	-1889
▁थ्री	-1890
▁तंत्र	-1891
▁समझने	-1892
▁तरीकों	-1893
कल	-1894
▁जग	-1895
ानों	-1896
ाषित	-1897
▁पेट	-1898
▁पोल	-1899
▁रीढ़	-1900
▁वार्	-1901
ओवर	-1902
▁नई	-1903
प्रो	-1904
स्वी	-1905
▁घटक	-1906
▁आवेदन	-1907
▁उनमें	-1908
▁प्रस्तुत	-1909
रोध	-1910
▁एच	-1911
▁कथ	-1912
▁तय	-1913
▁दृ	-1914
पोर्	-1915
▁पाँच	-1916
▁प्रक	-1917
▁नर्वस	-1918
▁पुनर्	-1919
▁निश्चित	-1920
▁परिभाषित	-1921
्क	-1922
सार	-1923
▁हल	-1924
पन्न	-1925
ट्रिक	-1926
▁कार्र	-1927
▁एक्टिन	-1928
▁एल्गोर	-1929
▁नियंत्रित	-1930
गल	-1931
खंड	-1932
षिक	-1933
▁जर	-1934
िप्ट	-1935
▁घोष	-1936
▁डिज	-1937
▁सोच	-1938
▁पांच	-1939
▁पहुंच	-1940
केराइड्स	-1941
▁वार्षिक	-1942
▁कार्रवाई	-1943
िम्	-1944
▁11	-1945
▁दश	-1946
ाइंड	-1947
▁नेट	-1948
▁बिं	-1949
▁लीवर	-1950
▁जुड़े	-1951
▁बाजार	-1952
▁क्रोमैट	-1953
▁एस्ट्रोसाइट	-1954
सं	-1955
▁H	-1956
ल्क	-1957
ापन	-1958
ोज़	-1959
▁वृ	-1960
ारों	-1961
▁होनी	-1962
िश्चित	-1963
▁उपचारों	-1964
▁हाइड्रोफोबिक	-1965
मोन	-1966
लेट	-1967
ाना	-1968
्यूज	-1969
▁आते	-1970
▁ताप	-1971
▁शर्त	-1972
▁इनहिब	-1973
▁बढ़ाने	-1974
▁2009-10	-1975
जर	-1976
▁50	-1977
▁एक्	-1978
▁साझ	-1979
ष्प्र	-1980
▁हस्ता	-1981
▁दुष्प्र	-1982
▁लिम्फोमा	-1983
▁प्रशासनिक	-1984
ियोस	-1985
▁पड़	-1986
▁फ्र	-1987
▁रंग	-1988
्यूरिस्ट	-1989
▁दुष्प्रभाव	-1990
▁प्रावधानों	-1991
परी	-1992
र्फ	-1993
सान	-1994
ायद	-1995
्यूशन	-1996
▁कर्त	-1997
▁दिशा	-1998
▁देती	-1999
▁निरी	-2000
▁इंटरै	-2001
▁योग्य	-2002
▁सिद्ध	-2003
▁अनुभाग	-2004
▁कार्बो	-2005
▁कार्यालय	-2006
▁राजमार्ग	-2007
▁आठ	-2008
पोसी	-2009
िसिस	-2010
▁अमीन	-2011
▁समझौ	-2012
िवार्य	-2013
▁तीसरा	-2014
▁प्रार	-2015
▁सुनिश्चित	-2016
▁ह्यूरिस्ट	-2017
्‍य	-2018
तेमाल	-2019
▁आयोग	-2020
▁साइट	-2021
▁डीएनए	-2022
▁डायग्न	-2023
▁हेलिक्स	-2024
ेण	-2025
▁मो	-2026
ोजेन	-2027
▁नुक	-2028
▁विदेश	-2029
▁जिनमें	-2030
▁प्रोब्ल	-2031
▁प्रोसेस	-2032
▁अनिवार्य	-2033
▁परिणामों	-2034
▁माध्यमिक	-2035
तः	-2036
ूट	-2037
▁X	-2038
दर्श	-2039
▁पढ़	-2040
▁शुरु	-2041
▁बदलाव	-2042
▁नुकसान	-2043
▁न्यूक्ल	-2044
▁विस्तृत	-2045
ाथ	-2046
ष्य	-2047
साथ	-2048
निया	-2049
▁III	-2050
▁साइ	-2051
धारणा	-2052
▁उनका	-2053
▁काफी	-2054
▁छोड़	-2055
▁दुर्	-2056
▁फाइब	-2057
▁बनता	-2058
▁राजस्व	-2059
▁लक्ष्य	-2060
भा	-2061
काल	-2062
पुट	-2063
रेशन	-2064
▁जीव	-2065
ीनिकल	-2066
्लेषण	-2067
▁मोनो	-2068
▁श्रेण	-2069
▁अभिक्रिया	-2070
▁लिम्फोसाइट्स	-2071
तन	-2072
वास	-2073
ष्ठ	-2074
ियोट	-2075
▁पहल	-2076
▁रिस	-2077
▁विलय	-2078
▁अमीनो	-2079
▁एकत्र	-2080
▁यूनिट	-2081
ज्ड	-2082
नतम	-2083
वाब	-2084
िटेड	-2085
▁किल	-2086
क्सिल	-2087
जिस्ट	-2088
▁क्रम	-2089
▁जनता	-2090
▁डेटा	-2091
▁तिरु	-2092
▁मेरो	-2093
▁शायद	-2094
▁सब्स	-2095
▁सारा	-2096
▁हेमा	-2097
▁एंटीजन	-2098
▁क्लीनिकल	-2099
▁निदेशालय	-2100
▁सूचीबद्ध	-2101
▁प्रोग्राम	-2102
in	-2103
चु	-2104
बड	-2105
▁L	-2106
▁30	-2107
िपिड	-2108
ैक्ट	-2109
▁याद	-2110
▁सतह	-2111
ूर्ति	-2112
▁आवेश	-2113
▁मुद्	-2114
▁उपकरण	-2115
▁जिनके	-2116
▁परमाण	-2117
▁न्यूनतम	-2118
▁योजनाओं	-2119
▁स्थापना	-2120
ंज	-2121
ंचा	-2122
ांग	-2123
▁डे	-2124
▁दूर	-2125
▁टाइप	-2126
▁लेना	-2127
▁आप्शन	-2128
▁कोर्ड	-2129
▁ग्राम	-2130
▁बिंदु	-2131
▁डिजाइन	-2132
▁विदेशी	-2133
▁समाधान	-2134
ब्लास्टिक	-2135
▁जिन्होंने	-2136
▁प्रक्रियाओं	-2137
ियर	-2138
▁ज़	-2139
▁गां	-2140
▁बैक	-2141
▁भेज	-2142
▁जैसी	-2143
▁चारों	-2144
▁मौजूदा	-2145
▁सारांश	-2146
▁एल्गोरि	-2147
▁सुरक्षित	-2148
▁ह्यूरिस्टिक	-2149
उट	-2150
यं	-2151
ंगी	-2152
प्ट	-2153
▁इक	-2154
▁दिल	-2155
▁स्ल	-2156
क्टिव	-2157
वत्ता	-2158
▁एनाल	-2159
▁मध्य	-2160
वसायिक	-2161
▁बताया	-2162
▁गुणवत्ता	-2163
▁व्यावसायिक	-2164
यता	-2165
▁13	-2166
▁धी	-2167
चर्स	-2168
▁लाल	-2169
▁अगले	-2170
▁आबंध	-2171
▁तेजी	-2172
▁बड़े	-2173
▁सचिव	-2174
▁वर्णन	-2175
▁वृद्ध	-2176
▁अनुवाद	-2177
▁एस्ट्रोसाइटोमा	-2178
द्र	-2179
▁बज	-2180
▁आवंट	-2181
▁टर्म	-2182
हाइड्र	-2183
▁ऊतकों	-2184
▁अधिकांश	-2185
▁इंजेक्ट	-2186
NS	-2187
ंकन	-2188
तिक	-2189
▁पृ	-2190
▁बच	-2191
▁भवि	-2192
▁वाह	-2193
▁अस्थ	-2194
▁क्रो	-2195
▁जवाब	-2196
▁पानी	-2197
▁सर्व	-2198
▁तस्वी	-2199
▁दिनों	-2200
▁किनारे	-2201
▁प्रोटी	-2202
▁भविष्य	-2203
▁मैंब्रेन	-2204
▁20	-2205
▁अद	-2206
ार्ट	-2207
▁कथन	-2208
्यूल्स	-2209
▁बनाया	-2210
▁अधिकतम	-2211
▁असामान्य	-2212
▁प्रोटीन्स	-2213
एक	-2214
▁पो	-2215
्हुड	-2216
▁कॉल	-2217
▁डिफ	-2218
▁द्र	-2219
▁मेट	-2220
▁रिल	-2221
▁लिम	-2222
▁हीम	-2223
▁उचित	-2224
▁मिश्र	-2225
▁स्वयं	-2226
▁अवधारणा	-2227
▁लक्षणों	-2228
▁इक्	-2229
▁गये	-2230
▁दिख	-2231
स्कार	-2232
▁नेटव	-2233
▁सहित	-2234
▁जिलों	-2235
▁प्रोट	-2236
ाइंडिंग	-2237
▁रेज़िड	-2238
▁संपर्क	-2239
▁सुविधाओं	-2240
▁शेयरहोल्डर्स	-2241
अप	-2242
ल्‍	-2243
ांक	-2244
ियस	-2245
ेंज	-2246
▁मज	-2247
ान्व	-2248
▁बिज	-2249
▁उसकी	-2250
▁देना	-2251
▁अंगों	-2252
▁इनमें	-2253
▁कितनी	-2254
▁पॉलीप	-2255
▁लिमिटेड	-2256
▁इनहिबिटर	-2257
▁न्यायालय	-2258
इं	-2259
मलव	-2260
र्द	-2261
ियन	-2262
ूची	-2263
ूनी	-2264
ृंख	-2265
ोनल	-2266
िग्न	-2267
िटिव	-2268
▁डाई	-2269
ायनिक	-2270
ृंखला	-2271
▁गणना	-2272
▁बड़ी	-2273
▁मानव	-2274
्यांकन	-2275
▁दशमलव	-2276
▁पारित	-2277
▁श्रृंखला	-2278
शल	-2279
ोफ	-2280
▁t	-2281
फोल	-2282
वाल	-2283
▁18	-2284
-201	-2285
दर्भ	-2286
िक्व	-2287
ोगिक	-2288
▁दोहरा	-2289
▁शुरुआ	-2290
▁हटाने	-2291
▁विभागों	-2292
▁उन्होंने	-2293
▁लिम्फोब्लास्टिक	-2294
तु	-2295
िज़	-2296
ोइड	-2297
▁/-	-2298
▁तर	-2299
▁दा	-2300
दारी	-2301
▁शोध	-2302
▁अगला	-2303
▁उससे	-2304
▁एल्ड	-2305
▁सलाह	-2306
▁कोशिश	-2307
▁तरीका	-2308
▁बिजली	-2309
▁सिम्प	-2310
▁अनुखंड	-2311
▁संस्था	-2312
▁उत्पन्न	-2313
गति	-2314
देन	-2315
द्व	-2316
▁लो	-2317
कर्ष	-2318
क्यू	-2319
ाइज़	-2320
▁बेस	-2321
ंत्री	-2322
▁अगली	-2323
▁केंद	-2324
▁सेबी	-2325
क्लोनल	-2326
▁तापमान	-2327
▁संक्रम	-2328
▁व्यापार	-2329
▁इस्तेमाल	-2330
इल	-2331
ीड	-2332
िसर	-2333
ेलन	-2334
▁25	-2335
▁एआई	-2336
▁चला	-2337
▁ग्रेड	-2338
ासायनिक	-2339
▁प्रगति	-2340
▁वृद्धि	-2341
▁संचालन	-2342
▁आपूर्ति	-2343
▁सिम्प्ट	-2344
▁हेमांगी	-2345
▁चाइल्ड्हुड	-2346
धी	-2347
यी	-2348
▁S	-2349
▁वय	-2350
विटी	-2351
ोनिक	-2352
ोसिस	-2353
▁पेर	-2354
वर्ती	-2355
▁लगता	-2356
▁शुगर	-2357
▁रजिस्ट	-2358
▁संकेतों	-2359
▁सेंट्रल	-2360
▁विश्लेषण	-2361
▁एल्गोरिदम	-2362
▁गतिविधियों	-2363
▁विद्यालयों	-2364
▁हीमोग्लोबिन	-2365
EB	-2366
कोल	-2367
▁दर	-2368
▁अंश	-2369
▁अपी	-2370
▁जरूर	-2371
▁प्रॉ	-2372
▁आकर्ष	-2373
▁आसानी	-2374
▁खिलाफ	-2375
▁महीने	-2376
▁इसीलिए	-2377
▁केंद्रीय	-2378
▁रासायनिक	-2379
▁स्क्रिप्ट	-2380
‍ट	-2381
▁)	-2382
टीर	-2383
▁शै	-2384
ाजिक	-2385
ायोस	-2386
▁खुद	-2387
▁विल	-2388
▁सिर	-2389
▁इमेज	-2390
▁चीज़	-2391
▁पालन	-2392
▁साइड	-2393
▁शुल्क	-2394
द्योगिक	-2395
▁टर्मिनल	-2396
▁प्रारंभ	-2397
▁माइलॉयड	-2398
▁निरीक्षण	-2399
ूँ	-2400
ेशा	-2401
ारीख	-2402
िफिक	-2403
▁फिल	-2404
▁बिल	-2405
▁मेल	-2406
ृत्ति	-2407
▁मरीज	-2408
▁मिला	-2409
▁अडल्ट	-2410
▁तारीख	-2411
▁फॉर्म	-2412
▁भिन्न	-2413
▁मिश्रण	-2414
▁संदर्भ	-2415
▁इम्यूनो	-2416
▁निर्देश	-2417
▁प्रोब्लम	-2418
▁मॉलिक्यूल्स	-2419
ंप	-2420
ानि	-2421
िनि	-2422
▁आज	-2423
▁बस	-2424
एनएस	-2425
ड़ित	-2426
▁199	-2427
▁टेक	-2428
▁कम्प	-2429
▁सीएस	-2430
▁प्रेस	-2431
▁पीड़ित	-2432
▁रिसर्च	-2433
▁शेयरधारकों	-2434
▁टोम	-2435
क्षेप	-2436
▁उद्य	-2437
▁जीवन	-2438
▁पैदा	-2439
ोमायोस	-2440
▁प्रया	-2441
▁फैलता	-2442
▁टेकओवर	-2443
▁व्यापक	-2444
▁शिक्षक	-2445
▁स्‍ट्र	-2446
▁टोमोग्राफी	-2447
▁संरचनात्मक	-2448
षि	-2449
▁ऑफ	-2450
▁बड़ा	-2451
▁सीमित	-2452
चिकित्स	-2453
▁नेटवर्क	-2454
▁संयुक्त	-2455
▁हेमांगीओ	-2456
▁मूल्यांकन	-2457
ेफ	-2458
म्र	-2459
धारण	-2460
▁चयन	-2461
▁डिग	-2462
▁बाई	-2463
▁शेष	-2464
▁सैं	-2465
च्छिक	-2466
दिष्ट	-2467
▁2008	-2468
▁ऋणदा	-2469
▁जर्म	-2470
▁पीडी	-2471
▁हमेशा	-2472
▁स्वीकृत	-2473
▁निर्दिष्ट	-2474
▁मोनोक्लोनल	-2475
▁क्रोमैटोग्राफी	-2476
ग्ल	-2477
टिव	-2478
न्स	-2479
लेज	-2480
ेयर	-2481
र्जी	-2482
▁कमी	-2483
▁खेल	-2484
▁डबल	-2485
▁बने	-2486
▁रिए	-2487
▁संघ	-2488
▁उम्र	-2489
▁रहते	-2490
▁बनाती	-2491
▁अध्यक्ष	-2492
▁क्रोनिक	-2493
▁अधिकारों	-2494
▁सिद्धांत	-2495
▁स्‍ट्रक्‍	-2496
▁R	-2497
▁भर	-2498
क्षर	-2499
िस्क	-2500
ेटिक	-2501
▁195	-2502
▁उठा	-2503
▁कोय	-2504
▁मास	-2505
▁मेथ	-2506
▁रोड	-2507
▁तत्व	-2508
▁प्री	-2509
▁फर्म	-2510
▁लिंक	-2511
▁स्रो	-2512
▁चीजों	-2513
▁कापोसी	-2514
▁स्लाइड	-2515
▁कंपनियां	-2516
▁संरचनाओं	-2517
गै	-2518
धन	-2519
सोम	-2520
▁कल	-2521
▁सै	-2522
परीत	-2523
▁एकल	-2524
▁पाए	-2525
▁माल	-2526
▁राम	-2527
▁अंतः	-2528
▁अदाल	-2529
▁कॉम्	-2530
▁चलता	-2531
▁रखते	-2532
▁दृष्ट	-2533
▁बढ़ते	-2534
▁अनुबंध	-2535
▁विपरीत	-2536
▁संशोधन	-2537
▁पंजीकरण	-2538
▁फॉस्फोल	-2539
▁संस्थान	-2540
▁पुस्तकालय	-2541
at	-2542
धा	-2543
टिल	-2544
नेस	-2545
वीं	-2546
▁गल	-2547
▁नॉ	-2548
ेक्स	-2549
▁मार	-2550
▁अल्‍	-2551
▁जोकि	-2552
▁मेरे	-2553
एक्टिव	-2554
▁आंशिक	-2555
▁न्यूर	-2556
▁सिर्फ	-2557
▁निगमित	-2558
▁निष्पाद	-2559
▁पंजीकृत	-2560
▁सामाजिक	-2561
▁इफेक्ट्स	-2562
▁वर्गीकृत	-2563
▁व्यवस्था	-2564
दाय	-2565
मोद	-2566
वाट	-2567
िक्	-2568
िन्	-2569
▁21	-2570
ंतरण	-2571
ग्री	-2572
ड़ों	-2573
ल्कि	-2574
ामिन	-2575
ेदार	-2576
▁पृथ	-2577
▁बरा	-2578
▁अधिम	-2579
▁अनुप	-2580
▁एस्प	-2581
▁छोटी	-2582
▁स्वै	-2583
क्शन्स	-2584
▁अनुमोद	-2585
▁एंजाइम	-2586
▁तकनीकी	-2587
▁प्रयास	-2588
▁पुस्तकों	-2589
▁परिवर्तित	-2590
कु	-2591
पट	-2592
वाह	-2593
▁16	-2594
मोमा	-2595
ेरिक	-2596
▁खतर	-2597
▁मजब	-2598
▁सात	-2599
गरानी	-2600
िनेशन	-2601
▁2006	-2602
▁एम्ब	-2603
▁जटिल	-2604
▁नंबर	-2605
▁नीति	-2606
▁मैग्	-2607
ास्टिक	-2608
▁बल्कि	-2609
▁कानूनी	-2610
▁बढ़ावा	-2611
▁बुनिया	-2612
▁निगरानी	-2613
▁प्रकृति	-2614
▁रेज़िड्यू	-2615
▁व्यक्तिगत	-2616
▁स्वैच्छिक	-2617
3.	-2618
▁P	-2619
याँ	-2620
ल्य	-2621
हास	-2622
हित	-2623
्ली	-2624
▁100	-2625
▁अन्	-2626
▁तरल	-2627
▁सेक	-2628
▁समझा	-2629
▁सवाल	-2630
िपिड्स	-2631
▁एक्सप	-2632
▁कितना	-2633
▁घोषणा	-2634
▁अल्‍फा	-2635
▁प्रश्न	-2636
▁शुरुआत	-2637
▁उत्पादन	-2638
▁रेडियोएक्टिव	-2639
सम	-2640
फेट	-2641
यों	-2642
लीय	-2643
▁एज	-2644
▁लॉ	-2645
ाउंड	-2646
▁तरफ	-2647
▁निर	-2648
▁शहर	-2649
ंतरिक	-2650
ग्रेड	-2651
तिहास	-2652
ाइज्ड	-2653
▁शल्य	-2654
▁शाखा	-2655
▁एएमएल	-2656
▁चरणों	-2657
▁बाहरी	-2658
▁पुनर्ग	-2659
▁महीनों	-2660
▁स्टेशन	-2661
चिकित्सा	-2662
▁डायग्नोस	-2663
▁सिम्प्टम्स	-2664
ैर	-2665
ौग	-2666
टर्	-2667
स्‍	-2668
▁रो	-2669
ैटिक	-2670
▁रबड	-2671
▁कृषि	-2672
▁मेगा	-2673
▁रिकर	-2674
▁वहाँ	-2675
▁थोड़ा	-2676
▁पुलों	-2677
▁बराबर	-2678
▁संगठन	-2679
▁योगदान	-2680
▁सेवाओं	-2681
▁पर्याप्त	-2682
▁बुनियादी	-2683
ब्लास्टोमा	-2684
सल	-2685
हन	-2686
भोग	-2687
ायन	-2688
ुरम	-2689
एलएल	-2690
ज्जा	-2691
बारा	-2692
▁जमा	-2693
▁जित	-2694
टर्नल	-2695
रेटेड	-2696
▁यानि	-2697
▁एपेंड	-2698
▁निम्न	-2699
▁फैलने	-2700
प्रोटीन	-2701
म्ब्रेन	-2702
▁डिग्री	-2703
▁पहुंचा	-2704
▁अनुक्रम	-2705
▁एक्सपर्ट	-2706
ैक	-2707
यां	-2708
राट	-2709
वार	-2710
गेशन	-2711
टेंस	-2712
्यूब	-2713
▁पाव	-2714
ोइड्स	-2715
▁टेक्	-2716
▁लिपो	-2717
▁इंट्र	-2718
▁श्रेणी	-2719
▁इक्विटी	-2720
▁शिक्षकों	-2721
on	-2722
ेम	-2723
▁E	-2724
▁p	-2725
तार	-2726
रेब	-2727
सिज	-2728
ूशन	-2729
▁आश	-2730
▁रस	-2731
▁बीस	-2732
▁मिन	-2733
▁विध	-2734
▁हाथ	-2735
युक्त	-2736
िकाओं	-2737
▁उसका	-2738
▁परिस	-2739
▁भागी	-2740
▁मार्	-2741
▁रखना	-2742
▁देयता	-2743
▁निकाय	-2744
▁मज्जा	-2745
▁मान्य	-2746
▁आंतरिक	-2747
▁जाएंगे	-2748
▁नियमित	-2749
▁प्रतिर	-2750
▁संग्रह	-2751
▁कर्तव्य	-2752
▁बाइंडिंग	-2753
पल	-2754
ाक	-2755
भाल	-2756
ेगी	-2757
▁नौ	-2758
▁शी	-2759
कल्प	-2760
ापरी	-2761
ारिश	-2762
ॉन्स	-2763
्यास	-2764
▁आउट	-2765
▁गैस	-2766
▁घाव	-2767
▁पैर	-2768
▁फाय	-2769
▁सिफ	-2770
कृतिक	-2771
िक्री	-2772
ूचीयन	-2773
▁खतरा	-2774
▁अणुओं	-2775
▁बदलने	-2776
▁महिला	-2777
▁ज्ञापन	-2778
▁तस्वीर	-2779
▁स्थाना	-2780
▁मेगावाट	-2781
ैकेराइड्स	-2782
▁ग्लियोमा	-2783
ुलन	-2784
▁नव	-2785
▁कोर	-2786
पत्ति	-2787
िमोमा	-2788
ोमीटर	-2789
▁सीडी	-2790
▁स्टॉक	-2791
▁ऋणदाता	-2792
▁संबंधी	-2793
▁एनालाइट	-2794
▁दर्शाता	-2795
▁संक्रमण	-2796
▁सिफारिश	-2797
प्लास्टिक	-2798
▁चिकित्सा	-2799
▁दस्तावेज	-2800
▁एंटीकैंसर	-2801
▁प्रारंभिक	-2802
▁प्रस्तावित	-2803
,0	-2804
ाइज	-2805
लेशन	-2806
वाही	-2807
ेटेड	-2808
्युल	-2809
▁आता	-2810
▁लड़	-2811
▁वगै	-2812
▁सेट	-2813
लेट्स	-2814
▁पावर	-2815
▁पोलर	-2816
▁मांग	-2817
▁अदालत	-2818
▁जोड़ा	-2819
▁समझना	-2820
▁इमेजिंग	-2821
▁लेखापरी	-2822
▁विद्युत	-2823
▁विशेषता	-2824
▁हाइड्रॉ	-2825
▁पुरस्कार	-2826
▁स्टेजिंग	-2827
▁स्थितियों	-2828
2.	-2829
अल	-2830
फर	-2831
लाई	-2832
सिजर	-2833
ाहित	-2834
ॉर्म	-2835
▁गलत	-2836
▁नोट	-2837
▁अप्र	-2838
▁कहता	-2839
▁बनते	-2840
▁अन्ना	-2841
▁चीजें	-2842
ोलॉजिकल	-2843
▁असूचीयन	-2844
▁सामग्री	-2845
▁प्रोसिजर	-2846
▁पॉलीपेप्टाइड	-2847
-0	-2848
डोज	-2849
त्त	-2850
मीद	-2851
ागत	-2852
ूति	-2853
▁धो	-2854
फ्यू	-2855
ालित	-2856
▁उम्	-2857
▁ऑब्	-2858
▁करा	-2859
▁काइ	-2860
▁लेट	-2861
▁स्त	-2862
▁छोटा	-2863
▁जानी	-2864
▁प्‍ल	-2865
▁सारे	-2866
▁तकनीक	-2867
िग्नेंट	-2868
▁उम्मीद	-2869
▁संपत्ति	-2870
▁कार्यान्व	-2871
▁उद्देश्यों	-2872
रख	-2873
ाइव	-2874
ॉलो	-2875
क्या	-2876
ौगिक	-2877
▁दाह	-2878
▁पेप	-2879
▁निकल	-2880
▁पक्ष	-2881
▁रखें	-2882
पोर्टर	-2883
▁मिलता	-2884
▁यौगिक	-2885
▁सीएसआर	-2886
▁संशोधित	-2887
▁सदस्यता	-2888
▁पुनर्गठन	-2889
▁सोल्यूशन	-2890
▁प्रतिरक्षा	-2891
):	-2892
▁"	-2893
्याय	-2894
▁बचा	-2895
▁मृत	-2896
▁मोल	-2897
▁समी	-2898
कोसिस	-2899
▁टर्न	-2900
▁निभा	-2901
▁सुपर	-2902
ारीरिक	-2903
▁अस्थि	-2904
चुरेटेड	-2905
▁इतिहास	-2906
▁बिक्री	-2907
▁सीएनएस	-2908
▁ग्लाइकोस	-2909
▁प्रतिबंध	-2910
▁इलेक्ट्रो	-2911
▁प्रतिभूति	-2912
▁एपेंडिमोमा	-2913
▁हेमांगीओमा	-2914
▁झ	-2915
इंट	-2916
न्व	-2917
वाप	-2918
रखाव	-2919
▁CNS	-2920
▁गयी	-2921
▁गोल	-2922
▁फेफ	-2923
▁सेव	-2924
धिकार	-2925
रोक्त	-2926
विद्य	-2927
▁अल्प	-2928
▁चुका	-2929
▁जाये	-2930
▁बनती	-2931
▁रिंग	-2932
स्थिति	-2933
▁एक्सच	-2934
▁एटम्स	-2935
▁बीमार	-2936
▁उपरोक्त	-2937
▁दर्शाया	-2938
▁कार्यवाही	-2939
▁जारीकर्ता	-2940
धु	-2941
मै	-2942
ॉस	-2943
केज	-2944
संख	-2945
िम्म	-2946
▁आना	-2947
▁कवर	-2948
▁लूप	-2949
▁सुई	-2950
▁एड्स	-2951
▁एपिज	-2952
▁चालू	-2953
▁टेबल	-2954
▁डाइस	-2955
▁मायल	-2956
▁वहां	-2957
संख्यक	-2958
▁पार्ट	-2959
▁बढ़ता	-2960
▁सामने	-2961
▁पीडीक्यू	-2962
▁प्रवर्तक	-2963
▁हाइड्रॉक्सिल	-2964
्वे	-2965
▁1.	-2966
▁17	-2967
नांक	-2968
माने	-2969
्सिन	-2970
▁आया	-2971
▁त्र	-2972
▁विन	-2973
ोजेनस	-2974
▁आपका	-2975
▁करनी	-2976
▁कॉर्ड	-2977
▁जरूरत	-2978
▁मतदान	-2979
▁मामला	-2980
▁सेरेब	-2981
▁स्वाम	-2982
▁हिस्ट	-2983
▁एक्सटर्नल	-2984
▁प्राकृतिक	-2985
▁एपिजेनेटिक	-2986
▁ट्रांसपोर्टर	-2987
▁दुष्प्रभावों	-2988
कम	-2989
लिग	-2990
▁ऑन	-2991
वरूप	-2992
▁जगह	-2993
▁दाई	-2994
रुद्ध	-2995
▁आसान	-2996
▁लेयर	-2997
▁हार्	-2998
▁जिम्म	-2999
▁जुड़ी	-3000
▁भर्ती	-3001
▁मजबूत	-3002
▁सलूशन	-3003
▁दोहराया	-3004
▁परिभाषा	-3005
▁एक्सचेंज	-3006
▁पेप्टाइड	-3007
घट	-3008
ोथ	-3009
टेन	-3010
विधि	-3011
▁कदम	-3012
▁भ्र	-3013
▁रिट	-3014
ंतरित	-3015
▁अधीन	-3016
▁ऑब्ज	-3017
▁चक्र	-3018
▁पिक्	-3019
▁वेतन	-3020
▁समाज	-3021
▁जुड़ा	-3022
▁न्याय	-3023
▁लार्ज	-3024
▁वितरण	-3025
▁स्रोत	-3026
▁रिकरंट	-3027
▁लगातार	-3028
▁समूहों	-3029
II	-3030
ch	-3031
जु	-3032
एशन	-3033
▁सिल	-3034
दर्शन	-3035
▁कीमत	-3036
▁निपट	-3037
▁बोनस	-3038
▁परमाणु	-3039
▁समझौते	-3040
▁प्रतिनि	-3041
▁पेंशनभोग	-3042
▁सब्सटेंस	-3043
▁समस्याओं	-3044
▁मेम्ब्रेन	-3045
▁स्वामित्व	-3046
इन	-3047
थम	-3048
मे	-3049
यू	-3050
▁;	-3051
▁s	-3052
उंड	-3053
बोन	-3054
रुप	-3055
ोर्	-3056
▁31	-3057
▁IV	-3058
▁इश	-3059
▁कठ	-3060
▁घन	-3061
ल्‍स	-3062
ितीय	-3063
▁रेल	-3064
▁शास	-3065
टेस्ट	-3066
ेदारी	-3067
▁1956	-3068
नात्मक	-3069
▁जिसकी	-3070
▁तीसरी	-3071
▁प्लान	-3072
▁लगाया	-3073
▁ग्रसित	-3074
▁लाभांश	-3075
▁गतिविधि	-3076
▁संभावित	-3077
▁प्रकाशित	-3078
कीमोथेरेपी	-3079
,3	-3080
सै	-3081
ाट	-3082
▁–	-3083
नेज	-3084
पेश	-3085
▁नर	-3086
ोर्स	-3087
्याण	-3088
▁कोव	-3089
▁जन्	-3090
▁जल्	-3091
▁ताल	-3092
न्कोल	-3093
ात्मक	-3094
्यादि	-3095
▁बनाम	-3096
▁रहता	-3097
▁सीखा	-3098
▁हेल्	-3099
स्वरूप	-3100
ॉजिस्ट	-3101
▁रिस्क	-3102
▁सीक्व	-3103
▁मायोसिन	-3104
▁ग्लाइसिन	-3105
▁प्लेटलेट्स	-3106
▁स्‍ट्रक्‍चर	-3107
्म	-3108
त्‍	-3109
तरंज	-3110
वापस	-3111
▁अना	-3112
▁नाग	-3113
टामिन	-3114
स्कों	-3115
स्त्र	-3116
▁इकाइ	-3117
▁दाईं	-3118
▁मेथड	-3119
▁लंबे	-3120
▁कल्याण	-3121
▁गतिशील	-3122
▁दोबारा	-3123
▁परिसमा	-3124
▁इत्यादि	-3125
▁स्पेक्ट	-3126
▁कर्मचारी	-3127
▁किलोमीटर	-3128
▁हाइड्रोल	-3129
और	-3130
कद	-3131
राव	-3132
रित	-3133
सीन	-3134
▁नस	-3135
▁वी	-3136
▁एनल	-3137
▁टीम	-3138
▁दाय	-3139
▁संव	-3140
▁समु	-3141
र्थिक	-3142
▁अनुक	-3143
▁कहीं	-3144
▁बजाय	-3145
▁संसा	-3146
वेक्षण	-3147
▁शतरंज	-3148
▁ऑन्कोल	-3149
▁दिखाते	-3150
▁दिनांक	-3151
▁सरकोमा	-3152
▁सेकेंड	-3153
हाइड्रेट	-3154
▁वयस्कों	-3155
▁निर्धारण	-3156
▁निवेशकों	-3157
▁एंटीबॉडीज	-3158
▁स्पेसिफिक	-3159
▁ट्रांसलेशन	-3160
▁लिपोप्रोटीन	-3161
..	-3162
जे	-3163
▁w	-3164
रीय	-3165
शनल	-3166
▁गो	-3167
ूंकि	-3168
ेमिक	-3169
ेयरी	-3170
▁एटम	-3171
▁गर्	-3172
▁दें	-3173
▁नली	-3174
▁मैच	-3175
▁आपकी	-3176
▁धोखा	-3177
▁फॉलो	-3178
▁बनने	-3179
▁सरफे	-3180
▁साझा	-3181
▁सिरे	-3182
▁चूंकि	-3183
▁पिछली	-3184
▁सीखने	-3185
▁प्रसार	-3186
▁पर्यावरण	-3187
▁सेकेंडरी	-3188
▁दस्तावेज़	-3189
▁कार्यान्वयन	-3190
बा	-3191
फेर	-3192
फ्त	-3193
ायक	-3194
ारह	-3195
▁रै	-3196
केशन	-3197
टिंग	-3198
ौतिक	-3199
-2010	-3200
क्षिक	-3201
▁उपाय	-3202
▁चाहे	-3203
▁समरी	-3204
▁इनपुट	-3205
▁थोड़ी	-3206
▁निगमन	-3207
▁पात्र	-3208
▁मुक्त	-3209
▁स्वीक	-3210
▁आवंटित	-3211
▁कोलेजन	-3212
▁परिवार	-3213
▁शब्दों	-3214
▁सरफेसी	-3215
ोलॉजिस्ट	-3216
▁अनुपालन	-3217
▁उपयुक्त	-3218
▁विटामिन	-3219
▁संक्षेप	-3220
▁औद्योगिक	-3221
▁वास्तविक	-3222
▁विश्वविद्य	-3223
▁ऑन्कोलॉजिस्ट	-3224
▁कार्बोहाइड्रेट	-3225
लभ	-3226
▁`	-3227
ठीक	-3228
रीन	-3229
सीड	-3230
स्ड	-3231
खरीद	-3232
िल्ड	-3233
्रिक	-3234
्वेत	-3235
▁आनु	-3236
▁खुल	-3237
नांतर	-3238
रुपये	-3239
िक्‍स	-3240
ोनेंस	-3241
▁अपील	-3242
▁अवसर	-3243
▁रेखा	-3244
ारकोमा	-3245
▁एएलएल	-3246
▁एक्शन	-3247
▁तीसरे	-3248
▁नमूना	-3249
▁नॉलेज	-3250
▁वित्त	-3251
▁दुर्लभ	-3252
▁निवेशक	-3253
▁परिष्क	-3254
म्बिनेशन	-3255
▁क्रिस्ट	-3256
▁शारीरिक	-3257
▁भागीदारी	-3258
▁कार्यकारी	-3259
▁लेखापरीक्षा	-3260
9.	-3261
खोज	-3262
िको	-3263
्वी	-3264
▁3.	-3265
▁बल	-3266
धड़ी	-3267
ैक्स	-3268
▁पूछ	-3269
▁लची	-3270
्युलर	-3271
▁घटना	-3272
▁मांस	-3273
▁वस्त	-3274
ेंसिंग	-3275
▁आसपास	-3276
▁इश्यू	-3277
▁ट्यूब	-3278
▁पहुँच	-3279
▁प्‍लस	-3280
पोर्टेड	-3281
▁अनुकूल	-3282
▁आकर्षण	-3283
▁आवेशित	-3284
▁रखरखाव	-3285
▁कॉम्प्ल	-3286
▁मांसपेश	-3287
▁मैट्रिक	-3288
▁ऑब्जेक्ट	-3289
▁धोखाधड़ी	-3290
▁परिष्कृत	-3291
▁माइकोसिस	-3292
▁प्राधिकरण	-3293
▁अंतःक्रिया	-3294
▁परियोजनाओं	-3295
▁प्रोटीन्‍स	-3296
▁परिणामस्वरूप	-3297
रत	-3298
▁F	-3299
NEB	-3300
ion	-3301
ंगा	-3302
णों	-3303
भीर	-3304
वरी	-3305
्रे	-3306
▁22	-3307
आरआई	-3308
परिक	-3309
वासी	-3310
्युट	-3311
▁अवश	-3312
▁इंड	-3313
▁एनी	-3314
▁क्व	-3315
▁मेड	-3316
▁रिफ	-3317
▁लिग	-3318
▁शिक	-3319
र्देश	-3320
्रेजी	-3321
▁गांव	-3322
▁पीएच	-3323
▁प्लस	-3324
▁बायो	-3325
▁रहने	-3326
▁लंबी	-3327
▁अच्छे	-3328
▁उसमें	-3329
▁घनत्व	-3330
▁जितना	-3331
▁पड़ता	-3332
▁भौतिक	-3333
▁पिक्चर	-3334
▁माननीय	-3335
▁टेक्स्ट	-3336
▁शैक्षिक	-3337
▁पुनर्खरीद	-3338
▁सर्वेक्षण	-3339
ोब्लास्टोमा	-3340
अन	-3341
पीओ	-3342
▁गं	-3343
▁पच	-3344
विदा	-3345
्रोस	-3346
▁आयु	-3347
▁एटी	-3348
▁निच	-3349
▁पंच	-3350
▁भंड	-3351
▁भवन	-3352
▁सां	-3353
खोजने	-3354
▁उन्न	-3355
▁खर्च	-3356
▁गुणा	-3357
▁द्रव	-3358
▁परिच	-3359
▁फ्लू	-3360
▁लेवल	-3361
मंत्री	-3362
▁गंभीर	-3363
▁चाहती	-3364
▁दवाएं	-3365
▁सहयोग	-3366
▁स्टडी	-3367
▁अधिकृत	-3368
▁विनियमन	-3369
▁व्यवहार	-3370
▁वाहिकाओं	-3371
▁हस्तांतरण	-3372
▁स्वतंत्रता	-3373
,5	-3374
दू	-3375
समय	-3376
कोपी	-3377
दायी	-3378
िओमा	-3379
िडिक	-3380
▁कमज	-3381
▁रेज	-3382
ट्यूम	-3383
▁अत्य	-3384
▁चुना	-3385
▁पार्	-3386
▁फेरो	-3387
▁बाएं	-3388
▁लाइस	-3389
▁सम्म	-3390
▁क्रॉस	-3391
▁क्लोर	-3392
▁घटकों	-3393
▁नोटिस	-3394
▁बनाना	-3395
▁भंडार	-3396
▁रेसीड	-3397
▁हेयरी	-3398
कर्ताओं	-3399
▁पुनराव	-3400
▁लिगैंड	-3401
▁संयोजन	-3402
▁अवरुद्ध	-3403
▁अनुमानित	-3404
▁उपस्थिति	-3405
▁प्रदर्शन	-3406
▁संस्थागत	-3407
▁विश्वविद्यालय	-3408
ंह	-3409
कॉ	-3410
ीस	-3411
गित	-3412
ज़र	-3413
ूचित	-3414
ेंसी	-3415
▁करी	-3416
▁माह	-3417
नुसार	-3418
ोसाइट	-3419
▁अग्र	-3420
▁कॉलम	-3421
▁चलने	-3422
▁धीरे	-3423
▁रिसे	-3424
▁इंजीन	-3425
▁शिकाय	-3426
▁अधिमान	-3427
▁नामांक	-3428
▁बैठकों	-3429
▁लेनदार	-3430
▁फेरोमोन	-3431
▁मेटास्ट	-3432
▁हेलिक्‍स	-3433
▁प्रवर्तकों	-3434
▁इंटरैक्शन्स	-3435
▁W	-3436
▁f	-3437
एंड	-3438
टिड	-3439
श्क	-3440
ुवी	-3441
▁वो	-3442
ष्टि	-3443
ाइपो	-3444
ार्ड	-3445
ूंगा	-3446
ेशनल	-3447
्कुल	-3448
▁मैल	-3449
▁लें	-3450
तियों	-3451
श्किल	-3452
्यवाद	-3453
▁TNEB	-3454
▁जन्म	-3455
▁दिलच	-3456
▁मुंह	-3457
▁रुपए	-3458
▁विफल	-3459
ट्रांस	-3460
▁चार्ज	-3461
▁जीन्स	-3462
▁मुफ्त	-3463
▁रक्षा	-3464
▁वगैरा	-3465
▁स्टेर	-3466
▁ग्लिसर	-3467
▁मृत्यु	-3468
▁शर्तों	-3469
▁स्तरीय	-3470
▁स्वस्थ	-3471
▁बिल्कुल	-3472
▁स्थानों	-3473
▁क्रिस्टल	-3474
▁परिवर्तनों	-3475
▁O	-3476
पात	-3477
फेद	-3478
राब	-3479
ैलन	-3480
▁00	-3481
▁पत	-3482
पुरम	-3483
मिकल	-3484
लिम्	-3485
ॉल्ट	-3486
्राव	-3487
▁देन	-3488
▁पेड	-3489
▁राह	-3490
▁सुझ	-3491
गेटिव	-3492
लेक्‍	-3493
िवर्स	-3494
िहाइड	-3495
▁कहां	-3496
▁ट्री	-3497
▁दर्द	-3498
▁दायर	-3499
ट्यूमर	-3500
ुलनशील	-3501
▁अत्या	-3502
▁खोजने	-3503
▁ज्ञान	-3504
▁टेराट	-3505
▁ट्रिप	-3506
▁निष्क	-3507
▁मोनोम	-3508
▁सैंपल	-3509
ेलियोमा	-3510
▁अनुरोध	-3511
▁अन्यथा	-3512
▁आर्थिक	-3513
▁एनर्जी	-3514
▁ब्रांच	-3515
▁मुश्किल	-3516
▁सम्मेलन	-3517
▁स्टार्ट	-3518
▁2009-2010	-3519
▁प्रत्यक्ष	-3520
▁अल्पसंख्यक	-3521
▁प्राथमिकता	-3522
▁कॉम्प्लेक्स	-3523
7.	-3524
पक	-3525
ॉट	-3526
्ब	-3527
जिए	-3528
रेड	-3529
लोक	-3530
शंस	-3531
संद	-3532
सीए	-3533
िवर	-3534
ोक्	-3535
▁आक	-3536
डीपी	-3537
ल्टी	-3538
वेंट	-3539
ानिव	-3540
ायरस	-3541
▁आती	-3542
▁थीं	-3543
▁नरभ	-3544
▁फर्	-3545
▁मिथ	-3546
▁वेल	-3547
▁सिग	-3548
▁अस्त	-3549
▁गैलन	-3550
▁दिये	-3551
▁नेबर	-3552
▁बाकी	-3553
▁यानी	-3554
▁सारी	-3555
▁हेतु	-3556
▁प्राय	-3557
▁रसायन	-3558
▁श्वेत	-3559
▁आउटपुट	-3560
▁एसिडों	-3561
▁देनदार	-3562
▁फैक्टर	-3563
▁धन्यवाद	-3564
▁प्रोटॉन	-3565
▁गैस्ट्रो	-3566
▁उत्तरदायी	-3567
▁जिम्मेदार	-3568
ोमायोसारकोमा	-3569
▁प्रतिक्रिया	-3570
▁पेंशनभोगियों	-3571
छे	-3572
सु	-3573
▁K	-3574
ंटी	-3575
दंड	-3576
फिल	-3577
श्य	-3578
हीत	-3579
ाइक	-3580
ानु	-3581
ोना	-3582
्‍ट	-3583
▁तथ	-3584
▁दब	-3585
ानीय	-3586
▁198	-3587
▁अंक	-3588
▁ढां	-3589
कालिक	-3590
▁इतना	-3591
▁कहला	-3592
▁दर्ज	-3593
▁देगा	-3594
▁राहत	-3595
▁इंगित	-3596
▁चाहता	-3597
▁चिल्ड	-3598
▁निहित	-3599
▁प्लेस	-3600
▁संग्र	-3601
▁समक्ष	-3602
▁सिक्व	-3603
▁स्किन	-3604
ियोटाइड	-3605
▁उद्योग	-3606
▁एम्ब्र	-3607
▁दाहिने	-3608
▁नरभक्ष	-3609
▁निविदा	-3610
▁न्यूरल	-3611
▁बिनाइन	-3612
▁शुगर्स	-3613
▁हेलिसिस	-3614
▁अस्तित्व	-3615
▁दृष्टिको	-3616
▁स्वीकृति	-3617
▁आवश्यकताओं	-3618
▁बायोलॉजिकल	-3619
▁रेज़िड्यूज़	-3620
तीस	-3621
फ्ल	-3622
हिर	-3623
ंगिक	-3624
धारा	-3625
ुखार	-3626
र्जरी	-3627
▁करीब	-3628
▁पचास	-3629
▁भारी	-3630
▁भोजन	-3631
ासंगिक	-3632
▁किसान	-3633
▁क्लास	-3634
▁फिलाम	-3635
▁मुद्र	-3636
▁सॉल्‍	-3637
▁अनुपात	-3638
▁लिंकेज	-3639
▁लेनदेन	-3640
▁समझौता	-3641
▁सांद्र	-3642
▁हेलिकल	-3643
▁खिलाड़ी	-3644
▁प्रबंधक	-3645
▁फॉस्फेट	-3646
टेस्टाइनल	-3647
▁अंग्रेजी	-3648
▁इंटरैक्‍	-3649
▁परमाणुओं	-3650
▁संग्रहीत	-3651
▁सम्पत्ति	-3652
▁बीमारियों	-3653
ID	-3654
कश	-3655
दृ	-3656
मन	-3657
ीण	-3658
्थ	-3659
▁a	-3660
हरे	-3661
ाज्	-3662
िरी	-3663
्टी	-3664
-200	-3665
्रार	-3666
▁अतः	-3667
▁वही	-3668
चंद्र	-3669
ामेलन	-3670
▁अक्ष	-3671
▁एंगल	-3672
▁चौथा	-3673
▁पीछे	-3674
▁रिएज	-3675
▁लाइट	-3676
▁जाहिर	-3677
▁बाउंड	-3678
▁ब्रिज	-3679
▁मिलती	-3680
▁स्टीर	-3681
▁हेल्थ	-3682
क्तियों	-3683
ज्ञानिक	-3684
▁कारकों	-3685
▁निरंतर	-3686
▁पाएंगे	-3687
▁पैरेंट	-3688
▁प्रतिक	-3689
▁सेवाएं	-3690
▁ग्रामीण	-3691
▁मान्यता	-3692
▁समामेलन	-3693
▁समीक्षा	-3694
▁स्थानीय	-3695
▁निष्पादन	-3696
▁प्रतिनिध	-3697
▁सपोर्टेड	-3698
▁सांद्रता	-3699
▁मुख्यमंत्री	-3700
▁ग्लाइकोसिडिक	-3701
,2	-3702
DI	-3703
सन	-3704
ंटे	-3705
टीक	-3706
टेर	-3707
दों	-3708
ैंक	-3709
▁2.	-3710
▁पे	-3711
केले	-3712
डीआई	-3713
्रास	-3714
▁ठोस	-3715
▁परत	-3716
▁बनी	-3717
▁सफल	-3718
द्वंद	-3719
सूत्र	-3720
▁कॉपी	-3721
▁खाते	-3722
▁लिवर	-3723
चंद्रन	-3724
स्कुलर	-3725
▁आवंटन	-3726
▁ग्रूव	-3727
▁जानने	-3728
▁पेडिए	-3729
▁विद्व	-3730
▁शीर्ष	-3731
▁शुद्ध	-3732
▁दिल्ली	-3733
▁प्रचार	-3734
▁शर्तें	-3735
▁इकाइयों	-3736
▁कार्यरत	-3737
▁चिल्ड्र	-3738
▁प्रकाशन	-3739
▁सेवानिव	-3740
▁अत्याधिक	-3741
▁गुणसूत्र	-3742
सेकेराइड्स	-3743
▁प्रतिद्वंद	-3744
▁रजिस्ट्रार	-3745
▁एनाप्लास्टिक	-3746
▁लिम्फोसाइटिक	-3747
/-	-3748
पण	-3749
शय	-3750
▁e	-3751
एसे	-3752
त्स	-3753
भूत	-3754
ल्फ	-3755
विक	-3756
▁23	-3757
▁औस	-3758
▁टॉ	-3759
▁पश	-3760
▁बह	-3761
पचार	-3762
वल्ल	-3763
शन्स	-3764
िंगल	-3765
ेरित	-3766
▁एंग	-3767
▁चैट	-3768
▁नगर	-3769
▁सिव	-3770
ंपरिक	-3771
ख्यिक	-3772
होल्ड	-3773
्रुवी	-3774
▁उसने	-3775
▁जुटा	-3776
▁दूरी	-3777
▁पट्ट	-3778
▁बाईं	-3779
▁लेता	-3780
▁वहीं	-3781
ॉजिटिव	-3782
▁पेशकश	-3783
▁मंत्र	-3784
▁मापने	-3785
▁सर्वो	-3786
▁सुझाव	-3787
दायित्व	-3788
▁अनुदान	-3789
▁सेक्शन	-3790
▁अनुमोदन	-3791
▁निकालना	-3792
▁पारदर्श	-3793
▁फेफड़ों	-3794
▁विनियमों	-3795
▁प्रासंगिक	-3796
▁रामचंद्रन	-3797
▁संस्थानों	-3798
▁हस्ताक्षर	-3799
इंटेस्टाइनल	-3800
▁मैलिग्नेंट	-3801
ic	-3802
▁Y	-3803
खिल	-3804
गार	-3805
टूर	-3806
वें	-3807
ामा	-3808
ामी	-3809
ुमा	-3810
ोजे	-3811
ोलॉ	-3812
▁28	-3813
द्रा	-3814
धारक	-3815
लिंग	-3816
शियल	-3817
▁अंड	-3818
▁चेक	-3819
वंशिक	-3820
संट्र	-3821
स्टेर	-3822
स्थाप	-3823
ुलेशन	-3824
▁2007	-3825
▁2011	-3826
▁उतना	-3827
▁उधार	-3828
▁एनोम	-3829
▁कांच	-3830
▁बनाई	-3831
▁लेकर	-3832
▁सफेद	-3833
ाइलेशन	-3834
▁अनुभव	-3835
▁करेगी	-3836
▁गुणों	-3837
▁ग्राह	-3838
▁घोषित	-3839
▁जानना	-3840
▁पॉइंट	-3841
▁लड़ने	-3842
मेंटेशन	-3843
▁उपयोगी	-3844
▁एनसीएल	-3845
▁बैठकें	-3846
▁मुद्दे	-3847
▁रहेंगे	-3848
▁कंसंट्र	-3849
▁दिलचस्प	-3850
▁स्टेट्स	-3851
सैचुरेटेड	-3852
▁स्टेरॉयड	-3853
▁दृष्टिकोण	-3854
6.	-3855
al	-3856
पॉ	-3857
्ठ	-3858
▁V	-3859
▁n	-3860
▁‘	-3861
▁’	-3862
चाई	-3863
जाम	-3864
बोट	-3865
सूस	-3866
ेटर	-3867
▁60	-3868
क्टे	-3869
र्दन	-3870
र्मल	-3871
लोकन	-3872
शियम	-3873
ियोग	-3874
ोलोज	-3875
▁ओवर	-3876
▁खुर	-3877
▁बटा	-3878
▁रिज	-3879
▁हिं	-3880
धुनिक	-3881
व्यों	-3882
ाइपोल	-3883
ेट्री	-3884
▁अभिय	-3885
▁एस्ट	-3886
▁केयर	-3887
▁ग्लू	-3888
▁दबाव	-3889
▁पुनः	-3890
▁रिकॉ	-3891
ेदनशील	-3892
▁चालों	-3893
▁जीवित	-3894
▁पढ़ने	-3895
▁महसूस	-3896
▁वायरस	-3897
▁अनुरूप	-3898
▁मंत्री	-3899
▁मानकों	-3900
▁मुद्रा	-3901
▁लोकेशन	-3902
▁संसाधन	-3903
▁सवालों	-3904
▁कानूनों	-3905
▁जेनेटिक	-3906
▁निकालने	-3907
▁संचालित	-3908
ोथेलियोमा	-3909
▁आनुवंशिक	-3910
▁चिल्ड्रन	-3911
▁ज्यादातर	-3912
▁पारंपरिक	-3913
▁संरचनाएं	-3914
▁साझेदारी	-3915
▁मॉलिक्यूलर	-3916
▁पुस्तकालयों	-3917
▁प्रतिद्वंद्वी	-3918
ra	-3919
अर	-3920
इम	-3921
लो	-3922
ठित	-3923
▁01	-3924
टर्न	-3925
फिंग	-3926
ोमास	-3927
्रिफ	-3928
▁किश	-3929
▁डिप	-3930
▁दंड	-3931
▁पैथ	-3932
▁वजन	-3933
▁वेन	-3934
▁हिल	-3935
्यूलर	-3936
▁क्यू	-3937
▁पसंद	-3938
▁सुना	-3939
▁हमला	-3940
ानुमान	-3941
िमिटिव	-3942
▁उद्यम	-3943
▁एमाइल	-3944
▁खातों	-3945
▁खुराक	-3946
▁नामित	-3947
▁निचले	-3948
▁प्रथम	-3949
▁फोल्ड	-3950
▁बताता	-3951
▁समन्व	-3952
▁हटाया	-3953
▁हितों	-3954
्रिफ्यू	-3955
▁अभ्यास	-3956
▁अवलोकन	-3957
▁आधुनिक	-3958
▁एफडीआई	-3959
▁ग्लाइक	-3960
▁डाइपोल	-3961
▁पैटर्न	-3962
▁यात्रा	-3963
▁विषयों	-3964
▁साधारण	-3965
▁पॉजिटिव	-3966
▁लाइसेंस	-3967
▁शास्त्र	-3968
▁सारकोमा	-3969
▁अनुवर्ती	-3970
▁सांख्यिक	-3971
▁प्रिमिटिव	-3972
ोसैकेराइड्स	-3973
▁पूर्वानुमान	-3974
▁सिक्वेंसिंग	-3975
▁स्थानांतरित	-3976
ोमायोसार्कोमा	-3977
50	-3978
FDI	-3979
प्च	-3980
बार	-3981
ब्ड	-3982
यूल	-3983
रेख	-3984
ुरै	-3985
ैले	-3986
▁1,	-3987
ल्फ़	-3988
िन्‍	-3989
ुरंत	-3990
ूँगा	-3991
▁196	-3992
▁अपे	-3993
▁एग्	-3994
▁औसत	-3995
▁घूम	-3996
▁घोल	-3997
▁झिल	-3998
▁पाई	-3999
▁याच	-4000
▁लंग	-4001
▁वाय	-4002
▁हेड	-4003
त्रिम	-4004
फ्यूज	-4005
सेप्च	-4006
ाइम्ब	-4007
▁आपदा	-4008
▁खराब	-4009
▁चिन्	-4010
▁डिटे	-4011
▁मानस	-4012
▁रखती	-4013
▁रहती	-4014
▁लाइन	-4015
प्रवाह	-4016
्रोस्प	-4017
▁कमजोर	-4018
▁तुरंत	-4019
▁देखना	-4020
▁बुखार	-4021
▁म्यूट	-4022
▁सिंगल	-4023
ल्फ़ाइड	-4024
▁अनुप्र	-4025
▁देखभाल	-4026
▁रिफाइन	-4027
▁लक्षित	-4028
▁सिंचाई	-4029
ाइम्बिंग	-4030
▁कंसेप्च	-4031
▁कृत्रिम	-4032
▁नेबरहुड	-4033
▁प्रोत्स	-4034
▁हार्मोन	-4035
▁चिकित्सक	-4036
▁निष्कर्ष	-4037
▁प्रकारों	-4038
▁प्रतियोग	-4039
्रिफ्यूगेशन	-4040
▁कार्यालयों	-4041
▁कंसेप्च्युल	-4042
▁क्लाइम्बिंग	-4043
▁एस्ट्रोसाइटोमास	-4044
4.	-4045
5.	-4046
चल	-4047
मर	-4048
रक	-4049
ैब	-4050
कलन	-4051
केट	-4052
फिक	-4053
ेकल	-4054
ोरी	-4055
▁Sa	-4056
▁एर	-4057
▁ओम	-4058
▁डा	-4059
▁भू	-4060
एक्स	-4061
िट्स	-4062
िनिब	-4063
ेस्ट	-4064
▁197	-4065
▁कॉर	-4066
▁टुक	-4067
▁फिट	-4068
▁बया	-4069
▁रोज	-4070
▁संत	-4071
क्करण	-4072
डीएशन	-4073
ांतरण	-4074
ामर्श	-4075
िपिकल	-4076
▁इनका	-4077
▁ऑप्ट	-4078
▁गांठ	-4079
▁गामा	-4080
▁ग्रो	-4081
▁टाइम	-4082
▁निधि	-4083
▁मेरा	-4084
▁लर्न	-4085
▁हड्ड	-4086
क्षकों	-4087
्रुवीय	-4088
▁अभियं	-4089
▁ओमेगा	-4090
▁कितने	-4091
▁किशोर	-4092
▁चौड़ा	-4093
▁प्रबल	-4094
▁बढ़ती	-4095
▁रिक्त	-4096
▁शीट्स	-4097
▁वर्णित	-4098
▁शिक्षण	-4099
्रीफ्यूज	-4100
▁कंपाउंड	-4101
▁परामर्श	-4102
▁रजिस्टर	-4103
▁रिलेटेड	-4104
▁अनुमोदित	-4105
▁अनुसूचित	-4106
▁तिरुवल्ल	-4107
▁परिसमापक	-4108
▁पृथक्करण	-4109
▁कॉम्बिनेशन	-4110
▁न्यूक्लियोटाइड	-4111
▁सेंट्रिफ्यूगेशन	-4112
शा	-4113
िह	-4114
ैप	-4115
▁Z	-4116
200	-4117
कान	-4118
णिज	-4119
लिक	-4120
सेज	-4121
ाने	-4122
िरण	-4123
▁27	-4124
▁अर	-4125
▁वज	-4126
नेशन	-4127
भोक्	-4128
र्गी	-4129
्याज	-4130
▁छूट	-4131
▁तेल	-4132
▁बफर	-4133
▁रखे	-4134
▁साई	-4135
-2011	-4136
णिज्य	-4137
ाथेकल	-4138
▁अल्ट	-4139
▁आर्ग	-4140
▁इनिश	-4141
▁ऑलिग	-4142
▁कठिन	-4143
▁डिज़	-4144
▁पहलू	-4145
▁फार्	-4146
▁रोटर	-4147
▁लोकल	-4148
▁सिग्	-4149
▁सौंप	-4150
▁हजार	-4151
▁अपवाद	-4152
▁जनरेट	-4153
▁जिनकी	-4154
▁ब्रोम	-4155
▁सिविल	-4156
▁स्प्ल	-4157
स्थापित	-4158
▁उपभोक्	-4159
▁वितरित	-4160
▁संकल्प	-4161
▁सपोर्ट	-4162
▁स्वागत	-4163
▁एटिपिकल	-4164
▁प्रेरित	-4165
▁योग्यता	-4166
▁रिकॉर्ड	-4167
▁सचिवालय	-4168
▁स्क्रीन	-4169
▁म्यूटेशन	-4170
▁सीक्वेंस	-4171
▁कर्तव्यों	-4172
▁वैज्ञानिक	-4173
▁गतिविधियाँ	-4174
▁पेडिएट्रिक	-4175
एंडोथेलियोमा	-4176
▁डाइसल्फ़ाइड	-4177
▁प्रतिनिधित्व	-4178
▁इम्यूनोथेरेपी	-4179
10	-4180
हर	-4181
्ज	-4182
▁g	-4183
EBI	-4184
िमा	-4185
ीहा	-4186
ुत्	-4187
्‍व	-4188
▁क़	-4189
▁जे	-4190
▁यु	-4191
SEBI	-4192
अधिक	-4193
्योर	-4194
‍टोन	-4195
▁असं	-4196
▁आंख	-4197
▁डोज	-4198
▁ढंग	-4199
▁रेश	-4200
ोमड़ी	-4201
ोलॉजी	-4202
्यारह	-4203
्रेशन	-4204
▁उत्त	-4205
▁जाएं	-4206
▁फ्री	-4207
▁मीटर	-4208
गोइड्स	-4209
ेंशियल	-4210
ैक्टिक	-4211
्यूटरी	-4212
▁जल्दी	-4213
▁ट्राई	-4214
▁ब्लॉक	-4215
▁मारने	-4216
▁मिलते	-4217
रेडिएशन	-4218
िस्ट्री	-4219
▁आवर्ती	-4220
▁जोड़ने	-4221
▁दिखाने	-4222
▁नागरिक	-4223
▁व्युत्	-4224
▁क्रोमोज	-4225
▁दायित्व	-4226
▁टेराटॉइड	-4227
▁प्रश्नों	-4228
▁मंत्रालय	-4229
▁रेजोनेंस	-4230
▁शक्तियों	-4231
▁हिस्‍टोन	-4232
▁2010-2011	-4233
▁प्रोटीनों	-4234
▁विशेषताएं	-4235
▁शास्त्रीय	-4236
▁पुनरावृत्ति	-4237
▁फॉस्फोलिपिड्स	-4238
.0	-4239
RI	-4240
ॉम	-4241
IDS	-4242
काज	-4243
किट	-4244
ब्र	-4245
भार	-4246
वां	-4247
ासा	-4248
िटल	-4249
ूरी	-4250
ोनर	-4251
्ति	-4252
▁40	-4253
▁पं	-4254
िथेल	-4255
ोलिक	-4256
्यता	-4257
्रीम	-4258
्‍या	-4259
▁500	-4260
▁घटा	-4261
▁टर्	-4262
▁तभी	-4263
▁फाई	-4264
▁फोर	-4265
▁शिख	-4266
पूर्व	-4267
फॉर्म	-4268
फ्राम	-4269
लिम्फ	-4270
▁2005	-4271
▁अधिस	-4272
▁ग्रह	-4273
▁डिस्	-4274
▁बचपन	-4275
▁बॉडी	-4276
▁रखता	-4277
▁व्यय	-4278
▁सकें	-4279
▁सेना	-4280
कल्पिक	-4281
▁एटीपी	-4282
▁ग्लूट	-4283
▁परिचय	-4284
▁ब्याज	-4285
▁मदुरै	-4286
▁माल्ट	-4287
▁रोकते	-4288
▁अपीलीय	-4289
▁उपधारा	-4290
▁कामकाज	-4291
▁ग्यारह	-4292
▁चैटबोट	-4293
▁जुड़ते	-4294
▁परिवहन	-4295
▁फर्स्ट	-4296
▁फ़ोर्स	-4297
▁मुद्दा	-4298
▁मुर्गी	-4299
▁विकिरण	-4300
▁समन्वय	-4301
▁कार्मिक	-4302
▁निर्मित	-4303
▁प्रदर्श	-4304
▁रिसेप्ट	-4305
▁रेडीएशन	-4306
▁वाणिज्य	-4307
▁एनसीएलटी	-4308
▁क्लोराइड	-4309
▁वैकल्पिक	-4310
▁समानांतर	-4311
▁हड्डियों	-4312
▁क्रोमोजोम	-4313
▁बंदरगाहों	-4314
▁विद्वानों	-4315
▁विशेषताओं	-4316
▁व्यवस्थित	-4317
▁स्ट्रक्चर्स	-4318
▁सेंट्रीफ्यूज	-4319
er	-4320
काश	-4321
मेल	-4322
श्र	-4323
हाई	-4324
िनम	-4325
▁4.	-4326
▁मन	-4327
▁मस	-4328
ट्रल	-4329
पट्ट	-4330
लग्ल	-4331
वर्त	-4332
वर्ष	-4333
वाइड	-4334
▁असम	-4335
▁डाइ	-4336
▁पेय	-4337
▁बाल	-4338
▁रेट	-4339
त्‍मक	-4340
▁इनके	-4341
▁क़ान	-4342
▁जहाज	-4343
▁तर्क	-4344
▁प्रौ	-4345
▁फोर्	-4346
▁बारह	-4347
▁लाने	-4348
▁लिखा	-4349
▁शिखर	-4350
पचारिक	-4351
ैलेन्ट	-4352
▁कार्ट	-4353
▁डालते	-4354
▁पेरिफ	-4355
▁प्रॉप	-4356
▁प्रोल	-4357
▁रेलवे	-4358
▁संभाल	-4359
▁हमारी	-4360
सामान्य	-4361
▁अर्थात	-4362
▁इंटरनल	-4363
▁उपक्रम	-4364
▁खुलासा	-4365
▁छोड़कर	-4366
▁न्यूरो	-4367
▁लोमड़ी	-4368
▁नेगेटिव	-4369
▁योजनाएं	-4370
▁परिस्थित	-4371
▁रूपांतरण	-4372
ियोटैक्टिक	-4373
▁कोवैलेन्ट	-4374
▁निष्पादित	-4375
▁प्रवर्त्त	-4376
▁कंसंट्रेशन	-4377
▁राजमार्गों	-4378
▁कार्बोक्सिल	-4379
▁प्रौद्योगिक	-4380
▁मायोग्लोबिन	-4381
▁हाइड्रोलिसिस	-4382
ंघ	-4383
घु	-4384
▁b	-4385
▁x	-4386
चुर	-4387
त्म	-4388
नीस	-4389
रेन	-4390
रोग	-4391
िगर	-4392
ेरल	-4393
▁90	-4394
▁आख	-4395
▁आद	-4396
▁चै	-4397
आरटी	-4398
डीआर	-4399
मिशन	-4400
लग्न	-4401
सीएल	-4402
स्पर	-4403
ूनों	-4404
▁01.	-4405
▁अर्	-4406
▁कले	-4407
▁कैथ	-4408
▁खोल	-4409
▁तिर	-4410
▁पॉल	-4411
▁फैस	-4412
▁मसल	-4413
▁संह	-4414
ंबटूर	-4415
फिलिक	-4416
लिस्ट	-4417
ष्ट्र	-4418
स्राव	-4419
िनाइल	-4420
ियोइड	-4421
▁2000	-4422
▁इच्छ	-4423
▁एसिट	-4424
▁कुशल	-4425
▁ठहरा	-4426
▁डाला	-4427
▁तथ्य	-4428
▁धीमी	-4429
▁पतली	-4430
▁पदों	-4431
▁परेश	-4432
▁वाष्	-4433
▁हानि	-4434
इम्यून	-4435
स्ट्रा	-4436
▁अंततः	-4437
▁आईपीओ	-4438
▁उन्नत	-4439
▁देखता	-4440
▁पोस्ट	-4441
▁फेक्ट	-4442
▁मिलकर	-4443
▁लगाना	-4444
▁वयस्क	-4445
▁वालों	-4446
▁सहमति	-4447
▁हमारा	-4448
ायरोसिन	-4449
▁उन्नीस	-4450
▁एपिथेल	-4451
▁गांवों	-4452
▁जायेगा	-4453
▁निभाते	-4454
▁प्लीहा	-4455
▁बैकबोन	-4456
▁स्थायी	-4457
मस्तिष्क	-4458
मिस्ट्री	-4459
ार्थियों	-4460
▁अत्यधिक	-4461
▁कलेक्टर	-4462
▁घुलनशील	-4463
▁टर्न्‍स	-4464
▁प्रॉब्ल	-4465
▁रिएजेंट	-4466
▁लर्निंग	-4467
▁प्रभावों	-4468
▁व्याख्या	-4469
▁समस्याएं	-4470
▁स्टेशनरी	-4471
▁टार्गेटिड	-4472
▁व्यक्तित्व	-4473
1.	-4474
कृ	-4475
तक	-4476
ैश	-4477
▁ॠ	-4478
-11	-4479
त्य	-4480
▁खो	-4481
▁तद	-4482
आईएस	-4483
काया	-4484
र्गे	-4485
ाग्न	-4486
िनिन	-4487
ियान	-4488
ेप्थ	-4489
▁केस	-4490
▁जीत	-4491
▁थ्र	-4492
▁नदी	-4493
▁फंग	-4494
▁फंड	-4495
▁बर्	-4496
▁वजह	-4497
▁वोट	-4498
▁सें	-4499
▁सोड	-4500
मात्र	-4501
विज्ञ	-4502
सिस्ट	-4503
ोटाइप	-4504
▁इन्फ	-4505
▁चौड़	-4506
▁निकट	-4507
▁भेजा	-4508
▁सटीक	-4509
▁होकर	-4510
केराइड	-4511
पूर्वक	-4512
ैटोसिस	-4513
▁अकेले	-4514
▁आबंधन	-4515
▁ग्रहण	-4516
▁डाग्न	-4517
▁बहुमत	-4518
▁माइनर	-4519
▁रूपों	-4520
▁रोकता	-4521
▁लीजिए	-4522
▁संचार	-4523
▁होंगी	-4524
▁एग्जाम	-4525
▁ऑक्सीड	-4526
▁दृष्टि	-4527
▁पहलुओं	-4528
▁पैमाने	-4529
▁फिनाइल	-4530
▁रबडॉइड	-4531
▁रोजगार	-4532
विज्ञानी	-4533
ोग्राफिक	-4534
▁ग्लूटाम	-4535
▁बैंकिंग	-4536
▁रिएक्शन	-4537
▁वस्तुओं	-4538
▁इफेक्टिव	-4539
▁पेरिफेरल	-4540
▁प्लानिंग	-4541
▁अध्यक्षता	-4542
▁अनुप्रयोग	-4543
▁इम्यूनोएसे	-4544
▁सेरेब्रोस्प	-4545
LL	-4546
es	-4547
उंट	-4548
िडन	-4549
▁32	-4550
फेरी	-4551
व्यव	-4552
ेसिव	-4553
ोमिक	-4554
▁काई	-4555
▁खरी	-4556
▁जीए	-4557
▁टूट	-4558
▁पिघ	-4559
▁पैं	-4560
▁पोष	-4561
▁लघु	-4562
▁सौर	-4563
▁हाइ	-4564
क्टीर	-4565
िन्‍न	-4566
▁आहार	-4567
▁किलो	-4568
▁गुजर	-4569
▁चींट	-4570
▁डोनर	-4571
▁पेपर	-4572
▁बाधा	-4573
▁रचना	-4574
▁विकल	-4575
▁संगठ	-4576
▁हस्त	-4577
पोरेशन	-4578
प्रकार	-4579
साधारण	-4580
ाइजेशन	-4581
ाहित्य	-4582
▁इनिशल	-4583
▁क्षति	-4584
▁ज्ञात	-4585
▁डेप्थ	-4586
▁पोलार	-4587
▁फाइनल	-4588
▁समर्थ	-4589
▁हटाना	-4590
ोसाइटिक	-4591
▁एजेंसी	-4592
▁ठहराया	-4593
▁निपटान	-4594
▁प्रवाह	-4595
▁बढ़ाया	-4596
▁वर्गों	-4597
▁उपस्थित	-4598
▁विकलांग	-4599
▁विश्वास	-4600
▁साहित्य	-4601
▁कोयंबटूर	-4602
▁एल्डिहाइड	-4603
▁ग्लाइकोजन	-4604
▁मायलोजेनस	-4605
▁रेसीड्यूज	-4606
▁सॉल्‍वेंट	-4607
▁दस्तावेजों	-4608
▁प्रशिक्षित	-4609
▁एपिथेलियोइड	-4610
▁ट्रांसपोर्ट	-4611
▁मोनोसैकेराइड्स	-4612
टन	-4613
बे	-4614
रि	-4615
ोव	-4616
अनु	-4617
कुछ	-4618
टरे	-4619
राज	-4620
शिप	-4621
सरण	-4622
▁26	-4623
▁36	-4624
▁अट	-4625
▁कण	-4626
▁घा	-4627
घटना	-4628
पीवी	-4629
ासिल	-4630
ेन्स	-4631
्रोप	-4632
▁कने	-4633
▁कीट	-4634
▁दोष	-4635
▁पाय	-4636
▁पोट	-4637
▁बजट	-4638
▁स्म	-4639
▁ॠणा	-4640
कोष्ठ	-4641
धानिक	-4642
बार्ड	-4643
ल्पना	-4644
स्पर्	-4645
▁अनाज	-4646
▁अस्प	-4647
▁आर्ज	-4648
▁खुले	-4649
▁गर्म	-4650
▁टिशु	-4651
▁सूजन	-4652
▁स्टो	-4653
बीनेशन	-4654
स्कोपी	-4655
ाइलग्ल	-4656
ोज़िज़	-4657
▁आकृति	-4658
▁इंस्ट	-4659
▁गर्दन	-4660
▁जिसने	-4661
▁लिखित	-4662
▁हासिल	-4663
िश्रमिक	-4664
▁अनुसरण	-4665
▁इन्हिब	-4666
▁एंगल्स	-4667
▁दिवाला	-4668
▁भ्रष्ट	-4669
▁याचिका	-4670
▁संहिता	-4671
▁साइक्ल	-4672
▁असाधारण	-4673
▁उपकरणों	-4674
▁डाग्नोस	-4675
▁न्यायिक	-4676
▁संरक्षण	-4677
▁सलाहकार	-4678
▁इंजीनियर	-4679
▁एम्ब्र्य	-4680
▁तंत्रिका	-4681
▁पुनर्वास	-4682
▁प्रकोष्ठ	-4683
▁वैस्कुलर	-4684
▁सुविधाएं	-4685
▁प्रावस्था	-4686
▁हस्तक्षेप	-4687
▁पारिश्रमिक	-4688
▁प्रतिस्पर्	-4689
▁स्पेक्ट्रोम	-4690
▁हेमांगीओमास	-4691
▁इलेक्ट्रोस्ट	-4692
19	-4693
29	-4694
un	-4695
ुट	-4696
▁d	-4697
▁m	-4698
ंघन	-4699
ंसी	-4700
फ़ी	-4701
सिस	-4702
ूली	-4703
्यय	-4704
▁45	-4705
▁75	-4706
chin	-4707
डीएस	-4708
र्नि	-4709
लाया	-4710
वेयर	-4711
शाली	-4712
सर्स	-4713
िह्न	-4714
ोस्ड	-4715
्‍यू	-4716
▁कृप	-4717
▁डिव	-4718
▁फेज	-4719
▁बोल	-4720
▁मनु	-4721
▁मैप	-4722
▁रोट	-4723
▁सेप	-4724
▁हेप	-4725
कार्ब	-4726
क्रिय	-4727
दारों	-4728
दृश्य	-4729
पुट्स	-4730
राधिक	-4731
▁AIDS	-4732
▁अभिव	-4733
▁ऊपरी	-4734
▁एनएच	-4735
▁कौशल	-4736
▁दक्ष	-4737
▁देरी	-4738
▁नवीन	-4739
▁पूरक	-4740
▁बांड	-4741
▁मिनट	-4742
▁रिज़	-4743
चाइल्ड	-4744
फेक्शन	-4745
ियोफेर	-4746
्नोसिस	-4747
▁आयनिक	-4748
▁इंटरे	-4749
▁काफ़ी	-4750
▁क्रान	-4751
▁चेन्स	-4752
▁ढांचे	-4753
▁तीनों	-4754
▁देंगे	-4755
▁पोर्ट	-4756
▁फ्लोर	-4757
▁मार्च	-4758
▁विनिम	-4759
▁सेंटर	-4760
▁सेन्ट	-4761
▁स्टोर	-4762
ग्नेटिक	-4763
धिकारिक	-4764
भावस्था	-4765
▁तत्वों	-4766
▁न्यूली	-4767
▁फाइब्र	-4768
▁विलायक	-4769
▁2010-11	-4770
▁उल्लंघन	-4771
▁डिज़ाइन	-4772
▁तकनीकों	-4773
▁धनात्मक	-4774
▁निर्गमन	-4775
▁बैक्टीर	-4776
▁महिलाओं	-4777
▁मुद्दों	-4778
▁आधिकारिक	-4779
▁केंद्रित	-4780
▁दुर्घटना	-4781
▁सपोर्टिड	-4782
▁डायग्नोस्ड	-4783
▁अनसैचुरेटेड	-4784
▁प्रोग्नोसिस	-4785
▁इलेक्ट्रॉनिक	-4786
▁पॉलीसेकेराइड्स	-4787
20	-4788
47	-4789
80	-4790
ct	-4791
is	-4792
ुष	-4793
ोह	-4794
आउट	-4795
टीय	-4796
डोल	-4797
तीत	-4798
न्ज	-4799
पित	-4800
बेस	-4801
मिन	-4802
लाश	-4803
हीन	-4804
्टा	-4805
▁कन	-4806
▁जय	-4807
▁व्	-4808
थाओं	-4809
िशिए	-4810
ुल्क	-4811
ेसिस	-4812
ोनाल	-4813
्रोल	-4814
▁11.	-4815
▁ऊष्	-4816
▁कोल	-4817
▁टेट	-4818
▁तिथ	-4819
▁नकद	-4820
▁पश्	-4821
▁मेन	-4822
▁मोट	-4823
▁सील	-4824
▁हार	-4825
क्टोज	-4826
ट्रेट	-4827
न्यूर	-4828
रेक्ट	-4829
लेटेड	-4830
ांतों	-4831
िटर्स	-4832
्टिंग	-4833
्रोमल	-4834
▁एलान	-4835
▁कंडी	-4836
▁घंटे	-4837
▁दाता	-4838
▁देकर	-4839
▁देखे	-4840
▁पादर	-4841
▁पृथक	-4842
▁फेज़	-4843
▁बयान	-4844
▁बांध	-4845
▁विभा	-4846
▁शासन	-4847
▁सिने	-4848
▁स्ना	-4849
▁स्वच	-4850
▁हिडन	-4851
क्षणिक	-4852
क्षरता	-4853
क्साइड	-4854
नेसाइट	-4855
ान्वित	-4856
▁आयोजन	-4857
▁करेंट	-4858
▁कृपया	-4859
▁चिह्न	-4860
▁डिस्ट	-4861
▁बुद्ध	-4862
▁मिनिम	-4863
▁वेट्स	-4864
वाइडर्स	-4865
ाइज़ेशन	-4866
▁असमर्थ	-4867
▁आयुक्त	-4868
▁क़ानून	-4869
▁दुनिया	-4870
▁द्रव्य	-4871
▁पेशेंट	-4872
▁मेथड्स	-4873
▁सहकारी	-4874
▁सोडियम	-4875
▁स्फिंग	-4876
▁स्वरूप	-4877
▁अभियंता	-4878
▁इंस्टीट	-4879
▁जानेंगे	-4880
▁द्वितीय	-4881
▁फोर्सेज	-4882
▁विधियों	-4883
ॉलिक्यूलर	-4884
▁तस्वीरों	-4885
▁नामांकित	-4886
▁पादरियों	-4887
▁शैक्षणिक	-4888
▁स्ट्रोमल	-4889
▁निष्क्रिय	-4890
▁लाभान्वित	-4891
▁गर्भावस्था	-4892
▁प्रोवाइडर्स	-4893
▁रोगविज्ञानी	-4894
▁एम्ब्र्योनाल	-4895
▁प्रौद्योगिकी	-4896
40	-4897
आइ	-4898
डर	-4899
तल	-4900
पै	-4901
मु	-4902
ूड	-4903
ईटी	-4904
डिए	-4905
िमल	-4906
ेवर	-4907
्ठा	-4908
▁33	-4909
▁41	-4910
▁ऑड	-4911
▁लै	-4912
ताया	-4913
धीरे	-4914
रोगी	-4915
िप्त	-4916
िरिन	-4917
ृत्त	-4918
ेनॉल	-4919
▁10.	-4920
▁12.	-4921
▁ऑफ़	-4922
▁धात	-4923
▁फोट	-4924
▁वान	-4925
▁सेर	-4926
कार्य	-4927
केलेट	-4928
पुस्त	-4929
र्जित	-4930
वारों	-4931
ांतिक	-4932
▁अधिश	-4933
▁आर्ट	-4934
▁इन्ट	-4935
▁कैल्	-4936
▁खुली	-4937
▁डेवल	-4938
▁दिवस	-4939
▁निया	-4940
▁फ़ोर	-4941
▁शहरी	-4942
▁सिंथ	-4943
एनर्जी	-4944
फ्यूजन	-4945
वर्षीय	-4946
ोजेक्ट	-4947
ोलॉजिक	-4948
▁अवरोध	-4949
▁कपोसी	-4950
▁कॉलेज	-4951
▁खाद्य	-4952
▁निवार	-4953
▁फैलाव	-4954
▁बकाया	-4955
▁बातें	-4956
▁भेजने	-4957
▁मल्टी	-4958
▁विरोध	-4959
▁शहरों	-4960
▁सतर्क	-4961
▁सूचित	-4962
वर्तमान	-4963
स्ट्रॉम	-4964
्यात्मक	-4965
▁एकीकृत	-4966
▁खरीदने	-4967
▁चौड़ाई	-4968
▁ट्रिपल	-4969
▁तैयारी	-4970
▁पेप्‍ट	-4971
▁बर्किट	-4972
▁मुद्रण	-4973
▁लाइसिन	-4974
▁विनिमय	-4975
▁सम्मान	-4976
स्क्युलर	-4977
▁अपेक्षा	-4978
▁किशोरों	-4979
▁ग्लाइको	-4980
▁नाबार्ड	-4981
▁निकायों	-4982
▁यौगिकों	-4983
▁संपूर्ण	-4984
▁स्प्लीन	-4985
▁अधिमान्य	-4986
▁आर्जिनिन	-4987
▁कैल्शियम	-4988
▁ग्लिसरॉल	-4989
▁टायरोसिन	-4990
▁मेल्टिंग	-4991
▁विनियमित	-4992
▁निर्देशित	-4993
▁पंचवर्षीय	-4994
▁फॉस्फोलिप	-4995
▁रक्तस्राव	-4996
▁रिक्तियों	-4997
▁वाणिज्यिक	-4998
▁श्रेणियों	-4999
▁सब्सट्रेट	-5000
▁स्वीकार्य	-5001
▁नरभक्षियों	-5002
▁मैग्नेसाइट	-5003
▁रक्तप्रवाह	-5004
▁स्थानांतरण	-5005
▁इंस्टीट्यूट	-5006
▁परिस्थितियों	-5007
?>	-5008
CS	-5009
re	-5010
एआर	-5011
टिक	-5012
ताल	-5013
ात्	-5014
▁(3	-5015
▁3-	-5016
▁43	-5017
▁st	-5018
▁छि	-5019
▁फी	-5020
एमएस	-5021
गरूक	-5022
टरनल	-5023
रक्त	-5024
रेखा	-5025
रेटर	-5026
र्डर	-5027
सरों	-5028
िकता	-5029
िन्स	-5030
ियाल	-5031
ेष्ठ	-5032
▁50%	-5033
▁अनल	-5034
▁इकट	-5035
▁चौथ	-5036
▁छवि	-5037
▁दूध	-5038
▁देय	-5039
▁पाथ	-5040
▁मूक	-5041
▁मेज	-5042
▁सल्	-5043
च्योर	-5044
तायात	-5045
प्रोल	-5046
सुधार	-5047
ाइडेड	-5048
ाज्मा	-5049
िज्या	-5050
िसिटी	-5051
ेल्टा	-5052
▁1000	-5053
▁आईसी	-5054
▁इनकी	-5055
▁उठाए	-5056
▁ओर्ग	-5057
▁जलीय	-5058
▁डिफ़	-5059
▁तलाश	-5060
▁थिरु	-5061
▁नज़र	-5062
▁नीडल	-5063
▁पद्ध	-5064
▁पर्य	-5065
▁पहुँ	-5066
▁पीढ़	-5067
▁पेयर	-5068
▁पैसे	-5069
▁प्रण	-5070
▁मोटर	-5071
▁लंबा	-5072
▁लेती	-5073
▁वाटर	-5074
▁विघट	-5075
▁समित	-5076
▁सीटी	-5077
टार्गे	-5078
टेनियस	-5079
▁अवशोष	-5080
▁क्रेन	-5081
▁ग्रोथ	-5082
▁चक्रण	-5083
▁थर्मल	-5084
▁दाखिल	-5085
▁बताने	-5086
▁मंजूर	-5087
▁मेडुल	-5088
▁रूपये	-5089
▁संक्ष	-5090
प्रणाली	-5091
ोमेट्री	-5092
▁एमआरआई	-5093
▁कैथेटर	-5094
▁छात्रा	-5095
▁जवाबदे	-5096
▁जागरूक	-5097
▁दिशानि	-5098
▁पुष्टि	-5099
▁शिकायत	-5100
▁सिनेमा	-5101
ोलिपिड्स	-5102
▁अर्थात्	-5103
▁अस्थायी	-5104
▁एकमात्र	-5105
▁तदनुसार	-5106
▁न्यूरॉन	-5107
▁परिव्यय	-5108
▁परेशानी	-5109
▁यातायात	-5110
▁यूनिट्स	-5111
▁राज्यों	-5112
▁राष्ट्र	-5113
▁रिटेंशन	-5114
▁वैधानिक	-5115
▁संगठनों	-5116
▁सैंट्रल	-5117
ेप्टाइड्स	-5118
▁उपप्रकार	-5119
▁एस्पिरिन	-5120
▁त्रिज्या	-5121
▁परिदृश्य	-5122
▁मांसपेशी	-5123
▁विद्यालय	-5124
▁संरक्षित	-5125
▁साक्षरता	-5126
्रोमैटोसिस	-5127
▁एक्स्ट्रा	-5128
▁प्रोजेक्ट	-5129
▁मैग्नेटिक	-5130
▁संक्षिप्त	-5131
▁इंट्राथेकल	-5132
▁फिलामेंट्स	-5133
▁व्युत्पन्न	-5134
▁दिशानिर्देश	-5135
▁उत्तरदायित्व	-5136
▁सेवानिवृत्ति	-5137
▁हाइड्रोफिलिक	-5138
8.	-5139
पे	-5140
ोइ	-5141
▁+	-5142
▁h	-5143
CNS	-5144
एआई	-5145
जीज	-5146
ज्म	-5147
निन	-5148
पिल	-5149
मूल	-5150
म्‍	-5151
रेज	-5152
लेम	-5153
वेल	-5154
संग	-5155
ोसै	-5156
▁29	-5157
▁आँ	-5158
▁टन	-5159
▁फि	-5160
कदमा	-5161
पक्ष	-5162
बीआई	-5163
वर्न	-5164
ाचार	-5165
ेटिव	-5166
▁कमा	-5167
▁चले	-5168
▁ज़र	-5169
▁ट्व	-5170
▁डिस	-5171
▁डैश	-5172
▁पैक	-5173
▁वेट	-5174
प्रति	-5175
िकल्स	-5176
ेंसेस	-5177
▁2016	-5178
▁अयोग	-5179
▁आकलन	-5180
▁उत्स	-5181
▁एसोस	-5182
▁कहाँ	-5183
▁केन्	-5184
▁ग्‍ल	-5185
▁तिथि	-5186
▁तोड़	-5187
▁पैसा	-5188
▁फैला	-5189
▁फ्लो	-5190
▁मिली	-5191
▁लाया	-5192
▁वैसे	-5193
▁संतु	-5194
▁सत्य	-5195
पूर्ति	-5196
सोमर्स	-5197
▁कोयले	-5198
▁जिनसे	-5199
▁ट्राइ	-5200
▁डिजीज	-5201
▁परिसर	-5202
▁फैलते	-5203
▁बाध्य	-5204
▁विवाद	-5205
▁समेशन	-5206
ॉल्यूशन	-5207
्युटेशन	-5208
▁Sachin	-5209
▁उच्चतम	-5210
▁जोड़ता	-5211
▁नमूनों	-5212
▁पेशेवर	-5213
▁प्रणाल	-5214
▁फ्लूइड	-5215
▁मुकदमा	-5216
▁मूलभूत	-5217
▁रास्ता	-5218
▁एकत्रित	-5219
▁ग्रुप्स	-5220
▁ट्रैक्ट	-5221
▁ध्रुवीय	-5222
▁माल्टोज	-5223
▁रेडियोस	-5224
▁उत्पादों	-5225
▁एनालिसिस	-5226
▁डॉक्टरों	-5227
▁प्रमाणित	-5228
▁विकल्पों	-5229
▁सर्वोच्च	-5230
▁स्वचालित	-5231
▁इन्फेक्शन	-5232
▁वस्क्युलर	-5233
▁सॉफ्टवेयर	-5234
▁बैक्टीरिया	-5235
▁क्रोमैटोग्राफिक	-5236
▁स्टीरियोटैक्टिक	-5237
IV	-5238
ST	-5239
गण	-5240
डे	-5241
थर	-5242
दय	-5243
यु	-5244
रम	-5245
़न	-5246
ूण	-5247
चिम	-5248
ज्ज	-5249
टीम	-5250
नेल	-5251
पाल	-5252
पुर	-5253
बिल	-5254
मेट	-5255
शास	-5256
सीज	-5257
िंक	-5258
ुडी	-5259
ॉमी	-5260
▁42	-5261
▁49	-5262
▁to	-5263
▁इव	-5264
▁ख़	-5265
▁ति	-5266
▁मर	-5267
ऊंगा	-5268
र्जन	-5269
वेली	-5270
स्टी	-5271
▁आइस	-5272
▁कन्	-5273
▁कोण	-5274
▁गार	-5275
▁फिज	-5276
▁बचे	-5277
▁बीज	-5278
▁भाव	-5279
▁रात	-5280
▁रिड	-5281
▁लगे	-5282
▁विर	-5283
▁वीड	-5284
▁साठ	-5285
इलिंग	-5286
च्छेद	-5287
टीकरण	-5288
थेनॉल	-5289
र्माण	-5290
स्टेज	-5291
स्तों	-5292
्यूज़	-5293
▁अपरा	-5294
▁अभिल	-5295
▁आवेद	-5296
▁एक्व	-5297
▁करवा	-5298
▁खुला	-5299
▁गहरा	-5300
▁घुमा	-5301
▁छाती	-5302
▁देखी	-5303
▁नर्व	-5304
▁नाइट	-5305
▁पाते	-5306
▁बचने	-5307
▁मेमो	-5308
▁सचिन	-5309
▁सेडी	-5310
त्यक्ष	-5311
्यूटेड	-5312
▁अंकित	-5313
▁केराट	-5314
▁कोर्ट	-5315
▁क्रमश	-5316
▁ग्लोब	-5317
▁घावों	-5318
▁चार्ट	-5319
▁दिखती	-5320
▁पुरुष	-5321
▁प्रिं	-5322
▁बताना	-5323
▁मैक्स	-5324
▁लचीले	-5325
▁लाभों	-5326
▁विधान	-5327
▁विविध	-5328
▁समझते	-5329
▁साइकल	-5330
▁हाइपर	-5331
पट्टिनम	-5332
▁अध्याय	-5333
▁कहलाती	-5334
▁ग्लैंड	-5335
▁डेल्टा	-5336
▁पैंतीस	-5337
▁फिचर्स	-5338
▁वीडियो	-5339
▁श्रमिक	-5340
▁समुदाय	-5341
▁सुनामी	-5342
▁सेलुलर	-5343
लेक्‍यूल	-5344
ोजेनेटिक	-5345
▁आकर्षित	-5346
▁आरक्षित	-5347
▁ऋणात्मक	-5348
▁एनीमिया	-5349
▁पहचानने	-5350
▁माइक्रो	-5351
▁संयंत्र	-5352
▁स्टेजेस	-5353
मैग्नेटिक	-5354
▁प्रतिदान	-5355
▁यूनिवर्स	-5356
▁विभिन्‍न	-5357
▁संग्रहित	-5358
▁संरचनाएँ	-5359
▁एनालाइट्स	-5360
▁न्यूरॉन्स	-5361
▁प्रायिकता	-5362
▁माइलोजेनस	-5363
▁संवेदनशील	-5364
▁अप्रत्यक्ष	-5365
▁कम्प्यूटरी	-5366
▁प्रणालियों	-5367
▁प्रवर्त्तक	-5368
▁भ्रष्टाचार	-5369
▁ट्रीटमेंट्स	-5370
▁सेडीमेंटेशन	-5371
▁स्क्रिप्ट्स	-5372
▁इंटरैक्‍शन्स	-5373
▁इलेक्ट्रॉनों	-5374
▁प्रतिस्पर्धा	-5375
ाइनोब्लास्टोमा	-5376
▁स्‍ट्रक्‍चर्स	-5377
,1	-5378
,6	-5379
,7	-5380
val	-5381
ंटन	-5382
एगा	-5383
कता	-5384
जनक	-5385
णनी	-5386
धित	-5387
पान	-5388
मोल	-5389
रिए	-5390
रेल	-5391
व्र	-5392
ाइर	-5393
िनी	-5394
▁47	-5395
▁pk	-5396
▁कब	-5397
▁घर	-5398
▁पौ	-5399
▁मल	-5400
▁लौ	-5401
मर्स	-5402
यर्स	-5403
सिंग	-5404
सीका	-5405
सूली	-5406
▁अपर	-5407
▁कोष	-5408
▁चिं	-5409
▁पीक	-5410
▁बुक	-5411
▁भाष	-5412
▁संक	-5413
▁हीट	-5414
-2009	-5415
क्रोम	-5416
पमेंट	-5417
ाइब्र	-5418
िटेशन	-5419
्वेंट	-5420
▁अम्ल	-5421
▁एप्स	-5422
▁खाने	-5423
▁खाली	-5424
▁चलिए	-5425
▁जल्द	-5426
▁पढ़ा	-5427
▁फ्लु	-5428
▁रणनी	-5429
▁रेयर	-5430
▁रैबड	-5431
▁लम्ब	-5432
प्रबंध	-5433
िक्विस	-5434
▁अपराध	-5435
▁असंभव	-5436
▁एजेंट	-5437
▁चलाने	-5438
▁चींटी	-5439
▁तीव्र	-5440
▁नैतिक	-5441
▁प्रिर	-5442
▁बातों	-5443
▁लिस्ट	-5444
▁लेंगे	-5445
▁वसूली	-5446
▁समझें	-5447
▁सैद्ध	-5448
▁स्टैक	-5449
▁स्माल	-5450
याफ्राम	-5451
ारात्मक	-5452
ियोफेरी	-5453
िशिएंसी	-5454
▁अर्जित	-5455
▁उपायों	-5456
▁एक्टिव	-5457
▁झिल्ली	-5458
▁निकाला	-5459
▁परिचित	-5460
▁मानदंड	-5461
▁मिलेगा	-5462
▁मिलेगी	-5463
▁रिवर्स	-5464
▁समझाया	-5465
▁सिलिका	-5466
एसाइलग्ल	-5467
▁औपचारिक	-5468
▁डोमेन्स	-5469
▁पहुंचाए	-5470
▁पार्किन	-5471
▁प्रोटीओ	-5472
▁ब्लास्ट	-5473
टार्गेटेड	-5474
▁क्रॉसओवर	-5475
▁डिफ़ॉल्ट	-5476
▁प्रतिकूल	-5477
▁प्रवर्तन	-5478
▁रिसेप्टर	-5479
▁शिकायतों	-5480
▁स्ट्रिंग	-5481
▁कम्प्यूटर	-5482
▁प्रकटीकरण	-5483
▁प्रदर्शित	-5484
एसाइलग्लिसर	-5485
▁कार्यात्मक	-5486
▁कॉम्बीनेशन	-5487
▁पाठ्यपुस्त	-5488
▁प्रोब्लम्स	-5489
▁मेलिग्नेंट	-5490
▁सैद्धांतिक	-5491
▁प्रिरिक्विस	-5492
▁प्रोत्साहित	-5493
▁कार्यप्रणाली	-5494
▁अधिग्रहणकर्ता	-5495
▁सेरेब्रोस्पाइनल	-5496
ET	-5497
ed	-5498
णी	-5499
बह	-5500
यक	-5501
हे	-5502
ौन	-5503
ing	-5504
कुम	-5505
कोह	-5506
ड्र	-5507
नाव	-5508
पीट	-5509
बों	-5510
विच	-5511
श्व	-5512
ावट	-5513
ीशन	-5514
ैशन	-5515
▁24	-5516
▁आब	-5517
▁जम	-5518
▁दौ	-5519
▁नं	-5520
▁भव	-5521
valu	-5522
आईपी	-5523
जाति	-5524
डिएट	-5525
िकेट	-5526
िल्स	-5527
ूचना	-5528
ेन्ट	-5529
▁अवय	-5530
▁आरओ	-5531
▁करे	-5532
▁टिक	-5533
▁डिल	-5534
▁डेड	-5535
▁पाद	-5536
▁मूव	-5537
▁राय	-5538
▁रिप	-5539
▁साब	-5540
▁सौं	-5541
ation	-5542
ction	-5543
क्रिप	-5544
चित्र	-5545
तावरण	-5546
द्रीय	-5547
नियों	-5548
स्करण	-5549
िक्रम	-5550
ैल्यू	-5551
▁2014	-5552
▁कणों	-5553
▁जाति	-5554
▁डीटी	-5555
▁डेंस	-5556
▁थकान	-5557
▁फ़िर	-5558
▁बनना	-5559
▁मैरो	-5560
▁म्यू	-5561
▁राजा	-5562
▁श्रम	-5563
▁समतल	-5564
▁समीप	-5565
▁हायर	-5566
क्टेयर	-5567
मीडिएट	-5568
▁अस्वी	-5569
▁आदतों	-5570
▁उपहार	-5571
▁कोर्स	-5572
▁डिसीज	-5573
▁तिहाई	-5574
▁प्लाई	-5575
▁फायदे	-5576
▁बचाने	-5577
▁मैनेज	-5578
▁लसीका	-5579
▁विवाह	-5580
▁वेरिए	-5581
▁सिक्स	-5582
न्जिओमा	-5583
िफिकेशन	-5584
▁आदेशों	-5585
▁एमडीएस	-5586
▁ओर्गंस	-5587
▁काइनेस	-5588
▁कारणों	-5589
▁केमिकल	-5590
▁क्रमशः	-5591
▁गणितीय	-5592
▁जुड़ता	-5593
▁दूसरों	-5594
▁निभाता	-5595
▁निवारण	-5596
▁फेफड़े	-5597
▁भंडारण	-5598
▁मार्कर	-5599
▁मिथाइल	-5600
▁मिलियन	-5601
▁रिजल्ट	-5602
▁लूप्‍स	-5603
▁संभवतः	-5604
▁सड़कें	-5605
▁सेल्‍स	-5606
्रासाउंड	-5607
▁आपराधिक	-5608
▁कार्बोन	-5609
▁डिफ्यूज	-5610
▁पिघलाया	-5611
▁बुद्धिम	-5612
▁वातावरण	-5613
▁संबंधों	-5614
▁अधिसूचना	-5615
▁अनुच्छेद	-5616
▁आईसीडीआर	-5617
▁ग्राहकों	-5618
▁जागरूकता	-5619
▁निष्पक्ष	-5620
▁प्लाज्मा	-5621
▁फंगोइड्स	-5622
▁हेक्टेयर	-5623
▁क्षेत्रीय	-5624
▁डायाफ्राम	-5625
▁परीक्षाओं	-5626
▁सिस्टेमिक	-5627
्रोसार्कोमा	-5628
▁सिद्धांतों	-5629
▁हस्तांतरित	-5630
▁मैट्रिकुलेशन	-5631
ियोफेरीन्जिओमा	-5632
▁कंसेप्च्युलाइज़	-5633
,8	-5634
22	-5635
AT	-5636
CL	-5637
RA	-5638
ro	-5639
दह	-5640
ेव	-5641
IST	-5642
ँगा	-5643
इन्	-5644
कोर	-5645
चीन	-5646
जीव	-5647
ड़न	-5648
पेल	-5649
ाले	-5650
िनग	-5651
ृदय	-5652
्टन	-5653
▁(1	-5654
▁आन	-5655
▁इर	-5656
▁खन	-5657
▁गज	-5658
▁छव	-5659
▁धु	-5660
▁मक	-5661
▁रू	-5662
▁हद	-5663
द्री	-5664
सीबी	-5665
स्टर	-5666
ाँकि	-5667
िटिक	-5668
िन्ज	-5669
ियार	-5670
ूँकि	-5671
ेंडर	-5672
▁ALL	-5673
▁अधी	-5674
▁असल	-5675
▁आशय	-5676
▁एरो	-5677
▁गईं	-5678
▁गैं	-5679
▁जून	-5680
▁नजर	-5681
▁नवी	-5682
▁नाव	-5683
▁बेच	-5684
▁भेद	-5685
▁वंश	-5686
▁वरी	-5687
▁वाक	-5688
▁वैध	-5689
गमेंट	-5690
ज्ञात	-5691
नीकरण	-5692
फ्लेम	-5693
रीजनल	-5694
रेनोज	-5695
स्टीन	-5696
ार्मल	-5697
▁2001	-5698
▁असमा	-5699
▁एसआई	-5700
▁ऑर्ग	-5701
▁ओलिग	-5702
▁गठित	-5703
▁चौदह	-5704
▁ट्रे	-5705
▁धातु	-5706
▁पोली	-5707
▁बदले	-5708
▁बैरल	-5709
▁भरने	-5710
▁माता	-5711
▁युवा	-5712
▁राइब	-5713
▁रैंक	-5714
▁समेक	-5715
▁साधन	-5716
कहोल्ड	-5717
प्रेशन	-5718
सर्जरी	-5719
िक्विड	-5720
्लेषित	-5721
▁उत्कृ	-5722
▁क्रमा	-5723
▁चुनते	-5724
▁चुनाव	-5725
▁चूँकि	-5726
▁दिखाए	-5727
▁पट्टा	-5728
▁पादरी	-5729
▁पीढ़ी	-5730
▁पुलिस	-5731
▁फैसला	-5732
▁बदलता	-5733
▁वगैरह	-5734
श्रेष्ठ	-5735
िनगिओमा	-5736
▁अज्ञात	-5737
▁अभियान	-5738
▁अल्कोह	-5739
▁एचसीएल	-5740
▁जोड़ते	-5741
▁नियामक	-5742
▁परस्पर	-5743
▁भाषाओं	-5744
▁मशीनरी	-5745
▁मापदंड	-5746
▁मिलाकर	-5747
▁मेमोरी	-5748
▁वरीयता	-5749
▁संलग्न	-5750
▁सुपरकॉ	-5751
▁स्कैनर	-5752
▁अतिक्रम	-5753
▁इनपुट्स	-5754
▁डेटाबेस	-5755
▁नमस्कार	-5756
▁नामांकन	-5757
▁रेशेदार	-5758
▁लिक्विड	-5759
▁वैल्यूज	-5760
▁हालाँकि	-5761
चाइल्डहुड	-5762
▁आर्गोनिक	-5763
▁उदाहरणों	-5764
▁एस्पार्ट	-5765
▁कुप्रबंध	-5766
▁पुस्तकें	-5767
▁प्रॉब्लम	-5768
▁फ्रक्टोज	-5769
▁बॉन्डिंग	-5770
▁ब्रोमाइड	-5771
▁लिस्टिंग	-5772
▁व्यापारी	-5773
▁संक्रमित	-5774
▁साइक्लिक	-5775
▁कार्बोनिल	-5776
▁क्रियान्व	-5777
▁द्रव्यमान	-5778
▁परीक्षकों	-5779
▁पोटेंशियल	-5780
▁मैनेजमेंट	-5781
▁विस्तारित	-5782
▁संश्लेषित	-5783
ियोसार्कोमा	-5784
▁पारदर्शिता	-5785
▁सांख्यिकीय	-5786
▁स्टेकहोल्ड	-5787
▁कार्यक्रमों	-5788
▁ट्रांसक्रिप	-5789
▁प्रतियोगिता	-5790
▁प्रिमिटिव्ज	-5791
▁सर्वश्रेष्ठ	-5792
ियोफेरिनगिओमा	-5793
ब्डोमायोसारकोमा	-5794
▁पाइनोब्लास्टोमा	-5795
ww	-5796
आप	-5797
चक	-5798
जल	-5799
पत	-5800
है	-5801
CSR	-5802
एफ़	-5803
पूर	-5804
फुल	-5805
फेन	-5806
बाय	-5807
बैक	-5808
मैन	-5809
राच	-5810
ायल	-5811
ासत	-5812
िरो	-5813
ॉर्	-5814
्यव	-5815
▁35	-5816
▁70	-5817
▁pH	-5818
▁कट	-5819
▁डर	-5820
atic	-5821
कुलर	-5822
ज़िन	-5823
जुगे	-5824
त्ते	-5825
दत्त	-5826
धर्म	-5827
ध्या	-5828
र्सर	-5829
ावली	-5830
ेटरी	-5831
▁MRI	-5832
▁fun	-5833
▁आशा	-5834
▁काल	-5835
▁चली	-5836
▁चिप	-5837
▁जैल	-5838
▁तत्	-5839
▁पोर	-5840
▁मोब	-5841
▁रखी	-5842
▁वरि	-5843
▁व्ह	-5844
▁शिव	-5845
▁सिम	-5846
▁सीओ	-5847
दासीन	-5848
प्रिं	-5849
रेटिव	-5850
र्शनल	-5851
शुल्क	-5852
हिस्ट	-5853
िस्‍ट	-5854
ैक्शन	-5855
▁100%	-5856
▁2003	-5857
▁अराच	-5858
▁अवयव	-5859
▁असफल	-5860
▁एंडो	-5861
▁एकड़	-5862
▁गुना	-5863
▁गुहा	-5864
▁गोला	-5865
▁चुकी	-5866
▁चुने	-5867
▁चैनल	-5868
▁तटीय	-5869
▁त्रि	-5870
▁बंधे	-5871
▁बारी	-5872
▁बीआई	-5873
▁बैंड	-5874
▁वायु	-5875
▁सलेम	-5876
▁सहमत	-5877
▁हृदय	-5878
कुमारी	-5879
िडोनिक	-5880
िलेटेड	-5881
ोग्राम	-5882
▁evalu	-5883
▁अवस्‍	-5884
▁आदर्श	-5885
▁कराया	-5886
▁खोलने	-5887
▁गैडोल	-5888
▁जनवरी	-5889
▁पृष्ठ	-5890
▁पॉलिम	-5891
▁फ्लूड	-5892
▁बंधती	-5893
▁भ्रूण	-5894
▁मालिक	-5895
▁मित्र	-5896
▁वैश्व	-5897
▁सफलता	-5898
▁साबित	-5899
▁सेकंड	-5900
▁static	-5901
▁आरबीआई	-5902
▁गारंटी	-5903
▁डाल्टन	-5904
▁निकलने	-5905
▁निवासी	-5906
▁पंजीयक	-5907
▁पद्धति	-5908
▁पश्चिम	-5909
▁पुराने	-5910
▁फिजिकल	-5911
▁फ्लुइड	-5912
▁मानसिक	-5913
▁मिलाया	-5914
▁वरिष्ठ	-5915
ोलोजिस्ट	-5916
▁अनुसूची	-5917
▁जरूरतों	-5918
▁टिश्यूज	-5919
▁टॉर्शनल	-5920
▁पहुंचने	-5921
▁प्रथाओं	-5922
▁मध्यस्थ	-5923
▁सतर्कता	-5924
▁स्रोतों	-5925
▁function	-5926
▁उल्लिखित	-5927
▁एनोमेरिक	-5928
▁कंपनियाँ	-5929
▁पारदर्शी	-5930
▁म्युटेशन	-5931
▁वर्गीकरण	-5932
▁समितियों	-5933
▁सिस्टम्स	-5934
▁कुप्रबंधन	-5935
▁प्रॉपगेशन	-5936
▁सेनानियों	-5937
▁सैचुरेटेड	-5938
▁evaluation	-5939
▁इंटरमीडिएट	-5940
▁तिरुवल्लुर	-5941
▁परिवर्तनीय	-5942
▁विशेषज्ञता	-5943
▁स्पेक्ट्रो	-5944
▁उम्मीदवारों	-5945
▁हाइड्रोकार्ब	-5946
▁प्रिरिक्विसिट्स	-5947
,4	-5948
CO	-5949
ML	-5950
RB	-5951
it	-5952
ंथ	-5953
गन	-5954
चन	-5955
चि	-5956
ठी	-5957
बो	-5958
यत	-5959
ॉग	-5960
▁k	-5961
-09	-5962
कें	-5963
टेट	-5964
ड़क	-5965
लीस	-5966
हैं	-5967
ाये	-5968
िअल	-5969
▁CD	-5970
▁in	-5971
▁अठ	-5972
▁उठ	-5973
टाइप	-5974
ट्री	-5975
तमिल	-5976
लेयर	-5977
ार्स	-5978
ॉक्स	-5979
्रेट	-5980
▁अका	-5981
▁खुश	-5982
▁गजट	-5983
▁गिर	-5984
▁घाट	-5985
▁टॉप	-5986
▁टॉल	-5987
▁नैन	-5988
▁पीड	-5989
▁भरा	-5990
▁भले	-5991
▁रुक	-5992
▁लिन	-5993
▁लैं	-5994
▁सरफ	-5995
▁सुल	-5996
▁होम	-5997
एएमएल	-5998
ऑक्सी	-5999
बंधित	-6000
म्प्ल	-6001
ल्‍टा	-6002
िवर्त	-6003
ैलेंट	-6004
▁इकोस	-6005
▁इमार	-6006
▁इसने	-6007
▁इस्‍	-6008
▁उक्त	-6009
▁खाता	-6010
▁जनरल	-6011
▁जीज़	-6012
▁जीरो	-6013
▁टर्श	-6014
▁धीमा	-6015
▁पहचा	-6016
▁मेजर	-6017
▁वाइट	-6018
▁हैंड	-6019
ंत्रित	-6020
गाइडेड	-6021
ेट्रिक	-6022
ेप्टिड	-6023
▁अठारह	-6024
▁अवशेष	-6025
▁आयनों	-6026
▁आयन्स	-6027
▁कमाने	-6028
▁कांची	-6029
▁जैविक	-6030
▁जोड़े	-6031
▁तालुक	-6032
▁दायरे	-6033
▁दिखते	-6034
▁नेशनल	-6035
▁न्‍यू	-6036
▁पैकेज	-6037
▁फाइबर	-6038
▁फार्म	-6039
▁बताती	-6040
▁भरपूर	-6041
▁मेलिग	-6042
▁रोकती	-6043
▁वस्तु	-6044
▁वाल्स	-6045
▁होल्ड	-6046
कराइड्स	-6047
ग्लियोस	-6048
र्गेनिक	-6049
्सिनोमा	-6050
▁इकट्ठा	-6051
▁उदासीन	-6052
▁एलानीन	-6053
▁करूंगा	-6054
▁काइनेज	-6055
▁तालिका	-6056
▁पंक्ति	-6057
▁पिछड़े	-6058
▁पेयर्स	-6059
▁प्रोफे	-6060
▁मैसर्स	-6061
▁मोबाइल	-6062
▁लेयर्स	-6063
▁समर्थन	-6064
▁समीकरण	-6065
▁सोल्यु	-6066
▁सोल्यू	-6067
्रोप्सिन	-6068
▁इंजीनिय	-6069
▁एसआईसीए	-6070
▁ऑलिगोसै	-6071
▁डेल्‍टा	-6072
▁प्रारूप	-6073
▁फाइबर्स	-6074
▁ब्रिजेस	-6075
▁मेनिन्ज	-6076
▁समझेंगे	-6077
▁सोल्युट	-6078
▁स्टोर्ड	-6079
▁इम्यूनोड	-6080
▁उत्कृष्ट	-6081
▁कोवैलेंट	-6082
▁परिवारों	-6083
▁परिसमापन	-6084
▁अंशधारकों	-6085
▁असमानांतर	-6086
▁इन्हिबिटर	-6087
▁इस्‍तेमाल	-6088
▁ग्लूटामिक	-6089
▁परीक्षाएं	-6090
▁बायोलॉजिक	-6091
▁उपभोक्ताओं	-6092
▁उपयोगकर्ता	-6093
▁गतिविधियां	-6094
▁गैंग्लियोस	-6095
▁सीक्वेंसेस	-6096
▁स्ट्रक्चरल	-6097
▁हिस्सेदारी	-6098
▁मेटास्टेटिक	-6099
▁रिज़ॉल्यूशन	-6100
▁सुपरकॉइलिंग	-6101
▁विद्यार्थियों	-6102
एड	-6103
ूथ	-6104
▁J	-6105
▁c	-6106
ँगी	-6107
चरण	-6108
जेन	-6109
ज्‍	-6110
द्द	-6111
फिन	-6112
बीम	-6113
र्घ	-6114
लाल	-6115
शिओ	-6116
सेट	-6117
ांड	-6118
िप्	-6119
िमस	-6120
ेरु	-6121
ोके	-6122
ौती	-6123
▁38	-6124
▁44	-6125
▁5.	-6126
▁CO	-6127
▁tw	-6128
▁एब	-6129
▁टा	-6130
▁मू	-6131
▁मृ	-6132
आईवी	-6133
क्ली	-6134
चफुल	-6135
भवती	-6136
मियम	-6137
रचना	-6138
रेज़	-6139
र्ता	-6140
विड़	-6141
ष्‍ट	-6142
स्‍त	-6143
ाइकन	-6144
िडीन	-6145
िनेट	-6146
िलेज	-6147
ीट्र	-6148
ेशन्	-6149
ैनिक	-6150
▁10%	-6151
▁असी	-6152
▁उतर	-6153
▁कैल	-6154
▁जोर	-6155
▁टाउ	-6156
▁डीप	-6157
▁डेर	-6158
▁तेज	-6159
▁दर्	-6160
▁पसी	-6161
▁मीड	-6162
▁मेस	-6163
▁रसी	-6164
▁सिक	-6165
ंद्रह	-6166
पीड़न	-6167
विधान	-6168
शिक्ष	-6169
ष्यों	-6170
िकासी	-6171
▁2002	-6172
▁आदान	-6173
▁आवास	-6174
▁इंजन	-6175
▁ग्री	-6176
▁टीएन	-6177
▁पड़े	-6178
▁पाने	-6179
▁फाइव	-6180
▁बंदी	-6181
▁बीमा	-6182
▁संगम	-6183
▁सारि	-6184
▁स्थल	-6185
▁हामी	-6186
▁हुईं	-6187
00,000	-6188
ग्रस्त	-6189
ध्यक्ष	-6190
मेंशनल	-6191
सेलुलर	-6192
िवारिक	-6193
्यूक्ल	-6194
्रैक्ट	-6195
▁अंतर्	-6196
▁ऊष्मा	-6197
▁एडीपी	-6198
▁कथनों	-6199
▁कराना	-6200
▁कोणों	-6201
▁खंडों	-6202
▁गवर्न	-6203
▁ग्रैन	-6204
▁चुनना	-6205
▁जानवर	-6206
▁जोड़ी	-6207
▁ट्रेड	-6208
▁पीट्र	-6209
▁पूछता	-6210
▁प्रीक	-6211
▁फ़ाइल	-6212
▁फिल्म	-6213
▁बंधता	-6214
▁बैंकर	-6215
▁भत्ता	-6216
▁भवनों	-6217
▁महंगा	-6218
▁मानते	-6219
▁मिलने	-6220
▁मूलतः	-6221
▁सॉल्ट	-6222
▁स्तंभ	-6223
त्तियों	-6224
निर्देश	-6225
नेलवेली	-6226
रिलेटेड	-6227
स्पेक्ट	-6228
ेशन्शिप	-6229
▁असीमित	-6230
▁कल्पना	-6231
▁ग्राहक	-6232
▁जहाजों	-6233
▁नवीनतम	-6234
▁नियोजन	-6235
▁पहुँचा	-6236
▁फायब्र	-6237
▁बैंकों	-6238
▁रिसल्ट	-6239
▁रेटिंग	-6240
▁विभाजन	-6241
▁विरोधी	-6242
▁वेटिंग	-6243
▁सीएसएफ	-6244
▁स्कूली	-6245
न्गोइड्स	-6246
ैल्यूएशन	-6247
▁2008-09	-6248
▁गैलेक्ट	-6249
▁टेक्निक	-6250
▁नरभक्षी	-6251
▁प्राचीन	-6252
▁रूपरेखा	-6253
▁संतुष्ट	-6254
▁संभालने	-6255
▁संविधान	-6256
▁स्टैटिक	-6257
▁स्पार्स	-6258
▁हिस्टोन	-6259
कार्यकारी	-6260
▁अनगाइडेड	-6261
▁अस्वीकार	-6262
▁आमंत्रित	-6263
▁उद्योगों	-6264
▁एमाइलॉयड	-6265
▁केंद्रों	-6266
▁चींटियाँ	-6267
▁निगमीकरण	-6268
▁निरीक्षक	-6269
▁पीट्रांस	-6270
▁प्राप्ति	-6271
▁प्रोफेसर	-6272
▁फिलामेंट	-6273
▁फोल्डिंग	-6274
▁मनुष्यों	-6275
▁लिम्फोइड	-6276
▁शक्तियां	-6277
▁इन्फ्यूजन	-6278
▁कार्टिलेज	-6279
▁डेवलपमेंट	-6280
▁पार्किन्स	-6281
▁रेज़ोनेंस	-6282
▁शक्तिशाली	-6283
▁सकारात्मक	-6284
▁सामान्यतः	-6285
▁सोल्यूशंस	-6286
▁अराचिडोनिक	-6287
▁इनहिबिटर्स	-6288
▁इवैल्यूएशन	-6289
▁एल्डोज़िज़	-6290
▁एस्पार्टिक	-6291
▁म्यूटेशन्स	-6292
▁रिलेशन्शिप	-6293
▁अंतर्क्रिया	-6294
▁पैथोलोजिस्ट	-6295
▁फॉस्फोलिपिड	-6296
▁मांसपेशियों	-6297
▁यूनिवर्सिटी	-6298
ाइब्रोमैटोसिस	-6299
▁रेडियोसर्जरी	-6300
▁एपिजेनेटिक्‍स	-6301
ियोएंडोथेलियोमा	-6302
25	-6303
RT	-6304
le	-6305
अफ	-6306
इस	-6307
बै	-6308
यल	-6309
षण	-6310
ाफ	-6311
ॉप	-6312
▁|	-6313
▁“	-6314
आईओ	-6315
क्क	-6316
गनी	-6317
घाट	-6318
जूद	-6319
ड्ड	-6320
धीन	-6321
धों	-6322
निग	-6323
लेन	-6324
ामक	-6325
ारक	-6326
ूती	-6327
▁39	-6328
▁वॉ	-6329
क्चर	-6330
चिंग	-6331
चुअल	-6332
ज़िट	-6333
जेशन	-6334
डीबी	-6335
त्तम	-6336
पिता	-6337
र्मा	-6338
र्से	-6339
ल्यू	-6340
ल्ली	-6341
वजूद	-6342
सीटी	-6343
स्मो	-6344
ार्च	-6345
ावास	-6346
▁139	-6347
▁529	-6348
▁two	-6349
▁आवा	-6350
▁खास	-6351
▁घुल	-6352
▁चूक	-6353
▁पंप	-6354
▁पत्	-6355
▁फिफ	-6356
▁मंच	-6357
▁मिट	-6358
▁वहन	-6359
▁साव	-6360
▁सुप	-6361
अफिशन	-6362
िपक्व	-6363
ियोनल	-6364
िसंबर	-6365
ुपुरम	-6366
ेरिका	-6367
ोपड़ी	-6368
्‍यों	-6369
▁2015	-6370
▁GIST	-6371
▁इन्स	-6372
▁ऑडिट	-6373
▁गुदा	-6374
▁तनाव	-6375
▁तात्	-6376
▁दौरे	-6377
▁नीले	-6378
▁बचाव	-6379
▁भाषण	-6380
▁मिशन	-6381
▁यकृत	-6382
▁लगाए	-6383
▁वक्र	-6384
▁सांस	-6385
बिलिटी	-6386
ब्ल्यू	-6387
र्वेशन	-6388
संरचना	-6389
ाइमर्स	-6390
िक्स्ड	-6391
िप्टोफ	-6392
ेरेटिव	-6393
▁आबंटन	-6394
▁इच्छा	-6395
▁इस्ती	-6396
▁एक्टर	-6397
▁एमिशन	-6398
▁कॉन्स	-6399
▁कोयला	-6400
▁चेस्ट	-6401
▁जरूरी	-6402
▁ज़िरो	-6403
▁दिखता	-6404
▁दैनिक	-6405
▁पंचाय	-6406
▁प्रकट	-6407
▁बदलना	-6408
▁बनानी	-6409
▁बॉक्स	-6410
▁भत्ते	-6411
▁मार्क	-6412
▁मासिक	-6413
▁मोटिफ	-6414
▁लंग्स	-6415
▁लंबित	-6416
▁लिखना	-6417
▁लेखों	-6418
▁विलयन	-6419
▁सत्या	-6420
▁सूक्ष	-6421
▁सेरीन	-6422
▁स्क्व	-6423
▁स्पेश	-6424
▁हाइपो	-6425
अफिशन्ट	-6426
इन्फ्यू	-6427
ाइरेनोज	-6428
▁अंतर्न	-6429
▁अधिकतर	-6430
▁उन्नयन	-6431
▁कंडीशन	-6432
▁करूँगा	-6433
▁क्‍यों	-6434
▁घटनाओं	-6435
▁जुटाने	-6436
▁दुर्बल	-6437
▁देखरेख	-6438
▁पंद्रह	-6439
▁पार्टी	-6440
▁फेक्टर	-6441
▁बावजूद	-6442
▁मानसून	-6443
▁मीडिया	-6444
▁रेड्यु	-6445
▁रेमिशन	-6446
▁वायर्स	-6447
▁शाखाओं	-6448
▁संतुलन	-6449
▁सहयोगी	-6450
▁सीएमएल	-6451
▁सेंटीम	-6452
ज़िट्रॉन	-6453
व्यवस्था	-6454
▁अमेरिका	-6455
▁एक्सियल	-6456
▁कारावास	-6457
▁क्रोमेट	-6458
▁डेंसिटी	-6459
▁थेरेपीः	-6460
▁निरूपित	-6461
▁पुनर्नि	-6462
▁प्रोस्ट	-6463
▁बायोमास	-6464
▁मुद्रित	-6465
▁राजपत्र	-6466
▁ल्यूसीन	-6467
▁स्थिरता	-6468
▁अतिक्रमण	-6469
▁उत्पीड़न	-6470
▁न्‍यूक्ल	-6471
▁प्रीमियम	-6472
▁मेंब्रेन	-6473
▁वैल्यूज़	-6474
▁संदर्भित	-6475
▁संश्लेषण	-6476
▁सम्मानित	-6477
▁कांचीपुरम	-6478
▁कोअफिशन्ट	-6479
▁गवर्नमेंट	-6480
▁ट्रिप्टोफ	-6481
▁प्रतिकर्ष	-6482
▁फन्गोइड्स	-6483
▁ब्रांचिंग	-6484
▁मोनोमेरिक	-6485
▁सांख्यिकी	-6486
▁गुणसूत्रों	-6487
▁न्यूक्लियस	-6488
▁रेज़िड्यूज	-6489
▁डाइसैकेराइड्स	-6490
13	-6491
90	-6492
ऑन	-6493
पि	-6494
मस	-6495
लन	-6496
वत	-6497
RBI	-6498
ंगल	-6499
एपी	-6500
कौन	-6501
घ्र	-6502
चीत	-6503
डाय	-6504
दिन	-6505
नाइ	-6506
रीट	-6507
सभा	-6508
्टर	-6509
▁5%	-6510
▁80	-6511
▁9.	-6512
▁अघ	-6513
▁आए	-6514
▁ऑप	-6515
▁टो	-6516
▁पथ	-6517
▁फन	-6518
▁मछ	-6519
▁यथ	-6520
अन्य	-6521
इकाई	-6522
एँगे	-6523
क्ता	-6524
गणना	-6525
जैसे	-6526
राशि	-6527
वीआर	-6528
शिया	-6529
ार्क	-6530
ेडिट	-6531
ैरिफ	-6532
्रोक	-6533
▁PET	-6534
▁एपी	-6535
▁ऐंग	-6536
▁ऑनल	-6537
▁कला	-6538
▁कॉन	-6539
▁ज्य	-6540
▁दुर	-6541
▁बैल	-6542
▁यूर	-6543
▁वेस	-6544
▁सित	-6545
▁सीट	-6546
▁हाउ	-6547
एडल्ट	-6548
कालीन	-6549
कियों	-6550
र्नरी	-6551
सेप्ट	-6552
ाइटिक	-6553
िप्पण	-6554
ियमित	-6555
ेंड्र	-6556
्रोजन	-6557
▁असिम	-6558
▁इम्प	-6559
▁एनको	-6560
▁कहना	-6561
▁खत्म	-6562
▁चलते	-6563
▁चुंब	-6564
▁चौथे	-6565
▁ट्रै	-6566
▁डिवी	-6567
▁धर्म	-6568
▁पूर्	-6569
▁फाइन	-6570
▁बंडल	-6571
▁बनाव	-6572
▁बर्फ	-6573
▁रद्द	-6574
▁रसीद	-6575
▁रियल	-6576
▁लेखक	-6577
▁श्री	-6578
▁सामू	-6579
▁सायन	-6580
कोप्रो	-6581
न्जुगे	-6582
स्कृति	-6583
ैटिनिब	-6584
्युलोज	-6585
▁एफपीओ	-6586
▁एस्टर	-6587
▁ऑर्गन	-6588
▁घूमता	-6589
▁चालें	-6590
▁चिंता	-6591
▁जांचा	-6592
▁जीवों	-6593
▁टैरिफ	-6594
▁ढांचा	-6595
▁तारों	-6596
▁देशों	-6597
▁पसीना	-6598
▁बताते	-6599
▁महानि	-6600
▁रामना	-6601
▁रिपीट	-6602
▁लगाते	-6603
▁लाइपो	-6604
▁लिखते	-6605
▁लिखने	-6606
▁विकृत	-6607
▁वेलिन	-6608
▁वेसेल	-6609
▁शीघ्र	-6610
▁शुरूआ	-6611
▁संदेश	-6612
▁समग्र	-6613
▁सौंपा	-6614
▁हाथों	-6615
▁हिंदू	-6616
▁ह्यूम	-6617
नानुसार	-6618
▁अप्रैल	-6619
▁ऑनलाइन	-6620
▁जंक्शन	-6621
▁जनगणना	-6622
▁टिप्पण	-6623
▁टॉलेंस	-6624
▁डीआरटी	-6625
▁दिसंबर	-6626
▁धनराशि	-6627
▁धारकों	-6628
▁पूछताछ	-6629
▁फिफ्टी	-6630
▁बातचीत	-6631
▁बैंगनी	-6632
▁बैलेंस	-6633
▁मद्रास	-6634
▁मरीजों	-6635
▁मोनोमर	-6636
▁विरासत	-6637
▁संघर्ष	-6638
िफेरेटिव	-6639
▁अधीक्षण	-6640
▁अल्ट्रा	-6641
▁एसिटाइल	-6642
▁कक्षाएं	-6643
▁क्रेडिट	-6644
▁गर्भवती	-6645
▁ग्लूकोप	-6646
▁दोस्तों	-6647
▁प्रेसिप	-6648
▁प्रोलीन	-6649
▁फायब्रस	-6650
▁शुरुआती	-6651
▁सूक्ष्म	-6652
▁सेपरेशन	-6653
▁स्टार्च	-6654
▁स्ट्रोक	-6655
फ्लेमेटरी	-6656
▁अधिकारिक	-6657
▁अध्ययनों	-6658
▁अवसंरचना	-6659
▁उपभोक्ता	-6660
▁एल्गोरिथ	-6661
▁एसोसिएशन	-6662
▁कॉरपोरेट	-6663
▁डिटेक्शन	-6664
▁संस्कृति	-6665
▁सम्बंधित	-6666
▁ॠणात्‍मक	-6667
▁कंपाउंड्स	-6668
▁कार्यशाला	-6669
▁नाइट्रोजन	-6670
▁प्रतिनिधि	-6671
▁प्रीकर्सर	-6672
▁बहुसंख्यक	-6673
▁मिथाइलेशन	-6674
▁मिनिमैक्स	-6675
▁रीइन्फ्यू	-6676
▁सिफारिशों	-6677
▁इंजीनियरों	-6678
▁परियोजनाएं	-6679
▁पर्यावरणीय	-6680
▁पूर्णकालिक	-6681
▁मोलेक्‍यूल	-6682
▁रेड्युसिंग	-6683
▁विशेषज्ञों	-6684
▁शोधकर्ताओं	-6685
▁इंजीनियरिंग	-6686
▁तिरुनेलवेली	-6687
▁मेटास्टैटिक	-6688
▁सेवानिवृत्त	-6689
▁अर्थव्यवस्था	-6690
▁इलेक्ट्रॉन्स	-6691
▁उपयोगकर्ताओं	-6692
▁पुनर्निर्माण	-6693
▁कंप्यूटराइज्ड	-6694
▁ट्रांसक्रिप्शन	-6695
▁पॉलीपेप्टाइड्स	-6696
.)	-6697
.1	-6698
3,	-6699
45	-6700
de	-6701
▁j	-6702
▁l	-6703
010	-6704
कुल	-6705
तृत	-6706
धीश	-6707
नाम	-6708
नें	-6709
न्त	-6710
पिन	-6711
बाल	-6712
र्ब	-6713
व्स	-6714
ष्ण	-6715
संव	-6716
हिक	-6717
िडी	-6718
िपो	-6719
ूबर	-6720
ेके	-6721
ोंग	-6722
ौदा	-6723
▁48	-6724
▁7.	-6725
▁कव	-6726
▁घु	-6727
▁शे	-6728
एनआर	-6729
एफआर	-6730
एलपी	-6731
क्ले	-6732
क्‍ड	-6733
ट्टई	-6734
ढ़ता	-6735
त्री	-6736
दम्स	-6737
धनों	-6738
पर्य	-6739
ब्रे	-6740
रेलू	-6741
संगत	-6742
सीआर	-6743
स्थि	-6744
ाल्ड	-6745
ावुर	-6746
िफिश	-6747
ुक्स	-6748
ोनिन	-6749
▁20%	-6750
▁अवि	-6751
▁कैन	-6752
▁कैप	-6753
▁खपत	-6754
▁गौर	-6755
▁डाउ	-6756
▁देर	-6757
▁पवन	-6758
▁पहा	-6759
▁पिन	-6760
▁फेस	-6761
▁बॉन	-6762
▁भरी	-6763
▁भरे	-6764
▁भाई	-6765
▁मंद	-6766
▁मिड	-6767
▁रेग	-6768
▁रैन	-6769
▁लीन	-6770
▁शिश	-6771
▁सिस	-6772
▁सेफ	-6773
इंट्र	-6774
क्सिप	-6775
च्चीस	-6776
तृत्व	-6777
धर्मी	-6778
मिक्स	-6779
लाजिक	-6780
सोम्स	-6781
स्कोप	-6782
स्मिक	-6783
िओनिन	-6784
िताओं	-6785
िरेशन	-6786
ुकुडी	-6787
ैरिटी	-6788
ोपिकल	-6789
ोलिमस	-6790
▁2012	-6791
▁अन्त	-6792
▁आरंभ	-6793
▁इतनी	-6794
▁इसको	-6795
▁उसको	-6796
▁किरा	-6797
▁कीमो	-6798
▁गहरे	-6799
▁घरों	-6800
▁जाएँ	-6801
▁जाया	-6802
▁दौरा	-6803
▁परिक	-6804
▁परिप	-6805
▁पीपी	-6806
▁पैनल	-6807
▁पॉवर	-6808
▁बहाल	-6809
▁रीजन	-6810
▁लगना	-6811
▁लेजर	-6812
▁लॉन्	-6813
▁वाहक	-6814
▁साइज	-6815
क्टूबर	-6816
क्टॉमी	-6817
ग्लिसर	-6818
फिनिटी	-6819
स्‍तुत	-6820
ोफॉर्म	-6821
▁इंटरम	-6822
▁कन्या	-6823
▁काउंट	-6824
▁कार्ड	-6825
▁क्वाट	-6826
▁खेलने	-6827
▁घरेलू	-6828
▁जितनी	-6829
▁डेरिव	-6830
▁तिरुच	-6831
▁दक्षि	-6832
▁दीर्घ	-6833
▁देखिए	-6834
▁पोराम	-6835
▁प्रती	-6836
▁प्रदा	-6837
▁फैट्स	-6838
▁बनावट	-6839
▁मसल्स	-6840
▁रोगों	-6841
▁विकार	-6842
▁संकाय	-6843
▁सामान	-6844
▁सुनने	-6845
शास्त्र	-6846
शिओमर्स	-6847
ाइब्रिड	-6848
▁अंतराल	-6849
▁एचआईवी	-6850
▁छोड़ने	-6851
▁जोड़ती	-6852
▁टुकड़े	-6853
▁दुबारा	-6854
▁निकासी	-6855
▁पच्चीस	-6856
▁पुरानी	-6857
▁पेटेंट	-6858
▁बढ़ाता	-6859
▁बढ़ाती	-6860
▁बढ़ाना	-6861
▁बाईपास	-6862
▁रेटिनो	-6863
▁लीनियर	-6864
▁वैलेंस	-6865
▁शुरूआत	-6866
▁समेकित	-6867
▁सल्फेट	-6868
▁सिग्नल	-6869
▁सितंबर	-6870
स्प्रेशन	-6871
्स्ट्रॉम	-6872
▁अल्कोहल	-6873
▁एनीलिंग	-6874
▁कक्षाओं	-6875
▁क्रिकेट	-6876
▁गोलाकार	-6877
▁चाहूंगा	-6878
▁चाहेंगे	-6879
▁द्रविड़	-6880
▁पात्रता	-6881
▁प्रदत्त	-6882
▁फंक्शनल	-6883
▁लिंक्‍ड	-6884
▁लिनोलिक	-6885
▁विधियाँ	-6886
▁समुद्री	-6887
▁सामूहिक	-6888
▁सीखेंगे	-6889
संवेदनशील	-6890
ाल्डिहाइड	-6891
▁एक्सेप्ट	-6892
▁क्लासिकल	-6893
▁क्‍योंकि	-6894
▁ट्रांसफर	-6895
▁फनगोइड्स	-6896
▁रचनात्मक	-6897
▁शब्दावली	-6898
▁श्रमिकों	-6899
▁सायनोजेन	-6900
▁सिंथेसिस	-6901
▁सोल्युशन	-6902
▁होल्डिंग	-6903
पॉज़िट्रॉन	-6904
ल्यूकेमिया	-6905
▁2008-2009	-6906
▁इंटरेक्शन	-6907
▁एस्पिरेशन	-6908
▁छात्रावास	-6909
▁ट्रिप्सिन	-6910
▁न्यूक्लिक	-6911
▁पारिवारिक	-6912
▁प्रस्‍तुत	-6913
▁प्लेसमेंट	-6914
▁मध्यवर्ती	-6915
▁व्यवसायों	-6916
▁सिफारिशें	-6917
▁सेंटीमीटर	-6918
▁सेरेब्रोस	-6919
▁सेल्युलोज	-6920
ोकेमिस्ट्री	-6921
▁असिमेट्रिक	-6922
▁उतरदायित्व	-6923
▁क्वाटर्नरी	-6924
▁जिम्मेदारी	-6925
▁प्रतिकर्षण	-6926
▁प्रस्तावों	-6927
▁स्पेशलिस्ट	-6928
▁निम्नानुसार	-6929
▁बुद्धिमत्ता	-6930
▁रेडियोधर्मी	-6931
▁प्रयोगशालाओं	-6932
▁फिनाइलहाइड्र	-6933
▁रीइन्फ्यूज्ड	-6934
▁हाइड्रोकार्बन	-6935
▁स्पेक्ट्रोमीटर	-6936
▁ग्लिसराल्डिहाइड	-6937
34	-6938
60	-6939
am	-6940
et	-6941
or	-6942
आव	-6943
गो	-6944
जो	-6945
टल	-6946
णि	-6947
ाब	-6948
ोत	-6949
▁r	-6950
III	-6951
ran	-6952
कोष	-6953
फ्र	-6954
ब्स	-6955
मास	-6956
यें	-6957
वधि	-6958
विश	-6959
सकर	-6960
ासन	-6961
ाहन	-6962
ुवर	-6963
ोलन	-6964
▁(2	-6965
▁37	-6966
▁6.	-6967
▁66	-6968
▁8.	-6969
▁85	-6970
▁BA	-6971
▁CT	-6972
▁PD	-6973
▁तन	-6974
2010	-6975
आरपी	-6976
इन्ट	-6977
एफएस	-6978
क्‍स	-6979
चेरी	-6980
च्चे	-6981
ड्यू	-6982
दर्द	-6983
धानी	-6984
न्सी	-6985
पशील	-6986
ब्दी	-6987
भाषा	-6988
मूलन	-6989
शरीर	-6990
शल्य	-6991
सीएस	-6992
िकरण	-6993
ियोफ	-6994
ेंडम	-6995
ेक्‍	-6996
ोबार	-6997
्रेड	-6998
▁(3-	-6999
▁02.	-7000
▁600	-7001
▁HIV	-7002
▁आँख	-7003
▁आंक	-7004
▁कमर	-7005
▁करु	-7006
▁काग	-7007
▁काट	-7008
▁गरी	-7009
▁जेल	-7010
▁जोन	-7011
▁टेल	-7012
▁टैप	-7013
▁डुप	-7014
▁थिन	-7015
▁नक्	-7016
▁फीड	-7017
▁फैट	-7018
▁फोक	-7019
▁बगल	-7020
▁मीट	-7021
▁रिश	-7022
▁सका	-7023
▁हाँ	-7024
▁हेर	-7025
क्ष्य	-7026
ड़ताल	-7027
द्यतन	-7028
नेसिस	-7029
वासीय	-7030
स्टेम	-7031
िब्यू	-7032
ीडिंग	-7033
ेड्रल	-7034
ैज़िन	-7035
▁1997	-7036
▁अटैक	-7037
▁असंत	-7038
▁आखिर	-7039
▁उज्ज	-7040
▁उठता	-7041
▁उतनी	-7042
▁उनको	-7043
▁एलपी	-7044
▁टिकट	-7045
▁टेली	-7046
▁डिसऑ	-7047
▁थाइम	-7048
▁दोषी	-7049
▁नाथम	-7050
▁पीजी	-7051
▁प्रय	-7052
▁फैले	-7053
▁बढ़े	-7054
▁बुला	-7055
▁महान	-7056
▁मोलर	-7057
▁सलाई	-7058
▁सीधी	-7059
,000/-	-7060
केलेटल	-7061
कोट्टई	-7062
ग्निशन	-7063
पत्रों	-7064
रीटाइम	-7065
सीएनएस	-7066
ियोसोम	-7067
ेंटेशन	-7068
▁अनुमत	-7069
▁अवकाश	-7070
▁आंखों	-7071
▁आखिरी	-7072
▁आरओसी	-7073
▁कराने	-7074
▁खुदरा	-7075
▁गहराई	-7076
▁घुमाव	-7077
▁चयनित	-7078
▁चिन्ह	-7079
▁चुनने	-7080
▁दर्पण	-7081
▁नियमन	-7082
▁फायदा	-7083
▁बेसेस	-7084
▁मसौदा	-7085
▁लंबवत	-7086
▁लगाकर	-7087
▁वर्षा	-7088
▁संचरण	-7089
▁साइटो	-7090
▁सामना	-7091
▁सीखना	-7092
▁सोचते	-7093
▁हमनें	-7094
ऑक्साइड	-7095
ट्रीटेड	-7096
स्ट्रीम	-7097
ाइरोसिन	-7098
ामाइसिन	-7099
िब्यूनल	-7100
▁अग्रिम	-7101
▁अयोग्य	-7102
▁इंट्रा	-7103
▁उद्घाट	-7104
▁एचपीवी	-7105
▁एस्ट्र	-7106
▁जाएंगी	-7107
▁टुकड़ा	-7108
▁ट्रेवल	-7109
▁डिवीजन	-7110
▁पीवीआर	-7111
▁प्रचुर	-7112
▁प्रीऑन	-7113
▁प्लांट	-7114
▁मेडिकल	-7115
▁शासकीय	-7116
▁हाइपोथ	-7117
▁हेल्दी	-7118
ियाट्रिक	-7119
▁आकस्मिक	-7120
▁आधारभूत	-7121
▁इंडक्शन	-7122
▁इन्फेंट	-7123
▁इमारतों	-7124
▁एपस्टीन	-7125
▁किसानों	-7126
▁चित्रों	-7127
▁ज़्यादा	-7128
▁तीव्रता	-7129
▁दर्शाते	-7130
▁परिचालन	-7131
▁परिपक्व	-7132
▁पोराम्ब	-7133
▁फॉर्म्स	-7134
▁फ्लोरोस	-7135
▁व्याख्य	-7136
राष्ट्रीय	-7137
▁अघुलनशील	-7138
▁कर्मियों	-7139
▁क्रियाएं	-7140
▁ट्विस्‍ट	-7141
▁नियंत्रक	-7142
▁फेक्टर्स	-7143
▁बीआईएफआर	-7144
▁मैरीटाइम	-7145
▁लेनदारों	-7146
▁सिम्प्टम	-7147
▁हाइब्रिड	-7148
▁अनट्रीटेड	-7149
▁कलेक्टरों	-7150
▁केन्द्रीय	-7151
▁ग्यारहवीं	-7152
▁व्यापारिक	-7153
क्सिपेप्टिड	-7154
▁कॉर्पोरेशन	-7155
▁गैडोलिनियम	-7156
▁न्यूक्लियर	-7157
▁प्रतिबंधित	-7158
▁प्रोग्रेशन	-7159
▁प्रोत्साहन	-7160
▁बायोथेरेपी	-7161
▁अनुप्रयोगों	-7162
▁ऐंग्स्ट्रॉम	-7163
▁कन्याकुमारी	-7164
▁नेट्रोप्सिन	-7165
▁पेप्‍टाइड्स	-7166
▁ब्लडस्ट्रीम	-7167
▁डिस्टामाइसिन	-7168
▁पार्किन्सन्स	-7169
▁पुनर्स्थापित	-7170
▁न्यूक्लियोसोम	-7171
▁इंटरमॉलिक्यूलर	-7172
▁ऑलिगोसैकराइड्स	-7173
▁कम्प्यूटराइज्ड	-7174
▁हाइड्रोफोबिसिटी	-7175
4,	-7176
94	-7177
AN	-7178
IP	-7179
an	-7180
ii	-7181
ve	-7182
अस	-7183
जब	-7184
हस	-7185
ैथ	-7186
▁<	-7187
ईएफ	-7188
ईबी	-7189
एलए	-7190
क्ख	-7191
जीन	-7192
डनी	-7193
दूस	-7194
माग	-7195
मेग	-7196
मेन	-7197
म्ड	-7198
राम	-7199
लेस	-7200
वसन	-7201
सिर	-7202
सेक	-7203
सेव	-7204
ाउड	-7205
ुरा	-7206
ेंच	-7207
्ज़	-7208
▁0.	-7209
▁51	-7210
▁65	-7211
▁OH	-7212
▁th	-7213
▁अल	-7214
▁फर	-7215
▁मई	-7216
▁रॉ	-7217
▁शौ	-7218
क्कम	-7219
क्के	-7220
टेन्	-7221
बल्स	-7222
म्मत	-7223
रेंस	-7224
लापन	-7225
वहार	-7226
श्री	-7227
ांकन	-7228
ायोट	-7229
िटरी	-7230
िसेस	-7231
िस्‍	-7232
ोन्न	-7233
▁03.	-7234
▁31.	-7235
▁अनस	-7236
▁अने	-7237
▁अभि	-7238
▁आंद	-7239
▁आधे	-7240
▁एम्	-7241
▁खोख	-7242
▁चढ़	-7243
▁चोट	-7244
▁नाक	-7245
▁परे	-7246
▁पेन	-7247
▁प्‍	-7248
▁मोम	-7249
▁वसा	-7250
▁शता	-7251
एएलएल	-7252
क्सीन	-7253
ज़ेशन	-7254
डेल्फ	-7255
निष्ठ	-7256
रिस्क	-7257
िकेशन	-7258
िटिंग	-7259
िडेशन	-7260
ियोआइ	-7261
ुपयोग	-7262
ेप्‍ट	-7263
ोजीशन	-7264
ोरियल	-7265
ोसिटी	-7266
▁अग्न	-7267
▁आपसे	-7268
▁एपिड	-7269
▁कहती	-7270
▁क्लो	-7271
▁खाना	-7272
▁गाइड	-7273
▁जिगर	-7274
▁ड्रॉ	-7275
▁थ्रो	-7276
▁दावा	-7277
▁देनी	-7278
▁नकार	-7279
▁नर्स	-7280
▁पोषण	-7281
▁प्रस	-7282
▁फिला	-7283
▁मृदु	-7284
▁मेरी	-7285
▁मौसम	-7286
▁रिया	-7287
▁रिली	-7288
▁रुचि	-7289
▁लगने	-7290
▁लम्प	-7291
▁विंग	-7292
▁सत्र	-7293
▁सिरा	-7294
▁स्‍प	-7295
ंजावुर	-7296
एमआरआई	-7297
एमएमएल	-7298
क्षमता	-7299
टेन्शन	-7300
टेरियल	-7301
ड़ियों	-7302
फॉर्मल	-7303
बैक्सी	-7304
र्मेशन	-7305
वांशिक	-7306
स्थापन	-7307
िन्यास	-7308
ोलोजिक	-7309
▁अभ्या	-7310
▁असाइन	-7311
▁उत्तम	-7312
▁उल्टी	-7313
▁किडनी	-7314
▁ग्रिड	-7315
▁छिद्र	-7316
▁ट्रान	-7317
▁डालकर	-7318
▁दिमाग	-7319
▁दृश्य	-7320
▁पड़ने	-7321
▁पीईटी	-7322
▁प्रोफ	-7323
▁प्लॉट	-7324
▁फरवरी	-7325
▁फैक्ट	-7326
▁बढ़ना	-7327
▁बिल्ड	-7328
▁बेस्ड	-7329
▁माइलो	-7330
▁मार्ज	-7331
▁मैट्र	-7332
▁युक्त	-7333
▁यूकेर	-7334
▁यूज़र	-7335
▁रेंडम	-7336
▁वाक्य	-7337
▁विशाल	-7338
▁वृक्ष	-7339
▁वेव्स	-7340
▁संवर्	-7341
▁सत्यम	-7342
▁सरफेस	-7343
▁साल्ट	-7344
▁सूत्र	-7345
▁स्विच	-7346
परिवर्त	-7347
मेटास्ट	-7348
राधिकार	-7349
िफिशियल	-7350
िस्‍टीन	-7351
्रीफ्यू	-7352
▁अद्यतन	-7353
▁अधिशेष	-7354
▁अभिलेख	-7355
▁आंदोलन	-7356
▁उज्जवल	-7357
▁एकीकरण	-7358
▁कैविटी	-7359
▁क्रोमो	-7360
▁खोपड़ी	-7361
▁ग्लूको	-7362
▁चीज़ों	-7363
▁निपटने	-7364
▁पक्षों	-7365
▁पदोन्न	-7366
▁बढ़ाते	-7367
▁मजबूती	-7368
▁मलिग्न	-7369
▁मिट्टी	-7370
▁मेट्रो	-7371
▁मैग्नी	-7372
▁मैपिंग	-7373
▁रिटर्न	-7374
▁विघटित	-7375
▁विद्यु	-7376
▁विफलता	-7377
डेल्फिया	-7378
▁अंतर्रा	-7379
▁अक्टूबर	-7380
▁अटेन्शन	-7381
▁अनियमित	-7382
▁अवशोषित	-7383
▁अवस्‍था	-7384
▁इंट्राम	-7385
▁उद्घाटन	-7386
▁उन्मूलन	-7387
▁एक्वियस	-7388
▁कनेक्शन	-7389
▁कारोबार	-7390
▁किनारों	-7391
▁केराटिन	-7392
▁चिह्नित	-7393
▁नेतृत्व	-7394
▁पुरुषों	-7395
▁प्राधिक	-7396
▁ब्रेस्ट	-7397
▁मार्गों	-7398
▁लचीलापन	-7399
▁लेखांकन	-7400
▁विन्यास	-7401
▁शताब्दी	-7402
▁संस्करण	-7403
▁सब्सिडी	-7404
▁सुप्रीम	-7405
सिस्टेमिक	-7406
ेफिशिएंसी	-7407
▁एक्सटरनल	-7408
▁क्रियाओं	-7409
▁दुरुपयोग	-7410
▁पोलैरिटी	-7411
▁रेसीड्यू	-7412
▁विलुपुरम	-7413
▁शेयरधारक	-7414
▁सोल्वेंट	-7415
▁असाइनमेंट	-7416
▁एंटीबायोट	-7417
▁ऑक्सीडेशन	-7418
▁क्रोमेटिन	-7419
▁न्यायाधीश	-7420
▁पेंशनभोगी	-7421
▁प्रदाताओं	-7422
▁बायोलाजिक	-7423
▁मैट्रिक्स	-7424
▁रैनबैक्सी	-7425
▁सर्वोत्तम	-7426
▁इन्फेंटाइल	-7427
▁कार्सिनोमा	-7428
▁दुर्घटनाओं	-7429
▁प्रोटीओग्ल	-7430
▁प्रोटोटाइप	-7431
▁स्पष्टीकरण	-7432
▁अर्थशास्त्र	-7433
▁उत्तराधिकार	-7434
▁एक्स्प्रेशन	-7435
▁एम्ब्रियोनल	-7436
▁क्रियान्वयन	-7437
▁क्षतिग्रस्त	-7438
▁तिरुवल्लुवर	-7439
क्सिपेप्टिडेज	-7440
▁प्रतिभूतियां	-7441
▁प्रयोगशालाएं	-7442
▁फिलाडेल्फिया	-7443
फाइब्रोमैटोसिस	-7444
▁गुणवत्तापूर्ण	-7445
▁एंजियोसार्कोमा	-7446
▁फाइब्रोसार्कोमा	-7447
14	-7448
2,	-7449
30	-7450
44	-7451
48	-7452
72	-7453
75	-7454
76	-7455
79	-7456
ED	-7457
ar	-7458
rf	-7459
एप	-7460
रन	-7461
सठ	-7462
one	-7463
अपर	-7464
किल	-7465
थाम	-7466
नीन	-7467
नॉन	-7468
पटा	-7469
पति	-7470
पेट	-7471
फ़ा	-7472
फेफ	-7473
भूम	-7474
श्त	-7475
ाती	-7476
ावल	-7477
ोंस	-7478
▁62	-7479
▁Lk	-7480
▁अड	-7481
▁आं	-7482
▁आग	-7483
▁फे	-7484
▁फो	-7485
▁बि	-7486
▁हक	-7487
उच्च	-7488
ज़ार	-7489
ज़ोन	-7490
डलौर	-7491
तांक	-7492
नाइल	-7493
पीआर	-7494
बर्ट	-7495
बर्र	-7496
भूमि	-7497
वर्ड	-7498
वेशन	-7499
स्पी	-7500
ाक्त	-7501
ारोह	-7502
िटिश	-7503
िब्र	-7504
ुलिन	-7505
ेट्स	-7506
्युन	-7507
▁09.	-7508
▁120	-7509
▁150	-7510
▁16.	-7511
▁180	-7512
▁25%	-7513
▁250	-7514
▁bat	-7515
▁अनि	-7516
▁ईथर	-7517
▁उपा	-7518
▁ओसा	-7519
▁कंट	-7520
▁कंस	-7521
▁खैर	-7522
▁घोट	-7523
▁तीर	-7524
▁ध्व	-7525
▁निग	-7526
▁नॉट	-7527
▁पिट	-7528
▁फाइ	-7529
▁फील	-7530
▁मधु	-7531
▁रूट	-7532
▁लीफ	-7533
▁शेड	-7534
▁शौच	-7535
▁सीड	-7536
क्‍टर	-7537
ज़ारी	-7538
थपुरम	-7539
दूसरे	-7540
निगमन	-7541
पिलरी	-7542
प्रिय	-7543
बोरेट	-7544
मिनार	-7545
ष्कार	-7546
ार्थी	-7547
ालेखा	-7548
िंग्स	-7549
िब्रो	-7550
ेक्शन	-7551
ोजनों	-7552
ोबुलर	-7553
्राइव	-7554
▁1998	-7555
▁अंडर	-7556
▁अकाद	-7557
▁अखिल	-7558
▁आरडी	-7559
▁आरोप	-7560
▁इंटी	-7561
▁इक्व	-7562
▁इरोड	-7563
▁ऋणों	-7564
▁कसकर	-7565
▁चीनी	-7566
▁जमीन	-7567
▁पब्ल	-7568
▁प्रे	-7569
▁फोकल	-7570
▁फ्‍ल	-7571
▁मापा	-7572
▁मिले	-7573
▁लगते	-7574
▁वैसा	-7575
▁श्रो	-7576
▁सीरम	-7577
▁स्टी	-7578
क्रामक	-7579
ज्ञापन	-7580
पालिका	-7581
रेक्शन	-7582
वहारिक	-7583
वृत्ति	-7584
ियोटिक	-7585
िस्टोर	-7586
ोट्यूब	-7587
▁अगस्त	-7588
▁आयामी	-7589
▁आवेदक	-7590
▁एनकोड	-7591
▁कीमोथ	-7592
▁गांधी	-7593
▁ग्रंथ	-7594
▁चुंबक	-7595
▁ज़रूर	-7596
▁टेट्र	-7597
▁डाइपो	-7598
▁तनमेग	-7599
▁त्रुट	-7600
▁थ्रिओ	-7601
▁दीवार	-7602
▁पट्टे	-7603
▁पौधों	-7604
▁प्रचल	-7605
▁बढ़कर	-7606
▁भावना	-7607
▁वापसी	-7608
▁संतान	-7609
इम्यूनो	-7610
ऑक्सीजन	-7611
तापूर्ण	-7612
ेक्‍यूल	-7613
ैनोइड्स	-7614
▁10,000	-7615
▁अनुशास	-7616
▁आवासीय	-7617
▁इंटेंस	-7618
▁इंडिया	-7619
▁एंडोस्	-7620
▁एक्सिस	-7621
▁एल्डोज	-7622
▁ऑप्टिम	-7623
▁ओलिगोड	-7624
▁क्लाउड	-7625
▁घातांक	-7626
▁चाहिये	-7627
▁चुनौती	-7628
▁जनजाति	-7629
▁जीआईएस	-7630
▁जोड़ना	-7631
▁तत्काल	-7632
▁त्वरित	-7633
▁दक्षिण	-7634
▁दिखाता	-7635
▁दिशाओं	-7636
▁दृढ़ता	-7637
▁पहचाना	-7638
▁फर्मों	-7639
▁मरम्मत	-7640
▁महंगाई	-7641
▁महत्‍व	-7642
▁रणनीति	-7643
▁रिक्ति	-7644
▁लाइनों	-7645
▁समारोह	-7646
▁सेनानी	-7647
▁स्नातक	-7648
▁हेमांग	-7649
कोन्जुगे	-7650
ोजेनेसिस	-7651
▁ओसाज़ोन	-7652
▁कंट्रोल	-7653
▁क्रमांक	-7654
▁क्लोरीन	-7655
▁जवाबदेह	-7656
▁टीएनईबी	-7657
▁तंजावुर	-7658
▁दर्शाती	-7659
▁प्रतिभा	-7660
▁प्रोपेल	-7661
▁प्रोलिन	-7662
▁फाइब्रस	-7663
▁बढ़ेंगे	-7664
▁ब्रोमीन	-7665
▁भागीदार	-7666
▁महालेखा	-7667
▁रिस्टोर	-7668
▁ल्यूपिन	-7669
▁विषाक्त	-7670
▁वैश्विक	-7671
▁सिरदर्द	-7672
▁सिस्टीन	-7673
▁सीओएक्स	-7674
▁सेगमेंट	-7675
▁हैंडआउट	-7676
▁ॠणात्मक	-7677
क्सीप्रोल	-7678
्रीफ्यूगल	-7679
▁उत्पत्ति	-7680
▁उपक्रमों	-7681
▁उपलब्धता	-7682
▁ऋणदाताओं	-7683
▁एंजाइम्स	-7684
▁एपिडेमिक	-7685
▁ग्लाइकोल	-7686
▁चार्टर्ड	-7687
▁जवाबदेही	-7688
▁टेस्टिंग	-7689
▁डाइपोल्स	-7690
▁तात्पर्य	-7691
▁प्रकाशीय	-7692
▁प्रतिष्ठ	-7693
▁मानदंडों	-7694
▁मार्कर्स	-7695
▁मोनोमर्स	-7696
▁रिट्राइव	-7697
▁लक्ष्यों	-7698
▁लड़कियों	-7699
▁संस्थाओं	-7700
▁सेन्ट्रल	-7701
▁एकत्रीकरण	-7702
▁कंप्यूटेड	-7703
▁कॉरपोरेशन	-7704
▁पोराम्बोक	-7705
▁प्रबंधकीय	-7706
▁प्रवृत्ति	-7707
▁प्रायोजित	-7708
▁रिकग्निशन	-7709
▁वेरिएबल्स	-7710
▁व्याख्यान	-7711
▁हिस्टिडीन	-7712
ियोआइसोमर्स	-7713
▁अनिवार्यता	-7714
▁इंटरैक्‍शन	-7715
▁इम्यूनोडिफ	-7716
▁केमिस्ट्री	-7717
▁ट्रिब्यूनल	-7718
▁देनदारियों	-7719
▁नागपट्टिनम	-7720
▁प्रमाणपत्र	-7721
▁मालेक्‍यूल	-7722
▁व्यावहारिक	-7723
▁स्टेबिलिटी	-7724
▁अभिक्रियाओं	-7725
▁इंटरेक्शन्स	-7726
▁इकोसैनोइड्स	-7727
▁एल्गोरिदम्स	-7728
▁क्रोमोजोम्स	-7729
▁छात्रवृत्ति	-7730
▁प्रक्रियाएं	-7731
▁लिम्फोप्रोल	-7732
▁स्टेकहोल्डर	-7733
एसाइलग्लिसरॉल	-7734
▁प्रतिस्थापित	-7735
▁प्रेसिपिटेशन	-7736
▁माइक्रोट्यूब	-7737
▁कम्प्यूटरीकृत	-7738
▁अंतर्राष्ट्रीय	-7739
▁ग्लूकोपाइरेनोज	-7740
▁सेन्ट्रीफ्यूगल	-7741
▁ग्लाइकोकोन्जुगे	-7742
▁रबडोमायोसारकोमा	-7743
',	-7744
/0	-7745
55	-7746
HO	-7747
NR	-7748
il	-7749
गु	-7750
छो	-7751
टक	-7752
दल	-7753
बि	-7754
सद	-7755
ृह	-7756
ैग	-7757
ैस	-7758
▁”	-7759
-07	-7760
...	-7761
/?>	-7762
ara	-7763
अरी	-7764
केल	-7765
कोश	-7766
ज़न	-7767
टिन	-7768
ड़ब	-7769
देह	-7770
बोध	-7771
रेस	-7772
वली	-7773
विर	-7774
सिन	-7775
सीट	-7776
सेन	-7777
स्म	-7778
िरा	-7779
ूइड	-7780
ेप्	-7781
ेषण	-7782
ेसन	-7783
ॉस्	-7784
ोमी	-7785
्चर	-7786
्ते	-7787
्रम	-7788
्वा	-7789
▁.0	-7790
▁76	-7791
▁KE	-7792
▁NH	-7793
▁गू	-7794
▁ढी	-7795
▁पक	-7796
▁सश	-7797
araz	-7798
atch	-7799
एससी	-7800
ग्लो	-7801
चुरल	-7802
च्यु	-7803
ट्टी	-7804
डिंग	-7805
नेरी	-7806
पादन	-7807
बीसी	-7808
ब्बे	-7809
ब्लड	-7810
मक्ख	-7811
मलाई	-7812
म्बर	-7813
ल्‍ड	-7814
वादी	-7815
वाले	-7816
व्या	-7817
श्यक	-7818
सनीय	-7819
ाइमर	-7820
ाज्म	-7821
ानिन	-7822
ारगे	-7823
ालोर	-7824
िंडल	-7825
िमाब	-7826
िराप	-7827
िश़न	-7828
ूर्ण	-7829
ेल्व	-7830
ेविस	-7831
ेसेस	-7832
▁101	-7833
▁110	-7834
▁14.	-7835
▁190	-7836
▁300	-7837
▁one	-7838
▁आपस	-7839
▁इंस	-7840
▁कब्	-7841
▁कोइ	-7842
▁गृह	-7843
▁ठंड	-7844
▁थूथ	-7845
▁दशक	-7846
▁दान	-7847
▁पीन	-7848
▁फसल	-7849
▁फॉर	-7850
▁बाइ	-7851
▁बैच	-7852
▁महा	-7853
▁मां	-7854
▁लाइ	-7855
▁लोड	-7856
▁लौट	-7857
▁वजी	-7858
▁संभ	-7859
▁सबड	-7860
▁हरे	-7861
▁हान	-7862
ज़ोर्	-7863
त्तीस	-7864
भाविक	-7865
येंगे	-7866
र्क्स	-7867
ष्टतम	-7868
ाइटेर	-7869
ाइलेट	-7870
ाइवेट	-7871
ारटिक	-7872
िकारक	-7873
िरिकल	-7874
ीटर्स	-7875
ेरिकी	-7876
ोज़ेक	-7877
ोजेनी	-7878
्चर्य	-7879
्यासी	-7880
्यूजन	-7881
▁Sarf	-7882
▁अल्ज	-7883
▁अविभ	-7884
▁आड़ी	-7885
▁इम्‍	-7886
▁करंट	-7887
▁ग्रे	-7888
▁चीरा	-7889
▁जाकर	-7890
▁ठेके	-7891
▁डाउन	-7892
▁थायर	-7893
▁धुरी	-7894
▁निरा	-7895
▁नोडल	-7896
▁फ़िल	-7897
▁फ्रे	-7898
▁बाइल	-7899
▁मिस्	-7900
▁मैके	-7901
▁मोड़	-7902
▁लाना	-7903
▁लिंग	-7904
▁विनि	-7905
▁सिकल	-7906
▁सोलर	-7907
ंत्रिक	-7908
कीमिया	-7909
जुवेंट	-7910
सुश्री	-7911
हेड्रल	-7912
्यूट्स	-7913
्‍यादा	-7914
▁GISTs	-7915
▁अक्षय	-7916
▁इंद्र	-7917
▁इनर्ट	-7918
▁उठाने	-7919
▁कठिना	-7920
▁कीजिए	-7921
▁कृष्ण	-7922
▁गेविस	-7923
▁जीनोम	-7924
▁डालने	-7925
▁डिपॉज	-7926
▁तिरुव	-7927
▁दिखने	-7928
▁परतों	-7929
▁पार्क	-7930
▁पिछला	-7931
▁पैरों	-7932
▁प्रोम	-7933
▁फोर्स	-7934
▁बंधते	-7935
▁बदलते	-7936
▁मानकी	-7937
▁मौलिक	-7938
▁रहेगा	-7939
▁विघटन	-7940
▁विधिक	-7941
▁वेब्स	-7942
▁वेल्ल	-7943
▁संबोध	-7944
▁सिल्क	-7945
▁सीएआर	-7946
▁सीखते	-7947
▁सौंपे	-7948
क्रोनिक	-7949
ड्डालोर	-7950
मेच्योर	-7951
शारीरिक	-7952
ोलिडेशन	-7953
्यूटिंग	-7954
▁50,000	-7955
▁अम्लीय	-7956
▁आकर्षक	-7957
▁इच्छुक	-7958
▁इम्युन	-7959
▁इष्टतम	-7960
▁उपइकाई	-7961
▁एप्सिल	-7962
▁एम्बोल	-7963
▁एलएलपी	-7964
▁कमजोरी	-7965
▁कहलाता	-7966
▁कार्गो	-7967
▁कैमिकल	-7968
▁ज़रूरी	-7969
▁ट्रस्ट	-7970
▁तालमेल	-7971
▁दक्षता	-7972
▁दाहिनी	-7973
▁निकाले	-7974
▁निगमों	-7975
▁पड़ेगा	-7976
▁पर्यटन	-7977
▁पहाड़ी	-7978
▁पीजीएच	-7979
▁पीनियल	-7980
▁प्रिंट	-7981
▁प्‍लॉट	-7982
▁बढ़ाकर	-7983
▁मोज़ेक	-7984
▁यूनियन	-7985
▁रॉबर्ट	-7986
▁वाहनों	-7987
▁श्रिंक	-7988
▁सम्मिल	-7989
▁साइकिल	-7990
▁साल्‍व	-7991
▁स्थलों	-7992
▁हार्मो	-7993
अपरिपक्व	-7994
क्कोट्टई	-7995
स्केलेटल	-7996
िरापल्ली	-7997
्युलेटेड	-7998
▁अमेरिकी	-7999
▁आक्रामक	-8000
▁आश्चर्य	-8001
▁इंटीग्र	-8002
▁एनएचएआई	-8003
▁ज्‍यादा	-8004
▁डीलिस्ट	-8005
▁न्यूरोस	-8006
▁प्रोटिओ	-8007
▁ब्रिटिश	-8008
▁भिन्नता	-8009
▁मटेरियल	-8010
▁मधुमक्ख	-8011
▁लेबोरेट	-8012
▁विरुद्ध	-8013
▁सबडोमेन	-8014
▁सावधानी	-8015
▁सेमिनार	-8016
▁स्टेरिक	-8017
ॉलिक्युलर	-8018
▁Sarfaraz	-8019
▁अधिसूचित	-8020
▁अनुवादित	-8021
▁आइसोमर्स	-8022
▁आरडीडीबी	-8023
▁उपयोगिता	-8024
▁एमट्रांस	-8025
▁कार्यकाल	-8026
▁क्राइटेर	-8027
▁चींटियों	-8028
▁जेएमएमएल	-8029
▁टाइरोसिन	-8030
▁दिखाऊंगा	-8031
▁नवीनीकरण	-8032
▁नागरिकों	-8033
▁निविदाओं	-8034
▁प्रतियां	-8035
▁प्रशासित	-8036
▁प्राइवेट	-8037
▁प्रॉक्सी	-8038
▁ब्रिजिज़	-8039
▁ब्लीडिंग	-8040
▁मार्जिनल	-8041
▁मेथिओनिन	-8042
▁लोकप्रिय	-8043
▁सेल्सियस	-8044
▁हामीदारी	-8045
▁इम्‍प्रिं	-8046
▁डिटेक्‍टर	-8047
▁डेरिवेटिव	-8048
▁नेटवर्क्स	-8049
▁पृष्ठभूमि	-8050
▁पेप्‍टाइड	-8051
▁प्रतिबद्ध	-8052
▁प्रोटीनें	-8053
▁बाध्यकारी	-8054
▁स्थितियां	-8055
▁हार्मोन्स	-8056
अनसैचुरेटेड	-8057
▁क्यूटेनियस	-8058
▁क्रियात्मक	-8059
▁दीर्घकालिक	-8060
▁फ़ाइलोजेनी	-8061
▁फ्लोरोसेंट	-8062
▁मैग्नीशियम	-8063
▁आर्टिफिशियल	-8064
▁इंफ्लेमेटरी	-8065
▁कार्यान्वित	-8066
▁ट्राइग्लिसर	-8067
▁ट्रिप्टोफैन	-8068
▁सफलतापूर्वक	-8069
▁अल्ट्रासाउंड	-8070
▁गैंग्लियोसाइड	-8071
▁हाइड्रोलाइज्ड	-8072
▁प्रोटीओग्लाइकन	-8073
)-	-8074
1)	-8075
18	-8076
5,	-8077
70	-8078
CB	-8079
IO	-8080
LA	-8081
SF	-8082
nt	-8083
कट	-8084
कै	-8085
छी	-8086
ठे	-8087
नो	-8088
सह	-8089
हम	-8090
▁i	-8091
ंटर	-8092
अंग	-8093
असल	-8094
आरए	-8095
ओपी	-8096
ताब	-8097
थुर	-8098
नगर	-8099
नेड	-8100
न्‍	-8101
पों	-8102
बाद	-8103
बीस	-8104
मेड	-8105
वहन	-8106
विट	-8107
ाहे	-8108
िसा	-8109
ीदा	-8110
ुगर	-8111
ेटी	-8112
ॉकर	-8113
ोनी	-8114
ोपण	-8115
ोषक	-8116
ौली	-8117
्वर	-8118
▁55	-8119
▁59	-8120
▁61	-8121
▁88	-8122
▁Fr	-8123
▁VI	-8124
▁pK	-8125
▁उभ	-8126
▁चू	-8127
▁धम	-8128
▁नक	-8129
▁फस	-8130
▁वस	-8131
ंचाई	-8132
अल्ट	-8133
इंटर	-8134
केजी	-8135
ज़ोम	-8136
जारी	-8137
डल्स	-8138
डियम	-8139
दुओं	-8140
पीपी	-8141
पॉली	-8142
प्ति	-8143
प्रे	-8144
फार्	-8145
फॉलो	-8146
माता	-8147
म्‍स	-8148
वानी	-8149
सिटी	-8150
सीएम	-8151
स्ती	-8152
स्सी	-8153
ाग्ल	-8154
ारीय	-8155
ालीस	-8156
िकीय	-8157
िनोल	-8158
ियली	-8159
ीसिस	-8160
ुमाब	-8161
ूम्र	-8162
ेन्ड	-8163
ैंडम	-8164
ोपैथ	-8165
ोबोट	-8166
ोलोल	-8167
्रीओ	-8168
▁15.	-8169
▁18.	-8170
▁<?>	-8171
▁अनव	-8172
▁ओपन	-8173
▁कंड	-8174
▁कवि	-8175
▁काउ	-8176
▁कैट	-8177
▁कॉइ	-8178
▁कों	-8179
▁खनन	-8180
▁गिन	-8181
▁गुप	-8182
▁जैव	-8183
▁डेन	-8184
▁धना	-8185
▁पशु	-8186
▁पैच	-8187
▁पों	-8188
▁बजे	-8189
▁बाग	-8190
▁राव	-8191
▁सतत	-8192
काशित	-8193
क्रीट	-8194
क्लिए	-8195
क्सेस	-8196
चेस्ट	-8197
जामिन	-8198
दायिक	-8199
नीकृत	-8200
बिम्ब	-8201
मावली	-8202
योजना	-8203
रेस्ट	-8204
र्सिव	-8205
लोस्ट	-8206
शक्ति	-8207
शियाई	-8208
ाइट्स	-8209
िक्शन	-8210
ियामक	-8211
्यादे	-8212
▁अनेक	-8213
▁अर्ध	-8214
▁आनंद	-8215
▁आर्म	-8216
▁आवरण	-8217
▁एकदम	-8218
▁एनैं	-8219
▁एब्ड	-8220
▁एरिथ	-8221
▁एरोम	-8222
▁एवोल	-8223
▁एसएच	-8224
▁कक्ष	-8225
▁कठोर	-8226
▁कर्व	-8227
▁कॉन्	-8228
▁कोआप	-8229
▁क्वा	-8230
▁खदान	-8231
▁गड़ब	-8232
▁गणित	-8233
▁चलना	-8234
▁ड्रा	-8235
▁थिंक	-8236
▁थेनी	-8237
▁दरों	-8238
▁देगी	-8239
▁धारक	-8240
▁निगल	-8241
▁नीलग	-8242
▁पाठक	-8243
▁बेंच	-8244
▁मुना	-8245
▁मेली	-8246
▁मैने	-8247
▁यद्य	-8248
▁रहना	-8249
▁राजन	-8250
▁लिखत	-8251
▁वजीर	-8252
▁वाइड	-8253
▁वाहन	-8254
▁विस्	-8255
▁सोलह	-8256
▁स्पी	-8257
▁हाउस	-8258
▁होमो	-8259
इंटरनल	-8260
इलेक्ट	-8261
केलेटन	-8262
केलेशन	-8263
न्टाइल	-8264
पड़ताल	-8265
प्रदान	-8266
ल्डहुड	-8267
वेंट्स	-8268
साइट्स	-8269
स्क्यू	-8270
स्ट्री	-8271
ाधिकार	-8272
िनोमास	-8273
िफॉर्म	-8274
िष्कार	-8275
ेदारों	-8276
ोटोनिन	-8277
ोस्टेर	-8278
▁2009,	-8279
▁आठवीं	-8280
▁ऊंचाई	-8281
▁एक्‍स	-8282
▁एम्फी	-8283
▁एलिसा	-8284
▁एसईएफ	-8285
▁ऑर्डर	-8286
▁कमीशन	-8287
▁कमेटी	-8288
▁कामों	-8289
▁कॉन्ट	-8290
▁क्लोन	-8291
▁क्‍या	-8292
▁ग्रीक	-8293
▁छोड़े	-8294
▁झिल्ल	-8295
▁टारगे	-8296
▁टॉन्स	-8297
▁ट्रां	-8298
▁डिप्ल	-8299
▁डीम्ड	-8300
▁थक्के	-8301
▁थाइमस	-8302
▁दरअसल	-8303
▁निकास	-8304
▁निगला	-8305
▁निपटा	-8306
▁बनाये	-8307
▁बायोम	-8308
▁ब्लाक	-8309
▁मध्यम	-8310
▁मिलों	-8311
▁रिप्र	-8312
▁रेस्ट	-8313
▁रोककर	-8314
▁रोबोट	-8315
▁लम्बे	-8316
▁लूप्स	-8317
▁वाष्‍	-8318
▁विलंब	-8319
▁हकदार	-8320
▁हेक्स	-8321
▁होमोल	-8322
फेफड़ों	-8323
मैट्रिक	-8324
ाग्लैंड	-8325
ूम्रपान	-8326
ोसाइट्स	-8327
▁अंडकोष	-8328
▁अंतरिम	-8329
▁अकादमी	-8330
▁उच्चतर	-8331
▁एशियाई	-8332
▁कुडलौर	-8333
▁कोचिंग	-8334
▁जुड़ने	-8335
▁निरस्त	-8336
▁पोजीशन	-8337
▁प्यादे	-8338
▁प्रदेश	-8339
▁प्रधान	-8340
▁प्रभाग	-8341
▁रिश्ते	-8342
▁रोकथाम	-8343
▁लम्प्स	-8344
▁लिंक्स	-8345
▁वेसल्स	-8346
▁शौचालय	-8347
▁श्रोणि	-8348
▁संबद्ध	-8349
▁संभाला	-8350
▁संवर्ग	-8351
▁स्मृति	-8352
▁स्वर्ण	-8353
,000,000	-8354
रेटिविटी	-8355
सेकेराइड	-8356
स्पेक्टर	-8357
ुक्सिमाब	-8358
▁2006-07	-8359
▁अंशधारक	-8360
▁अधीनस्थ	-8361
▁एडज़ोर्	-8362
▁कॉलेजों	-8363
▁कोडॉन्स	-8364
▁क्वार्ट	-8365
▁क्षारीय	-8366
▁चिन्हित	-8367
▁चिन्हों	-8368
▁जानवरों	-8369
▁टेस्ट्स	-8370
▁थिंकिंग	-8371
▁नीतियों	-8372
▁पश्चिमी	-8373
▁पसंदीदा	-8374
▁प्रचलित	-8375
▁प्रोफिल	-8376
▁फ्रोजेन	-8377
▁फ्‍लूइड	-8378
▁बिंदुओं	-8379
▁मेच्योर	-8380
▁राजभाषा	-8381
▁विवरणों	-8382
▁शेयरधार	-8383
▁समर्थित	-8384
▁साझेदार	-8385
▁स्ज़ारी	-8386
▁हेलिसेस	-8387
एक्सटर्नल	-8388
ेंड्रोग्ल	-8389
▁अपेक्षित	-8390
▁इमैटिनिब	-8391
▁इम्यूनोस	-8392
▁एम्ब्रीओ	-8393
▁कनेक्टिव	-8394
▁क्षमताओं	-8395
▁घुमावदार	-8396
▁चैल्डहुड	-8397
▁द्वितीयक	-8398
▁नियरेस्ट	-8399
▁नैनोमीटर	-8400
▁न्यूक्ली	-8401
▁प्रतिरोध	-8402
▁प्रोमायल	-8403
▁फीलिंग्स	-8404
▁फैक्टर्स	-8405
▁बायोलॉजी	-8406
▁मानकीकृत	-8407
▁रिकर्सिव	-8408
▁रिसेक्शन	-8409
▁रेस्क्यू	-8410
▁वाइंडिंग	-8411
▁विनियामक	-8412
▁शक्तियाँ	-8413
▁संकल्पना	-8414
▁सम्पूर्ण	-8415
▁सम्मिलित	-8416
▁हिस्ट्री	-8417
▁अधिनियमों	-8418
▁अप्रकाशित	-8419
▁आनुवांशिक	-8420
▁एस्पारटिक	-8421
▁डिपॉजिटरी	-8422
▁निहितार्थ	-8423
▁परिकल्पना	-8424
▁पिट्यूटरी	-8425
▁प्रदर्शनी	-8426
▁मध्यस्थता	-8427
▁मलिग्नन्ट	-8428
▁मीडियास्ट	-8429
▁रिएजेंट्स	-8430
▁सेरोटोनिन	-8431
▁स्वाभाविक	-8432
▁हितधारकों	-8433
एस्ट्रोसाइट	-8434
▁अंतःप्रवाह	-8435
▁अनवाइंडिंग	-8436
▁अभिविन्यास	-8437
▁आवश्यकताएँ	-8438
▁इंटरकेलेशन	-8439
▁इंस्पेक्टर	-8440
▁इन्फन्टाइल	-8441
▁ऑब्जेक्टिव	-8442
▁कम्प्यूटेड	-8443
▁कल्याणकारी	-8444
▁ज्योमेट्री	-8445
▁पार्टिकल्स	-8446
▁पुनरावर्ती	-8447
▁पूर्ववर्ती	-8448
▁प्रतिबिम्ब	-8449
▁प्रॉब्लम्स	-8450
▁प्रोसेसिंग	-8451
▁फॉलिक्युलर	-8452
▁रामनाथपुरम	-8453
▁रिसेप्टर्स	-8454
▁हाइपोथीसिस	-8455
▁ऑक्सीडाइज्ड	-8456
▁पीडियाट्रिक	-8457
▁महत्‍वपूर्ण	-8458
▁मेम्ब्रेन्स	-8459
▁व्यवहार्यता	-8460
▁साइटोमेट्री	-8461
▁सॉल्‍वेंट्स	-8462
▁अंतःक्रियाएँ	-8463
▁अंतःक्रियाओं	-8464
▁कोआपरेटिविटी	-8465
▁फॉस्फोलिपेज़	-8466
▁अंतरराष्ट्रीय	-8467
▁कम्प्यूटरीकरण	-8468
▁तिरुचिरापल्ली	-8469
▁ग्लाइकोसाइलेशन	-8470
▁प्रोस्टाग्लैंड	-8471
▁सेरेब्रोसाइड्स	-8472
▁प्रोमायलोसाइटिक	-8473
-4	-8474
/4	-8475
31	-8476
35	-8477
6,	-8478
86	-8479
ha	-8480
ov	-8481
st	-8482
उन	-8483
एट	-8484
चौ	-8485
झी	-8486
टो	-8487
श्	-8488
सच	-8489
हद	-8490
ीं	-8491
ॉइ	-8492
।)	-8493
।।	-8494
-08	-8495
est	-8496
एंज	-8497
एक्	-8498
कोट	-8499
टेल	-8500
डिय	-8501
ढ़ा	-8502
थान	-8503
थित	-8504
दूर	-8505
पशन	-8506
पीय	-8507
पैथ	-8508
प्प	-8509
मरी	-8510
मैब	-8511
येक	-8512
वाँ	-8513
वेक	-8514
सीय	-8515
हाल	-8516
िबल	-8517
ुगत	-8518
ुग्	-8519
ॉलर	-8520
▁69	-8521
▁95	-8522
▁ऑल	-8523
▁खी	-8524
▁खे	-8525
▁डू	-8526
,5,0	-8527
,500	-8528
2009	-8529
</?>	-8530
अथवा	-8531
आईसी	-8532
कोले	-8533
क्कर	-8534
क्का	-8535
क्रो	-8536
ट्रो	-8537
न्‍ट	-8538
पीजी	-8539
मेरु	-8540
मोइड	-8541
रेपी	-8542
र्टे	-8543
र्डी	-8544
लाइड	-8545
वेदन	-8546
हसास	-8547
ातिक	-8548
िंगर	-8549
िद्ध	-8550
ुल्स	-8551
ूँगी	-8552
ूंगी	-8553
ृद्ध	-8554
ेटीक	-8555
ेषित	-8556
ैप्स	-8557
ैबिल	-8558
ोनाइ	-8559
्रोज	-8560
‍पिड	-8561
▁04.	-8562
▁13.	-8563
▁15%	-8564
▁193	-8565
▁Ram	-8566
▁एन्	-8567
▁ऑफर	-8568
▁किट	-8569
▁गहन	-8570
▁छठी	-8571
▁दाव	-8572
▁नकल	-8573
▁निन	-8574
▁निल	-8575
▁मना	-8576
▁मुर	-8577
▁रिग	-8578
▁लोन	-8579
▁सभा	-8580
▁सॉल	-8581
▁हरा	-8582
▁हल्	-8583
▁हिप	-8584
▁हैब	-8585
▁हैै	-8586
एनआरई	-8587
एफ़आई	-8588
गर्दन	-8589
चारित	-8590
ट्रिब	-8591
ट्रॉन	-8592
ताबें	-8593
तालीस	-8594
तीर्ण	-8595
दियों	-8596
फेरॉन	-8597
मेरिक	-8598
रोसिस	-8599
लग्नक	-8600
स्कृत	-8601
स्थान	-8602
हत्तर	-8603
ाइटिस	-8604
ामाइन	-8605
ारोपण	-8606
िएटेड	-8607
ीलीटर	-8608
ोरेंट	-8609
ोलेंट	-8610
्यर्थ	-8611
्यूरो	-8612
्रिकल	-8613
▁1992	-8614
▁अंकन	-8615
▁अभिक	-8616
▁अमोन	-8617
▁आचरण	-8618
▁आनुप	-8619
▁इन्ड	-8620
▁एग्र	-8621
▁एब्न	-8622
▁एसएफ	-8623
▁ऑक्‍	-8624
▁कमरे	-8625
▁किन्	-8626
▁कैसी	-8627
▁खनिज	-8628
▁गूगल	-8629
▁गैरी	-8630
▁घटाव	-8631
▁चलती	-8632
▁चावल	-8633
▁डॉलर	-8634
▁द्वि	-8635
▁पायी	-8636
▁पीके	-8637
▁पुडु	-8638
▁प्ला	-8639
▁प्लॉ	-8640
▁फाइल	-8641
▁बढ़ी	-8642
▁बाईस	-8643
▁बुरा	-8644
▁बेहद	-8645
▁भेजी	-8646
▁मछली	-8647
▁मेटा	-8648
▁यूएस	-8649
▁रिगर	-8650
▁लेबल	-8651
▁विंड	-8652
▁विजे	-8653
▁विले	-8654
▁शिवग	-8655
▁शैंक	-8656
▁समर्	-8657
▁सीएफ	-8658
▁सीटू	-8659
▁सीधा	-8660
▁सुलझ	-8661
▁सेवक	-8662
▁स्कल	-8663
जेनिटल	-8664
त्‍येक	-8665
फ़ेक्ट	-8666
ब्लॉकर	-8667
भुगतान	-8668
यूल्‍स	-8669
सिस्टम	-8670
सीएसएफ	-8671
स्फिंग	-8672
ेशनेरी	-8673
ोजिस्ट	-8674
ोजेनिक	-8675
▁3,5,0	-8676
▁आइसोम	-8677
▁आवधिक	-8678
▁इनकार	-8679
▁एग्री	-8680
▁एरिया	-8681
▁खरीदा	-8682
▁खोखली	-8683
▁घूमने	-8684
▁चालीस	-8685
▁चुनें	-8686
▁टूटने	-8687
▁डिस्प	-8688
▁तिरछी	-8689
▁दर्जा	-8690
▁धारणा	-8691
▁ध्वनि	-8692
▁निबंध	-8693
▁निवास	-8694
▁पोषित	-8695
▁बंदोब	-8696
▁बेचने	-8697
▁ब्रेक	-8698
▁मापता	-8699
▁मिडिल	-8700
▁मेमरी	-8701
▁मोहरे	-8702
▁यहांँ	-8703
▁रसौली	-8704
▁रैंडम	-8705
▁व्यास	-8706
▁शीटों	-8707
▁शुक्र	-8708
▁शेल्फ	-8709
▁सशक्त	-8710
▁सीखती	-8711
▁स्टार	-8712
▁हज़ार	-8713
▁हेपेट	-8714
तिहासिक	-8715
र्निहित	-8716
िब्रियम	-8717
ेंसियों	-8718
ोमाइसिन	-8719
▁अवशोषण	-8720
▁आरक्षण	-8721
▁आवासों	-8722
▁इलेक्‍	-8723
▁उन्मुख	-8724
▁करेंगी	-8725
▁चीज़ें	-8726
▁छवियों	-8727
▁जनरेटर	-8728
▁जांचने	-8729
▁निकटतम	-8730
▁नीडल्स	-8731
▁पंचायत	-8732
▁पब्लिक	-8733
▁पाएँगे	-8734
▁पुनर्व	-8735
▁पृथ्वी	-8736
▁फिटनेस	-8737
▁फॉस्फो	-8738
▁मायक्स	-8739
▁मैनेजर	-8740
▁यद्यपि	-8741
▁राइबोज	-8742
▁रियायत	-8743
▁लि‍पिड	-8744
▁वर्क्स	-8745
▁वेक्टर	-8746
▁शिशुओं	-8747
▁संकेतक	-8748
▁समानता	-8749
▁समावेश	-8750
▁समुद्र	-8751
अनुवर्ती	-8752
बायोप्सी	-8753
ब्रेन्‍स	-8754
ोटाइपिंग	-8755
ोस्टेरोन	-8756
▁अधिशोषक	-8757
▁अनिवासी	-8758
▁अनुवादक	-8759
▁अभ्यर्थ	-8760
▁अस्पष्ट	-8761
▁एंजियोफ	-8762
▁एक्सट्र	-8763
▁एजेंट्स	-8764
▁एस्टर्स	-8765
▁ऑप्टिमल	-8766
▁किताबें	-8767
▁क्लासिक	-8768
▁ग्रैनुल	-8769
▁ड्राफ्ट	-8770
▁निकालकर	-8771
▁नीलगिरी	-8772
▁पहुँचने	-8773
▁प्रतिमा	-8774
▁फ़ंक्शन	-8775
▁फाइनेंस	-8776
▁मीट्रिक	-8777
▁मैग्नेट	-8778
▁विवादों	-8779
▁वेल्लोर	-8780
▁वैक्सीन	-8781
▁संबोधित	-8782
▁संरक्षक	-8783
▁संवर्धन	-8784
▁सत्यापन	-8785
▁सुधारने	-8786
▁स्‍लाइड	-8787
डायमेंशनल	-8788
ोस्केलेटन	-8789
्युकीमिया	-8790
▁अध्रुवीय	-8791
▁अनुलग्नक	-8792
▁अन्तर्गत	-8793
▁अयोग्यता	-8794
▁आनुपातिक	-8795
▁आविष्कार	-8796
▁एग्रेसिव	-8797
▁ऐतिहासिक	-8798
▁कंजेनिटल	-8799
▁क्रॉसिंग	-8800
▁चैटबोट्स	-8801
▁डायरेक्ट	-8802
▁डायस्टेर	-8803
▁डिप्लोमा	-8804
▁डिफ्यूज़	-8805
▁डिरेक्शन	-8806
▁डिसऑर्डर	-8807
▁धूम्रपान	-8808
▁पहुंचाती	-8809
▁पहुंचाने	-8810
▁प्रसारित	-8811
▁फंक्शन्स	-8812
▁बिल्डिंग	-8813
▁मधुमक्खी	-8814
▁मिलीलीटर	-8815
▁रिग्रेशन	-8816
▁रॉबर्टसन	-8817
▁विज्ञापन	-8818
▁संसाधनों	-8819
▁सामान्‍य	-8820
▁सिग्मोइड	-8821
▁स्क्वेयर	-8822
▁स्टेडियम	-8823
▁हानिकारक	-8824
इंट्राथेकल	-8825
क्यूटेनियस	-8826
मोनोसाइटिक	-8827
ियोजेनेसिस	-8828
ेप्‍टाइड्स	-8829
▁इम्पिरिकल	-8830
▁एब्नार्मल	-8831
▁कुड्डालोर	-8832
▁गैलेक्टोज	-8833
▁ग्‍लाइसिन	-8834
▁टेक्स्ट्स	-8835
▁नकारात्मक	-8836
▁परिस्थिति	-8837
▁प्रत्‍येक	-8838
▁लेबोरेटरी	-8839
▁विश्वसनीय	-8840
▁स्टेशनेरी	-8841
▁आवश्यकताएं	-8842
▁एडज़ोर्पशन	-8843
▁एम्ब्रीओनल	-8844
▁कंसोलिडेशन	-8845
▁रेस्टोरेंट	-8846
▁शेयरधारिता	-8847
▁हार्मोन्‍स	-8848
अल्ट्रासाउंड	-8849
एसाइलग्लिसरॉ	-8850
▁क्राइटेरिया	-8851
▁ग्लाइकोप्रो	-8852
▁यूकेरियोटिक	-8853
▁लाभार्थियों	-8854
▁सिम्युलेटेड	-8855
▁सुरक्षात्मक	-8856
▁अनुशासनात्मक	-8857
▁इम्यूनोहिस्ट	-8858
▁प्रोटिओमिक्स	-8859
▁मस्तिष्कमेरु	-8860
▁ग्लाइकोस्फिंग	-8861
▁दिशानिर्देशों	-8862
▁पाठ्यपुस्तकों	-8863
▁फॉस्फोलिपेसेस	-8864
▁पोलीअनसैचुरेटेड	-8865
'।	-8866
15	-8867
23	-8868
46	-8869
49	-8870
85	-8871
NM	-8872
SA	-8873
US	-8874
tn	-8875
ंव	-8876
णु	-8877
नर	-8878
यह	-8879
षे	-8880
।-	-8881
10.	-8882
CAT	-8883
MRT	-8884
RAF	-8885
WHO	-8886
ंदर	-8887
इंड	-8888
एज़	-8889
एटी	-8890
कंप	-8891
खिक	-8892
खित	-8893
ख्त	-8894
गीत	-8895
चात	-8896
जात	-8897
पणन	-8898
पुन	-8899
बन्	-8900
बहु	-8901
बीए	-8902
मंड	-8903
यून	-8904
रिज	-8905
रिय	-8906
लेक	-8907
लोड	-8908
वात	-8909
शेड	-8910
साई	-8911
सीओ	-8912
सील	-8913
हरी	-8914
िंज	-8915
िपि	-8916
िशर	-8917
ूला	-8918
▁--	-8919
▁67	-8920
▁xi	-8921
▁इट	-8922
▁गा	-8923
▁तट	-8924
▁ते	-8925
▁नु	-8926
▁बढ	-8927
▁मी	-8928
NMRI	-8929
ंन्ड	-8930
आर्म	-8931
इड्स	-8932
एंडो	-8933
एमआर	-8934
चारा	-8935
छोटे	-8936
ज्‍म	-8937
दूरी	-8938
धारी	-8939
नीचर	-8940
पुरी	-8941
बहुत	-8942
मेशन	-8943
र्टर	-8944
र्ते	-8945
र्दे	-8946
लाइन	-8947
लाशय	-8948
लेटर	-8949
वाटर	-8950
सज्ज	-8951
सीजन	-8952
ाइलो	-8953
ीडीन	-8954
ृप्त	-8955
ेंजर	-8956
ैटिन	-8957
ैलिक	-8958
ॉजिक	-8959
ॉन्ड	-8960
ॉर्ट	-8961
ोंको	-8962
ोनेट	-8963
्ट्स	-8964
▁140	-8965
▁144	-8966
▁20.	-8967
▁75%	-8968
▁90%	-8969
▁his	-8970
▁अड़	-8971
▁अधि	-8972
▁अमा	-8973
▁अवै	-8974
▁एएस	-8975
▁एनस	-8976
▁एयर	-8977
▁कपै	-8978
▁कर्	-8979
▁कस्	-8980
▁कैं	-8981
▁कोओ	-8982
▁गंत	-8983
▁गाय	-8984
▁गुज	-8985
▁गेम	-8986
▁चौर	-8987
▁टैं	-8988
▁तैर	-8989
▁नरम	-8990
▁नास	-8991
▁फुट	-8992
▁फेर	-8993
▁बंड	-8994
▁बची	-8995
▁बही	-8996
▁भूख	-8997
▁मोड	-8998
▁रोल	-8999
▁विज	-9000
▁वीं	-9001
▁वोल	-9002
▁शिप	-9003
▁शिफ	-9004
▁सजा	-9005
▁सरक	-9006
▁सूच	-9007
▁सोम	-9008
▁सोस	-9009
▁हां	-9010
▁हाय	-9011
अन्सी	-9012
अस्थि	-9013
क्रिन	-9014
ग्लूट	-9015
चकांक	-9016
धियों	-9017
नादेश	-9018
नामिक	-9019
निज्म	-9020
पीईटी	-9021
पूंजी	-9022
पॉइंट	-9023
भावना	-9024
यावधि	-9025
यूनिट	-9026
लीदार	-9027
लेटरी	-9028
शीलता	-9029
सीएआर	-9030
स्टिक	-9031
स्टीर	-9032
ागिरी	-9033
िओसोम	-9034
िमाही	-9035
ियाणा	-9036
िलेशन	-9037
ुपाती	-9038
ूपपुर	-9039
ेंजीन	-9040
ेंडेल	-9041
ैरेपी	-9042
ोजिने	-9043
ोमाइड	-9044
ोलिपो	-9045
▁1963	-9046
▁1980	-9047
▁1991	-9048
▁1999	-9049
▁BRAF	-9050
▁अतीत	-9051
▁अब्ड	-9052
▁आश्र	-9053
▁इतने	-9054
▁ईस्ट	-9055
▁उत्‍	-9056
▁एडेन	-9057
▁एनएस	-9058
▁एसएस	-9059
▁काले	-9060
▁किरण	-9061
▁खड़ी	-9062
▁घाटे	-9063
▁चेयर	-9064
▁टेसे	-9065
▁ठंडा	-9066
▁डिपो	-9067
▁तेज़	-9068
▁नाइन	-9069
▁नागा	-9070
▁निषे	-9071
▁पकड़	-9072
▁पांड	-9073
▁पाएं	-9074
▁प्रभ	-9075
▁प्ले	-9076
▁फैली	-9077
▁बंधन	-9078
▁बताई	-9079
▁बोंस	-9080
▁मैनु	-9081
▁मौका	-9082
▁रहित	-9083
▁लेंस	-9084
▁लेगा	-9085
▁लैंड	-9086
▁विरु	-9087
▁सकने	-9088
▁सर्ज	-9089
▁सुबह	-9090
▁सौदे	-9091
3.2010	-9092
आर्थिक	-9093
चेन्नई	-9094
टीन्‍स	-9095
नार्मल	-9096
मराइज़	-9097
रीक्षक	-9098
र्माना	-9099
लोकेशन	-9100
सज्जित	-9101
ाइजेसन	-9102
ेक्टिन	-9103
्लेक्स	-9104
्‍वेंस	-9105
▁अधिगम	-9106
▁असमान	-9107
▁इंटरक	-9108
▁उठाया	-9109
▁उपदान	-9110
▁उपभोग	-9111
▁काईरल	-9112
▁ख़त्म	-9113
▁गरीबी	-9114
▁गुप्त	-9115
▁घटाकर	-9116
▁टैक्स	-9117
▁डालता	-9118
▁डेवसन	-9119
▁थोड़े	-9120
▁दंडित	-9121
▁दोहरे	-9122
▁नब्बे	-9123
▁पड़ती	-9124
▁परतें	-9125
▁पेयजल	-9126
▁पॉकेट	-9127
▁फाउंड	-9128
▁बदलकर	-9129
▁बाधित	-9130
▁बायाँ	-9131
▁बाह्य	-9132
▁बुलेट	-9133
▁मजदूर	-9134
▁मलाशय	-9135
▁मारते	-9136
▁मेटाब	-9137
▁मोल्स	-9138
▁रेक्ट	-9139
▁लिपोस	-9140
▁लैक्ट	-9141
▁विपणन	-9142
▁विवेक	-9143
▁शिविर	-9144
▁संघों	-9145
▁सेल्फ	-9146
▁सोचें	-9147
▁स्केल	-9148
क्षेत्र	-9149
चाराधीन	-9150
र्डीनेट	-9151
र्सेनिक	-9152
ाइकन्‍स	-9153
ियमावली	-9154
ेप्चुअल	-9155
्रेडेशन	-9156
▁25,000	-9157
▁अनुकरण	-9158
▁अमान्य	-9159
▁अल्फ़ा	-9160
▁आपत्ति	-9161
▁आबंधों	-9162
▁आरंभिक	-9163
▁एग्लूट	-9164
▁एथेनॉल	-9165
▁कठिनाई	-9166
▁करवाना	-9167
▁कलेक्ट	-9168
▁कुशलता	-9169
▁कैंसरस	-9170
▁कैलोरी	-9171
▁कॉलोनी	-9172
▁गुर्दे	-9173
▁गोबुलर	-9174
▁ज़रूरत	-9175
▁जोड़ों	-9176
▁टिशूज़	-9177
▁टेट्रा	-9178
▁डेस्मो	-9179
▁तथ्यों	-9180
▁तिमाही	-9181
▁त्रिची	-9182
▁दाहिना	-9183
▁दिखाती	-9184
▁नर्ब्स	-9185
▁नवीकरण	-9186
▁पिछड़ा	-9187
▁पिनियल	-9188
▁पीआरपी	-9189
▁पूर्वज	-9190
▁पॉलिमर	-9191
▁प्रतीत	-9192
▁बायोमो	-9193
▁बारीकी	-9194
▁बुलाने	-9195
▁बॉंन्ड	-9196
▁मजिस्ट	-9197
▁मनुष्य	-9198
▁मायलोड	-9199
▁विभागा	-9200
▁वोटिंग	-9201
▁व्हाइट	-9202
▁शीर्षक	-9203
▁संध्या	-9204
▁सचिवों	-9205
▁समाचार	-9206
▁सम्बन्	-9207
▁सीमाओं	-9208
▁सुव्यव	-9209
▁स्टडीज	-9210
▁स्तरों	-9211
तमिलनाडु	-9212
नेक्टॉमी	-9213
फोर्मेशन	-9214
सपोर्टेड	-9215
ेजेंटेशन	-9216
ोपेक्टिन	-9217
्रैक्टरी	-9218
▁इकाइयाँ	-9219
▁इक्वेशन	-9220
▁उत्पादक	-9221
▁एट्रांस	-9222
▁एपोलिपो	-9223
▁ऑप्टिकल	-9224
▁केन्द्र	-9225
▁ग्लियाल	-9226
▁चरणबद्ध	-9227
▁चित्रित	-9228
▁जीनोमिक	-9229
▁निर्वहन	-9230
▁पहचानना	-9231
▁पहुँचते	-9232
▁प्रॉसेस	-9233
▁फर्नीचर	-9234
▁बदलावों	-9235
▁बागवानी	-9236
▁बेहतरीन	-9237
▁बॉन्डिड	-9238
▁ब्रोंको	-9239
▁मायलॉइड	-9240
▁मिक्स्ड	-9241
▁मिलेंगे	-9242
▁मूवमेंट	-9243
▁रोटेशनल	-9244
▁विविधता	-9245
▁समयावधि	-9246
▁समर्पित	-9247
▁सर्कुलर	-9248
▁स्ट्रीट	-9249
▁हरियाणा	-9250
▁हेपेटिक	-9251
▁हैबिट्स	-9252
कोलोजिस्ट	-9253
मेम्ब्रेन	-9254
ैबिलिटेशन	-9255
▁अंडरआर्म	-9256
▁अनुखंडों	-9257
▁अभिलिखित	-9258
▁असमर्थता	-9259
▁आर्गेनिक	-9260
▁उत्पादित	-9261
▁एंटीजन्स	-9262
▁एरिथ्रोज	-9263
▁एल्डोनिक	-9264
▁कंडीशन्स	-9265
▁गतिशीलता	-9266
▁ग्रेंडेल	-9267
▁जुर्माना	-9268
▁टाइपिस्ट	-9269
▁तिरूपपुर	-9270
▁थ्रिओनीन	-9271
▁निरंतरता	-9272
▁निर्गमों	-9273
▁पिक्चर्स	-9274
▁प्रबंधित	-9275
▁प्रवाहित	-9276
▁माल्टोज़	-9277
▁लि‍पिड्स	-9278
▁विधानसभा	-9279
▁शासनादेश	-9280
▁सुसज्जित	-9281
▁सेरेब्रम	-9282
▁स्टेशनों	-9283
▁स्वयंसेव	-9284
इम्यूनोएसे	-9285
▁अंतर्नियम	-9286
▁अभियंताओं	-9287
▁इंटरैक्शन	-9288
▁एजेंसियों	-9289
▁किटोज़िज़	-9290
▁टेक्निक्स	-9291
▁टेसेरेक्ट	-9292
▁डाइहेड्रल	-9293
▁डिजाइनिंग	-9294
▁निष्कर्षण	-9295
▁पुनर्गठित	-9296
▁प्राधिकृत	-9297
▁बायोलोजिक	-9298
▁मैकेनिज्म	-9299
▁योजनाबद्ध	-9300
▁रेखाचित्र	-9301
▁विचाराधीन	-9302
▁समानुपाती	-9303
▁सिक्‍वेंस	-9304
▁हिस्टियोस	-9305
▁हिस्टीडीन	-9306
क्सीप्रोलिन	-9307
▁अंतर्निहित	-9308
▁आधुनिकीकरण	-9309
▁कीमोथैरेपी	-9310
▁कोओर्डीनेट	-9311
▁ग्लूटामाइन	-9312
▁डिग्रेडेशन	-9313
▁न्यायालयों	-9314
▁प्लेसहोल्ड	-9315
▁मजिस्ट्रेट	-9316
▁मार्गदर्शन	-9317
▁संपत्तियों	-9318
▁साल्‍वन्‍ट	-9319
▁एंटीबायोटिक	-9320
▁कॉन्ट्रैक्ट	-9321
▁क्लोरोफॉर्म	-9322
▁क्षतिपूर्ति	-9323
▁पुनर्भुगतान	-9324
▁प्रतिपूर्ति	-9325
▁महानिरीक्षक	-9326
▁मेंब्रेन्‍स	-9327
▁वैज्ञानिकों	-9328
▁हस्तांतरणीय	-9329
क्रिनोलॉजिस्ट	-9330
न्यूरोलॉजिस्ट	-9331
ेप्चुअलाइजेसन	-9332
▁ट्रांसलोकेशन	-9333
▁प्रवर्त्तकों	-9334
▁प्रोग्रामिंग	-9335
▁मेनिन्जियोमा	-9336
▁लिपोसार्कोमा	-9337
▁लिम्फोसाइटों	-9338
▁विभागाध्यक्ष	-9339
▁आरडीडीबीएफ़आई	-9340
▁एमाइलोपेक्टिन	-9341
▁एस्ट्रोसाइटिक	-9342
▁ऑप्टिमाइज़ेशन	-9343
▁न्‍यूक्लिओसोम	-9344
▁माइक्रोस्कोपी	-9345
▁साइटोस्केलेटन	-9346
▁ह्यूरिस्टिक्स	-9347
▁एपोलिपोप्रोटीन	-9348
▁स्फिंगोलिपिड्स	-9349
▁ट्रांसमेम्ब्रेन	-9350
▁पॉलीपेप्‍टाइड्स	-9351
)?	-9352
,9	-9353
36	-9354
43	-9355
68	-9356
88	-9357
MA	-9358
ge	-9359
ईओ	-9360
कस	-9361
जग	-9362
टू	-9363
तो	-9364
दन	-9365
धर	-9366
नम	-9367
फ्	-9368
भौ	-9369
मॉ	-9370
रब	-9371
रै	-9372
वह	-9373
वै	-9374
▁@	-9375
EDA	-9376
ave	-9377
ilk	-9378
ita	-9379
ंगई	-9380
ंदन	-9381
ंधन	-9382
ंबई	-9383
ंभव	-9384
ंसा	-9385
एसी	-9386
ओआर	-9387
कैट	-9388
गेट	-9389
च्‍	-9390
तरे	-9391
नाक	-9392
नोर	-9393
पार	-9394
पेर	-9395
पोर	-9396
पोल	-9397
मूड	-9398
राई	-9399
र्ध	-9400
लाभ	-9401
लीट	-9402
वंट	-9403
विद	-9404
साम	-9405
हेर	-9406
ागर	-9407
ाजक	-9408
ावि	-9409
िंच	-9410
िती	-9411
ीरो	-9412
ीसि	-9413
ुति	-9414
ुरल	-9415
ेटे	-9416
ोइक	-9417
ोगु	-9418
ोसी	-9419
्ठे	-9420
▁46	-9421
▁5,	-9422
▁52	-9423
▁54	-9424
▁57	-9425
▁58	-9426
▁AT	-9427
▁Hb	-9428
▁is	-9429
▁अय	-9430
▁उल	-9431
▁झू	-9432
▁ढक	-9433
▁तह	-9434
▁नज	-9435
▁बश	-9436
▁सृ	-9437
ingh	-9438
rade	-9439
ंचना	-9440
ऊँगा	-9441
एनसी	-9442
केआई	-9443
ग्‍ल	-9444
च्छा	-9445
जगता	-9446
जुअल	-9447
ट्रा	-9448
दाता	-9449
देशक	-9450
नेज़	-9451
न्ना	-9452
पोषण	-9453
फायर	-9454
बादी	-9455
बिना	-9456
बीएम	-9457
बीएल	-9458
भाशय	-9459
मारा	-9460
मोझी	-9461
रेखण	-9462
ल्हे	-9463
वारी	-9464
विंग	-9465
विजन	-9466
शासन	-9467
सीयत	-9468
स्ते	-9469
हैया	-9470
ान्त	-9471
ासेस	-9472
िएंट	-9473
िज्म	-9474
ित्त	-9475
िनोप	-9476
िमैब	-9477
िसिन	-9478
ेंगी	-9479
ोन्स	-9480
ोफिन	-9481
ोमाइ	-9482
्युड	-9483
▁07.	-9484
▁146	-9485
▁147	-9486
▁19.	-9487
▁22.	-9488
▁23.	-9489
▁27.	-9490
▁29.	-9491
▁30.	-9492
▁447	-9493
▁5,0	-9494
▁XII	-9495
▁pKR	-9496
▁ran	-9497
▁असर	-9498
▁आएं	-9499
▁ईएस	-9500
▁ऐंट	-9501
▁ऑयल	-9502
▁कनव	-9503
▁कीम	-9504
▁घात	-9505
▁छठा	-9506
▁जेट	-9507
▁जेन	-9508
▁टाई	-9509
▁टेन	-9510
▁डिर	-9511
▁ढूं	-9512
▁तली	-9513
▁थीन	-9514
▁दबा	-9515
▁धूप	-9516
▁नती	-9517
▁नये	-9518
▁नार	-9519
▁पाल	-9520
▁भूल	-9521
▁मैथ	-9522
▁रिथ	-9523
▁रिह	-9524
▁रूम	-9525
▁लगी	-9526
▁लिप	-9527
▁लॉक	-9528
▁वीक	-9529
▁हवा	-9530
▁हैल	-9531
-2007	-9532
ilkha	-9533
अनुसू	-9534
उपचार	-9535
खंडता	-9536
त्कार	-9537
धुनगर	-9538
नीतिक	-9539
न्नोर	-9540
पेक्ष	-9541
पैथिक	-9542
बहनों	-9543
भौमिक	-9544
राज्य	-9545
र्फिक	-9546
र्बिट	-9547
लेनिक	-9548
वलिंग	-9549
वश्यक	-9550
विशेष	-9551
षिद्ध	-9552
सेल्स	-9553
ायनों	-9554
ायलूर	-9555
ायलेट	-9556
ासंभव	-9557
ीनियम	-9558
ूर्णन	-9559
ॉर्टर	-9560
ोत्तर	-9561
ोनोमी	-9562
ोफाइब	-9563
ोमिनल	-9564
ोषजनक	-9565
्रामक	-9566
▁1500	-9567
▁1974	-9568
▁1995	-9569
▁1996	-9570
▁अर्ह	-9571
▁अवैध	-9572
▁आजकल	-9573
▁आयकर	-9574
▁इनको	-9575
▁ईंधन	-9576
▁उतने	-9577
▁उद्ध	-9578
▁उल्ट	-9579
▁एनें	-9580
▁एपिम	-9581
▁एमएस	-9582
▁करुर	-9583
▁कहें	-9584
▁किसे	-9585
▁कुंड	-9586
▁खिंच	-9587
▁खींच	-9588
▁खोजा	-9589
▁गायब	-9590
▁ग्रा	-9591
▁घोड़	-9592
▁जनसं	-9593
▁जुवे	-9594
▁डाइन	-9595
▁डेरी	-9596
▁दरार	-9597
▁दोगु	-9598
▁धमनी	-9599
▁धारण	-9600
▁फायल	-9601
▁फिशर	-9602
▁बंधा	-9603
▁बंधी	-9604
▁बचना	-9605
▁बदला	-9606
▁बदली	-9607
▁बाढ़	-9608
▁बेची	-9609
▁ब्लॉ	-9610
▁मापन	-9611
▁मिनी	-9612
▁मुआव	-9613
▁मेटल	-9614
▁रावण	-9615
▁रेंज	-9616
▁रेजी	-9617
▁रेशे	-9618
▁लंबर	-9619
▁लगती	-9620
▁लिनो	-9621
▁लीटर	-9622
▁लेखन	-9623
▁लेनी	-9624
▁लोअर	-9625
▁लौटा	-9626
▁वक्ष	-9627
▁वसाय	-9628
▁वैसी	-9629
▁शोर्	-9630
▁संसद	-9631
▁सख्त	-9632
▁सबूत	-9633
▁सम्प	-9634
▁सराह	-9635
▁सीपी	-9636
▁सुदृ	-9637
▁हेटर	-9638
इंडियन	-9639
केमिकल	-9640
क्राइब	-9641
ब्लेशन	-9642
मूर्ति	-9643
म्प्ली	-9644
रीक्षण	-9645
व्यापी	-9646
शिक्षण	-9647
सरकारी	-9648
स्टर्न	-9649
स्परिक	-9650
ाइटोमा	-9651
ायोजित	-9652
िगरेशन	-9653
ियालूर	-9654
ेंडरसन	-9655
ैक्सिक	-9656
ोमिक्स	-9657
ोहेक्स	-9658
ौगोलिक	-9659
्रेसिव	-9660
▁1,000	-9661
▁5,000	-9662
▁Singh	-9663
▁अध्या	-9664
▁अर्रे	-9665
▁अव्यव	-9666
▁अस्सी	-9667
▁आँखों	-9668
▁आबादी	-9669
▁एनोमर	-9670
▁कांटे	-9671
▁किराए	-9672
▁कीटोज	-9673
▁खरीदी	-9674
▁खरीदे	-9675
▁ग्राफ	-9676
▁चुनता	-9677
▁छिड़क	-9678
▁छोड़ा	-9679
▁जलसेक	-9680
▁ज़ीरो	-9681
▁जापान	-9682
▁जीतने	-9683
▁जुलाई	-9684
▁डेन्स	-9685
▁तहसील	-9686
▁थ्रेश	-9687
▁दसवीं	-9688
▁पत्थर	-9689
▁पिक्स	-9690
▁पीएलए	-9691
▁पेन्ट	-9692
▁पेराम	-9693
▁प्रसं	-9694
▁फसलों	-9695
▁फील्ड	-9696
▁बहाली	-9697
▁बैचों	-9698
▁बोलने	-9699
▁भेजना	-9700
▁मकड़ी	-9701
▁मानना	-9702
▁मानों	-9703
▁मारकर	-9704
▁मिलान	-9705
▁मुंबई	-9706
▁मूत्र	-9707
▁मैटीर	-9708
▁मैन्न	-9709
▁रंगीन	-9710
▁राजीव	-9711
▁रोकना	-9712
▁लिफ्ट	-9713
▁लॉजिक	-9714
▁लॉन्ग	-9715
▁वक्ता	-9716
▁वसीयत	-9717
▁विंडो	-9718
▁विधवा	-9719
▁विलेय	-9720
▁संगीत	-9721
▁सजगता	-9722
▁सतहों	-9723
▁सत्रह	-9724
▁समूही	-9725
▁सर्वर	-9726
▁स्टाफ	-9727
▁स्टील	-9728
जातियों	-9729
प्ताहिक	-9730
ेंजमेंट	-9731
▁Milkha	-9732
▁अखंडता	-9733
▁अग्रणी	-9734
▁अत्यंत	-9735
▁अनुचित	-9736
▁अभिभाव	-9737
▁अभिव्य	-9738
▁अवयवों	-9739
▁अवरोधक	-9740
▁आपदाओं	-9741
▁इन्ट्र	-9742
▁उन्हीं	-9743
▁एक्विल	-9744
▁एक्शंस	-9745
▁एट्रिब	-9746
▁एन्नोर	-9747
▁एलानिन	-9748
▁करुँगी	-9749
▁कोयम्ब	-9750
▁खरीदना	-9751
▁खुलासे	-9752
▁गिरावट	-9753
▁गॉर्टर	-9754
▁घूर्णन	-9755
▁टोपिकल	-9756
▁डिराइव	-9757
▁तोड़ने	-9758
▁नेचुरल	-9759
▁पड़ोसी	-9760
▁पाठकों	-9761
▁पीएचडी	-9762
▁पॉलीसै	-9763
▁प्‍लेट	-9764
▁बंडल्स	-9765
▁बशर्ते	-9766
▁भ्रामक	-9767
▁मशीनों	-9768
▁मिनिमम	-9769
▁मिशनरी	-9770
▁मुहैया	-9771
▁मैनुअल	-9772
▁रखेंगे	-9773
▁रेज़िन	-9774
▁रोटेशन	-9775
▁विभाजक	-9776
▁वेल्यू	-9777
▁वॉचफुल	-9778
▁संरेखण	-9779
▁समाजों	-9780
▁समृद्ध	-9781
▁सुनवाई	-9782
▁सेक्टर	-9783
▁स्केले	-9784
▁स्जारी	-9785
▁स्पर्म	-9786
▁स्विंग	-9787
▁हायलूर	-9788
▁ह्यूमन	-9789
अनुसूचित	-9790
इमेच्योर	-9791
एनएमआरआई	-9792
ीसिअन्सी	-9793
ेन्डन्सी	-9794
ोनोग्राम	-9795
▁2007-08	-9796
▁अंतरिती	-9797
▁अत्यन्त	-9798
▁अदालतों	-9799
▁इंटरनेट	-9800
▁इंसुलिन	-9801
▁इकाईयाँ	-9802
▁इक्यासी	-9803
▁इफ़ेक्ट	-9804
▁इम्प्ली	-9805
▁एमएनआरई	-9806
▁एमाइलोज	-9807
▁कनवर्टर	-9808
▁कपैसिटी	-9809
▁क्रमागत	-9810
▁क्लासेस	-9811
▁गर्भाशय	-9812
▁चुनेंगे	-9813
▁जायेंगे	-9814
▁डीग्रेड	-9815
▁	-9816
क	-9817
ा	-9818
र	-9819
े	-9820
्	-9821
ि	-9822
स	-9823
न	-9824
ं	-9825
ह	-9826
त	-9827
ो	-9828
ी	-9829
म	-9830
य	-9831
प	-9832
ल	-9833
ै	-9834
व	-9835
ज	-9836
ट	-9837
ए	-9838
द	-9839
ग	-9840
ब	-9841
,	-9842
ड	-9843
श	-9844
।	-9845
ु	-9846
ू	-9847
अ	-9848
इ	-9849
च	-9850
औ	-9851
भ	-9852
ध	-9853
आ	-9854
उ	-9855
थ	-9856
ष	-9857
ण	-9858
फ	-9859
ख	-9860
-	-9861
ॉ	-9862
़	-9863
ई	-9864
0	-9865
छ	-9866
1	-9867
ओ	-9868
2	-9869
ौ	-9870
)	-9871
(	-9872
.	-9873
ँ	-9874
ठ	-9875
ृ	-9876
:	-9877
‍	-9878
3	-9879
ढ	-9880
5	-9881
9	-9882
I	-9883
घ	-9884
ऐ	-9885
4	-9886
?	-9887
झ	-9888
6	-9889
C	-9890
ऑ	-9891
8	-9892
7	-9893
ऊ	-9894
/	-9895
A	-9896
ञ	-9897
N	-9898
B	-9899
D	-9900
S	-9901
T	-9902
a	-9903
i	-9904
t	-9905
ऋ	-9906
ः	-9907
'	-9908
n	-9909
e	-9910
E	-9911
R	-9912
L	-9913
%	-9914
M	-9915
o	-9916
r	-9917
s	-9918
H	-9919
c	-9920
G	-9921
;	-9922
h	-9923
F	-9924
P	-9925
O	-9926
V	-9927
w	-9928
l	-9929
X	-9930
p	-9931
"	-9932
d	-9933
g	-9934
u	-9935
m	-9936
f	-9937
k	-9938
K	-9939
W	-9940
v	-9941
–	-9942
b	-9943
`	-9944
’	-9945
x	-9946
Y	-9947
y	-9948
+	-9949
‘	-9950
Z	-9951
!	-9952
ॠ	-9953
>	-9954
<	-9955
J	-9956
j	-9957
U	-9958
”	-9959
“	-9960
|	-9961
z	-9962
Q	-9963
@	-9964
q	-9965
⁄	-9966
[	-9967
]	-9968
=	-9969
ί	-9970
α	-9971
η	-9972
μ	-9973
χ	-9974
¬	-9975
ρ	-9976
&	-9977
°	-9978
×	-9979
ε	-9980
ا	-9981
ی	-9982
ऱ	-9983
०	-9984
$	-9985
*	-9986
\	-9987
β	-9988
ك	-9989
ل	-9990
م	-9991
ङ	-9992
ऩ	-9993
ॅ	-9994
२	-9995
−	-9996
