<unk>	0
<s>	0
</s>	0
▁t	-0
he	-1
▁a	-2
in	-3
re	-4
▁the	-5
on	-6
er	-7
nd	-8
▁s	-9
at	-10
▁o	-11
is	-12
▁w	-13
en	-14
▁c	-15
ed	-16
an	-17
or	-18
ar	-19
it	-20
es	-21
▁p	-22
▁f	-23
▁of	-24
▁b	-25
▁in	-26
al	-27
ing	-28
as	-29
▁to	-30
▁and	-31
▁h	-32
ou	-33
ion	-34
ic	-35
▁d	-36
▁m	-37
il	-38
▁S	-39
ent	-40
▁T	-41
ro	-42
le	-43
▁A	-44
▁I	-45
▁th	-46
id	-47
▁M	-48
▁re	-49
▁be	-50
ve	-51
ct	-52
st	-53
ad	-54
▁C	-55
▁n	-56
▁P	-57
om	-58
▁is	-59
▁e	-60
▁l	-61
▁The	-62
am	-63
ur	-64
▁g	-65
▁for	-66
ation	-67
ol	-68
ay	-69
ot	-70
▁B	-71
▁on	-72
ver	-73
ter	-74
im	-75
ir	-76
▁R	-77
el	-78
et	-79
ut	-80
ce	-81
▁H	-82
▁st	-83
▁D	-84
us	-85
ill	-86
ra	-87
ly	-88
ment	-89
ig	-90
▁al	-91
ch	-92
ow	-93
▁he	-94
▁that	-95
""	-96
▁N	-97
ak	-98
▁G	-99
res	-100
ith	-101
▁K	-102
ri	-103
ist	-104
ul	-105
od	-106
▁wh	-107
un	-108
▁Ind	-109
▁ha	-110
ers	-111
ia	-112
▁y	-113
▁with	-114
▁as	-115
▁has	-116
▁con	-117
▁was	-118
▁pro	-119
▁de	-120
▁1	-121
ate	-122
and	-123
▁an	-124
hi	-125
▁W	-126
os	-127
ere	-128
▁are	-129
est	-130
▁at	-131
▁it	-132
her	-133
▁(	-134
▁2	-135
▁sa	-136
th	-137
ab	-138
▁by	-139
▁will	-140
▁se	-141
op	-142
ld	-143
▁J	-144
ain	-145
ag	-146
our	-147
▁have	-148
art	-149
▁com	-150
um	-151
▁v	-152
rom	-153
if	-154
pp	-155
▁said	-156
ice	-157
▁F	-158
▁from	-159
▁not	-160
ort	-161
ies	-162
ity	-163
nt	-164
em	-165
▁L	-166
ha	-167
ess	-168
so	-169
ac	-170
▁su	-171
▁ex	-172
▁India	-173
pe	-174
▁this	-175
iv	-176
ud	-177
▁E	-178
▁u	-179
ant	-180
ht	-181
▁ne	-182
ive	-183
▁r	-184
▁O	-185
▁U	-186
ction	-187
ong	-188
se	-189
ore	-190
▁or	-191
ister	-192
har	-193
▁also	-194
ial	-195
qu	-196
ure	-197
▁been	-198
▁Min	-199
▁le	-200
▁go	-201
ard	-202
▁you	-203
cc	-204
▁his	-205
ust	-206
ry	-207
▁k	-208
▁sh	-209
all	-210
ould	-211
▁He	-212
▁In	-213
ian	-214
oc	-215
han	-216
ress	-217
▁20	-218
ther	-219
▁were	-220
▁wor	-221
▁pol	-222
are	-223
vern	-224
ap	-225
▁ag	-226
▁all	-227
▁we	-228
ated	-229
ast	-230
ident	-231
▁Th	-232
▁inc	-233
▁""	-234
ef	-235
▁Minister	-236
ime	-237
ric	-238
▁V	-239
ok	-240
ary	-241
▁pl	-242
ep	-243
ire	-244
ge	-245
▁had	-246
ous	-247
ff	-248
▁their	-249
ich	-250
vernment	-251
ight	-252
▁Ra	-253
ind	-254
rou	-255
ome	-256
ount	-257
ost	-258
ase	-259
▁ad	-260
00	-261
▁res	-262
▁per	-263
▁j	-264
▁Pr	-265
▁comp	-266
▁me	-267
ear	-268
nder	-269
▁ab	-270
▁which	-271
ik	-272
▁who	-273
▁part	-274
te	-275
age	-276
li	-277
port	-278
one	-279
▁pe	-280
ew	-281
▁off	-282
▁Ch	-283
▁they	-284
▁can	-285
av	-286
▁im	-287
▁them	-288
out	-289
ru	-290
▁do	-291
ell	-292
ide	-293
▁St	-294
ber	-295
ah	-296
ect	-297
▁up	-298
ations	-299
ople	-300
wo	-301
▁It	-302
orm	-303
ult	-304
▁3	-305
ence	-306
."	-307
▁us	-308
fter	-309
du	-310
ord	-311
og	-312
▁acc	-313
▁Y	-314
▁en	-315
▁whe	-316
ans	-317
ition	-318
▁un	-319
▁dis	-320
vel	-321
▁other	-322
▁app	-323
ance	-324
ue	-325
ctor	-326
▁-	-327
ical	-328
ake	-329
▁Al	-330
▁under	-331
ile	-332
▁Sing	-333
▁int	-334
▁Indian	-335
▁cont	-336
ov	-337
▁people	-338
per	-339
pt	-340
pl	-341
▁man	-342
gh	-343
▁again	-344
ach	-345
very	-346
ays	-347
▁out	-348
▁its	-349
▁police	-350
ational	-351
▁Singh	-352
ine	-353
▁sp	-354
▁Rs	-355
▁reg	-356
▁ar	-357
ose	-358
▁one	-359
ish	-360
hed	-361
ree	-362
ank	-363
▁te	-364
ack	-365
ame	-366
▁over	-367
▁Sh	-368
▁As	-369
ates	-370
▁government	-371
ail	-372
▁This	-373
▁cl	-374
ign	-375
▁201	-376
ath	-377
▁count	-378
iz	-379
ub	-380
▁so	-381
▁am	-382
ade	-383
mit	-384
▁sc	-385
ass	-386
ions	-387
▁there	-388
able	-389
▁state	-390
red	-391
ang	-392
▁We	-393
JP	-394
▁"	-395
▁ch	-396
ace	-397
day	-398
▁against	-399
esh	-400
▁but	-401
ater	-402
▁work	-403
▁two	-404
▁fil	-405
ens	-406
▁rec	-407
hief	-408
▁fir	-409
form	-410
▁pres	-411
ib	-412
▁tr	-413
▁after	-414
▁any	-415
▁Del	-416
▁Go	-417
▁about	-418
▁5	-419
▁him	-420
me	-421
▁BJP	-422
erv	-423
ious	-424
▁Delhi	-425
ted	-426
▁would	-427
▁Mod	-428
▁new	-429
▁year	-430
▁4	-431
▁no	-432
ered	-433
con	-434
▁qu	-435
ip	-436
now	-437
▁"""	-438
uring	-439
ash	-440
aw	-441
old	-442
▁her	-443
we	-444
iss	-445
▁ev	-446
ings	-447
▁case	-448
ourt	-449
▁lead	-450
▁ro	-451
▁Un	-452
ever	-453
ities	-454
▁inv	-455
▁'	-456
▁our	-457
▁dec	-458
ove	-459
▁first	-460
oin	-461
erson	-462
▁Modi	-463
lic	-464
▁Wh	-465
▁time	-466
▁min	-467
mer	-468
▁Cong	-469
lud	-470
▁your	-471
ket	-472
ces	-473
▁Com	-474
ual	-475
▁All	-476
ild	-477
▁cent	-478
▁De	-479
▁Congress	-480
igh	-481
cted	-482
rit	-483
▁pre	-484
▁Raj	-485
▁And	-486
tern	-487
aj	-488
▁spe	-489
),	-490
▁bet	-491
▁film	-492
oy	-493
▁offic	-494
ob	-495
▁country	-496
▁ra	-497
ook	-498
▁Se	-499
ital	-500
oll	-501
velop	-502
istan	-503
ents	-504
▁cro	-505
▁lik	-506
ied	-507
ced	-508
▁An	-509
reat	-510
▁prov	-511
▁includ	-512
▁pr	-513
▁dist	-514
ise	-515
man	-516
▁should	-517
▁more	-518
▁being	-519
ased	-520
▁add	-521
▁bec	-522
▁ind	-523
rict	-524
ren	-525
ite	-526
ely	-527
cial	-528
amil	-529
hip	-530
ward	-531
ged	-532
oun	-533
stit	-534
ram	-535
▁know	-536
ory	-537
▁tak	-538
vers	-539
aus	-540
▁6	-541
▁when	-542
▁into	-543
ks	-544
ject	-545
ndra	-546
tain	-547
ie	-548
▁Ar	-549
▁Pak	-550
▁rel	-551
▁tra	-552
ai	-553
ife	-554
act	-555
ya	-556
▁Prime	-557
▁ele	-558
ood	-559
▁person	-560
▁made	-561
▁Pol	-562
▁imp	-563
▁19	-564
▁Su	-565
emb	-566
ments	-567
▁On	-568
20	-569
▁such	-570
▁rem	-571
▁mar	-572
oth	-573
▁what	-574
rib	-575
ound	-576
▁these	-577
cy	-578
▁mat	-579
▁iss	-580
arn	-581
ma	-582
▁some	-583
eng	-584
▁Man	-585
▁my	-586
▁ac	-587
▁But	-588
▁med	-589
urn	-590
▁comm	-591
▁How	-592
▁Pakistan	-593
ution	-594
ral	-595
▁act	-596
▁co	-597
▁cons	-598
adesh	-599
▁ass	-600
▁only	-601
▁att	-602
▁during	-603
der	-604
ating	-605
▁meet	-606
▁Shri	-607
▁Chief	-608
ana	-609
oh	-610
hen	-611
ci	-612
ons	-613
own	-614
resident	-615
▁There	-616
▁get	-617
amp	-618
fere	-619
eral	-620
▁Government	-621
▁God	-622
▁if	-623
med	-624
ctions	-625
ween	-626
rough	-627
ower	-628
ission	-629
▁ter	-630
▁report	-631
ict	-632
▁between	-633
▁like	-634
▁Police	-635
led	-636
fore	-637
▁ph	-638
used	-639
▁7	-640
▁need	-641
gan	-642
ision	-643
▁10	-644
▁They	-645
▁invest	-646
▁Re	-647
▁than	-648
ting	-649
▁supp	-650
ised	-651
▁President	-652
▁those	-653
▁three	-654
▁far	-655
akh	-656
▁stud	-657
au	-658
les	-659
▁through	-660
▁New	-661
ked	-662
▁fe	-663
▁play	-664
elf	-665
▁sub	-666
▁then	-667
end	-668
way	-669
▁Pro	-670
alth	-671
row	-672
▁ent	-673
istry	-674
▁while	-675
ited	-676
▁develop	-677
ors	-678
ally	-679
ured	-680
▁day	-681
ful	-682
▁State	-683
ific	-684
▁8	-685
▁very	-686
ures	-687
ause	-688
▁she	-689
ret	-690
ont	-691
▁present	-692
umb	-693
▁giv	-694
▁Ad	-695
▁wom	-696
▁world	-697
ats	-698
osp	-699
▁district	-700
ved	-701
umar	-702
eh	-703
ck	-704
▁em	-705
▁mon	-706
▁did	-707
▁pos	-708
▁Ma	-709
get	-710
als	-711
ases	-712
▁bl	-713
▁So	-714
▁dire	-715
olog	-716
▁cap	-717
▁crore	-718
▁fl	-719
ars	-720
ness	-721
▁Pradesh	-722
▁serv	-723
cess	-724
▁produ	-725
ublic	-726
▁Khan	-727
▁hel	-728
▁last	-729
▁fin	-730
▁official	-731
▁how	-732
ters	-733
vi	-734
▁sec	-735
-1	-736
ata	-737
ph	-738
arli	-739
▁set	-740
ollow	-741
..	-742
ght	-743
other	-744
round	-745
pect	-746
oor	-747
▁where	-748
▁famil	-749
"""	-750
▁take	-751
hes	-752
000	-753
ible	-754
▁inform	-755
ative	-756
▁here	-757
ix	-758
ft	-759
▁dif	-760
▁call	-761
ati	-762
arendra	-763
▁well	-764
▁Kumar	-765
▁good	-766
▁minister	-767
▁today	-768
,""	-769
ax	-770
▁Gand	-771
▁accused	-772
▁Narendra	-773
▁start	-774
▁say	-775
ran	-776
oint	-777
▁every	-778
▁En	-779
▁soc	-780
▁taken	-781
▁see	-782
▁Bh	-783
▁Allah	-784
ility	-785
ues	-786
wn	-787
nded	-788
▁eff	-789
▁many	-790
▁court	-791
rest	-792
▁Cent	-793
▁may	-794
▁years	-795
ices	-796
ody	-797
ospital	-798
xt	-799
ble	-800
▁For	-801
uth	-802
▁dem	-803
▁help	-804
air	-805
ink	-806
▁inj	-807
▁chan	-808
ven	-809
ss	-810
▁child	-811
up	-812
ural	-813
und	-814
ool	-815
ries	-816
▁exp	-817
▁team	-818
▁loc	-819
▁trans	-820
▁party	-821
▁Comm	-822
min	-823
uk	-824
▁des	-825
▁num	-826
▁She	-827
▁Gandhi	-828
▁post	-829
▁incident	-830
ants	-831
▁Court	-832
eep	-833
▁Shar	-834
▁before	-835
).	-836
▁You	-837
ided	-838
▁Ministry	-839
▁Gu	-840
▁US	-841
ey	-842
ism	-843
▁var	-844
▁ser	-845
▁ann	-846
▁right	-847
▁Sha	-848
cond	-849
ning	-850
▁National	-851
▁9	-852
▁could	-853
ather	-854
▁life	-855
ives	-856
ared	-857
▁&	-858
▁sy	-859
▁rep	-860
▁shall	-861
ond	-862
▁12	-863
▁make	-864
▁just	-865
uss	-866
▁follow	-867
▁Union	-868
cer	-869
▁Is	-870
▁Ex	-871
▁occ	-872
ty	-873
aking	-874
ular	-875
its	-876
▁vis	-877
The	-878
▁vi	-879
chn	-880
▁ob	-881
▁arrest	-882
▁cur	-883
▁number	-884
▁chief	-885
ms	-886
▁happ	-887
▁meeting	-888
▁def	-889
▁cor	-890
▁sha	-891
▁However	-892
rol	-893
▁high	-894
."""	-895
▁col	-896
mir	-897
▁la	-898
▁compan	-899
▁Pun	-900
▁regist	-901
conom	-902
▁come	-903
▁including	-904
▁Act	-905
ouse	-906
▁four	-907
▁family	-908
,000	-909
kar	-910
▁disc	-911
▁car	-912
ivers	-913
▁Ram	-914
att	-915
read	-916
▁even	-917
▁av	-918
▁incre	-919
▁sm	-920
▁prog	-921
▁Sec	-922
ember	-923
▁most	-924
ics	-925
▁PM	-926
▁lakh	-927
▁back	-928
arch	-929
▁pass	-930
▁import	-931
ines	-932
▁given	-933
cept	-934
▁Tr	-935
eneral	-936
uc	-937
ave	-938
▁char	-939
pur	-940
▁br	-941
▁bu	-942
stem	-943
▁op	-944
▁month	-945
▁both	-946
▁rele	-947
▁sit	-948
rent	-949
▁inter	-950
▁support	-951
▁down	-952
ior	-953
▁law	-954
riv	-955
amm	-956
ute	-957
▁kill	-958
▁cases	-959
▁Am	-960
ists	-961
▁Kash	-962
▁Sab	-963
▁Kap	-964
ides	-965
ee	-966
▁ret	-967
▁among	-968
▁fac	-969
▁inf	-970
▁What	-971
ways	-972
urity	-973
▁Me	-974
ording	-975
▁appro	-976
▁gu	-977
ploy	-978
▁opp	-979
com	-980
▁15	-981
▁hospital	-982
▁ben	-983
chool	-984
roup	-985
ince	-986
▁Kashmir	-987
ges	-988
▁show	-989
ple	-990
▁registered	-991
ush	-992
ror	-993
▁sent	-994
▁run	-995
▁investig	-996
▁contin	-997
▁requ	-998
▁polit	-999
▁resp	-1000
▁place	-1001
▁differe	-1002
▁Te	-1003
▁Shah	-1004
▁200	-1005
asht	-1006
▁water	-1007
▁partic	-1008
▁conf	-1009
ament	-1010
▁dep	-1011
jab	-1012
retary	-1013
▁Ass	-1014
uch	-1015
▁organ	-1016
▁former	-1017
▁beli	-1018
iness	-1019
▁ref	-1020
▁death	-1021
umbai	-1022
ency	-1023
ins	-1024
ug	-1025
andid	-1026
▁rece	-1027
na	-1028
embers	-1029
▁Con	-1030
▁second	-1031
▁hand	-1032
ina	-1033
ternational	-1034
▁lar	-1035
king	-1036
▁bus	-1037
ired	-1038
ified	-1039
tt	-1040
▁form	-1041
▁way	-1042
▁sign	-1043
▁Punjab	-1044
▁attack	-1045
▁result	-1046
▁Sabha	-1047
▁Bank	-1048
▁ins	-1049
▁held	-1050
▁sur	-1051
osed	-1052
▁cr	-1053
▁each	-1054
▁ed	-1055
rong	-1056
▁power	-1057
▁.	-1058
▁want	-1059
▁laun	-1060
ued	-1061
▁Mumbai	-1062
BI	-1063
▁look	-1064
▁does	-1065
oard	-1066
▁cre	-1067
▁development	-1068
▁mov	-1069
urther	-1070
▁same	-1071
▁health	-1072
▁now	-1073
▁women	-1074
war	-1075
▁project	-1076
▁grow	-1077
▁spot	-1078
ale	-1079
▁leaders	-1080
▁injured	-1081
ched	-1082
▁arrested	-1083
▁Hind	-1084
▁No	-1085
▁Wor	-1086
▁students	-1087
▁Sharma	-1088
▁cle	-1089
▁11	-1090
▁social	-1091
gest	-1092
pr	-1093
▁gl	-1094
ology	-1095
▁Dep	-1096
wal	-1097
▁avail	-1098
▁Ab	-1099
▁alle	-1100
ention	-1101
▁public	-1102
▁prom	-1103
▁comple	-1104
▁Res	-1105
▁media	-1106
ough	-1107
▁leader	-1108
▁ear	-1109
ently	-1110
aim	-1111
▁aff	-1112
▁found	-1113
▁because	-1114
▁air	-1115
ull	-1116
ashtra	-1117
▁bro	-1118
ten	-1119
stru	-1120
▁president	-1121
jay	-1122
ctors	-1123
ages	-1124
▁exam	-1125
▁econom	-1126
▁long	-1127
ani	-1128
tal	-1129
pre	-1130
▁Rah	-1131
artment	-1132
▁matter	-1133
▁used	-1134
▁Z	-1135
▁members	-1136
▁cond	-1137
▁due	-1138
▁oper	-1139
▁children	-1140
▁days	-1141
▁system	-1142
▁His	-1143
▁occas	-1144
ross	-1145
▁own	-1146
▁end	-1147
az	-1148
▁various	-1149
ts	-1150
▁mod	-1151
▁process	-1152
abad	-1153
▁commit	-1154
▁took	-1155
mers	-1156
eration	-1157
▁regard	-1158
ized	-1159
iet	-1160
▁Jeh	-1161
outh	-1162
▁vill	-1163
arat	-1164
ving	-1165
▁open	-1166
ne	-1167
▁next	-1168
land	-1169
▁main	-1170
ling	-1171
ock	-1172
▁current	-1173
▁order	-1174
pend	-1175
ovah	-1176
▁says	-1177
▁along	-1178
▁Jehovah	-1179
▁If	-1180
ner	-1181
▁adv	-1182
▁Mahar	-1183
▁tal	-1184
lim	-1185
▁different	-1186
ration	-1187
wards	-1188
▁candid	-1189
▁Kapoor	-1190
▁Bi	-1191
▁told	-1192
eth	-1193
imes	-1194
▁Lord	-1195
ves	-1196
▁Dr	-1197
▁Pat	-1198
▁announ	-1199
▁occasion	-1200
ination	-1201
ature	-1202
▁others	-1203
ived	-1204
▁Ag	-1205
▁Commission	-1206
▁too	-1207
▁remain	-1208
uation	-1209
enior	-1210
els	-1211
▁land	-1212
▁quest	-1213
▁won	-1214
uthor	-1215
ote	-1216
▁information	-1217
▁ve	-1218
▁must	-1219
▁fore	-1220
▁going	-1221
▁sl	-1222
rat	-1223
▁great	-1224
ajor	-1225
▁writ	-1226
ished	-1227
▁bank	-1228
oot	-1229
▁Acc	-1230
▁After	-1231
embly	-1232
▁head	-1233
gy	-1234
▁Rahul	-1235
▁14	-1236
▁det	-1237
▁Cha	-1238
erest	-1239
riend	-1240
ality	-1241
▁stand	-1242
▁further	-1243
▁called	-1244
▁win	-1245
ract	-1246
nce	-1247
▁five	-1248
▁added	-1249
eld	-1250
▁13	-1251
▁est	-1252
ys	-1253
▁countries	-1254
ason	-1255
▁around	-1256
ias	-1257
▁techn	-1258
▁val	-1259
▁program	-1260
▁terror	-1261
▁Sa	-1262
▁High	-1263
ffic	-1264
▁started	-1265
▁18	-1266
▁issue	-1267
▁pur	-1268
ttar	-1269
▁commun	-1270
ID	-1271
▁tem	-1272
▁test	-1273
▁Shi	-1274
ricket	-1275
▁At	-1276
▁del	-1277
illion	-1278
▁important	-1279
ried	-1280
▁belie	-1281
tee	-1282
▁body	-1283
▁Le	-1284
por	-1285
▁killed	-1286
▁national	-1287
▁account	-1288
▁Jan	-1289
▁Lok	-1290
ned	-1291
▁level	-1292
▁prev	-1293
▁fa	-1294
▁seen	-1295
▁poss	-1296
▁let	-1297
▁Part	-1298
▁Uttar	-1299
▁claim	-1300
▁security	-1301
ached	-1302
▁vide	-1303
▁group	-1304
▁area	-1305
▁across	-1306
ec	-1307
▁Chand	-1308
ering	-1309
▁colle	-1310
▁market	-1311
▁sever	-1312
ump	-1313
▁Eng	-1314
▁give	-1315
▁visit	-1316
▁much	-1317
▁prop	-1318
▁Maharashtra	-1319
arh	-1320
mber	-1321
▁reported	-1322
engal	-1323
▁gr	-1324
ilit	-1325
▁action	-1326
▁sche	-1327
▁plan	-1328
uman	-1329
arlier	-1330
▁school	-1331
▁respect	-1332
▁Air	-1333
▁equ	-1334
▁benef	-1335
iod	-1336
ulture	-1337
▁several	-1338
ark	-1339
▁decl	-1340
▁available	-1341
▁Q	-1342
ield	-1343
▁Cor	-1344
ek	-1345
▁another	-1346
to	-1347
▁che	-1348
▁Mad	-1349
ird	-1350
ising	-1351
my	-1352
ele	-1353
▁Bengal	-1354
▁jud	-1355
▁done	-1356
▁interest	-1357
▁Guj	-1358
ressed	-1359
▁indust	-1360
▁demand	-1361
▁use	-1362
ll	-1363
▁special	-1364
▁succ	-1365
ick	-1366
io	-1367
▁states	-1368
▁home	-1369
▁compl	-1370
▁major	-1371
LA	-1372
▁decision	-1373
stitution	-1374
aid	-1375
▁Just	-1376
▁read	-1377
▁World	-1378
▁16	-1379
▁company	-1380
ought	-1381
iti	-1382
▁Secretary	-1383
agar	-1384
ession	-1385
▁ext	-1386
▁Fin	-1387
▁yet	-1388
ours	-1389
▁total	-1390
▁educ	-1391
▁condu	-1392
iversity	-1393
▁came	-1394
▁Central	-1395
▁proble	-1396
▁San	-1397
ammu	-1398
airs	-1399
CC	-1400
orth	-1401
oss	-1402
arliament	-1403
▁near	-1404
-19	-1405
▁Mus	-1406
▁25	-1407
▁Pe	-1408
ala	-1409
▁pay	-1410
▁[	-1411
▁lit	-1412
▁leg	-1413
▁house	-1414
▁period	-1415
▁Chr	-1416
▁farmers	-1417
▁asked	-1418
▁Jammu	-1419
icket	-1420
chan	-1421
ena	-1422
tend	-1423
▁persons	-1424
▁areas	-1425
era	-1426
▁prot	-1427
▁situation	-1428
▁road	-1429
▁away	-1430
aryana	-1431
▁exper	-1432
▁bas	-1433
▁consid	-1434
▁Af	-1435
▁best	-1436
▁When	-1437
▁sk	-1438
▁role	-1439
▁discuss	-1440
▁States	-1441
99	-1442
▁list	-1443
▁big	-1444
▁Haryana	-1445
▁Bihar	-1446
▁later	-1447
▁train	-1448
▁point	-1449
ept	-1450
bs	-1451
▁political	-1452
rate	-1453
ually	-1454
uty	-1455
ready	-1456
▁think	-1457
oney	-1458
▁ens	-1459
▁complain	-1460
stand	-1461
▁son	-1462
0.	-1463
▁become	-1464
lement	-1465
▁officials	-1466
irl	-1467
▁since	-1468
▁Gujarat	-1469
▁hig	-1470
ience	-1471
atch	-1472
▁city	-1473
▁treat	-1474
▁elections	-1475
▁Day	-1476
▁happen	-1477
▁allow	-1478
▁return	-1479
▁concer	-1480
▁success	-1481
▁One	-1482
soci	-1483
augh	-1484
itiz	-1485
ption	-1486
▁CO	-1487
▁Dire	-1488
▁These	-1489
▁already	-1490
▁employ	-1491
▁never	-1492
▁Spe	-1493
▁book	-1494
ames	-1495
▁MP	-1496
preme	-1497
▁West	-1498
▁put	-1499
▁Develop	-1500
▁met	-1501
▁particip	-1502
▁things	-1503
▁cer	-1504
cent	-1505
▁name	-1506
cl	-1507
▁record	-1508
ruct	-1509
▁ident	-1510
▁fr	-1511
▁2020	-1512
▁top	-1513
▁keep	-1514
not	-1515
▁six	-1516
▁effect	-1517
▁24	-1518
ources	-1519
▁sim	-1520
wood	-1521
▁Amit	-1522
▁China	-1523
▁Test	-1524
▁got	-1525
▁activ	-1526
▁seats	-1527
▁build	-1528
self	-1529
mi	-1530
▁soon	-1531
▁Im	-1532
▁view	-1533
▁gen	-1534
▁turn	-1535
▁Sc	-1536
▁sector	-1537
▁vict	-1538
▁rest	-1539
ging	-1540
...	-1541
ports	-1542
▁friend	-1543
▁heav	-1544
ortun	-1545
▁May	-1546
view	-1547
▁price	-1548
▁2019	-1549
▁cost	-1550
▁few	-1551
icle	-1552
▁fun	-1553
oad	-1554
stitut	-1555
ets	-1556
cing	-1557
▁condition	-1558
▁Aust	-1559
olly	-1560
▁,	-1561
▁video	-1562
tended	-1563
▁hold	-1564
▁inde	-1565
▁men	-1566
itness	-1567
▁pop	-1568
▁Development	-1569
▁Rail	-1570
▁business	-1571
▁Par	-1572
▁alleged	-1573
iving	-1574
▁According	-1575
▁camp	-1576
icy	-1577
rid	-1578
line	-1579
▁senior	-1580
▁gre	-1581
▁tru	-1582
▁move	-1583
▁General	-1584
▁Supreme	-1585
ient	-1586
wh	-1587
▁17	-1588
lish	-1589
▁eng	-1590
.5	-1591
▁viol	-1592
orts	-1593
ke	-1594
▁father	-1595
▁provide	-1596
than	-1597
sel	-1598
minist	-1599
▁Him	-1600
ately	-1601
▁care	-1602
▁Bhar	-1603
obal	-1604
▁spok	-1605
▁Pl	-1606
agement	-1607
▁based	-1608
▁To	-1609
▁announced	-1610
eal	-1611
▁statement	-1612
▁upon	-1613
▁event	-1614
ference	-1615
▁wife	-1616
▁Austral	-1617
ST	-1618
▁village	-1619
angu	-1620
▁perform	-1621
urs	-1622
▁pric	-1623
▁news	-1624
▁fire	-1625
reng	-1626
▁Indias	-1627
▁Christ	-1628
▁30	-1629
ancial	-1630
▁without	-1631
▁investigation	-1632
ger	-1633
mitted	-1634
▁poll	-1635
.1	-1636
▁sol	-1637
▁Son	-1638
▁bel	-1639
ises	-1640
▁cam	-1641
▁died	-1642
idence	-1643
ense	-1644
▁50	-1645
▁region	-1646
ily	-1647
▁South	-1648
▁author	-1649
inal	-1650
▁making	-1651
▁Shiv	-1652
▁services	-1653
▁toget	-1654
▁reached	-1655
▁together	-1656
eleb	-1657
itional	-1658
▁pet	-1659
▁launched	-1660
▁question	-1661
▁series	-1662
cil	-1663
▁MLA	-1664
▁Department	-1665
▁Mal	-1666
▁impro	-1667
▁bring	-1668
ury	-1669
pected	-1670
ollywood	-1671
be	-1672
▁inst	-1673
iety	-1674
GB	-1675
▁Ran	-1676
▁applic	-1677
ined	-1678
kh	-1679
▁earth	-1680
▁prof	-1681
▁clear	-1682
VID	-1683
aka	-1684
▁issued	-1685
▁relations	-1686
here	-1687
▁hist	-1688
mon	-1689
ivil	-1690
▁working	-1691
itive	-1692
▁streng	-1693
▁Party	-1694
▁received	-1695
▁word	-1696
▁better	-1697
▁growth	-1698
▁Home	-1699
▁priv	-1700
▁art	-1701
▁cha	-1702
▁Med	-1703
asthan	-1704
▁ur	-1705
inder	-1706
▁international	-1707
thing	-1708
▁known	-1709
▁Ja	-1710
ones	-1711
▁initi	-1712
▁strong	-1713
ork	-1714
ners	-1715
▁find	-1716
▁heart	-1717
amb	-1718
ium	-1719
▁Mar	-1720
▁tax	-1721
▁Sat	-1722
▁include	-1723
hya	-1724
▁relig	-1725
adav	-1726
ected	-1727
▁chall	-1728
▁love	-1729
▁prote	-1730
une	-1731
cies	-1732
▁dev	-1733
▁Aff	-1734
▁gra	-1735
▁field	-1736
▁dri	-1737
▁That	-1738
▁bo	-1739
▁Justice	-1740
ches	-1741
▁following	-1742
▁still	-1743
▁girl	-1744
▁COVID	-1745
arent	-1746
▁beg	-1747
▁plac	-1748
▁issues	-1749
▁Do	-1750
▁cannot	-1751
iron	-1752
▁Mr	-1753
gr	-1754
▁IP	-1755
par	-1756
▁respons	-1757
▁sing	-1758
less	-1759
▁address	-1760
▁celeb	-1761
▁times	-1762
▁Rajasthan	-1763
irus	-1764
▁money	-1765
▁Parliament	-1766
ergy	-1767
▁informed	-1768
▁third	-1769
▁ple	-1770
▁food	-1771
▁large	-1772
▁My	-1773
▁implement	-1774
nel	-1775
▁Karn	-1776
▁phone	-1777
▁Yadav	-1778
ification	-1779
ouncil	-1780
▁cricket	-1781
▁stor	-1782
▁fund	-1783
201	-1784
ically	-1785
▁Sal	-1786
▁human	-1787
▁Col	-1788
▁/	-1789
isation	-1790
▁2018	-1791
▁100	-1792
▁rul	-1793
ari	-1794
▁woman	-1795
▁Or	-1796
▁however	-1797
▁beh	-1798
▁towards	-1799
▁till	-1800
▁war	-1801
▁local	-1802
▁trad	-1803
▁education	-1804
▁Mah	-1805
▁Director	-1806
▁daugh	-1807
▁currently	-1808
ams	-1809
▁control	-1810
resent	-1811
▁lot	-1812
app	-1813
▁Affairs	-1814
idd	-1815
▁join	-1816
We	-1817
▁cust	-1818
▁brother	-1819
ential	-1820
anka	-1821
iance	-1822
▁Bollywood	-1823
ences	-1824
ali	-1825
▁div	-1826
ternal	-1827
▁Bang	-1828
▁deb	-1829
.0	-1830
▁runs	-1831
▁filed	-1832
▁tre	-1833
ulation	-1834
ron	-1835
▁Centre	-1836
▁movie	-1837
▁taking	-1838
▁saying	-1839
ructure	-1840
of	-1841
▁protest	-1842
▁detail	-1843
▁data	-1844
lect	-1845
▁week	-1846
▁class	-1847
▁comes	-1848
chie	-1849
▁treatment	-1850
▁match	-1851
▁real	-1852
▁Rep	-1853
ara	-1854
▁fut	-1855
reed	-1856
▁candidates	-1857
rought	-1858
▁tri	-1859
▁Board	-1860
▁within	-1861
ively	-1862
▁nation	-1863
▁saf	-1864
▁Mo	-1865
ards	-1866
▁With	-1867
▁change	-1868
▁Health	-1869
overed	-1870
▁Muslim	-1871
▁expl	-1872
▁Co	-1873
▁actor	-1874
SP	-1875
▁dead	-1876
▁University	-1877
▁Vi	-1878
ilities	-1879
▁released	-1880
▁small	-1881
ians	-1882
▁Koh	-1883
rying	-1884
▁2017	-1885
▁step	-1886
▁product	-1887
adu	-1888
▁Its	-1889
go	-1890
TI	-1891
ify	-1892
ither	-1893
▁1,	-1894
▁Assembly	-1895
▁increase	-1896
osition	-1897
▁peace	-1898
medi	-1899
esus	-1900
▁ru	-1901
ibility	-1902
▁service	-1903
sh	-1904
▁veh	-1905
oura	-1906
▁Dh	-1907
▁believe	-1908
▁Kh	-1909
▁opportun	-1910
itizens	-1911
▁CBI	-1912
hav	-1913
▁general	-1914
irit	-1915
▁proper	-1916
▁invol	-1917
iqu	-1918
inet	-1919
mes	-1920
▁always	-1921
▁full	-1922
ps	-1923
atives	-1924
▁shared	-1925
DI	-1926
▁21	-1927
weet	-1928
while	-1929
▁final	-1930
▁CM	-1931
▁youn	-1932
mend	-1933
▁accident	-1934
iding	-1935
▁achie	-1936
▁Commit	-1937
ourn	-1938
aram	-1939
ained	-1940
ataka	-1941
aff	-1942
rab	-1943
▁Jesus	-1944
aged	-1945
▁vot	-1946
iver	-1947
▁fight	-1948
▁Vir	-1949
▁pati	-1950
▁why	-1951
ances	-1952
▁entire	-1953
ples	-1954
▁mother	-1955
IC	-1956
▁deal	-1957
▁provided	-1958
part	-1959
▁redu	-1960
aring	-1961
▁Ph	-1962
▁Ah	-1963
▁feat	-1964
▁estab	-1965
selves	-1966
▁Kohli	-1967
▁office	-1968
band	-1969
pan	-1970
over	-1971
rug	-1972
▁X	-1973
▁inn	-1974
▁left	-1975
ilar	-1976
pril	-1977
put	-1978
▁complaint	-1979
▁es	-1980
▁sus	-1981
the	-1982
▁Karnataka	-1983
▁crit	-1984
▁certain	-1985
ware	-1986
▁financial	-1987
▁Tamil	-1988
ointed	-1989
▁spec	-1990
▁earlier	-1991
orn	-1992
▁ord	-1993
▁camera	-1994
▁constru	-1995
▁Army	-1996
irman	-1997
SE	-1998
▁accept	-1999
▁rate	-2000
▁enc	-2001
▁sug	-2002
meric	-2003
aries	-2004
pped	-2005
ope	-2006
▁brought	-2007
abinet	-2008
▁Australia	-2009
jee	-2010
▁free	-2011
▁et	-2012
▁Cl	-2013
▁understand	-2014
▁decided	-2015
▁serious	-2016
▁elect	-2017
▁Our	-2018
hold	-2019
▁date	-2020
▁went	-2021
fic	-2022
▁mess	-2023
ultural	-2024
ka	-2025
stitute	-2026
▁bre	-2027
eb	-2028
▁press	-2029
▁som	-2030
men	-2031
▁prin	-2032
rain	-2033
▁Trump	-2034
▁ri	-2035
irth	-2036
▁front	-2037
▁future	-2038
rast	-2039
▁election	-2040
▁Ash	-2041
▁months	-2042
▁economic	-2043
.3	-2044
▁contrib	-2045
▁April	-2046
anwhile	-2047
▁par	-2048
▁continue	-2049
▁scheme	-2050
wit	-2051
▁ensure	-2052
▁International	-2053
▁global	-2054
▁Council	-2055
▁policy	-2056
▁Def	-2057
▁live	-2058
▁played	-2059
▁Committee	-2060
▁feel	-2061
▁spirit	-2062
ability	-2063
▁(1	-2064
IR	-2065
▁old	-2066
esides	-2067
▁langu	-2068
▁million	-2069
▁pri	-2070
▁Mon	-2071
ban	-2072
viron	-2073
alf	-2074
▁Red	-2075
raft	-2076
rah	-2077
isions	-2078
▁Finance	-2079
uf	-2080
""."	-2081
▁Serv	-2082
▁directed	-2083
▁administ	-2084
ize	-2085
ley	-2086
▁etc	-2087
ored	-2088
ti	-2089
▁immedi	-2090
wan	-2091
▁might	-2092
amed	-2093
▁amount	-2094
▁dont	-2095
▁prices	-2096
▁industry	-2097
▁past	-2098
▁Kar	-2099
▁Both	-2100
▁wicket	-2101
.2	-2102
▁People	-2103
vironment	-2104
ship	-2105
▁storage	-2106
▁har	-2107
▁function	-2108
ude	-2109
▁workers	-2110
ike	-2111
▁eas	-2112
▁share	-2113
▁22	-2114
▁Sub	-2115
ung	-2116
lished	-2117
▁kind	-2118
ees	-2119
ober	-2120
cell	-2121
▁Reg	-2122
▁mis	-2123
▁tar	-2124
▁parties	-2125
▁efforts	-2126
▁United	-2127
resh	-2128
side	-2129
▁March	-2130
erred	-2131
▁meas	-2132
irc	-2133
▁lo	-2134
▁pict	-2135
▁having	-2136
▁Sm	-2137
▁results	-2138
crib	-2139
▁fact	-2140
la	-2141
▁Nav	-2142
▁App	-2143
ization	-2144
imum	-2145
ample	-2146
▁Two	-2147
▁non	-2148
▁Ali	-2149
▁Gur	-2150
▁tweet	-2151
▁learn	-2152
▁faith	-2153
▁represent	-2154
▁youth	-2155
his	-2156
▁doing	-2157
lam	-2158
reen	-2159
erala	-2160
▁short	-2161
duc	-2162
▁stat	-2163
▁Why	-2164
▁Pre	-2165
▁section	-2166
▁self	-2167
▁Pri	-2168
▁UP	-2169
ton	-2170
▁projects	-2171
▁ide	-2172
▁recently	-2173
leg	-2174
▁job	-2175
▁Dist	-2176
nes	-2177
▁milit	-2178
uary	-2179
ension	-2180
▁expected	-2181
▁phot	-2182
oj	-2183
▁dom	-2184
hu	-2185
▁less	-2186
▁bat	-2187
▁daughter	-2188
▁private	-2189
▁North	-2190
▁During	-2191
▁capital	-2192
operation	-2193
▁officers	-2194
AN	-2195
▁den	-2196
▁likely	-2197
ert	-2198
▁fail	-2199
▁face	-2200
▁means	-2201
▁Then	-2202
hers	-2203
▁mind	-2204
▁programme	-2205
▁dest	-2206
hra	-2207
▁possible	-2208
lection	-2209
▁companies	-2210
ator	-2211
▁Kerala	-2212
▁Sy	-2213
ledge	-2214
▁ver	-2215
▁reason	-2216
▁gave	-2217
ipal	-2218
▁webs	-2219
▁hon	-2220
▁percent	-2221
▁Form	-2222
▁dou	-2223
▁0	-2224
▁Har	-2225
▁celebr	-2226
▁Hy	-2227
▁mur	-2228
▁rese	-2229
itor	-2230
▁Moh	-2231
▁suff	-2232
▁smart	-2233
isl	-2234
▁port	-2235
▁Meanwhile	-2236
AM	-2237
person	-2238
▁Educ	-2239
tle	-2240
▁Add	-2241
▁side	-2242
adi	-2243
▁foreign	-2244
uly	-2245
erc	-2246
ceed	-2247
▁direct	-2248
▁station	-2249
riculture	-2250
▁light	-2251
▁Muk	-2252
▁Pan	-2253
▁While	-2254
dom	-2255
▁tour	-2256
▁el	-2257
▁award	-2258
▁conne	-2259
▁Sam	-2260
▁written	-2261
ika	-2262
▁Ne	-2263
usband	-2264
▁pract	-2265
▁release	-2266
ains	-2267
▁ty	-2268
▁Sw	-2269
▁cause	-2270
▁Americ	-2271
▁lim	-2272
▁medical	-2273
▁basis	-2274
.4	-2275
ode	-2276
rodu	-2277
▁led	-2278
▁mult	-2279
▁compet	-2280
▁associ	-2281
▁lost	-2282
▁don	-2283
ring	-2284
▁rev	-2285
▁higher	-2286
▁able	-2287
aster	-2288
wa	-2289
▁victim	-2290
asing	-2291
▁truth	-2292
aug	-2293
iting	-2294
▁mor	-2295
otion	-2296
akes	-2297
▁position	-2298
▁ful	-2299
▁stop	-2300
ival	-2301
▁rain	-2302
▁according	-2303
aker	-2304
▁technology	-2305
stitu	-2306
▁fall	-2307
▁needs	-2308
▁resol	-2309
▁Madhya	-2310
ogn	-2311
ada	-2312
▁23	-2313
aign	-2314
ev	-2315
▁production	-2316
▁Oct	-2317
▁pan	-2318
eptember	-2319
icles	-2320
▁birth	-2321
sw	-2322
▁Be	-2323
▁contest	-2324
▁Govern	-2325
▁Indust	-2326
IM	-2327
▁hard	-2328
hest	-2329
▁net	-2330
head	-2331
▁bow	-2332
▁design	-2333
▁study	-2334
▁cong	-2335
▁using	-2336
cember	-2337
▁gold	-2338
▁parts	-2339
▁Far	-2340
order	-2341
▁became	-2342
IT	-2343
▁caus	-2344
▁parent	-2345
uge	-2346
▁mob	-2347
Ind	-2348
mp	-2349
▁oil	-2350
▁travel	-2351
▁June	-2352
▁lives	-2353
▁sal	-2354
▁Sur	-2355
▁fear	-2356
ufact	-2357
engers	-2358
uro	-2359
▁coun	-2360
acity	-2361
ama	-2362
▁previous	-2363
▁lab	-2364
▁officer	-2365
▁close	-2366
▁foc	-2367
▁Roh	-2368
▁night	-2369
ovember	-2370
▁captain	-2371
▁Fore	-2372
▁Techn	-2373
▁sw	-2374
▁claimed	-2375
▁community	-2376
▁journ	-2377
▁young	-2378
AR	-2379
af	-2380
oses	-2381
▁getting	-2382
▁sure	-2383
▁Offic	-2384
▁energy	-2385
▁related	-2386
▁28	-2387
▁example	-2388
▁Virat	-2389
▁conv	-2390
▁Afric	-2391
coming	-2392
then	-2393
▁declared	-2394
50	-2395
mar	-2396
▁Sun	-2397
▁Sri	-2398
▁Bl	-2399
▁target	-2400
avirus	-2401
hing	-2402
▁Sci	-2403
▁sens	-2404
ourse	-2405
▁website	-2406
▁Some	-2407
▁reve	-2408
▁ever	-2409
▁wrong	-2410
▁increased	-2411
ern	-2412
▁districts	-2413
▁i	-2414
atory	-2415
▁aut	-2416
rastructure	-2417
uted	-2418
▁society	-2419
come	-2420
▁31	-2421
▁stated	-2422
▁forces	-2423
▁coming	-2424
▁Defence	-2425
▁points	-2426
onavirus	-2427
▁2016	-2428
▁conn	-2429
encies	-2430
garh	-2431
▁problem	-2432
ivid	-2433
▁exist	-2434
▁director	-2435
▁trib	-2436
aur	-2437
▁assist	-2438
aut	-2439
empt	-2440
by	-2441
▁conducted	-2442
▁activities	-2443
▁created	-2444
▁witness	-2445
▁Bible	-2446
▁particular	-2447
▁whom	-2448
udd	-2449
▁husband	-2450
▁coll	-2451
▁Vice	-2452
▁Andhra	-2453
▁England	-2454
▁loss	-2455
▁institut	-2456
itation	-2457
▁obs	-2458
CP	-2459
▁member	-2460
▁citizens	-2461
▁prep	-2462
In	-2463
▁common	-2464
rote	-2465
▁building	-2466
ething	-2467
▁Tel	-2468
▁star	-2469
▁features	-2470
ison	-2471
▁40	-2472
ipur	-2473
▁Aug	-2474
▁Sp	-2475
▁Education	-2476
▁disp	-2477
▁Former	-2478
▁enter	-2479
▁September	-2480
▁December	-2481
ource	-2482
▁Ke	-2483
▁card	-2484
▁unt	-2485
▁circ	-2486
▁least	-2487
▁sold	-2488
ficult	-2489
▁Mu	-2490
aks	-2491
▁Corpor	-2492
▁campaign	-2493
SS	-2494
▁26	-2495
▁central	-2496
▁details	-2497
▁appear	-2498
▁necess	-2499
▁progress	-2500
ushed	-2501
▁problems	-2502
mission	-2503
ogra	-2504
hib	-2505
▁vir	-2506
play	-2507
▁recom	-2508
▁places	-2509
▁Can	-2510
▁trade	-2511
▁January	-2512
aya	-2513
▁Hindi	-2514
▁constitu	-2515
▁above	-2516
▁forward	-2517
▁Isra	-2518
▁key	-2519
bel	-2520
▁House	-2521
ops	-2522
▁November	-2523
▁Salman	-2524
.7	-2525
▁connection	-2526
▁difficult	-2527
▁July	-2528
▁true	-2529
▁spread	-2530
▁October	-2531
▁reports	-2532
▁knowledge	-2533
emic	-2534
aled	-2535
ery	-2536
▁rail	-2537
▁expressed	-2538
udget	-2539
▁seven	-2540
▁pray	-2541
▁purp	-2542
▁Inde	-2543
▁review	-2544
▁Russ	-2545
▁Hindu	-2546
▁stars	-2547
▁stri	-2548
▁economy	-2549
▁Kan	-2550
phone	-2551
bed	-2552
▁Cabinet	-2553
vest	-2554
▁27	-2555
ateg	-2556
▁temple	-2557
▁host	-2558
▁nor	-2559
▁hit	-2560
▁Bharat	-2561
▁Public	-2562
.6	-2563
▁launch	-2564
ights	-2565
elfare	-2566
▁District	-2567
olk	-2568
▁maintain	-2569
rs	-2570
▁Dis	-2571
▁capacity	-2572
▁hours	-2573
▁super	-2574
▁benefit	-2575
▁attended	-2576
for	-2577
nding	-2578
▁suggest	-2579
ami	-2580
▁sum	-2581
▁behind	-2582
ividual	-2583
▁tell	-2584
▁low	-2585
▁Bill	-2586
▁nothing	-2587
▁single	-2588
▁himself	-2589
▁history	-2590
▁Pand	-2591
▁san	-2592
▁Israel	-2593
▁Bangl	-2594
▁training	-2595
ication	-2596
21	-2597
▁sil	-2598
▁Feb	-2599
▁mus	-2600
ler	-2601
▁town	-2602
▁ground	-2603
char	-2604
▁board	-2605
▁Lal	-2606
▁Sush	-2607
▁answ	-2608
erve	-2609
▁vac	-2610
▁Art	-2611
▁strengthen	-2612
▁Many	-2613
▁Cup	-2614
▁relationship	-2615
witter	-2616
▁reach	-2617
▁Sena	-2618
▁Islam	-2619
▁King	-2620
▁Vijay	-2621
aul	-2622
▁request	-2623
▁required	-2624
▁poor	-2625
▁Pra	-2626
▁civil	-2627
▁Under	-2628
▁Deep	-2629
uck	-2630
▁really	-2631
jit	-2632
ier	-2633
▁something	-2634
ators	-2635
▁films	-2636
ped	-2637
▁emer	-2638
▁Dev	-2639
▁quality	-2640
▁dra	-2641
▁Des	-2642
▁inaug	-2643
ousand	-2644
▁dise	-2645
▁infl	-2646
▁check	-2647
irm	-2648
▁August	-2649
▁happened	-2650
▁age	-2651
▁Wom	-2652
▁Institute	-2653
▁positive	-2654
AP	-2655
▁dies	-2656
▁pun	-2657
▁research	-2658
▁wrote	-2659
▁whether	-2660
▁murder	-2661
▁parents	-2662
▁management	-2663
▁spokes	-2664
▁Nadu	-2665
▁Stud	-2666
▁Bal	-2667
▁mer	-2668
vey	-2669
▁agree	-2670
▁Also	-2671
▁improve	-2672
▁199	-2673
ection	-2674
▁happy	-2675
rish	-2676
▁candidate	-2677
▁Adv	-2678
▁identified	-2679
▁recovered	-2680
ots	-2681
▁online	-2682
ruary	-2683
▁largest	-2684
▁committee	-2685
abh	-2686
▁once	-2687
▁successful	-2688
jan	-2689
▁cred	-2690
▁stay	-2691
▁Rel	-2692
▁Yog	-2693
▁norm	-2694
ocu	-2695
▁assembly	-2696
▁individual	-2697
▁miss	-2698
▁fav	-2699
▁Ay	-2700
ji	-2701
uries	-2702
▁manufact	-2703
▁fast	-2704
▁cast	-2705
nath	-2706
▁Constitution	-2707
▁Bangladesh	-2708
▁petition	-2709
ilt	-2710
▁abs	-2711
▁Now	-2712
▁po	-2713
▁except	-2714
▁2014	-2715
▁application	-2716
▁income	-2717
▁works	-2718
achal	-2719
▁though	-2720
▁signific	-2721
▁violence	-2722
▁pot	-2723
.8	-2724
▁words	-2725
▁Who	-2726
▁thought	-2727
▁sources	-2728
sequ	-2729
▁attend	-2730
▁Gods	-2731
▁admitted	-2732
▁themselves	-2733
DA	-2734
▁mater	-2735
▁Hospital	-2736
▁thing	-2737
▁secretary	-2738
most	-2739
▁conduct	-2740
▁threat	-2741
▁dr	-2742
▁passed	-2743
ead	-2744
▁Sar	-2745
acy	-2746
▁subject	-2747
▁personnel	-2748
MP	-2749
▁School	-2750
verage	-2751
reg	-2752
▁mot	-2753
▁whole	-2754
▁grant	-2755
▁early	-2756
▁37	-2757
pir	-2758
▁Inst	-2759
formation	-2760
earch	-2761
▁begin	-2762
igarh	-2763
▁Rohit	-2764
▁object	-2765
rial	-2766
year	-2767
▁personal	-2768
▁opt	-2769
uled	-2770
ga	-2771
▁Ahmed	-2772
▁Chh	-2773
▁categ	-2774
eds	-2775
▁Brit	-2776
▁ap	-2777
erman	-2778
▁ey	-2779
ns	-2780
rop	-2781
▁z	-2782
cri	-2783
▁Cont	-2784
het	-2785
▁hous	-2786
▁seat	-2787
▁patients	-2788
add	-2789
derabad	-2790
ids	-2791
▁Jud	-2792
▁February	-2793
omes	-2794
▁Sanjay	-2795
▁game	-2796
▁terms	-2797
▁cooperation	-2798
pecial	-2799
▁Priy	-2800
▁dam	-2801
▁charge	-2802
▁sat	-2803
▁ball	-2804
▁consum	-2805
▁value	-2806
▁Twitter	-2807
▁environment	-2808
▁ye	-2809
▁driver	-2810
▁raised	-2811
▁investment	-2812
▁Chen	-2813
▁ban	-2814
▁teams	-2815
▁Pras	-2816
▁allowed	-2817
▁course	-2818
onse	-2819
oon	-2820
ills	-2821
▁search	-2822
apan	-2823
▁players	-2824
mony	-2825
ream	-2826
▁Var	-2827
estic	-2828
▁recogn	-2829
▁force	-2830
▁department	-2831
ety	-2832
▁Sche	-2833
2,	-2834
▁access	-2835
oice	-2836
aly	-2837
▁teac	-2838
odies	-2839
▁Nit	-2840
ammad	-2841
▁Nar	-2842
▁Hyderabad	-2843
▁often	-2844
atural	-2845
SC	-2846
▁anything	-2847
▁neg	-2848
▁Not	-2849
ories	-2850
▁rights	-2851
▁tele	-2852
ici	-2853
ened	-2854
▁similar	-2855
ta	-2856
icial	-2857
▁mean	-2858
▁Ak	-2859
▁products	-2860
▁achieve	-2861
▁Governor	-2862
▁2015	-2863
▁Ministers	-2864
▁Patel	-2865
▁polls	-2866
▁deep	-2867
▁followed	-2868
▁shoot	-2869
AT	-2870
▁partners	-2871
DP	-2872
▁immediately	-2873
ems	-2874
▁ten	-2875
▁introdu	-2876
▁banks	-2877
▁accom	-2878
▁deg	-2879
ulated	-2880
▁IPL	-2881
ortem	-2882
down	-2883
dra	-2884
▁docu	-2885
▁joint	-2886
▁infrastructure	-2887
▁29	-2888
▁""""	-2889
angana	-2890
▁schools	-2891
▁aim	-2892
▁Arun	-2893
▁belong	-2894
▁Bar	-2895
▁included	-2896
▁Railways	-2897
ivity	-2898
oms	-2899
▁Lt	-2900
▁Jos	-2901
▁mag	-2902
▁language	-2903
▁Iran	-2904
▁unto	-2905
utive	-2906
going	-2907
▁Jag	-2908
abor	-2909
jri	-2910
ological	-2911
ech	-2912
▁gener	-2913
ying	-2914
▁resident	-2915
▁challeng	-2916
▁necessary	-2917
▁Super	-2918
atic	-2919
▁imm	-2920
▁lod	-2921
▁Pad	-2922
AI	-2923
hood	-2924
▁friends	-2925
▁sust	-2926
igation	-2927
▁probe	-2928
▁command	-2929
▁story	-2930
▁lat	-2931
ograph	-2932
▁mom	-2933
▁term	-2934
▁paid	-2935
bit	-2936
▁Rajya	-2937
▁rushed	-2938
▁Bab	-2939
▁letter	-2940
▁hands	-2941
isha	-2942
▁shi	-2943
▁democ	-2944
nai	-2945
▁examination	-2946
MC	-2947
▁Law	-2948
▁resign	-2949
▁Colle	-2950
▁Trans	-2951
▁began	-2952
ald	-2953
▁Cap	-2954
▁material	-2955
▁construction	-2956
▁Jehovahs	-2957
▁display	-2958
▁mention	-2959
▁affected	-2960
▁charges	-2961
▁heavy	-2962
He	-2963
▁clean	-2964
▁Africa	-2965
.201	-2966
▁km	-2967
▁active	-2968
▁includes	-2969
▁upcoming	-2970
gu	-2971
▁sister	-2972
pecially	-2973
▁focus	-2974
▁dig	-2975
▁Euro	-2976
▁Group	-2977
▁Roy	-2978
▁Priyanka	-2979
▁cou	-2980
▁governments	-2981
▁thousand	-2982
▁Az	-2983
▁inaugur	-2984
▁fell	-2985
urance	-2986
▁institutions	-2987
iah	-2988
▁families	-2989
▁offer	-2990
oul	-2991
▁prim	-2992
vind	-2993
▁quar	-2994
▁developed	-2995
▁deter	-2996
▁recent	-2997
ER	-2998
▁line	-2999
▁Every	-3000
ghan	-3001
ukh	-3002
▁transf	-3003
evers	-3004
aper	-3005
▁engine	-3006
▁Kejri	-3007
▁reserv	-3008
▁create	-3009
ilater	-3010
▁playing	-3011
▁Int	-3012
vision	-3013
▁highest	-3014
▁ris	-3015
▁cities	-3016
▁trying	-3017
▁coronavirus	-3018
work	-3019
▁appointed	-3020
▁message	-3021
▁ODI	-3022
▁population	-3023
ja	-3024
▁little	-3025
▁pow	-3026
pper	-3027
▁IC	-3028
▁inte	-3029
▁bench	-3030
▁appre	-3031
▁charact	-3032
▁orig	-3033
oved	-3034
▁blood	-3035
▁exec	-3036
▁Earlier	-3037
vere	-3038
clud	-3039
▁strate	-3040
▁involved	-3041
▁worth	-3042
▁Assam	-3043
▁wickets	-3044
▁MLAs	-3045
unic	-3046
▁Cons	-3047
▁named	-3048
▁leave	-3049
▁instru	-3050
▁FIR	-3051
▁hope	-3052
▁East	-3053
▁season	-3054
arsh	-3055
▁guid	-3056
▁Her	-3057
▁Japan	-3058
▁aware	-3059
val	-3060
yal	-3061
▁Ban	-3062
▁Chennai	-3063
quir	-3064
▁living	-3065
emor	-3066
▁ministry	-3067
change	-3068
oid	-3069
▁Corporation	-3070
▁experience	-3071
▁Soc	-3072
joy	-3073
▁legisl	-3074
▁Technology	-3075
▁wa	-3076
▁Of	-3077
action	-3078
▁thank	-3079
▁pub	-3080
uru	-3081
▁warn	-3082
▁huge	-3083
▁politics	-3084
▁steps	-3085
pendent	-3086
▁bad	-3087
iber	-3088
▁Prasad	-3089
▁Don	-3090
omb	-3091
▁Kejriwal	-3092
▁wind	-3093
▁doub	-3094
inese	-3095
▁Section	-3096
▁smartphone	-3097
aging	-3098
▁reject	-3099
▁SP	-3100
▁German	-3101
▁defe	-3102
▁popular	-3103
▁ahead	-3104
▁outside	-3105
▁eight	-3106
rin	-3107
range	-3108
▁Research	-3109
gn	-3110
▁either	-3111
▁produced	-3112
▁mass	-3113
▁Gl	-3114
▁Ben	-3115
▁Dal	-3116
▁GST	-3117
ita	-3118
▁require	-3119
▁IN	-3120
▁especially	-3121
▁More	-3122
ilateral	-3123
fall	-3124
▁aud	-3125
▁Deputy	-3126
▁ded	-3127
▁session	-3128
▁hearing	-3129
It	-3130
▁Afghan	-3131
▁tweeted	-3132
▁Chairman	-3133
riday	-3134
▁actress	-3135
▁cal	-3136
▁opportunity	-3137
▁Indians	-3138
▁concerned	-3139
▁employees	-3140
II	-3141
▁tw	-3142
mo	-3143
▁UN	-3144
ksh	-3145
▁response	-3146
▁regarding	-3147
▁cut	-3148
eous	-3149
▁foot	-3150
▁until	-3151
rance	-3152
▁Commissioner	-3153
▁responsibility	-3154
atform	-3155
iers	-3156
▁Europe	-3157
▁Chinese	-3158
▁measures	-3159
▁Force	-3160
ikh	-3161
▁Besides	-3162
▁screen	-3163
▁administration	-3164
▁ill	-3165
▁mobile	-3166
▁vol	-3167
▁completed	-3168
▁Pal	-3169
▁appeal	-3170
▁2,	-3171
▁Dav	-3172
▁rank	-3173
enger	-3174
olkata	-3175
▁Sund	-3176
▁Off	-3177
▁significant	-3178
▁supply	-3179
▁providing	-3180
▁leading	-3181
icated	-3182
khand	-3183
▁cell	-3184
▁establish	-3185
orters	-3186
let	-3187
rog	-3188
▁boy	-3189
▁vehicles	-3190
▁Road	-3191
▁ang	-3192
ites	-3193
▁er	-3194
▁committed	-3195
estival	-3196
.9	-3197
▁performance	-3198
▁creat	-3199
▁comb	-3200
▁ones	-3201
▁religious	-3202
CCI	-3203
▁bra	-3204
▁enhan	-3205
▁bodies	-3206
▁Joh	-3207
▁morning	-3208
▁Rec	-3209
▁song	-3210
▁jail	-3211
ague	-3212
▁hy	-3213
▁pain	-3214
▁Other	-3215
▁Special	-3216
aily	-3217
iple	-3218
▁Monday	-3219
icro	-3220
▁considered	-3221
▁Sim	-3222
based	-3223
▁trust	-3224
▁fel	-3225
▁gone	-3226
▁Amb	-3227
▁roles	-3228
cle	-3229
▁observ	-3230
ohar	-3231
dd	-3232
▁Ste	-3233
▁reli	-3234
▁prior	-3235
▁punish	-3236
▁rural	-3237
▁space	-3238
▁Associ	-3239
▁approved	-3240
▁lodged	-3241
new	-3242
▁Em	-3243
▁indeed	-3244
▁border	-3245
▁Railway	-3246
▁TV	-3247
80	-3248
▁express	-3249
▁Kolkata	-3250
agram	-3251
▁authorities	-3252
▁pat	-3253
▁ministers	-3254
▁dece	-3255
▁acqu	-3256
▁nom	-3257
▁consider	-3258
▁Pakistani	-3259
8,	-3260
▁phys	-3261
▁35	-3262
▁scient	-3263
▁estim	-3264
▁presented	-3265
1,	-3266
utes	-3267
aching	-3268
▁English	-3269
▁facilities	-3270
▁Fil	-3271
orrow	-3272
ze	-3273
oni	-3274
▁judge	-3275
▁complet	-3276
▁Nath	-3277
▁Medical	-3278
riage	-3279
▁Bach	-3280
▁govern	-3281
cement	-3282
▁Friday	-3283
3,	-3284
▁groups	-3285
▁distrib	-3286
▁whose	-3287
▁Cricket	-3288
▁Mand	-3289
▁connect	-3290
▁encoura	-3291
▁challen	-3292
stant	-3293
▁ess	-3294
illed	-3295
▁lower	-3296
hips	-3297
▁Will	-3298
ras	-3299
vent	-3300
dy	-3301
▁Met	-3302
▁questions	-3303
▁movement	-3304
reedom	-3305
IS	-3306
▁60	-3307
▁sought	-3308
▁ut	-3309
▁military	-3310
▁Here	-3311
▁giving	-3312
AS	-3313
▁subs	-3314
▁exerc	-3315
rem	-3316
▁enjoy	-3317
▁conditions	-3318
▁squ	-3319
▁Security	-3320
iful	-3321
ably	-3322
▁propos	-3323
▁Most	-3324
irst	-3325
▁religion	-3326
▁cash	-3327
ruption	-3328
CT	-3329
▁wanted	-3330
▁recorded	-3331
raj	-3332
▁conference	-3333
▁Ur	-3334
▁Chandigarh	-3335
anda	-3336
▁electric	-3337
pite	-3338
▁additional	-3339
▁32	-3340
▁temper	-3341
body	-3342
▁cere	-3343
▁Instagram	-3344
▁sex	-3345
▁transport	-3346
▁regular	-3347
▁alleg	-3348
▁looking	-3349
▁operation	-3350
cribed	-3351
▁Exp	-3352
ming	-3353
▁custom	-3354
▁defence	-3355
▁legal	-3356
▁ready	-3357
▁qual	-3358
▁domestic	-3359
▁Your	-3360
▁saw	-3361
▁Pet	-3362
▁complete	-3363
▁doctors	-3364
mortem	-3365
▁attempt	-3366
sc	-3367
▁Asia	-3368
road	-3369
▁platform	-3370
▁prime	-3371
▁apply	-3372
▁cover	-3373
30	-3374
load	-3375
ris	-3376
rief	-3377
▁compr	-3378
▁tit	-3379
-2	-3380
▁increasing	-3381
9,	-3382
craft	-3383
▁Rajnath	-3384
▁Ter	-3385
▁$	-3386
▁half	-3387
▁cy	-3388
"",	-3389
book	-3390
ED	-3391
icide	-3392
▁By	-3393
dict	-3394
▁addition	-3395
▁wis	-3396
iab	-3397
▁Invest	-3398
▁revealed	-3399
▁earn	-3400
hel	-3401
ira	-3402
jun	-3403
▁therefore	-3404
▁vers	-3405
ray	-3406
▁Tal	-3407
▁Jhar	-3408
▁needed	-3409
▁compared	-3410
▁clos	-3411
▁Ver	-3412
▁makes	-3413
▁located	-3414
hy	-3415
▁billion	-3416
irmed	-3417
▁cross	-3418
▁joined	-3419
opal	-3420
▁Anil	-3421
▁--	-3422
▁Three	-3423
▁bar	-3424
▁anti	-3425
adha	-3426
ighb	-3427
▁worked	-3428
▁purpose	-3429
ene	-3430
▁Child	-3431
de	-3432
lected	-3433
RD	-3434
miss	-3435
▁Gang	-3436
▁evidence	-3437
cast	-3438
▁shar	-3439
▁Econom	-3440
▁anyone	-3441
aught	-3442
▁Adity	-3443
attis	-3444
▁phase	-3445
▁separ	-3446
▁IT	-3447
▁ran	-3448
▁rupe	-3449
▁strength	-3450
▁opposition	-3451
▁moment	-3452
▁Follow	-3453
bir	-3454
chay	-3455
▁sports	-3456
oted	-3457
▁Tri	-3458
▁Those	-3459
▁Tha	-3460
▁passengers	-3461
▁ask	-3462
co	-3463
quiry	-3464
iminal	-3465
▁bur	-3466
▁round	-3467
▁SC	-3468
▁Paul	-3469
▁impact	-3470
▁talks	-3471
lied	-3472
▁quite	-3473
▁culture	-3474
7,	-3475
nam	-3476
itude	-3477
▁RAM	-3478
▁protect	-3479
▁operations	-3480
▁HD	-3481
▁Wed	-3482
▁expect	-3483
▁itself	-3484
▁drug	-3485
▁proposed	-3486
iant	-3487
▁Od	-3488
▁Foreign	-3489
▁king	-3490
▁(2	-3491
▁Krish	-3492
inary	-3493
▁Republic	-3494
tery	-3495
ires	-3496
▁Mot	-3497
▁Ltd	-3498
ows	-3499
▁provisions	-3500
▁implementation	-3501
▁pen	-3502
▁justice	-3503
▁Muslims	-3504
attle	-3505
▁below	-3506
PF	-3507
▁minor	-3508
▁agency	-3509
▁kept	-3510
▁talk	-3511
▁constituency	-3512
sec	-3513
▁prepared	-3514
▁Jharkhand	-3515
after	-3516
▁potential	-3517
4,	-3518
PC	-3519
▁safe	-3520
▁rise	-3521
▁changes	-3522
light	-3523
▁worship	-3524
▁wal	-3525
▁Sin	-3526
▁century	-3527
▁Author	-3528
▁wel	-3529
▁vehicle	-3530
racy	-3531
▁undert	-3532
▁British	-3533
▁status	-3534
▁safety	-3535
▁custody	-3536
▁model	-3537
▁carried	-3538
▁watch	-3539
▁Aksh	-3540
achin	-3541
urt	-3542
▁speed	-3543
▁bats	-3544
▁closed	-3545
cipal	-3546
▁Scheme	-3547
▁modern	-3548
▁deploy	-3549
▁Gupt	-3550
uesday	-3551
▁Paw	-3552
▁innov	-3553
▁Nag	-3554
▁hol	-3555
▁Women	-3556
int	-3557
6,	-3558
▁gets	-3559
▁Bachchan	-3560
▁Civil	-3561
▁rules	-3562
attisgarh	-3563
▁Information	-3564
asons	-3565
▁neighb	-3566
▁Article	-3567
▁speak	-3568
▁Senior	-3569
▁respectively	-3570
FC	-3571
uel	-3572
▁opportunities	-3573
▁credit	-3574
▁histor	-3575
▁investigating	-3576
▁staff	-3577
inated	-3578
5,	-3579
usion	-3580
▁IS	-3581
India	-3582
▁mil	-3583
▁Nep	-3584
back	-3585
undred	-3586
▁0.	-3587
▁takes	-3588
hai	-3589
oting	-3590
▁disease	-3591
▁Mission	-3592
▁prevent	-3593
apur	-3594
▁198	-3595
▁cultural	-3596
merce	-3597
▁fulf	-3598
▁Tuesday	-3599
▁organised	-3600
▁picture	-3601
▁Services	-3602
▁Apart	-3603
▁ton	-3604
▁adop	-3605
▁funds	-3606
▁Over	-3607
rant	-3608
▁Dhoni	-3609
▁College	-3610
▁proceed	-3611
▁pil	-3612
enced	-3613
▁lock	-3614
▁leadership	-3615
igg	-3616
▁stake	-3617
▁daily	-3618
▁character	-3619
▁alliance	-3620
ening	-3621
▁deaths	-3622
know	-3623
▁firm	-3624
▁underway	-3625
▁built	-3626
▁discussed	-3627
▁houses	-3628
▁formed	-3629
▁deceased	-3630
elines	-3631
▁suicide	-3632
▁Trib	-3633
ruit	-3634
▁seeking	-3635
bar	-3636
▁wants	-3637
gment	-3638
▁ways	-3639
▁forg	-3640
▁CE	-3641
oday	-3642
▁di	-3643
opra	-3644
▁terrorists	-3645
▁injuries	-3646
▁notice	-3647
▁amend	-3648
▁signed	-3649
▁black	-3650
▁send	-3651
ursday	-3652
▁freedom	-3653
▁late	-3654
hem	-3655
uter	-3656
▁spokesperson	-3657
▁appreci	-3658
▁Let	-3659
▁Power	-3660
▁diesel	-3661
▁Mess	-3662
▁manner	-3663
▁specific	-3664
▁Christian	-3665
▁Kul	-3666
nesday	-3667
ique	-3668
▁Ins	-3669
▁direction	-3670
imate	-3671
▁Science	-3672
ott	-3673
▁congrat	-3674
▁Kore	-3675
▁Zeal	-3676
▁Students	-3677
▁presence	-3678
▁repl	-3679
▁path	-3680
elling	-3681
▁terrorism	-3682
▁Di	-3683
▁fourth	-3684
▁NE	-3685
▁file	-3686
▁pros	-3687
▁exc	-3688
▁viral	-3689
▁Sunday	-3690
▁bi	-3691
▁established	-3692
ora	-3693
ixed	-3694
▁demanded	-3695
▁married	-3696
▁schemes	-3697
▁vs	-3698
▁respond	-3699
▁Satur	-3700
▁employment	-3701
▁Water	-3702
▁north	-3703
▁Odisha	-3704
▁Zealand	-3705
▁anim	-3706
ampions	-3707
▁traffic	-3708
▁Wednesday	-3709
▁assistance	-3710
▁plans	-3711
▁Himachal	-3712
▁Thursday	-3713
▁confirmed	-3714
▁197	-3715
▁laws	-3716
▁profession	-3717
estern	-3718
▁Organ	-3719
9.	-3720
▁continued	-3721
▁answer	-3722
ades	-3723
▁Association	-3724
▁Akshay	-3725
ammed	-3726
▁Following	-3727
RC	-3728
ask	-3729
▁Ge	-3730
▁plant	-3731
▁Kam	-3732
pond	-3733
alled	-3734
▁everyone	-3735
▁journal	-3736
▁stage	-3737
▁Div	-3738
▁relief	-3739
ables	-3740
▁average	-3741
▁flood	-3742
pping	-3743
▁Service	-3744
▁max	-3745
▁Election	-3746
▁Shan	-3747
▁occur	-3748
▁Chhattisgarh	-3749
iy	-3750
ester	-3751
▁Chan	-3752
▁Even	-3753
▁Lim	-3754
▁70	-3755
▁Opp	-3756
▁appe	-3757
▁ste	-3758
▁gas	-3759
▁music	-3760
▁Sol	-3761
▁Telangana	-3762
▁provision	-3763
▁caused	-3764
▁Since	-3765
▁American	-3766
▁victory	-3767
hawan	-3768
▁assess	-3769
▁arri	-3770
atever	-3771
▁Sonia	-3772
▁Chopra	-3773
▁Saturday	-3774
▁Tata	-3775
ES	-3776
akhand	-3777
▁destro	-3778
tained	-3779
▁David	-3780
lear	-3781
▁site	-3782
▁3,	-3783
▁property	-3784
▁handed	-3785
▁everything	-3786
▁commission	-3787
uv	-3788
▁pack	-3789
▁Inf	-3790
mercial	-3791
▁demon	-3792
▁ir	-3793
▁matches	-3794
vention	-3795
ternet	-3796
▁sched	-3797
▁votes	-3798
EL	-3799
▁expand	-3800
lymp	-3801
▁ago	-3802
▁god	-3803
ault	-3804
▁Prog	-3805
▁shot	-3806
▁pressure	-3807
▁Plan	-3808
▁Later	-3809
▁effective	-3810
▁Read	-3811
ovid	-3812
▁Arab	-3813
oo	-3814
▁duty	-3815
▁MS	-3816
ixel	-3817
▁coal	-3818
▁recommend	-3819
▁rates	-3820
ager	-3821
itial	-3822
▁rule	-3823
▁source	-3824
▁mentioned	-3825
▁box	-3826
▁gives	-3827
▁Arvind	-3828
▁red	-3829
▁pictures	-3830
IN	-3831
▁evil	-3832
▁thou	-3833
▁names	-3834
▁marriage	-3835
▁lif	-3836
▁existing	-3837
▁failed	-3838
▁Tax	-3839
uri	-3840
▁Per	-3841
▁Naid	-3842
▁moved	-3843
▁reform	-3844
▁Goa	-3845
▁Olymp	-3846
ricke	-3847
▁link	-3848
▁fig	-3849
pects	-3850
▁Tra	-3851
▁Bhatt	-3852
▁offered	-3853
▁importance	-3854
everal	-3855
▁referred	-3856
▁resc	-3857
▁Uttarakhand	-3858
▁Lanka	-3859
This	-3860
▁500	-3861
As	-3862
▁seized	-3863
▁BCCI	-3864
▁almost	-3865
pendence	-3866
▁Cr	-3867
itions	-3868
▁allegedly	-3869
use	-3870
▁changed	-3871
RO	-3872
▁Rao	-3873
▁bilateral	-3874
▁promote	-3875
▁majority	-3876
▁arrange	-3877
▁Kal	-3878
▁agriculture	-3879
▁plea	-3880
▁extended	-3881
▁provides	-3882
umbers	-3883
▁Agriculture	-3884
▁natural	-3885
▁participated	-3886
▁Fund	-3887
▁inside	-3888
ector	-3889
▁didnt	-3890
▁centre	-3891
▁Gupta	-3892
▁Char	-3893
▁Thak	-3894
▁Gh	-3895
▁rally	-3896
▁First	-3897
▁surely	-3898
▁internal	-3899
▁Net	-3900
▁:	-3901
▁latest	-3902
▁Afghanistan	-3903
▁heard	-3904
▁Naidu	-3905
▁purch	-3906
▁sides	-3907
▁continu	-3908
ental	-3909
▁influ	-3910
▁alone	-3911
ony	-3912
istic	-3913
ovind	-3914
▁Ajay	-3915
ript	-3916
▁Management	-3917
▁stra	-3918
▁Jay	-3919
▁sym	-3920
▁Several	-3921
▁tried	-3922
▁pers	-3923
▁via	-3924
▁nations	-3925
▁denied	-3926
▁aircraft	-3927
venue	-3928
pro	-3929
▁mand	-3930
▁Book	-3931
▁Na	-3932
▁turned	-3933
▁Nagar	-3934
ressing	-3935
▁Russia	-3936
▁ceremony	-3937
▁risk	-3938
▁biggest	-3939
▁villages	-3940
▁extrem	-3941
▁80	-3942
pri	-3943
▁forth	-3944
▁petrol	-3945
▁nature	-3946
▁allegations	-3947
rew	-3948
▁bail	-3949
▁Nepal	-3950
▁roads	-3951
utions	-3952
▁Abd	-3953
▁matters	-3954
▁units	-3955
osing	-3956
ME	-3957
▁punishment	-3958
▁scheduled	-3959
que	-3960
▁primary	-3961
▁Ashok	-3962
▁scored	-3963
▁leav	-3964
ties	-3965
▁CP	-3966
▁teachers	-3967
▁Their	-3968
▁Rukh	-3969
▁Welfare	-3970
▁remained	-3971
▁programmes	-3972
▁accounts	-3973
▁unit	-3974
▁lin	-3975
▁responsible	-3976
▁Bas	-3977
▁benefits	-3978
ondon	-3979
▁Mukher	-3980
▁speech	-3981
▁Gold	-3982
▁rape	-3983
▁Janata	-3984
2.	-3985
▁RBI	-3986
▁Face	-3987
▁nearly	-3988
▁pand	-3989
▁users	-3990
▁reasons	-3991
▁wid	-3992
chi	-3993
▁railway	-3994
▁seek	-3995
▁Officer	-3996
ox	-3997
▁bill	-3998
▁bless	-3999
▁sale	-4000
▁normal	-4001
▁receive	-4002
▁south	-4003
▁try	-4004
▁river	-4005
▁hot	-4006
▁shows	-4007
▁fans	-4008
▁mark	-4009
▁crime	-4010
▁Op	-4011
▁published	-4012
'.	-4013
▁Compan	-4014
▁student	-4015
though	-4016
▁visited	-4017
olution	-4018
▁goods	-4019
where	-4020
phas	-4021
icked	-4022
▁Sinha	-4023
▁brothers	-4024
▁category	-4025
▁cop	-4026
▁appoint	-4027
▁pra	-4028
▁easy	-4029
▁tourn	-4030
unt	-4031
IP	-4032
▁trains	-4033
IA	-4034
▁Donald	-4035
▁depart	-4036
▁democracy	-4037
▁Bad	-4038
▁resources	-4039
▁Sum	-4040
▁Prof	-4041
▁GB	-4042
▁contain	-4043
rap	-4044
▁essential	-4045
rad	-4046
anger	-4047
▁drink	-4048
▁girls	-4049
▁Speaking	-4050
▁counter	-4051
▁growing	-4052
▁approach	-4053
▁challenges	-4054
ayan	-4055
▁facing	-4056
▁Today	-4057
▁trial	-4058
▁John	-4059
▁regul	-4060
,99	-4061
wat	-4062
▁critical	-4063
▁initiative	-4064
,""""	-4065
▁flow	-4066
▁agreement	-4067
iddle	-4068
▁Sports	-4069
ex	-4070
▁hum	-4071
▁Inter	-4072
▁greater	-4073
▁Us	-4074
▁actually	-4075
▁challenge	-4076
▁Tour	-4077
▁Deepika	-4078
▁64	-4079
▁From	-4080
▁reply	-4081
▁Sector	-4082
▁eyes	-4083
▁digital	-4084
▁|	-4085
▁Are	-4086
▁hundred	-4087
aches	-4088
▁Neh	-4089
gic	-4090
▁opening	-4091
ously	-4092
▁196	-4093
▁comment	-4094
▁vote	-4095
▁budget	-4096
▁PTI	-4097
▁silver	-4098
igence	-4099
▁lay	-4100
kash	-4101
▁maximum	-4102
▁couple	-4103
▁Jait	-4104
▁industrial	-4105
standing	-4106
▁disbel	-4107
oper	-4108
▁BS	-4109
US	-4110
▁levels	-4111
▁Covid	-4112
▁text	-4113
▁Class	-4114
▁soul	-4115
▁esc	-4116
▁cricke	-4117
oud	-4118
▁bal	-4119
▁crores	-4120
▁favour	-4121
eness	-4122
▁evening	-4123
▁enough	-4124
ili	-4125
▁NCP	-4126
deep	-4127
ini	-4128
ball	-4129
gap	-4130
▁Comp	-4131
▁Aam	-4132
▁equal	-4133
osh	-4134
uls	-4135
▁soldiers	-4136
▁elected	-4137
mohan	-4138
▁Mukherjee	-4139
▁fre	-4140
ranch	-4141
ping	-4142
▁career	-4143
▁numbers	-4144
ratic	-4145
▁deleg	-4146
stitutional	-4147
JD	-4148
▁opened	-4149
▁Cur	-4150
▁pandemic	-4151
▁Qu	-4152
▁London	-4153
▁Kingdom	-4154
▁Control	-4155
CA	-4156
ethod	-4157
▁network	-4158
▁attention	-4159
▁Witness	-4160
▁temperature	-4161
▁2013	-4162
▁science	-4163
▁lockdown	-4164
anced	-4165
▁ICC	-4166
▁broad	-4167
▁urged	-4168
ricultural	-4169
otal	-4170
▁prob	-4171
▁War	-4172
edd	-4173
veer	-4174
▁urban	-4175
▁besides	-4176
▁spiritual	-4177
▁Dhar	-4178
▁markets	-4179
▁destroy	-4180
▁player	-4181
▁Project	-4182
▁Bharati	-4183
astern	-4184
▁Program	-4185
▁facilit	-4186
▁rejected	-4187
▁save	-4188
▁knows	-4189
▁Food	-4190
▁Arjun	-4191
▁Thakur	-4192
rees	-4193
▁ordered	-4194
▁Authority	-4195
▁fine	-4196
▁innings	-4197
▁Baner	-4198
▁corruption	-4199
▁posted	-4200
▁Asian	-4201
▁mount	-4202
▁collabor	-4203
arc	-4204
▁hear	-4205
wide	-4206
▁fif	-4207
▁army	-4208
▁felt	-4209
▁break	-4210
rupt	-4211
▁bound	-4212
▁attacks	-4213
rovers	-4214
▁Facebook	-4215
▁Chandra	-4216
rep	-4217
▁Ac	-4218
emy	-4219
▁setting	-4220
MS	-4221
▁Anand	-4222
▁range	-4223
▁extend	-4224
▁hop	-4225
▁celebrated	-4226
▁beat	-4227
▁agencies	-4228
▁prepar	-4229
gency	-4230
▁chairman	-4231
▁CEO	-4232
▁note	-4233
▁minimum	-4234
▁adj	-4235
▁cancer	-4236
▁proposal	-4237
je	-4238
▁eld	-4239
▁goes	-4240
▁Film	-4241
▁systems	-4242
▁Limited	-4243
isf	-4244
▁sections	-4245
iversary	-4246
▁thus	-4247
▁exercise	-4248
▁withdra	-4249
ON	-4250
▁Office	-4251
▁monitor	-4252
▁consult	-4253
ented	-4254
▁Leg	-4255
▁Conference	-4256
▁ticket	-4257
▁Srin	-4258
▁log	-4259
▁corpor	-4260
alse	-4261
▁shown	-4262
▁sin	-4263
▁sons	-4264
▁tom	-4265
▁criminal	-4266
▁Prin	-4267
▁Bhav	-4268
▁events	-4269
▁UK	-4270
▁vision	-4271
▁Christians	-4272
anath	-4273
▁annual	-4274
▁festival	-4275
▁36	-4276
unicipal	-4277
▁accepted	-4278
▁Economic	-4279
▁fled	-4280
▁shares	-4281
▁Sid	-4282
▁spoke	-4283
▁emp	-4284
▁cert	-4285
▁Say	-4286
respond	-4287
▁Vik	-4288
ciples	-4289
pended	-4290
▁Jaitley	-4291
▁Enter	-4292
▁payment	-4293
▁typ	-4294
▁exchange	-4295
oe	-4296
▁Governments	-4297
▁Post	-4298
▁Where	-4299
▁fresh	-4300
vt	-4301
▁type	-4302
▁remains	-4303
uddin	-4304
▁%	-4305
▁Such	-4306
▁pred	-4307
▁receiving	-4308
▁inquiry	-4309
▁victims	-4310
▁depos	-4311
▁severe	-4312
oured	-4313
va	-4314
▁City	-4315
▁Lad	-4316
▁loan	-4317
▁Up	-4318
▁2011	-4319
▁capt	-4320
▁Pran	-4321
▁strike	-4322
aken	-4323
▁Bhag	-4324
▁unf	-4325
anth	-4326
ensive	-4327
▁Award	-4328
▁controvers	-4329
▁Car	-4330
▁rear	-4331
▁quarter	-4332
▁Banerjee	-4333
udi	-4334
▁judicial	-4335
asi	-4336
▁ant	-4337
▁approval	-4338
▁shooting	-4339
▁Bus	-4340
▁meetings	-4341
▁parliament	-4342
iles	-4343
▁mut	-4344
▁emphas	-4345
Ph	-4346
▁sectors	-4347
▁stations	-4348
agh	-4349
ny	-4350
iled	-4351
▁wish	-4352
▁draw	-4353
ounter	-4354
▁Amitabh	-4355
▁returned	-4356
▁Fl	-4357
▁Express	-4358
▁Vid	-4359
▁nine	-4360
▁mission	-4361
vant	-4362
▁hospitals	-4363
▁calls	-4364
yer	-4365
yan	-4366
▁4,	-4367
▁fully	-4368
▁Out	-4369
▁deployed	-4370
▁neither	-4371
gapixel	-4372
.,	-4373
▁orders	-4374
mendment	-4375
inations	-4376
▁authority	-4377
▁interview	-4378
▁placed	-4379
▁serve	-4380
holders	-4381
BJP	-4382
▁Famil	-4383
▁Krishna	-4384
▁critic	-4385
▁base	-4386
overy	-4387
▁surv	-4388
vert	-4389
▁cris	-4390
icit	-4391
HI	-4392
▁submitted	-4393
▁Hon	-4394
▁grand	-4395
ole	-4396
lip	-4397
▁flag	-4398
▁Thus	-4399
▁micro	-4400
▁heavens	-4401
▁Kare	-4402
▁tournament	-4403
▁offers	-4404
ema	-4405
▁believed	-4406
▁Kat	-4407
▁vice	-4408
▁medic	-4409
▁separate	-4410
▁contribution	-4411
pat	-4412
▁colour	-4413
▁protection	-4414
▁Yogi	-4415
▁liter	-4416
▁reduce	-4417
500	-4418
irs	-4419
rative	-4420
▁else	-4421
▁bag	-4422
▁Ka	-4423
hens	-4424
▁Amar	-4425
uclear	-4426
▁certainly	-4427
▁cant	-4428
▁selected	-4429
▁initial	-4430
▁Elect	-4431
▁helped	-4432
▁Region	-4433
ols	-4434
▁33	-4435
▁airport	-4436
▁coach	-4437
▁agreed	-4438
▁method	-4439
▁System	-4440
▁48	-4441
▁feature	-4442
▁crisis	-4443
▁discussion	-4444
▁correspond	-4445
▁signs	-4446
▁Rajput	-4447
▁facility	-4448
▁Gal	-4449
ela	-4450
off	-4451
▁Val	-4452
ashing	-4453
▁sensor	-4454
▁Prakash	-4455
▁Patna	-4456
▁AAP	-4457
▁fem	-4458
eful	-4459
apt	-4460
eshwar	-4461
▁repe	-4462
▁commercial	-4463
vendra	-4464
▁degree	-4465
▁produce	-4466
▁prec	-4467
inch	-4468
sequently	-4469
▁Pune	-4470
adhan	-4471
▁il	-4472
ju	-4473
▁Dem	-4474
▁terrorist	-4475
▁90	-4476
▁generation	-4477
acted	-4478
▁partnership	-4479
▁cru	-4480
▁Command	-4481
▁territ	-4482
▁introduced	-4483
▁Additional	-4484
▁Ant	-4485
rel	-4486
▁sett	-4487
ores	-4488
▁tro	-4489
▁remember	-4490
eks	-4491
ils	-4492
▁photo	-4493
▁Thats	-4494
▁granted	-4495
▁Produ	-4496
▁carry	-4497
▁Dut	-4498
time	-4499
▁initiated	-4500
▁Sk	-4501
▁contact	-4502
▁Candid	-4503
▁concern	-4504
fully	-4505
▁Manmohan	-4506
▁Fed	-4507
▁vacc	-4508
▁running	-4509
▁Kart	-4510
▁manufacturing	-4511
▁BSP	-4512
▁Mish	-4513
▁headed	-4514
▁CA	-4515
alore	-4516
▁appeared	-4517
▁Imran	-4518
role	-4519
▁posts	-4520
hal	-4521
▁Port	-4522
▁sense	-4523
▁device	-4524
▁documents	-4525
CB	-4526
▁Swar	-4527
▁plays	-4528
▁completely	-4529
▁Mor	-4530
""""	-4531
▁Sand	-4532
▁estimated	-4533
10	-4534
▁initiatives	-4535
▁appropri	-4536
▁Dig	-4537
▁accompan	-4538
iter	-4539
▁Industry	-4540
▁righteous	-4541
▁ge	-4542
▁Tom	-4543
fted	-4544
ila	-4545
▁resolution	-4546
izing	-4547
rene	-4548
▁Luck	-4549
▁45	-4550
▁purs	-4551
▁debut	-4552
▁Whats	-4553
bh	-4554
▁proced	-4555
tty	-4556
▁effort	-4557
▁Sunil	-4558
▁Family	-4559
roid	-4560
▁suspended	-4561
▁false	-4562
▁options	-4563
▁physical	-4564
CR	-4565
een	-4566
isc	-4567
▁Gen	-4568
▁indic	-4569
▁rich	-4570
▁idea	-4571
▁Further	-4572
▁continues	-4573
▁Sidd	-4574
▁Transport	-4575
▁score	-4576
▁ongoing	-4577
▁refused	-4578
▁particularly	-4579
▁Sachin	-4580
▁page	-4581
▁claims	-4582
▁Rajiv	-4583
▁extremely	-4584
▁Germany	-4585
iture	-4586
DR	-4587
▁SA	-4588
▁satisf	-4589
▁confidence	-4590
esterday	-4591
▁journey	-4592
▁Bengaluru	-4593
equ	-4594
ashi	-4595
▁AI	-4596
▁Four	-4597
▁fair	-4598
▁contract	-4599
ume	-4600
▁suffered	-4601
ologies	-4602
▁implemented	-4603
▁Ed	-4604
ocks	-4605
pid	-4606
ushka	-4607
▁instead	-4608
▁arrived	-4609
▁room	-4610
megapixel	-4611
▁Best	-4612
▁Social	-4613
▁someone	-4614
cker	-4615
▁Gad	-4616
▁Among	-4617
▁Opposition	-4618
quar	-4619
▁whatever	-4620
Is	-4621
oming	-4622
▁League	-4623
▁195	-4624
wise	-4625
cient	-4626
yle	-4627
▁Mishra	-4628
▁Administ	-4629
▁virus	-4630
▁Second	-4631
▁proc	-4632
▁affect	-4633
charge	-4634
▁determin	-4635
▁technical	-4636
▁quick	-4637
▁Similar	-4638
roud	-4639
▁thee	-4640
roleum	-4641
▁illeg	-4642
ocation	-4643
▁stre	-4644
▁despite	-4645
rated	-4646
▁Kareena	-4647
▁202	-4648
▁Kaur	-4649
▁ski	-4650
atma	-4651
▁Open	-4652
-0	-4653
▁Vish	-4654
▁Adityanath	-4655
▁fra	-4656
▁sacri	-4657
hara	-4658
▁France	-4659
▁Budget	-4660
▁Therefore	-4661
▁decisions	-4662
40	-4663
▁laid	-4664
ula	-4665
▁Kapil	-4666
▁becomes	-4667
▁lack	-4668
▁Actor	-4669
▁basic	-4670
omet	-4671
▁books	-4672
▁75	-4673
▁motor	-4674
PS	-4675
ane	-4676
▁5,	-4677
▁avoid	-4678
▁ruling	-4679
ardhan	-4680
▁Ahmedabad	-4681
▁integr	-4682
▁option	-4683
face	-4684
che	-4685
chol	-4686
ift	-4687
▁Real	-4688
hab	-4689
hank	-4690
▁Bra	-4691
▁Reddy	-4692
▁regional	-4693
rect	-4694
▁Farmers	-4695
▁Sushant	-4696
ni	-4697
arily	-4698
▁Head	-4699
▁battery	-4700
▁Karan	-4701
▁buy	-4702
▁York	-4703
fect	-4704
▁developing	-4705
▁News	-4706
▁External	-4707
▁hearts	-4708
▁Meh	-4709
▁Candidates	-4710
▁green	-4711
▁boost	-4712
▁Anushka	-4713
▁associated	-4714
▁Mam	-4715
▁sle	-4716
▁experi	-4717
pay	-4718
AL	-4719
za	-4720
hammad	-4721
star	-4722
itable	-4723
▁Witnesses	-4724
▁Bharatiya	-4725
▁sea	-4726
▁depend	-4727
▁served	-4728
▁weap	-4729
lands	-4730
▁defin	-4731
▁winning	-4732
bl	-4733
▁centres	-4734
▁Ranveer	-4735
▁Bah	-4736
▁2010	-4737
rim	-4738
▁JD	-4739
▁welfare	-4740
▁directly	-4741
▁gather	-4742
▁competition	-4743
ogle	-4744
EC	-4745
▁Ven	-4746
▁danger	-4747
reprene	-4748
▁Mohan	-4749
▁Indeed	-4750
▁partner	-4751
▁Step	-4752
5.	-4753
▁bond	-4754
▁Boss	-4755
▁eat	-4756
▁dismiss	-4757
▁La	-4758
hat	-4759
ievers	-4760
▁greet	-4761
▁transfer	-4762
▁languages	-4763
unal	-4764
ulate	-4765
stances	-4766
▁weeks	-4767
pal	-4768
▁marks	-4769
▁sustain	-4770
▁wedd	-4771
▁soft	-4772
▁touch	-4773
law	-4774
inate	-4775
▁finance	-4776
▁fat	-4777
▁Pawar	-4778
▁secret	-4779
▁mem	-4780
▁awarded	-4781
awa	-4782
viation	-4783
▁opin	-4784
▁Naw	-4785
▁forest	-4786
rugg	-4787
▁Indies	-4788
▁Person	-4789
▁consist	-4790
▁Vis	-4791
▁anniversary	-4792
▁mid	-4793
▁AN	-4794
▁creation	-4795
ule	-4796
▁Energy	-4797
▁Another	-4798
▁Champions	-4799
▁household	-4800
▁testing	-4801
▁Nitish	-4802
ese	-4803
oples	-4804
▁throughout	-4805
▁Ref	-4806
▁factor	-4807
▁inaugurated	-4808
▁voice	-4809
▁Kovind	-4810
▁deliver	-4811
▁noted	-4812
▁RSS	-4813
ocked	-4814
▁Fire	-4815
alys	-4816
kari	-4817
▁chaired	-4818
pex	-4819
▁proud	-4820
actions	-4821
▁beginning	-4822
EN	-4823
▁reward	-4824
▁healthy	-4825
▁organized	-4826
▁stock	-4827
▁behalf	-4828
▁practice	-4829
▁CB	-4830
eries	-4831
▁truck	-4832
elligence	-4833
▁apost	-4834
▁assured	-4835
▁jobs	-4836
omi	-4837
ero	-4838
pic	-4839
▁batsman	-4840
▁rainfall	-4841
▁Code	-4842
nds	-4843
▁coast	-4844
▁circum	-4845
▁structure	-4846
▁Dhawan	-4847
ureau	-4848
▁addressed	-4849
▁Pradhan	-4850
▁goal	-4851
▁Ti	-4852
▁reporters	-4853
▁Mas	-4854
▁delay	-4855
▁Samaj	-4856
▁organis	-4857
▁sound	-4858
idamb	-4859
usive	-4860
lers	-4861
▁Ann	-4862
▁conclud	-4863
▁situ	-4864
▁Mant	-4865
▁values	-4866
▁Redmi	-4867
▁verdict	-4868
▁slow	-4869
▁immediate	-4870
▁ce	-4871
▁yesterday	-4872
▁mechan	-4873
▁congreg	-4874
▁autom	-4875
agers	-4876
▁incl	-4877
▁planning	-4878
▁gri	-4879
▁Vin	-4880
▁Manohar	-4881
AC	-4882
▁Hard	-4883
▁weak	-4884
▁acad	-4885
▁guest	-4886
▁remar	-4887
▁dispute	-4888
▁carrying	-4889
iger	-4890
▁tor	-4891
akers	-4892
▁seriously	-4893
▁tonnes	-4894
▁limited	-4895
oi	-4896
ression	-4897
▁rob	-4898
▁appropriate	-4899
▁ji	-4900
▁extra	-4901
▁34	-4902
▁fee	-4903
▁Mahatma	-4904
iya	-4905
hary	-4906
▁honour	-4907
▁Global	-4908
▁upd	-4909
▁strugg	-4910
▁cho	-4911
rang	-4912
▁holding	-4913
aji	-4914
riving	-4915
▁litre	-4916
astic	-4917
▁Rai	-4918
▁born	-4919
▁univers	-4920
▁invited	-4921
▁Google	-4922
▁equip	-4923
▁birthday	-4924
▁Qual	-4925
IL	-4926
set	-4927
▁Pranab	-4928
▁multiple	-4929
arya	-4930
▁Commerce	-4931
▁observed	-4932
ules	-4933
icted	-4934
▁learning	-4935
▁150	-4936
▁bit	-4937
▁customers	-4938
▁limit	-4939
▁condem	-4940
▁die	-4941
▁courts	-4942
▁keeping	-4943
▁Tourism	-4944
▁Yes	-4945
▁Ro	-4946
ojana	-4947
▁CR	-4948
▁forms	-4949
rench	-4950
lying	-4951
▁Engine	-4952
▁double	-4953
▁beaut	-4954
aps	-4955
▁collect	-4956
▁ties	-4957
▁Bhavan	-4958
▁Baj	-4959
araman	-4960
▁paper	-4961
▁managed	-4962
▁Train	-4963
▁submit	-4964
cipl	-4965
iling	-4966
▁wedding	-4967
▁kg	-4968
▁America	-4969
▁encounter	-4970
▁rains	-4971
▁rather	-4972
▁Know	-4973
▁fram	-4974
▁priority	-4975
ashed	-4976
▁Ganga	-4977
chayat	-4978
▁Team	-4979
▁Paduk	-4980
ida	-4981
▁Youth	-4982
▁battle	-4983
oned	-4984
▁sitting	-4985
▁Games	-4986
▁constitut	-4987
▁speaking	-4988
▁stands	-4989
▁Pay	-4990
▁pm	-4991
▁track	-4992
Ch	-4993
▁Policy	-4994
▁tested	-4995
▁gain	-4996
▁remaining	-4997
▁Jav	-4998
alty	-4999
ona	-5000
▁Reliance	-5001
▁understanding	-5002
iction	-5003
▁shifted	-5004
▁incidents	-5005
▁2021	-5006
uction	-5007
▁constant	-5008
▁register	-5009
▁guidelines	-5010
▁Gov	-5011
ensation	-5012
khar	-5013
▁article	-5014
sy	-5015
▁Tur	-5016
▁Cal	-5017
▁polic	-5018
▁supported	-5019
▁dial	-5020
):	-5021
aman	-5022
▁Padukone	-5023
▁commitment	-5024
▁skipper	-5025
▁accord	-5026
▁Business	-5027
▁ast	-5028
▁Last	-5029
▁thy	-5030
▁wishes	-5031
ullah	-5032
▁surpr	-5033
▁college	-5034
▁beha	-5035
dule	-5036
▁Korea	-5037
istics	-5038
▁imposed	-5039
▁Android	-5040
▁Alia	-5041
▁stone	-5042
apers	-5043
▁Tend	-5044
▁killing	-5045
▁Nehru	-5046
▁bey	-5047
▁Bigg	-5048
well	-5049
▁standard	-5050
▁Nirm	-5051
▁Note	-5052
▁Sind	-5053
▁beyond	-5054
▁wide	-5055
▁showed	-5056
▁arch	-5057
▁Joint	-5058
adium	-5059
▁Sure	-5060
▁stood	-5061
▁>	-5062
▁insurance	-5063
hew	-5064
plom	-5065
▁Cro	-5066
▁DEL	-5067
▁sharing	-5068
-20	-5069
▁Stand	-5070
ape	-5071
▁Ele	-5072
▁content	-5073
▁(3	-5074
AF	-5075
RB	-5076
run	-5077
▁Mir	-5078
▁dro	-5079
haps	-5080
▁dedicated	-5081
▁flight	-5082
▁nuclear	-5083
▁und	-5084
Ts	-5085
▁Bel	-5086
oring	-5087
da	-5088
aced	-5089
▁mig	-5090
▁meaning	-5091
ining	-5092
▁trading	-5093
▁Ob	-5094
▁prison	-5095
▁views	-5096
▁Lucknow	-5097
nav	-5098
▁loans	-5099
▁Mag	-5100
adhaar	-5101
▁actors	-5102
arth	-5103
HO	-5104
▁complex	-5105
▁Prov	-5106
▁ended	-5107
care	-5108
▁194	-5109
▁Che	-5110
ronic	-5111
▁doubt	-5112
Ah	-5113
▁removed	-5114
▁squad	-5115
▁seem	-5116
van	-5117
ushan	-5118
BC	-5119
▁entered	-5120
win	-5121
▁Nob	-5122
▁rupees	-5123
▁independent	-5124
nces	-5125
▁awareness	-5126
▁Prab	-5127
rits	-5128
▁CCT	-5129
▁document	-5130
▁Tem	-5131
▁Rana	-5132
▁image	-5133
with	-5134
▁300	-5135
▁fixed	-5136
▁fam	-5137
▁individuals	-5138
▁tim	-5139
adra	-5140
enty	-5141
▁treated	-5142
▁residents	-5143
DM	-5144
▁x	-5145
▁spent	-5146
▁DELHI	-5147
ogue	-5148
▁Lo	-5149
▁European	-5150
▁representatives	-5151
60	-5152
oti	-5153
▁participation	-5154
▁Chidamb	-5155
▁block	-5156
▁Thacker	-5157
▁nam	-5158
▁tomorrow	-5159
itharaman	-5160
▁demonst	-5161
▁heaven	-5162
wadi	-5163
▁Urban	-5164
▁panel	-5165
vis	-5166
▁thr	-5167
▁About	-5168
▁communication	-5169
▁table	-5170
▁Bangalore	-5171
lies	-5172
▁apex	-5173
▁+	-5174
▁cricketer	-5175
▁Rural	-5176
▁waste	-5177
▁Sad	-5178
▁Tendul	-5179
▁NEW	-5180
▁postmortem	-5181
▁blast	-5182
▁activity	-5183
▁simple	-5184
▁notification	-5185
▁brid	-5186
riya	-5187
▁liqu	-5188
▁Srinagar	-5189
ensions	-5190
ET	-5191
▁Sik	-5192
▁trou	-5193
▁affairs	-5194
nic	-5195
▁agg	-5196
▁none	-5197
▁reduced	-5198
▁addressing	-5199
penditure	-5200
▁faced	-5201
ervation	-5202
▁Human	-5203
▁creating	-5204
▁organisation	-5205
▁foundation	-5206
ancy	-5207
▁Good	-5208
▁marg	-5209
▁advoc	-5210
▁registration	-5211
ply	-5212
▁residence	-5213
▁sexual	-5214
11	-5215
cks	-5216
▁Jew	-5217
▁Nir	-5218
▁2012	-5219
▁talking	-5220
▁hurt	-5221
▁worlds	-5222
▁fighting	-5223
▁Rem	-5224
▁Navy	-5225
▁mill	-5226
▁Ranbir	-5227
▁medal	-5228
PP	-5229
pati	-5230
▁brief	-5231
▁weather	-5232
▁Mohammad	-5233
▁amb	-5234
NU	-5235
▁negative	-5236
iff	-5237
rd	-5238
pura	-5239
▁corresponding	-5240
▁beautiful	-5241
▁pollution	-5242
▁games	-5243
▁relating	-5244
▁described	-5245
ima	-5246
ider	-5247
▁El	-5248
▁costs	-5249
▁Secret	-5250
▁interests	-5251
▁participate	-5252
▁Pandey	-5253
▁policies	-5254
▁CCTV	-5255
▁university	-5256
▁Mit	-5257
▁fle	-5258
▁rescue	-5259
▁convers	-5260
▁suffering	-5261
alls	-5262
▁protests	-5263
▁mach	-5264
▁Lab	-5265
▁unique	-5266
▁requested	-5267
▁electricity	-5268
wd	-5269
▁subsid	-5270
▁Has	-5271
▁relevant	-5272
▁variant	-5273
nap	-5274
▁Citizens	-5275
▁Sitharaman	-5276
▁throw	-5277
▁permission	-5278
▁coord	-5279
iable	-5280
▁Thackeray	-5281
▁excell	-5282
▁chem	-5283
4.	-5284
▁Sikh	-5285
▁looked	-5286
▁overs	-5287
▁prosper	-5288
fort	-5289
▁cancell	-5290
aste	-5291
PM	-5292
▁MPs	-5293
▁bul	-5294
hern	-5295
▁servants	-5296
▁toll	-5297
▁Report	-5298
▁Aadhaar	-5299
▁raise	-5300
▁Park	-5301
▁Principal	-5302
quarters	-5303
▁admit	-5304
▁tests	-5305
▁Mamata	-5306
▁weight	-5307
▁Nitin	-5308
▁Children	-5309
▁thinking	-5310
ota	-5311
▁Only	-5312
▁vent	-5313
▁Environment	-5314
wari	-5315
▁Rashtra	-5316
▁reality	-5317
▁Programme	-5318
▁Ayod	-5319
mended	-5320
asw	-5321
▁booked	-5322
imately	-5323
▁Industries	-5324
urb	-5325
▁original	-5326
▁Gra	-5327
▁Gadkari	-5328
CS	-5329
ults	-5330
▁Suresh	-5331
▁argu	-5332
▁Sharif	-5333
▁Ramesh	-5334
▁sell	-5335
▁damage	-5336
▁demands	-5337
▁strict	-5338
oli	-5339
▁gun	-5340
▁condol	-5341
▁Similarly	-5342
▁knew	-5343
▁Tendulkar	-5344
▁stopped	-5345
hana	-5346
▁Assist	-5347
▁difference	-5348
▁doll	-5349
▁insp	-5350
▁profit	-5351
▁CS	-5352
▁guidance	-5353
19	-5354
▁attacked	-5355
▁Sain	-5356
▁becoming	-5357
▁colleges	-5358
eed	-5359
▁entry	-5360
▁arrangements	-5361
▁Eastern	-5362
mier	-5363
▁virt	-5364
▁doesnt	-5365
wor	-5366
▁believers	-5367
known	-5368
▁identify	-5369
▁Ayodhya	-5370
wara	-5371
▁Chou	-5372
▁respective	-5373
ulations	-5374
▁Rad	-5375
▁Legisl	-5376
▁educational	-5377
ilty	-5378
App	-5379
essions	-5380
And	-5381
▁priced	-5382
oving	-5383
▁Yojana	-5384
▁title	-5385
▁disapp	-5386
▁tourism	-5387
▁kil	-5388
▁middle	-5389
',	-5390
▁accompanied	-5391
ugu	-5392
orthern	-5393
wali	-5394
▁rad	-5395
ishing	-5396
If	-5397
▁Govt	-5398
▁Bomb	-5399
▁manif	-5400
▁proceedings	-5401
▁happiness	-5402
▁traditional	-5403
▁guard	-5404
▁milk	-5405
▁abroad	-5406
▁female	-5407
kind	-5408
arpur	-5409
▁overall	-5410
▁assets	-5411
▁Yoga	-5412
▁highlight	-5413
ooth	-5414
indra	-5415
▁scale	-5416
▁ancient	-5417
▁computer	-5418
▁sanction	-5419
▁size	-5420
▁multi	-5421
▁mercy	-5422
▁degrees	-5423
axy	-5424
▁exams	-5425
▁holds	-5426
▁fuel	-5427
text	-5428
▁white	-5429
▁illegal	-5430
▁Lead	-5431
▁NDA	-5432
▁standards	-5433
yn	-5434
▁drive	-5435
oke	-5436
▁Rak	-5437
amy	-5438
▁opinion	-5439
▁Moses	-5440
▁Employ	-5441
▁monitoring	-5442
▁applications	-5443
▁happening	-5444
▁Watch	-5445
rary	-5446
essor	-5447
▁ign	-5448
ivery	-5449
hered	-5450
▁delegation	-5451
▁solution	-5452
▁pending	-5453
▁achieved	-5454
▁shut	-5455
▁pleas	-5456
▁collection	-5457
taining	-5458
▁revenue	-5459
▁decide	-5460
▁Joshi	-5461
▁der	-5462
▁French	-5463
▁clin	-5464
repreneurs	-5465
▁lic	-5466
urement	-5467
▁Supp	-5468
▁valid	-5469
▁OF	-5470
▁370	-5471
.)	-5472
vious	-5473
▁countrys	-5474
▁Reserve	-5475
▁diss	-5476
▁helps	-5477
▁guilty	-5478
▁Chidambaram	-5479
▁Current	-5480
▁recovery	-5481
▁emb	-5482
comm	-5483
minent	-5484
▁Goyal	-5485
▁offering	-5486
cre	-5487
▁export	-5488
▁encourage	-5489
▁executive	-5490
▁cells	-5491
▁AT	-5492
ecause	-5493
erted	-5494
▁powerful	-5495
12	-5496
▁rapid	-5497
▁Ang	-5498
▁clar	-5499
▁Advis	-5500
6.	-5501
▁transl	-5502
▁Mahe	-5503
▁Commun	-5504
▁investors	-5505
OR	-5506
ront	-5507
illing	-5508
sp	-5509
▁Jal	-5510
lict	-5511
▁doctor	-5512
rival	-5513
▁Verma	-5514
▁burn	-5515
▁comments	-5516
▁Kings	-5517
etic	-5518
▁Judge	-5519
▁crowd	-5520
▁certific	-5521
▁Av	-5522
▁integ	-5523
▁version	-5524
▁confident	-5525
▁desire	-5526
▁ED	-5527
▁Sams	-5528
▁experts	-5529
▁restrict	-5530
keep	-5531
▁powers	-5532
▁Telugu	-5533
ym	-5534
▁objective	-5535
▁missing	-5536
▁massive	-5537
▁suggested	-5538
ius	-5539
▁Islamic	-5540
▁survey	-5541
inals	-5542
itage	-5543
▁Ko	-5544
▁joy	-5545
▁lies	-5546
spe	-5547
▁circumstances	-5548
▁Speaker	-5549
▁covered	-5550
▁concept	-5551
▁sun	-5552
iveness	-5553
▁wealth	-5554
ube	-5555
▁assign	-5556
▁42	-5557
▁sacrif	-5558
▁Income	-5559
▁Mohammed	-5560
▁advised	-5561
▁Jon	-5562
▁Steel	-5563
▁writing	-5564
▁sn	-5565
▁climate	-5566
gon	-5567
▁govt	-5568
▁Pul	-5569
▁polling	-5570
▁fort	-5571
▁download	-5572
▁bringing	-5573
▁defeat	-5574
▁moving	-5575
▁Brah	-5576
intend	-5577
NG	-5578
▁dream	-5579
▁convey	-5580
▁discussions	-5581
hik	-5582
avy	-5583
▁remarks	-5584
▁bab	-5585
▁Five	-5586
▁cards	-5587
▁agricultural	-5588
▁nearby	-5589
▁announcement	-5590
▁Found	-5591
▁promise	-5592
They	-5593
▁Manoj	-5594
aq	-5595
▁II	-5596
▁Mantri	-5597
▁plants	-5598
▁Swaraj	-5599
▁rising	-5600
▁slog	-5601
▁lakhs	-5602
▁sales	-5603
▁Hous	-5604
3.	-5605
▁engaged	-5606
▁transp	-5607
yl	-5608
▁util	-5609
▁injury	-5610
▁studies	-5611
▁distribution	-5612
▁Rat	-5613
▁Saif	-5614
▁Petroleum	-5615
▁kn	-5616
▁128	-5617
▁Tele	-5618
▁Kamal	-5619
▁Aut	-5620
▁Hindus	-5621
▁fellow	-5622
▁holy	-5623
▁mist	-5624
▁Aamir	-5625
gi	-5626
There	-5627
▁declined	-5628
▁Yet	-5629
▁Company	-5630
▁fit	-5631
mark	-5632
▁Jio	-5633
▁Bhart	-5634
▁somet	-5635
▁deeds	-5636
▁Muhammad	-5637
▁Fa	-5638
▁promoting	-5639
▁task	-5640
▁Pen	-5641
▁equipment	-5642
▁schol	-5643
▁starting	-5644
▁user	-5645
▁videos	-5646
▁Chaud	-5647
▁fifth	-5648
itizen	-5649
▁Bu	-5650
OS	-5651
alm	-5652
▁Manipur	-5653
▁manufacture	-5654
▁Well	-5655
▁index	-5656
▁Capital	-5657
▁cabinet	-5658
7.	-5659
▁DG	-5660
▁oath	-5661
▁)	-5662
▁44	-5663
▁Year	-5664
▁homes	-5665
▁origin	-5666
urch	-5667
▁dign	-5668
▁hath	-5669
▁usually	-5670
▁Financial	-5671
▁prayer	-5672
▁AM	-5673
▁sisters	-5674
▁items	-5675
efore	-5676
ares	-5677
▁Sud	-5678
▁IPC	-5679
ultan	-5680
▁See	-5681
▁connectivity	-5682
▁Devi	-5683
8.	-5684
▁Media	-5685
▁congregation	-5686
▁Count	-5687
▁write	-5688
▁counsel	-5689
▁Gul	-5690
▁strategy	-5691
▁Russian	-5692
▁sustained	-5693
▁Have	-5694
▁Nations	-5695
▁elig	-5696
▁patient	-5697
▁Ir	-5698
▁calling	-5699
▁Price	-5700
uj	-5701
abled	-5702
grad	-5703
▁apart	-5704
▁reforms	-5705
▁congratulated	-5706
▁Saf	-5707
Phone	-5708
nagar	-5709
▁aspects	-5710
▁concerns	-5711
▁mere	-5712
▁industries	-5713
▁Shahid	-5714
hap	-5715
▁famous	-5716
▁detained	-5717
▁broke	-5718
hir	-5719
▁isol	-5720
▁cold	-5721
▁Australian	-5722
▁Raf	-5723
▁sam	-5724
hesh	-5725
mosp	-5726
▁Nawaz	-5727
cap	-5728
▁longer	-5729
▁Das	-5730
ishan	-5731
▁Saudi	-5732
▁politic	-5733
▁Meet	-5734
▁quoted	-5735
▁didn	-5736
▁comprising	-5737
▁advant	-5738
▁deputy	-5739
gar	-5740
▁enable	-5741
▁practices	-5742
▁TH	-5743
▁constituted	-5744
ength	-5745
▁Sara	-5746
▁feet	-5747
▁spend	-5748
▁organisations	-5749
hek	-5750
osite	-5751
▁cult	-5752
tainment	-5753
▁Make	-5754
▁Poll	-5755
▁occurred	-5756
-3	-5757
▁Memor	-5758
▁manifest	-5759
▁balance	-5760
▁Ajit	-5761
▁Exam	-5762
phy	-5763
▁exact	-5764
▁actions	-5765
▁Acad	-5766
▁balls	-5767
bre	-5768
▁seems	-5769
▁Hel	-5770
▁nar	-5771
▁feed	-5772
lease	-5773
▁lines	-5774
▁2009	-5775
▁warm	-5776
▁attract	-5777
oute	-5778
▁Smt	-5779
▁harm	-5780
▁Trade	-5781
uit	-5782
overty	-5783
▁Division	-5784
▁MoU	-5785
ken	-5786
▁rout	-5787
▁union	-5788
▁destroyed	-5789
▁Akh	-5790
▁figh	-5791
▁Indira	-5792
▁Ravi	-5793
▁adding	-5794
ashington	-5795
▁Prop	-5796
▁mart	-5797
ourage	-5798
▁ult	-5799
▁Budd	-5800
▁Bombay	-5801
▁daughters	-5802
▁symb	-5803
▁Rashtrapati	-5804
▁planned	-5805
▁debt	-5806
▁diplom	-5807
▁highly	-5808
▁neighbour	-5809
▁Rom	-5810
▁assault	-5811
▁stakeholders	-5812
▁compensation	-5813
▁types	-5814
arb	-5815
▁bear	-5816
▁cas	-5817
▁BJPs	-5818
▁troops	-5819
ertil	-5820
▁chance	-5821
▁professional	-5822
▁looks	-5823
ndering	-5824
▁Galaxy	-5825
▁resolve	-5826
section	-5827
▁rose	-5828
▁appointment	-5829
enn	-5830
ales	-5831
▁recommended	-5832
▁thousands	-5833
▁Ve	-5834
▁advis	-5835
▁minutes	-5836
anta	-5837
▁benefici	-5838
▁IIT	-5839
▁amid	-5840
▁occup	-5841
▁Awards	-5842
▁Because	-5843
▁promised	-5844
▁delivery	-5845
member	-5846
▁River	-5847
▁altern	-5848
▁veget	-5849
akshi	-5850
ador	-5851
esters	-5852
▁poet	-5853
▁Forest	-5854
▁strategic	-5855
enant	-5856
▁mankind	-5857
raham	-5858
alt	-5859
lines	-5860
▁Member	-5861
▁advance	-5862
▁awards	-5863
▁solar	-5864
▁overse	-5865
▁operational	-5866
▁departments	-5867
▁firing	-5868
▁enhance	-5869
▁dark	-5870
▁sleep	-5871
▁SBI	-5872
▁Kuldeep	-5873
ney	-5874
▁Nirmala	-5875
▁charged	-5876
alysis	-5877
▁waiting	-5878
uing	-5879
▁Ba	-5880
▁Ladakh	-5881
icals	-5882
earing	-5883
▁communities	-5884
ography	-5885
elled	-5886
1.	-5887
▁Shankar	-5888
▁welcome	-5889
iders	-5890
ground	-5891
▁technologies	-5892
DC	-5893
▁Dub	-5894
bal	-5895
like	-5896
▁ec	-5897
inger	-5898
▁reportedly	-5899
▁Mat	-5900
▁clearly	-5901
▁steel	-5902
shi	-5903
▁Mer	-5904
▁Democ	-5905
▁Fad	-5906
▁glob	-5907
ounder	-5908
▁division	-5909
ancing	-5910
▁connected	-5911
▁quant	-5912
▁operating	-5913
▁scam	-5914
▁_	-5915
son	-5916
▁television	-5917
▁historic	-5918
▁tree	-5919
▁mutual	-5920
▁identity	-5921
uting	-5922
navis	-5923
thern	-5924
▁drugs	-5925
▁measure	-5926
▁Mi	-5927
hishek	-5928
▁behavi	-5929
▁dram	-5930
▁Chouhan	-5931
▁Gan	-5932
apore	-5933
fficient	-5934
▁improved	-5935
▁Sil	-5936
istries	-5937
▁debate	-5938
▁scientists	-5939
▁militants	-5940
▁af	-5941
▁harass	-5942
\""	-5943
▁tradition	-5944
▁photos	-5945
itendra	-5946
▁atmosp	-5947
▁Dhan	-5948
izations	-5949
grim	-5950
▁begun	-5951
▁delive	-5952
▁correct	-5953
aksh	-5954
pass	-5955
▁passing	-5956
RI	-5957
▁discipl	-5958
▁judgment	-5959
chang	-5960
▁facilitate	-5961
▁id	-5962
▁Territ	-5963
▁asking	-5964
▁diseases	-5965
ception	-5966
▁Bureau	-5967
▁infection	-5968
▁49	-5969
▁Mic	-5970
▁Ama	-5971
▁Life	-5972
▁association	-5973
htar	-5974
lal	-5975
cked	-5976
▁Western	-5977
▁loved	-5978
▁contesting	-5979
▁Malik	-5980
▁absol	-5981
▁Turk	-5982
▁witnessed	-5983
imb	-5984
▁records	-5985
urre	-5986
▁Jas	-5987
▁notes	-5988
▁namely	-5989
▁memory	-5990
▁scientific	-5991
▁Sard	-5992
▁prem	-5993
▁finally	-5994
▁Snap	-5995
hta	-5996
▁pit	-5997
▁internet	-5998
outhern	-5999
▁defeated	-6000
hensive	-6001
▁expenditure	-6002
under	-6003
▁ideas	-6004
▁route	-6005
Pak	-6006
▁newsp	-6007
▁delivered	-6008
▁65	-6009
▁Market	-6010
▁acting	-6011
▁Washington	-6012
▁8,	-6013
eless	-6014
▁wonder	-6015
▁promotion	-6016
ocal	-6017
RE	-6018
▁fields	-6019
▁Abhishek	-6020
icate	-6021
▁Summit	-6022
▁Fadnavis	-6023
▁mode	-6024
▁remove	-6025
▁detailed	-6026
maker	-6027
den	-6028
▁Work	-6029
▁selection	-6030
▁resignation	-6031
nov	-6032
uti	-6033
▁RJD	-6034
▁dual	-6035
▁Tar	-6036
▁Amarinder	-6037
▁Smith	-6038
▁skills	-6039
▁USD	-6040
▁hom	-6041
▁emergency	-6042
▁audience	-6043
▁collaboration	-6044
Rs	-6045
▁purchase	-6046
▁judges	-6047
▁comfort	-6048
▁statements	-6049
▁skin	-6050
▁happens	-6051
oval	-6052
▁Din	-6053
▁iPhone	-6054
▁yourself	-6055
▁const	-6056
▁voters	-6057
cious	-6058
ICI	-6059
▁Dil	-6060
▁discl	-6061
▁38	-6062
▁compre	-6063
▁skill	-6064
▁processor	-6065
▁constituencies	-6066
ockey	-6067
verse	-6068
▁welcom	-6069
▁standing	-6070
▁gram	-6071
▁spokesman	-6072
AD	-6073
▁improving	-6074
ctoral	-6075
▁Courts	-6076
▁defend	-6077
▁banking	-6078
▁performed	-6079
▁possession	-6080
▁flights	-6081
fer	-6082
ifty	-6083
▁institution	-6084
▁recommendations	-6085
heast	-6086
▁Singapore	-6087
ster	-6088
▁retail	-6089
has	-6090
▁Peter	-6091
▁55	-6092
▁Modis	-6093
▁Messenger	-6094
▁scene	-6095
▁Foundation	-6096
obile	-6097
▁diver	-6098
unch	-6099
▁du	-6100
▁ensuring	-6101
▁Jer	-6102
▁White	-6103
▁43	-6104
▁leaving	-6105
▁Est	-6106
▁disbelie	-6107
▁adequ	-6108
▁serving	-6109
▁transform	-6110
.'	-6111
▁Megh	-6112
▁context	-6113
▁farm	-6114
▁influence	-6115
▁Ap	-6116
▁door	-6117
owerment	-6118
▁suc	-6119
intendent	-6120
▁Vardhan	-6121
oto	-6122
▁transferred	-6123
▁web	-6124
ressive	-6125
▁Shak	-6126
▁damaged	-6127
▁Ty	-6128
▁afford	-6129
▁Realme	-6130
▁animals	-6131
St	-6132
▁reflect	-6133
▁nab	-6134
▁length	-6135
▁spoken	-6136
▁showing	-6137
▁Sense	-6138
▁10,	-6139
▁compon	-6140
usal	-6141
▁prominent	-6142
▁Sharad	-6143
▁elder	-6144
▁hor	-6145
ww	-6146
▁Oil	-6147
rants	-6148
▁Oper	-6149
arant	-6150
right	-6151
▁Around	-6152
▁window	-6153
▁mechanism	-6154
▁hour	-6155
▁teach	-6156
▁phones	-6157
▁questioned	-6158
▁organization	-6159
▁caste	-6160
▁lawyer	-6161
▁succeed	-6162
▁Keep	-6163
▁shop	-6164
▁Hence	-6165
▁Kir	-6166
▁Cy	-6167
▁medium	-6168
preet	-6169
▁Addressing	-6170
ilesh	-6171
▁Harsh	-6172
▁curren	-6173
board	-6174
▁ICICI	-6175
atra	-6176
▁Earth	-6177
▁Warn	-6178
▁liber	-6179
▁Father	-6180
▁excl	-6181
▁PS	-6182
rina	-6183
uris	-6184
▁Amendment	-6185
ugh	-6186
▁offices	-6187
▁reb	-6188
▁caught	-6189
▁400	-6190
▁Tej	-6191
▁band	-6192
▁Temple	-6193
▁39	-6194
▁successfully	-6195
▁Action	-6196
▁HC	-6197
▁mas	-6198
athan	-6199
rav	-6200
▁Sir	-6201
▁exhib	-6202
▁Station	-6203
▁reference	-6204
▁Space	-6205
gent	-6206
abilities	-6207
prises	-6208
▁Prote	-6209
▁prove	-6210
▁weapons	-6211
do	-6212
▁decades	-6213
▁Industrial	-6214
harth	-6215
▁Bhopal	-6216
umer	-6217
▁Prom	-6218
▁choice	-6219
gen	-6220
▁HDFC	-6221
▁returns	-6222
▁sometimes	-6223
▁JNU	-6224
▁Prat	-6225
▁Script	-6226
▁citizen	-6227
▁Sen	-6228
?"""	-6229
▁constructed	-6230
ura	-6231
gaon	-6232
▁lie	-6233
▁innovation	-6234
70	-6235
igen	-6236
▁batting	-6237
▁Sensex	-6238
▁Shetty	-6239
▁opposed	-6240
▁Account	-6241
IMS	-6242
▁Jaipur	-6243
▁adopted	-6244
▁Ms	-6245
▁Gas	-6246
▁Matt	-6247
▁distance	-6248
▁Sang	-6249
▁Word	-6250
▁scen	-6251
▁6,	-6252
▁rupee	-6253
▁Olympic	-6254
riti	-6255
▁governance	-6256
lick	-6257
irperson	-6258
pector	-6259
▁fraud	-6260
▁principles	-6261
▁Amaz	-6262
mal	-6263
▁Staff	-6264
▁Canada	-6265
▁purposes	-6266
▁requirements	-6267
iment	-6268
▁busy	-6269
▁pension	-6270
▁academic	-6271
▁Municipal	-6272
▁prevail	-6273
▁visiting	-6274
SD	-6275
All	-6276
▁NH	-6277
ruitment	-6278
▁strengthening	-6279
▁#	-6280
▁youths	-6281
▁healthcare	-6282
▁Before	-6283
▁Currently	-6284
ework	-6285
▁Mahendra	-6286
▁Parliamentary	-6287
gend	-6288
▁seed	-6289
▁Samsung	-6290
dden	-6291
▁pie	-6292
istans	-6293
▁designed	-6294
▁challenging	-6295
▁eye	-6296
▁regions	-6297
▁wat	-6298
▁CRPF	-6299
▁perman	-6300
▁Maj	-6301
▁Yah	-6302
forcement	-6303
▁Mark	-6304
▁Airport	-6305
▁magn	-6306
ria	-6307
▁Ent	-6308
▁demanding	-6309
arian	-6310
level	-6311
cel	-6312
▁renew	-6313
▁conven	-6314
amental	-6315
▁Katrina	-6316
▁exports	-6317
▁Sukh	-6318
▁Stat	-6319
▁James	-6320
dev	-6321
▁Vill	-6322
▁atmosphere	-6323
▁conducting	-6324
▁NRC	-6325
-4	-6326
▁crucial	-6327
ourses	-6328
▁strongly	-6329
▁meant	-6330
anasi	-6331
▁Dutt	-6332
When	-6333
▁wait	-6334
friend	-6335
▁follows	-6336
ava	-6337
pet	-6338
15	-6339
▁drinking	-6340
▁ST	-6341
-201	-6342
▁Though	-6343
▁Jam	-6344
▁Members	-6345
hus	-6346
▁secure	-6347
▁LO	-6348
▁nut	-6349
▁sad	-6350
▁pa	-6351
▁Varun	-6352
▁conver	-6353
▁Prot	-6354
▁Khar	-6355
▁Rajk	-6356
▁kids	-6357
▁advice	-6358
sha	-6359
▁Theres	-6360
▁peoples	-6361
▁powered	-6362
▁<	-6363
▁belief	-6364
▁clause	-6365
▁Gar	-6366
ruits	-6367
▁amongst	-6368
oes	-6369
▁supporting	-6370
▁parliamentary	-6371
▁Ris	-6372
using	-6373
▁Rajesh	-6374
▁Training	-6375
▁(4	-6376
▁Mary	-6377
▁dismissed	-6378
roc	-6379
▁Dar	-6380
▁Rawat	-6381
▁aid	-6382
ifying	-6383
▁pilgrim	-6384
night	-6385
▁easily	-6386
atures	-6387
▁Show	-6388
▁deliber	-6389
▁Official	-6390
aduate	-6391
ashes	-6392
▁rivers	-6393
EE	-6394
teran	-6395
▁gang	-6396
▁Ira	-6397
▁WhatsApp	-6398
▁undertaken	-6399
idden	-6400
▁load	-6401
BS	-6402
imal	-6403
▁controversy	-6404
▁procedure	-6405
eum	-6406
▁Exec	-6407
eline	-6408
▁Jawa	-6409
▁Nifty	-6410
▁ability	-6411
▁cancelled	-6412
▁Sant	-6413
▁headquarters	-6414
itect	-6415
NA	-6416
▁Jagran	-6417
▁channel	-6418
▁mental	-6419
▁Although	-6420
▁investigations	-6421
▁Br	-6422
▁undergoing	-6423
▁2008	-6424
▁code	-6425
▁script	-6426
▁trail	-6427
DS	-6428
cha	-6429
▁spin	-6430
▁solid	-6431
▁labour	-6432
▁Internet	-6433
▁2.	-6434
hans	-6435
▁crops	-6436
isher	-6437
▁novel	-6438
▁linked	-6439
▁Swach	-6440
▁straight	-6441
▁relatives	-6442
▁arm	-6443
▁cin	-6444
▁frequ	-6445
▁sport	-6446
▁Max	-6447
▁grad	-6448
▁Allahabad	-6449
▁Bharti	-6450
itan	-6451
▁myself	-6452
▁divided	-6453
▁kid	-6454
pective	-6455
▁willing	-6456
▁crude	-6457
▁surface	-6458
▁Trust	-6459
▁Desk	-6460
▁Diwali	-6461
rison	-6462
▁changing	-6463
▁Play	-6464
erring	-6465
▁east	-6466
▁shel	-6467
▁gat	-6468
▁walk	-6469
▁Abraham	-6470
▁Arunachal	-6471
▁sort	-6472
▁Dont	-6473
▁Qur	-6474
rer	-6475
isted	-6476
▁sugar	-6477
▁consequ	-6478
25	-6479
▁crop	-6480
▁Tim	-6481
▁Samajwadi	-6482
▁engineering	-6483
▁Bet	-6484
▁Heavy	-6485
▁Set	-6486
rapy	-6487
▁therein	-6488
zil	-6489
▁Mahesh	-6490
▁involve	-6491
▁perfect	-6492
▁Major	-6493
uz	-6494
tenance	-6495
▁larger	-6496
▁Agar	-6497
▁Lakh	-6498
▁passenger	-6499
▁Tan	-6500
endra	-6501
▁Devendra	-6502
▁Mahindra	-6503
▁fruit	-6504
Go	-6505
porary	-6506
▁eligible	-6507
▁teaching	-6508
Ms	-6509
▁proof	-6510
▁Bhushan	-6511
▁falls	-6512
▁cooper	-6513
gypt	-6514
▁contribute	-6515
▁11,	-6516
▁Recently	-6517
▁7,	-6518
ingu	-6519
▁Po	-6520
osen	-6521
osop	-6522
▁phil	-6523
▁Sahib	-6524
▁Due	-6525
isition	-6526
▁dia	-6527
▁approx	-6528
▁causes	-6529
cean	-6530
oram	-6531
▁disput	-6532
pter	-6533
▁Varanasi	-6534
▁Investigation	-6535
▁ascer	-6536
▁appreciated	-6537
dragon	-6538
▁processing	-6539
▁Nan	-6540
▁Deepak	-6541
▁surround	-6542
▁trials	-6543
▁IM	-6544
▁Johar	-6545
▁Sidhu	-6546
assador	-6547
soon	-6548
▁boys	-6549
▁possess	-6550
▁principal	-6551
▁Ren	-6552
▁dischar	-6553
▁vari	-6554
▁Ambani	-6555
▁arms	-6556
cts	-6557
▁Kann	-6558
▁feeling	-6559
owed	-6560
▁Any	-6561
▁forced	-6562
▁Snapdragon	-6563
gov	-6564
jection	-6565
▁Band	-6566
▁consideration	-6567
onic	-6568
▁jaw	-6569
ounded	-6570
▁Broad	-6571
▁formation	-6572
▁aspir	-6573
▁territory	-6574
weh	-6575
▁conspir	-6576
▁stress	-6577
▁investments	-6578
wama	-6579
▁faces	-6580
▁cars	-6581
On	-6582
▁1.	-6583
▁Kaif	-6584
▁properties	-6585
▁poverty	-6586
▁Jitendra	-6587
cont	-6588
▁alongside	-6589
▁Som	-6590
Os	-6591
▁proved	-6592
eras	-6593
▁Tiwari	-6594
▁gathering	-6595
▁maintained	-6596
haz	-6597
▁Metro	-6598
▁eth	-6599
▁Amazon	-6600
▁assessment	-6601
▁lose	-6602
▁Azad	-6603
▁Royal	-6604
▁whereas	-6605
▁Ham	-6606
▁Ki	-6607
▁Mur	-6608
▁alert	-6609
▁sentence	-6610
▁input	-6611
▁classes	-6612
▁Xia	-6613
▁grief	-6614
wing	-6615
▁Black	-6616
pa	-6617
OC	-6618
▁46	-6619
▁protesters	-6620
▁sustainable	-6621
long	-6622
▁memor	-6623
▁Manish	-6624
▁availability	-6625
▁satell	-6626
▁termin	-6627
mod	-6628
▁Kab	-6629
akar	-6630
▁Egypt	-6631
▁Kot	-6632
orge	-6633
inent	-6634
▁Agree	-6635
90	-6636
▁Organisation	-6637
okes	-6638
▁adopt	-6639
▁sudden	-6640
▁hyd	-6641
▁forget	-6642
▁collected	-6643
▁Once	-6644
▁ship	-6645
mad	-6646
▁flu	-6647
▁MSME	-6648
▁specified	-6649
▁repeated	-6650
▁pace	-6651
▁2000	-6652
▁install	-6653
▁dance	-6654
▁substant	-6655
▁administrative	-6656
▁spect	-6657
▁symbol	-6658
▁Ji	-6659
▁mos	-6660
▁equity	-6661
▁filing	-6662
▁Pulwama	-6663
eph	-6664
▁Dur	-6665
fit	-6666
ests	-6667
▁Each	-6668
▁installed	-6669
ief	-6670
▁listen	-6671
▁prosec	-6672
ashtriya	-6673
▁Gaut	-6674
asa	-6675
▁ep	-6676
▁Guru	-6677
▁Jawahar	-6678
▁Pakistans	-6679
▁Emp	-6680
▁analy	-6681
Pl	-6682
▁ment	-6683
▁taught	-6684
▁imag	-6685
▁samples	-6686
iciency	-6687
▁summit	-6688
▁penalty	-6689
▁Highways	-6690
ensus	-6691
▁numer	-6692
▁iron	-6693
▁procurement	-6694
▁Sardar	-6695
▁extent	-6696
▁acts	-6697
▁THE	-6698
▁2020.	-6699
▁prayers	-6700
orders	-6701
ibilities	-6702
▁gathered	-6703
▁guide	-6704
▁songs	-6705
▁friendly	-6706
▁Sah	-6707
▁dialogue	-6708
▁juris	-6709
▁lived	-6710
iscal	-6711
▁complaints	-6712
▁marty	-6713
▁struggle	-6714
▁welcomed	-6715
alaya	-6716
▁aims	-6717
▁Tripura	-6718
▁unknown	-6719
▁Rav	-6720
▁Indones	-6721
▁error	-6722
nels	-6723
term	-6724
▁10,000	-6725
▁Common	-6726
▁struct	-6727
▁47	-6728
▁GDP	-6729
▁Ret	-6730
▁Shr	-6731
▁wins	-6732
▁Bro	-6733
▁gard	-6734
▁ID	-6735
▁Rain	-6736
▁figure	-6737
▁slogans	-6738
▁independence	-6739
▁Aar	-6740
▁plus	-6741
▁starts	-6742
▁teacher	-6743
▁policemen	-6744
▁faithful	-6745
kes	-6746
▁courage	-6747
▁vital	-6748
▁fake	-6749
▁Press	-6750
was	-6751
▁Institut	-6752
▁54	-6753
▁begins	-6754
▁stories	-6755
▁dated	-6756
eler	-6757
▁warning	-6758
aves	-6759
▁princ	-6760
match	-6761
ruck	-6762
enses	-6763
▁ruled	-6764
eor	-6765
▁Ranjan	-6766
▁literature	-6767
▁truly	-6768
▁feels	-6769
▁chosen	-6770
▁toward	-6771
▁Olympics	-6772
▁51	-6773
▁tribal	-6774
▁Shivraj	-6775
▁Att	-6776
▁expert	-6777
lot	-6778
▁Digital	-6779
▁Directorate	-6780
▁heat	-6781
▁mort	-6782
rivate	-6783
▁solutions	-6784
▁journalist	-6785
▁pointed	-6786
▁adequate	-6787
amin	-6788
▁bird	-6789
▁Sushma	-6790
▁corporate	-6791
▁participants	-6792
▁Pur	-6793
▁obl	-6794
▁Executive	-6795
▁advantage	-6796
▁Apple	-6797
rations	-6798
ij	-6799
tel	-6800
▁campus	-6801
▁intens	-6802
65	-6803
▁wise	-6804
▁Actress	-6805
▁Society	-6806
▁belongs	-6807
▁files	-6808
▁Please	-6809
▁Federation	-6810
itely	-6811
▁Everyone	-6812
▁concl	-6813
▁handle	-6814
▁concerning	-6815
▁interesting	-6816
cheduled	-6817
ridor	-6818
▁Yahweh	-6819
],	-6820
▁cul	-6821
▁tend	-6822
▁Willi	-6823
▁cra	-6824
▁apostle	-6825
▁vaccine	-6826
▁villagers	-6827
▁Aad	-6828
▁awa	-6829
▁incor	-6830
▁Sikk	-6831
ansion	-6832
istrate	-6833
▁Officers	-6834
▁reservo	-6835
▁Take	-6836
▁wisdom	-6837
hot	-6838
▁Abdul	-6839
▁portal	-6840
▁opposite	-6841
▁unless	-6842
▁Vikas	-6843
▁Haz	-6844
▁Iraq	-6845
payee	-6846
▁Exchange	-6847
▁generally	-6848
had	-6849
▁wild	-6850
▁millions	-6851
uja	-6852
erciful	-6853
▁roll	-6854
▁wont	-6855
▁Brazil	-6856
▁bridge	-6857
lin	-6858
hajan	-6859
othing	-6860
▁race	-6861
▁cameras	-6862
abi	-6863
▁Rashtriya	-6864
una	-6865
ansk	-6866
▁schedule	-6867
▁categories	-6868
▁mainly	-6869
▁please	-6870
▁Valley	-6871
▁beneficiaries	-6872
▁PR	-6873
▁CBSE	-6874
▁2:	-6875
▁leaves	-6876
▁stable	-6877
▁Academy	-6878
▁banned	-6879
▁remark	-6880
▁celebrations	-6881
▁brain	-6882
▁2017-1	-6883
▁recover	-6884
▁inspir	-6885
▁perhaps	-6886
hane	-6887
▁examples	-6888
▁elements	-6889
▁constitution	-6890
▁Gautam	-6891
ails	-6892
casting	-6893
▁writer	-6894
harm	-6895
▁Akhilesh	-6896
▁ourselves	-6897
▁Mukesh	-6898
▁toss	-6899
▁List	-6900
▁Green	-6901
▁Times	-6902
otees	-6903
▁Malays	-6904
▁factors	-6905
ande	-6906
▁advocate	-6907
▁hur	-6908
.""	-6909
▁Atal	-6910
▁newly	-6911
▁helping	-6912
▁confirm	-6913
▁peaceful	-6914
▁armed	-6915
itors	-6916
▁fed	-6917
▁select	-6918
▁emerged	-6919
▁heritage	-6920
▁Independence	-6921
▁clash	-6922
▁worst	-6923
▁brings	-6924
icip	-6925
▁193	-6926
▁failure	-6927
▁lands	-6928
▁Friend	-6929
▁assum	-6930
▁LORD	-6931
▁Land	-6932
▁outstanding	-6933
▁west	-6934
elsius	-6935
Pakistan	-6936
usted	-6937
▁twice	-6938
▁Total	-6939
▁Sandeep	-6940
▁prosperity	-6941
ba	-6942
▁CPI	-6943
▁Noida	-6944
▁functioning	-6945
▁theme	-6946
▁Stadium	-6947
▁council	-6948
▁Coronavirus	-6949
xic	-6950
▁5-	-6951
▁unity	-6952
▁Rakesh	-6953
▁goals	-6954
▁situated	-6955
▁intelligence	-6956
ua	-6957
▁earned	-6958
PG	-6959
▁Card	-6960
▁2019.	-6961
▁Lalu	-6962
▁retire	-6963
▁Ric	-6964
▁Gaur	-6965
▁refuge	-6966
▁centuries	-6967
▁Surely	-6968
▁closely	-6969
75	-6970
▁appealed	-6971
▁copy	-6972
▁labor	-6973
▁Satan	-6974
▁piv	-6975
▁1,000	-6976
▁3.	-6977
▁Sea	-6978
▁Tests	-6979
▁advanced	-6980
odh	-6981
gery	-6982
▁relative	-6983
▁IAF	-6984
▁Jain	-6985
▁male	-6986
▁trees	-6987
▁distributed	-6988
aving	-6989
▁hero	-6990
▁Abdullah	-6991
▁Indo	-6992
▁instance	-6993
▁directions	-6994
utin	-6995
▁Rafale	-6996
▁pregn	-6997
▁humans	-6998
yas	-6999
▁bomb	-7000
▁Forces	-7001
▁Premier	-7002
▁emotion	-7003
▁brand	-7004
▁animal	-7005
▁52	-7006
▁photograph	-7007
▁Bhut	-7008
room	-7009
▁notified	-7010
igil	-7011
▁NI	-7012
▁Whe	-7013
▁Natural	-7014
▁rum	-7015
hari	-7016
iyush	-7017
▁tough	-7018
▁currency	-7019
▁devices	-7020
▁although	-7021
ching	-7022
▁listed	-7023
▁Miz	-7024
▁seeing	-7025
▁quickly	-7026
▁resigned	-7027
▁sacrifice	-7028
▁Vaj	-7029
▁Arora	-7030
▁external	-7031
▁ven	-7032
▁farmer	-7033
▁Citizenship	-7034
urved	-7035
▁Excell	-7036
▁appears	-7037
▁edition	-7038
▁premises	-7039
▁9,	-7040
▁simply	-7041
▁41	-7042
ritsar	-7043
captain	-7044
▁branch	-7045
▁Sciences	-7046
▁fruits	-7047
▁greetings	-7048
▁transactions	-7049
▁Chat	-7050
▁possibility	-7051
▁showc	-7052
▁picked	-7053
▁choose	-7054
▁greatest	-7055
▁producer	-7056
▁Festival	-7057
▁inspired	-7058
▁interact	-7059
▁jurisdict	-7060
▁Assistant	-7061
▁3:	-7062
▁Gopal	-7063
ipped	-7064
▁style	-7065
urrection	-7066
uff	-7067
▁praise	-7068
▁stressed	-7069
anguly	-7070
▁distin	-7071
▁software	-7072
▁celebrate	-7073
▁followers	-7074
▁MT	-7075
▁mal	-7076
▁Agency	-7077
▁Chaudhary	-7078
▁baby	-7079
reek	-7080
aland	-7081
employ	-7082
▁sky	-7083
▁sanctioned	-7084
▁movies	-7085
▁reading	-7086
▁permanent	-7087
▁Captain	-7088
lets	-7089
▁15,	-7090
▁Piyush	-7091
▁belonging	-7092
▁Pass	-7093
▁Agra	-7094
ivek	-7095
▁motiv	-7096
▁divide	-7097
▁quit	-7098
AB	-7099
atio	-7100
▁Engineering	-7101
▁TMC	-7102
west	-7103
▁fought	-7104
▁Xiaomi	-7105
▁participating	-7106
aja	-7107
▁western	-7108
▁Main	-7109
▁doesn	-7110
An	-7111
▁Aj	-7112
▁Mun	-7113
▁voting	-7114
▁imprison	-7115
▁scholars	-7116
▁philosop	-7117
▁believes	-7118
▁entrepreneurs	-7119
▁location	-7120
▁fundamental	-7121
▁Gor	-7122
▁Non	-7123
▁core	-7124
-17	-7125
Cong	-7126
▁soil	-7127
▁angels	-7128
▁improvement	-7129
xy	-7130
athy	-7131
▁universities	-7132
▁Ros	-7133
▁formal	-7134
▁Shuk	-7135
▁harmony	-7136
▁Six	-7137
▁Chak	-7138
▁Obama	-7139
▁younger	-7140
▁verily	-7141
▁pivotal	-7142
▁premi	-7143
▁prescribed	-7144
▁Celsius	-7145
▁Meeting	-7146
▁motorcy	-7147
▁winners	-7148
▁applied	-7149
▁privile	-7150
▁warned	-7151
▁species	-7152
phones	-7153
▁Gre	-7154
▁casual	-7155
▁regularly	-7156
▁suffer	-7157
▁pattern	-7158
▁120	-7159
andum	-7160
▁electronic	-7161
▁papers	-7162
▁advert	-7163
▁offence	-7164
▁Kha	-7165
redit	-7166
▁describ	-7167
▁prepare	-7168
▁Rand	-7169
▁2019:	-7170
▁inflation	-7171
▁griev	-7172
▁consumers	-7173
▁Jad	-7174
▁facts	-7175
rigation	-7176
▁investigated	-7177
▁explos	-7178
▁requirement	-7179
▁Start	-7180
▁clinical	-7181
▁Vivek	-7182
▁Ganguly	-7183
▁determined	-7184
CI	-7185
▁fiscal	-7186
▁Sikkim	-7187
▁architect	-7188
▁Motor	-7189
▁bowling	-7190
oda	-7191
▁cat	-7192
▁unbel	-7193
▁Udd	-7194
▁Time	-7195
▁interested	-7196
iced	-7197
▁Rash	-7198
▁tank	-7199
▁eastern	-7200
▁Legislative	-7201
▁courses	-7202
▁completion	-7203
▁comprehensive	-7204
oked	-7205
aughter	-7206
▁establishment	-7207
▁?	-7208
▁Tro	-7209
▁Gard	-7210
▁dollar	-7211
▁locations	-7212
▁snow	-7213
▁approached	-7214
OL	-7215
▁fest	-7216
▁conflict	-7217
hin	-7218
▁NG	-7219
▁stead	-7220
▁Arabia	-7221
ifications	-7222
aling	-7223
▁Labour	-7224
Ex	-7225
▁consec	-7226
oom	-7227
▁Ambed	-7228
▁allot	-7229
▁1:	-7230
▁Aviation	-7231
▁replace	-7232
▁Puri	-7233
▁selfie	-7234
▁constitutional	-7235
▁Ha	-7236
oration	-7237
▁Airtel	-7238
nan	-7239
RS	-7240
iments	-7241
▁dut	-7242
oga	-7243
▁@	-7244
▁norms	-7245
▁12,	-7246
▁agend	-7247
▁\""	-7248
▁storm	-7249
▁Akhtar	-7250
▁guided	-7251
▁Agreement	-7252
--	-7253
▁stream	-7254
▁Micro	-7255
MT	-7256
▁NS	-7257
▁contains	-7258
Sh	-7259
▁materials	-7260
▁toler	-7261
▁Did	-7262
▁elim	-7263
▁Advani	-7264
jud	-7265
▁Ish	-7266
▁sets	-7267
▁draft	-7268
▁Rules	-7269
ertiliz	-7270
▁Huss	-7271
rives	-7272
▁ODIs	-7273
▁honoured	-7274
%),	-7275
arm	-7276
▁thats	-7277
▁Pas	-7278
▁pure	-7279
ashion	-7280
▁probably	-7281
▁Mil	-7282
keeper	-7283
▁Kaus	-7284
▁Indore	-7285
orter	-7286
▁requires	-7287
urities	-7288
▁citizenship	-7289
▁Housing	-7290
▁Cooperation	-7291
aren	-7292
▁Chall	-7293
▁figures	-7294
▁abscond	-7295
▁owner	-7296
▁Ek	-7297
NL	-7298
▁travelling	-7299
▁promises	-7300
▁Joseph	-7301
▁Narayan	-7302
▁explained	-7303
▁driving	-7304
▁learned	-7305
▁maintenance	-7306
,999.	-7307
umble	-7308
IV	-7309
▁CAA	-7310
struction	-7311
▁Chin	-7312
eria	-7313
▁jump	-7314
▁filled	-7315
▁democratic	-7316
64	-7317
▁organizations	-7318
aces	-7319
▁Mang	-7320
▁heads	-7321
▁Despite	-7322
▁Sonam	-7323
▁labou	-7324
anskrit	-7325
▁dropped	-7326
▁Agarwal	-7327
bo	-7328
▁Shukla	-7329
▁aspect	-7330
▁effects	-7331
▁decline	-7332
▁highway	-7333
▁thoughts	-7334
▁Coal	-7335
▁Chris	-7336
▁theat	-7337
▁Insurance	-7338
▁jun	-7339
▁Administration	-7340
▁Right	-7341
▁expression	-7342
▁club	-7343
ups	-7344
▁master	-7345
▁Secondary	-7346
▁remand	-7347
▁convict	-7348
▁(1)	-7349
▁dates	-7350
▁saved	-7351
▁leads	-7352
inance	-7353
▁functions	-7354
▁53	-7355
rown	-7356
▁uses	-7357
iring	-7358
ptoms	-7359
▁Aditya	-7360
anti	-7361
▁singer	-7362
▁retired	-7363
▁(5	-7364
▁mix	-7365
▁Great	-7366
▁DM	-7367
cription	-7368
▁channels	-7369
▁Cust	-7370
▁explain	-7371
▁Mc	-7372
▁trouble	-7373
▁applicable	-7374
▁conspiracy	-7375
FI	-7376
▁carb	-7377
▁expansion	-7378
ham	-7379
▁72	-7380
▁Han	-7381
▁fighter	-7382
eg	-7383
oles	-7384
▁Men	-7385
▁tear	-7386
ampur	-7387
▁reaching	-7388
eta	-7389
adekar	-7390
▁UPA	-7391
▁Gog	-7392
▁agenda	-7393
▁furn	-7394
▁plane	-7395
▁Maruti	-7396
▁Uddhav	-7397
HA	-7398
▁Grand	-7399
▁Innov	-7400
▁African	-7401
▁Sit	-7402
lights	-7403
▁interrog	-7404
But	-7405
▁upto	-7406
▁losses	-7407
eav	-7408
17	-7409
▁mishap	-7410
alam	-7411
visional	-7412
▁violation	-7413
CO	-7414
▁Jun	-7415
▁Disaster	-7416
▁concluded	-7417
▁witnesses	-7418
umber	-7419
▁wake	-7420
▁seeks	-7421
▁toil	-7422
DRF	-7423
oves	-7424
▁Check	-7425
▁raising	-7426
kaiah	-7427
▁mouth	-7428
▁reduction	-7429
▁discharged	-7430
lex	-7431
▁alt	-7432
▁Happ	-7433
▁Jerusal	-7434
▁province	-7435
▁involving	-7436
▁Jawaharlal	-7437
gs	-7438
▁aimed	-7439
▁percentage	-7440
▁Ev	-7441
98	-7442
▁obey	-7443
ilding	-7444
▁Click	-7445
▁effic	-7446
▁reiter	-7447
▁marketing	-7448
▁Da	-7449
▁Mizoram	-7450
▁attitude	-7451
▁BR	-7452
▁Jac	-7453
▁hang	-7454
▁owners	-7455
▁reservoirs	-7456
▁selling	-7457
▁Japanese	-7458
▁football	-7459
▁56	-7460
onom	-7461
▁Mart	-7462
▁Sindhu	-7463
nu	-7464
▁Badal	-7465
▁AP	-7466
rers	-7467
▁fan	-7468
▁tourists	-7469
▁dangerous	-7470
▁Lah	-7471
▁revel	-7472
▁duties	-7473
▁indu	-7474
▁models	-7475
▁Superintendent	-7476
▁floor	-7477
uhan	-7478
IG	-7479
▁jew	-7480
awati	-7481
▁negoti	-7482
▁Process	-7483
▁Muz	-7484
▁friendship	-7485
▁bid	-7486
▁bron	-7487
▁accompl	-7488
▁governor	-7489
▁manager	-7490
TE	-7491
▁Gir	-7492
▁trailer	-7493
▁resulted	-7494
aiah	-7495
▁Hussain	-7496
▁framework	-7497
lu	-7498
eorological	-7499
▁trained	-7500
▁temples	-7501
▁250	-7502
▁Shim	-7503
gra	-7504
▁deny	-7505
ariat	-7506
ieties	-7507
adda	-7508
ibly	-7509
▁ease	-7510
▁Vide	-7511
▁alloc	-7512
.30	-7513
anj	-7514
▁exped	-7515
▁jointly	-7516
▁tot	-7517
▁Verily	-7518
▁Elections	-7519
▁suit	-7520
▁Dinesh	-7521
▁Electric	-7522
%.	-7523
▁Bench	-7524
▁Mehta	-7525
kha	-7526
▁bagged	-7527
▁cum	-7528
▁widely	-7529
▁Kangana	-7530
▁wheat	-7531
rier	-7532
▁hair	-7533
▁regime	-7534
▁Amritsar	-7535
▁jurisdiction	-7536
yers	-7537
▁represented	-7538
▁hotel	-7539
▁arbit	-7540
▁historical	-7541
▁Crore	-7542
▁Petrol	-7543
▁Marat	-7544
▁Om	-7545
▁Soon	-7546
▁Chow	-7547
▁chain	-7548
▁concent	-7549
NS	-7550
▁Pres	-7551
▁subsequently	-7552
▁Camp	-7553
My	-7554
rine	-7555
▁Gram	-7556
▁guarant	-7557
▁excellent	-7558
▁lear	-7559
▁ANI	-7560
▁Hood	-7561
▁prohib	-7562
▁Ambedkar	-7563
▁bott	-7564
ronics	-7565
▁substantial	-7566
▁SMS	-7567
addha	-7568
▁shops	-7569
▁finished	-7570
▁highlighted	-7571
hash	-7572
▁Abb	-7573
▁thanked	-7574
▁Id	-7575
▁learnt	-7576
▁sixth	-7577
▁IAS	-7578
▁hundreds	-7579
▁Protection	-7580
▁suggestions	-7581
edy	-7582
uration	-7583
▁revised	-7584
▁consumption	-7585
▁Ayush	-7586
cluding	-7587
▁Jadhav	-7588
▁housing	-7589
▁expanded	-7590
▁Applic	-7591
▁fathers	-7592
bi	-7593
▁Private	-7594
▁putting	-7595
▁Marsh	-7596
▁trend	-7597
▁Scheduled	-7598
▁drop	-7599
▁Centres	-7600
▁buses	-7601
▁Raja	-7602
osis	-7603
▁cry	-7604
utely	-7605
▁Nobody	-7606
▁EV	-7607
▁thereafter	-7608
▁85	-7609
▁pride	-7610
▁founder	-7611
▁Jerusalem	-7612
▁Moreover	-7613
▁apolog	-7614
▁reviewed	-7615
▁certificate	-7616
▁Chem	-7617
35	-7618
iar	-7619
▁format	-7620
wala	-7621
aria	-7622
ading	-7623
▁coin	-7624
-21	-7625
▁Kanpur	-7626
▁cinema	-7627
▁machine	-7628
itime	-7629
▁bowler	-7630
▁messages	-7631
▁10.	-7632
▁compar	-7633
▁Ser	-7634
attar	-7635
▁entit	-7636
Our	-7637
▁decre	-7638
▁medals	-7639
▁Hand	-7640
▁indigen	-7641
▁Resources	-7642
▁resolved	-7643
▁cook	-7644
▁fill	-7645
▁Naval	-7646
▁Swachh	-7647
▁Regional	-7648
▁4:	-7649
▁impl	-7650
▁resist	-7651
▁numerous	-7652
▁unve	-7653
▁charging	-7654
rum	-7655
▁Sr	-7656
▁Smart	-7657
▁mostly	-7658
▁gains	-7659
▁thereof	-7660
▁Infrastructure	-7661
IF	-7662
▁sight	-7663
▁Survey	-7664
▁instructions	-7665
▁Geh	-7666
▁hat	-7667
▁targeted	-7668
▁push	-7669
MR	-7670
aked	-7671
▁sufficient	-7672
▁Ahmad	-7673
▁endeav	-7674
▁Meghalaya	-7675
▁Ashwin	-7676
▁exceed	-7677
▁Coast	-7678
▁diagn	-7679
▁ath	-7680
▁Minor	-7681
▁Hindust	-7682
▁herself	-7683
▁discount	-7684
▁Sign	-7685
ola	-7686
▁isnt	-7687
▁researc	-7688
ribution	-7689
▁panchayat	-7690
▁recognised	-7691
▁threatened	-7692
inda	-7693
▁burden	-7694
▁convention	-7695
▁XI	-7696
▁wicked	-7697
mas	-7698
▁PG	-7699
▁Cell	-7700
▁blessings	-7701
▁store	-7702
▁obtained	-7703
uses	-7704
▁Banks	-7705
▁worshi	-7706
Man	-7707
▁managing	-7708
▁Sanskrit	-7709
▁variety	-7710
▁Javadekar	-7711
▁fulfilled	-7712
▁counterpart	-7713
AY	-7714
ocking	-7715
▁Patil	-7716
▁promot	-7717
▁stability	-7718
▁Star	-7719
▁dealing	-7720
▁accordance	-7721
sych	-7722
▁analysis	-7723
▁supports	-7724
▁row	-7725
▁hect	-7726
▁buildings	-7727
▁consecutive	-7728
▁Nagaland	-7729
▁conscious	-7730
▁condolences	-7731
▁rice	-7732
▁imper	-7733
▁Change	-7734
▁loving	-7735
▁causing	-7736
uters	-7737
raid	-7738
▁arg	-7739
▁alive	-7740
▁mandatory	-7741
▁Ru	-7742
▁ratio	-7743
▁medicines	-7744
Wh	-7745
quake	-7746
UN	-7747
▁magaz	-7748
wah	-7749
▁Teh	-7750
▁outl	-7751
▁bronze	-7752
▁Prophet	-7753
▁payments	-7754
abu	-7755
odia	-7756
AE	-7757
▁integrity	-7758
▁Pil	-7759
ellect	-7760
▁Nagpur	-7761
▁unable	-7762
▁Thereafter	-7763
tees	-7764
▁wasnt	-7765
▁Swami	-7766
▁acknow	-7767
ki	-7768
▁58	-7769
ellow	-7770
▁Buddh	-7771
▁print	-7772
▁nod	-7773
TA	-7774
just	-7775
▁Khanna	-7776
▁missile	-7777
▁talked	-7778
▁drawn	-7779
▁Indonesia	-7780
▁Bag	-7781
▁uns	-7782
▁consumer	-7783
▁municipal	-7784
onda	-7785
▁Sav	-7786
▁worksh	-7787
▁reservation	-7788
45	-7789
▁Hig	-7790
▁discrim	-7791
▁announce	-7792
▁wall	-7793
cut	-7794
▁accidents	-7795
▁Line	-7796
cles	-7797
▁firms	-7798
▁devotees	-7799
▁revolution	-7800
appa	-7801
▁cow	-7802
▁Miss	-7803
ilitation	-7804
▁covering	-7805
-16	-7806
odi	-7807
uki	-7808
▁acid	-7809
▁Polit	-7810
▁semi	-7811
▁sensitive	-7812
▁interaction	-7813
▁termed	-7814
asc	-7815
▁legend	-7816
▁Adam	-7817
▁withdraw	-7818
▁considering	-7819
ipt	-7820
▁yield	-7821
aundering	-7822
SI	-7823
▁vast	-7824
▁yourselves	-7825
pert	-7826
▁touc	-7827
▁Scient	-7828
▁comprises	-7829
▁differences	-7830
▁Va	-7831
▁calc	-7832
▁exchang	-7833
▁supporters	-7834
▁sites	-7835
▁Gehlot	-7836
▁environmental	-7837
▁deeply	-7838
▁fold	-7839
rators	-7840
▁2020,	-7841
▁Justices	-7842
apse	-7843
▁Devgn	-7844
▁coalition	-7845
▁sovere	-7846
▁thereby	-7847
▁otherwise	-7848
▁Hooda	-7849
▁exception	-7850
▁restrictions	-7851
You	-7852
▁allows	-7853
▁Investment	-7854
▁sevent	-7855
▁AB	-7856
▁Italy	-7857
▁shift	-7858
▁Mayawati	-7859
eer	-7860
▁cord	-7861
▁sessions	-7862
▁Desh	-7863
▁Skill	-7864
▁kingdom	-7865
▁Pa	-7866
▁Unt	-7867
▁Bhup	-7868
▁anger	-7869
▁auction	-7870
▁Vajpayee	-7871
askar	-7872
▁presently	-7873
▁Plus	-7874
president	-7875
ii	-7876
▁14,	-7877
▁condemned	-7878
▁existence	-7879
▁Pandya	-7880
▁experienced	-7881
▁Mos	-7882
▁AIIMS	-7883
▁enemy	-7884
▁uncle	-7885
▁Democratic	-7886
200	-7887
▁Rights	-7888
▁platforms	-7889
▁vegetables	-7890
▁Pratap	-7891
▁broken	-7892
icks	-7893
▁Aay	-7894
▁plot	-7895
▁sick	-7896
▁northern	-7897
reet	-7898
adise	-7899
▁Planning	-7900
▁1.5	-7901
▁ISRO	-7902
acific	-7903
▁2018-19	-7904
?"	-7905
och	-7906
▁tells	-7907
▁thanks	-7908
▁relation	-7909
▁Inc	-7910
▁Trin	-7911
▁wherein	-7912
▁whoever	-7913
▁Teac	-7914
▁Ministries	-7915
▁principle	-7916
▁felicit	-7917
Com	-7918
▁settled	-7919
▁63	-7920
▁afraid	-7921
▁activists	-7922
▁actual	-7923
Congress	-7924
▁5.	-7925
▁sep	-7926
▁escape	-7927
▁achievement	-7928
field	-7929
▁Jack	-7930
▁Nand	-7931
▁spotted	-7932
hvi	-7933
oly	-7934
▁useful	-7935
▁reducing	-7936
▁NC	-7937
iban	-7938
▁Flip	-7939
▁postp	-7940
kg	-7941
orted	-7942
▁commence	-7943
▁disaster	-7944
▁symptoms	-7945
▁allocation	-7946
kart	-7947
▁Myan	-7948
▁Along	-7949
▁Steve	-7950
▁rare	-7951
▁lad	-7952
▁Madh	-7953
▁Trophy	-7954
▁crossed	-7955
▁efficiency	-7956
▁falling	-7957
▁womens	-7958
▁imports	-7959
▁Tribunal	-7960
▁worldwide	-7961
▁Hardik	-7962
▁Culture	-7963
▁Ghaz	-7964
▁Dubai	-7965
▁southern	-7966
▁Fort	-7967
▁package	-7968
▁definitely	-7969
▁harassment	-7970
▁alternative	-7971
For	-7972
▁borrow	-7973
▁67	-7974
▁Like	-7975
▁pilot	-7976
heet	-7977
▁remind	-7978
▁capable	-7979
▁honest	-7980
▁talent	-7981
salm	-7982
▁Bum	-7983
▁hike	-7984
▁TO	-7985
▁gar	-7986
▁murd	-7987
▁unfortun	-7988
▁approximately	-7989
ulam	-7990
▁Padma	-7991
▁delight	-7992
▁beneficial	-7993
▁74	-7994
ilas	-7995
▁Bob	-7996
▁absence	-7997
▁Suz	-7998
▁Muzaff	-7999
▁losing	-8000
▁125	-8001
▁conservation	-8002
VP	-8003
ishad	-8004
othes	-8005
▁increases	-8006
▁2017,	-8007
▁extension	-8008
▁USA	-8009
▁Credit	-8010
▁forever	-8011
▁recruitment	-8012
hard	-8013
▁nav	-8014
▁Laksh	-8015
▁floods	-8016
isan	-8017
olid	-8018
▁Abhi	-8019
▁Top	-8020
▁Was	-8021
▁bowlers	-8022
▁dim	-8023
▁Tomar	-8024
▁implementing	-8025
▁paying	-8026
▁reserved	-8027
▁effectively	-8028
▁absconding	-8029
ctive	-8030
▁initially	-8031
▁integrated	-8032
▁4.	-8033
osure	-8034
▁grat	-8035
▁methods	-8036
▁constantly	-8037
▁Through	-8038
ayam	-8039
▁Lat	-8040
▁Love	-8041
igious	-8042
▁lying	-8043
18	-8044
▁MC	-8045
▁Gogoi	-8046
▁Guard	-8047
▁depth	-8048
▁mining	-8049
▁auto	-8050
▁sequ	-8051
▁liquid	-8052
▁Ravind	-8053
▁nomination	-8054
othe	-8055
▁Consumer	-8056
▁Friends	-8057
▁NIA	-8058
▁Interest	-8059
▁contributed	-8060
inating	-8061
cher	-8062
▁demise	-8063
▁Flipkart	-8064
ux	-8065
ips	-8066
▁Um	-8067
▁Nadda	-8068
▁drama	-8069
▁Bhutan	-8070
▁Honble	-8071
▁admission	-8072
place	-8073
▁favor	-8074
▁cultiv	-8075
▁emerging	-8076
word	-8077
▁innovative	-8078
Mo	-8079
▁Er	-8080
▁Local	-8081
▁Matthew	-8082
▁funding	-8083
▁Anur	-8084
▁Jews	-8085
▁prize	-8086
▁enthus	-8087
▁questioning	-8088
elt	-8089
....	-8090
▁forb	-8091
▁tickets	-8092
▁Yuv	-8093
cers	-8094
assion	-8095
▁contra	-8096
▁batsmen	-8097
▁amaz	-8098
▁diet	-8099
▁Malaysia	-8100
▁segment	-8101
▁achievements	-8102
''	-8103
auty	-8104
▁Armed	-8105
▁letters	-8106
▁venture	-8107
▁communal	-8108
▁Subhash	-8109
▁Det	-8110
▁Univers	-8111
hand	-8112
▁Dan	-8113
▁enhanced	-8114
▁electoral	-8115
ANS	-8116
▁suspected	-8117
▁illust	-8118
▁shape	-8119
▁intention	-8120
▁grew	-8121
cro	-8122
▁Mother	-8123
Amendment	-8124
▁cad	-8125
▁Khattar	-8126
hit	-8127
▁medicine	-8128
▁bed	-8129
▁contem	-8130
▁Qualcomm	-8131
▁Ans	-8132
herry	-8133
iciary	-8134
▁Based	-8135
▁blind	-8136
▁acquisition	-8137
xis	-8138
▁Ber	-8139
▁mountain	-8140
▁2018,	-8141
gam	-8142
▁imprisonment	-8143
uma	-8144
▁positions	-8145
ifies	-8146
▁fired	-8147
▁conversation	-8148
ortheast	-8149
▁Conf	-8150
▁moral	-8151
▁titled	-8152
UV	-8153
oking	-8154
liness	-8155
bur	-8156
▁ic	-8157
▁partys	-8158
▁Bumrah	-8159
▁Sheikh	-8160
▁gained	-8161
▁pron	-8162
▁kinds	-8163
▁prophe	-8164
▁searching	-8165
▁73	-8166
▁Jade	-8167
▁plastic	-8168
atar	-8169
▁triple	-8170
UR	-8171
ailed	-8172
weets	-8173
▁hits	-8174
▁Sources	-8175
▁2007	-8176
▁CH	-8177
▁motion	-8178
▁focused	-8179
▁torment	-8180
▁continuing	-8181
▁competitive	-8182
Plus	-8183
yam	-8184
▁maintaining	-8185
▁Pawan	-8186
▁conferred	-8187
▁newspaper	-8188
Us	-8189
▁Pant	-8190
picious	-8191
poll	-8192
▁Panch	-8193
▁divor	-8194
▁stayed	-8195
▁Myanmar	-8196
▁grown	-8197
▁businesses	-8198
▁Tiger	-8199
▁asserted	-8200
▁68	-8201
▁gift	-8202
▁rememb	-8203
▁Prem	-8204
▁setup	-8205
Un	-8206
rian	-8207
ulty	-8208
▁Mobile	-8209
▁struck	-8210
rates	-8211
▁Look	-8212
ications	-8213
▁separat	-8214
▁returning	-8215
▁Bur	-8216
identified	-8217
▁Stock	-8218
▁subjects	-8219
from	-8220
%)	-8221
dess	-8222
arnath	-8223
▁KL	-8224
▁Sushil	-8225
▁margin	-8226
break	-8227
iland	-8228
95	-8229
▁Resource	-8230
opic	-8231
erved	-8232
▁Companies	-8233
▁tack	-8234
▁tenure	-8235
▁tribute	-8236
].	-8237
▁Ravindra	-8238
aksha	-8239
arency	-8240
▁Leader	-8241
ocol	-8242
▁Dec	-8243
▁66	-8244
▁visits	-8245
uka	-8246
hani	-8247
▁fly	-8248
▁pac	-8249
▁sole	-8250
ateful	-8251
▁processes	-8252
▁meets	-8253
lihood	-8254
izes	-8255
▁veteran	-8256
▁childhood	-8257
▁5:	-8258
reams	-8259
14	-8260
▁fix	-8261
▁tourist	-8262
wani	-8263
▁wearing	-8264
▁recognized	-8265
▁Jin	-8266
▁grounds	-8267
▁secured	-8268
▁Tw	-8269
▁Mis	-8270
▁Never	-8271
▁excess	-8272
TION	-8273
▁Hist	-8274
iform	-8275
▁moon	-8276
▁preparations	-8277
▁labourers	-8278
agues	-8279
antic	-8280
▁Paris	-8281
▁amendment	-8282
▁households	-8283
ario	-8284
▁producing	-8285
met	-8286
▁zero	-8287
▁stones	-8288
▁fielded	-8289
▁secondary	-8290
TC	-8291
▁Ib	-8292
▁owned	-8293
aration	-8294
▁ok	-8295
▁Vol	-8296
▁Warner	-8297
iability	-8298
oba	-8299
▁monsoon	-8300
▁monthly	-8301
▁stronger	-8302
▁Championship	-8303
coh	-8304
▁dry	-8305
▁rom	-8306
▁replied	-8307
▁anywhere	-8308
tra	-8309
▁Baba	-8310
rition	-8311
▁Corporate	-8312
▁evol	-8313
▁57	-8314
noon	-8315
inner	-8316
▁Text	-8317
▁Which	-8318
▁opens	-8319
▁footage	-8320
▁instrument	-8321
▁Je	-8322
▁Nick	-8323
▁Chandr	-8324
▁Hot	-8325
gments	-8326
▁institute	-8327
100	-8328
▁Sl	-8329
▁radi	-8330
▁helic	-8331
▁Regist	-8332
▁disrupt	-8333
▁nominated	-8334
▁premium	-8335
▁Managing	-8336
▁efficient	-8337
▁eventually	-8338
▁bowl	-8339
▁totally	-8340
life	-8341
▁pick	-8342
▁blue	-8343
▁2019,	-8344
▁obvious	-8345
▁Islamabad	-8346
▁legislation	-8347
▁Naik	-8348
▁sins	-8349
▁links	-8350
▁borders	-8351
▁directors	-8352
isement	-8353
▁Quran	-8354
▁Ayushman	-8355
asan	-8356
▁towns	-8357
▁equipped	-8358
▁5,000	-8359
▁sharp	-8360
▁Panchay	-8361
▁challenged	-8362
22	-8363
▁prompt	-8364
▁Woman	-8365
emies	-8366
▁Bagh	-8367
▁color	-8368
▁protesting	-8369
▁era	-8370
▁sem	-8371
▁Jadeja	-8372
cohol	-8373
erate	-8374
▁craft	-8375
lor	-8376
▁inher	-8377
▁conce	-8378
▁previously	-8379
▁Forum	-8380
▁upper	-8381
▁BSF	-8382
▁eval	-8383
▁overseas	-8384
raf	-8385
▁Maur	-8386
ighty	-8387
▁taxes	-8388
▁Higher	-8389
▁jewell	-8390
fl	-8391
▁impart	-8392
▁tension	-8393
▁Tir	-8394
▁consultation	-8395
▁Nam	-8396
▁deposit	-8397
DF	-8398
NB	-8399
▁limits	-8400
New	-8401
▁stret	-8402
▁visible	-8403
▁attached	-8404
▁significantly	-8405
▁Gurd	-8406
▁50,000	-8407
otton	-8408
▁Anant	-8409
▁square	-8410
▁examinations	-8411
▁Mul	-8412
▁sheet	-8413
▁champions	-8414
▁integral	-8415
hotra	-8416
▁destination	-8417
▁Care	-8418
ibrary	-8419
▁Jai	-8420
▁keen	-8421
▁starred	-8422
▁loy	-8423
▁convicted	-8424
▁Deb	-8425
works	-8426
▁Nation	-8427
▁ends	-8428
▁pair	-8429
▁OnePlus	-8430
▁disciples	-8431
▁aside	-8432
idelines	-8433
▁Punjabi	-8434
▁feelings	-8435
▁Professor	-8436
▁disbelieve	-8437
▁vess	-8438
▁Dom	-8439
▁2017-18	-8440
▁resource	-8441
▁Math	-8442
▁Annual	-8443
▁images	-8444
▁turns	-8445
▁sanitation	-8446
▁Roshan	-8447
▁journalists	-8448
▁Small	-8449
▁combat	-8450
▁Nay	-8451
speed	-8452
▁Yash	-8453
▁violent	-8454
▁variants	-8455
▁transmission	-8456
▁crew	-8457
aution	-8458
▁Vinod	-8459
▁Bay	-8460
▁2020:	-8461
▁hill	-8462
▁generations	-8463
CE	-8464
eft	-8465
force	-8466
▁coverage	-8467
CM	-8468
▁nobody	-8469
inar	-8470
stood	-8471
▁Index	-8472
▁attending	-8473
▁Jy	-8474
chell	-8475
▁Selection	-8476
uded	-8477
▁Border	-8478
▁Employment	-8479
more	-8480
▁attempts	-8481
want	-8482
▁immense	-8483
▁RRB	-8484
▁sed	-8485
owing	-8486
▁Bhat	-8487
orious	-8488
▁overt	-8489
▁forgive	-8490
2)	-8491
▁dwell	-8492
▁Ranaut	-8493
▁fashion	-8494
ICS	-8495
endar	-8496
▁Irani	-8497
▁phases	-8498
▁Does	-8499
▁Again	-8500
▁absolutely	-8501
▁13,	-8502
▁ble	-8503
▁portion	-8504
▁globally	-8505
▁difficulties	-8506
▁honor	-8507
▁mir	-8508
▁judgement	-8509
otic	-8510
▁Mult	-8511
▁poly	-8512
▁2014,	-8513
▁Penal	-8514
▁telecom	-8515
▁Meteorological	-8516
▁Ved	-8517
▁Mount	-8518
▁satellite	-8519
▁Jonas	-8520
▁dy	-8521
▁LED	-8522
artments	-8523
hael	-8524
▁Akbar	-8525
▁merely	-8526
▁experiences	-8527
▁62	-8528
core	-8529
▁behaviour	-8530
lis	-8531
mine	-8532
▁metal	-8533
▁smaller	-8534
▁hyp	-8535
▁helicop	-8536
▁associate	-8537
▁Use	-8538
ulating	-8539
▁argument	-8540
▁humanity	-8541
▁isolated	-8542
orough	-8543
▁retirement	-8544
oa	-8545
▁keeps	-8546
▁radio	-8547
▁Mitchell	-8548
▁Shraddha	-8549
▁emotional	-8550
▁exem	-8551
▁factory	-8552
▁Suzuki	-8553
▁Fac	-8554
▁recon	-8555
▁incorpor	-8556
▁regulations	-8557
emed	-8558
▁spl	-8559
▁spreading	-8560
▁background	-8561
▁Back	-8562
▁Journ	-8563
▁Taliban	-8564
▁Turkey	-8565
etary	-8566
▁pill	-8567
▁Britain	-8568
▁encouraged	-8569
▁sending	-8570
▁Malhotra	-8571
haraoh	-8572
PA	-8573
uster	-8574
▁joining	-8575
▁Vadra	-8576
▁acted	-8577
▁output	-8578
▁Merciful	-8579
▁smartphones	-8580
▁generate	-8581
▁unidentified	-8582
▁approves	-8583
▁watching	-8584
▁affordable	-8585
▁Mill	-8586
▁surve	-8587
▁generated	-8588
▁performing	-8589
omen	-8590
▁glad	-8591
▁engage	-8592
▁Clim	-8593
▁Youn	-8594
▁replaced	-8595
▁valu	-8596
SR	-8597
▁zone	-8598
ampion	-8599
▁Panchayat	-8600
ovenant	-8601
▁Heb	-8602
▁tea	-8603
giving	-8604
Th	-8605
rick	-8606
▁2,000	-8607
bu	-8608
organ	-8609
▁habit	-8610
▁coaches	-8611
▁farming	-8612
▁pleasure	-8613
alpur	-8614
house	-8615
▁sixes	-8616
▁Nor	-8617
▁rid	-8618
▁bigger	-8619
▁permit	-8620
▁poster	-8621
▁intellect	-8622
antly	-8623
class	-8624
▁remote	-8625
▁Inspector	-8626
▁Relations	-8627
▁permitted	-8628
▁responded	-8629
▁Blue	-8630
▁Shami	-8631
▁passes	-8632
▁tum	-8633
▁1000	-8634
alities	-8635
▁spending	-8636
▁rang	-8637
▁studied	-8638
▁captured	-8639
alling	-8640
▁ships	-8641
▁Memorial	-8642
okh	-8643
rie	-8644
▁coastal	-8645
▁59	-8646
▁fish	-8647
)."	-8648
heb	-8649
ishw	-8650
▁Williams	-8651
jeet	-8652
▁Veh	-8653
▁apparent	-8654
▁culp	-8655
▁pion	-8656
▁Rev	-8657
▁Gr	-8658
▁commod	-8659
▁cool	-8660
▁appearing	-8661
mun	-8662
▁Talking	-8663
▁defined	-8664
▁fulfill	-8665
▁Hall	-8666
▁bike	-8667
cellor	-8668
▁Anurag	-8669
liminary	-8670
▁upgrad	-8671
▁entitled	-8672
13	-8673
▁pilgrims	-8674
unk	-8675
▁69	-8676
▁pal	-8677
▁pul	-8678
▁Secretariat	-8679
▁Corona	-8680
▁entering	-8681
▁tributes	-8682
▁controlled	-8683
irect	-8684
▁receipt	-8685
iri	-8686
▁plain	-8687
last	-8688
▁Vikram	-8689
free	-8690
▁RE	-8691
fare	-8692
ystem	-8693
▁Rani	-8694
▁aband	-8695
▁worse	-8696
▁proposals	-8697
oso	-8698
▁locals	-8699
▁MW	-8700
ught	-8701
▁PV	-8702
▁Lax	-8703
▁featured	-8704
▁height	-8705
▁Kannada	-8706
▁neighbours	-8707
jot	-8708
makers	-8709
▁Parri	-8710
ruction	-8711
▁Dam	-8712
▁Viv	-8713
▁Aayog	-8714
▁hence	-8715
▁researchers	-8716
▁Lahore	-8717
fan	-8718
mAh	-8719
▁Poon	-8720
▁worker	-8721
ferences	-8722
▁Subsequently	-8723
anand	-8724
▁smooth	-8725
atically	-8726
▁Aadmi	-8727
di	-8728
ING	-8729
▁Lank	-8730
▁simpl	-8731
dh	-8732
ulative	-8733
▁engagement	-8734
pher	-8735
utation	-8736
▁prest	-8737
▁Motors	-8738
▁FY	-8739
▁inclusive	-8740
▁recognition	-8741
rith	-8742
▁fab	-8743
▁statue	-8744
▁attrib	-8745
▁prophet	-8746
▁consists	-8747
▁sac	-8748
▁Alex	-8749
▁cycl	-8750
▁suitable	-8751
▁Examination	-8752
▁investigate	-8753
issions	-8754
▁Madras	-8755
▁Pud	-8756
▁Girl	-8757
▁Peace	-8758
▁crash	-8759
1)	-8760
ENT	-8761
▁Vas	-8762
▁pip	-8763
▁wave	-8764
▁Bengali	-8765
▁knowing	-8766
▁earthquake	-8767
MB	-8768
▁Hell	-8769
▁Thir	-8770
▁16,	-8771
▁Wind	-8772
soever	-8773
▁Aaron	-8774
▁treas	-8775
▁wished	-8776
oph	-8777
▁glass	-8778
▁glory	-8779
▁closer	-8780
▁wives	-8781
▁articles	-8782
▁elders	-8783
▁combined	-8784
▁mountains	-8785
▁beauty	-8786
▁decade	-8787
Do	-8788
egr	-8789
▁camps	-8790
▁99	-8791
chand	-8792
▁gods	-8793
▁attra	-8794
▁cloud	-8795
▁mixed	-8796
▁makers	-8797
▁exactly	-8798
PR	-8799
▁asks	-8800
▁wear	-8801
▁wonderful	-8802
akumar	-8803
▁volume	-8804
▁Revenue	-8805
16	-8806
▁Mald	-8807
▁amended	-8808
alle	-8809
▁Kath	-8810
encing	-8811
▁servant	-8812
▁assigned	-8813
▁000	-8814
▁31,	-8815
▁pled	-8816
▁winner	-8817
▁Michael	-8818
▁mineral	-8819
unications	-8820
,999	-8821
aswamy	-8822
wahati	-8823
▁interim	-8824
▁removal	-8825
▁achieving	-8826
▁infected	-8827
▁hub	-8828
▁Muft	-8829
▁wing	-8830
▁Sonakshi	-8831
▁continuous	-8832
▁Job	-8833
▁Que	-8834
ureshi	-8835
vation	-8836
▁accur	-8837
related	-8838
▁enjoyed	-8839
LD	-8840
UTs	-8841
▁Pict	-8842
▁manage	-8843
rif	-8844
▁tally	-8845
etisation	-8846
▁patri	-8847
apped	-8848
apuram	-8849
▁angry	-8850
▁answered	-8851
▁transportation	-8852
inking	-8853
owered	-8854
▁latter	-8855
born	-8856
▁astray	-8857
▁excited	-8858
akha	-8859
itya	-8860
▁rival	-8861
▁30.	-8862
▁fees	-8863
▁allowing	-8864
-10	-8865
▁folk	-8866
▁{	-8867
Tube	-8868
days	-8869
▁Kim	-8870
▁vul	-8871
▁Mall	-8872
▁salary	-8873
▁gate	-8874
▁carbon	-8875
▁grateful	-8876
adur	-8877
▁institutional	-8878
▁distingu	-8879
▁properly	-8880
▁Ambassador	-8881
▁coordination	-8882
▁characters	-8883
enth	-8884
ilipp	-8885
▁Benef	-8886
▁Charge	-8887
▁Session	-8888
iabet	-8889
▁worried	-8890
▁Expl	-8891
▁employee	-8892
ishankar	-8893
mentation	-8894
▁reiterated	-8895
She	-8896
pol	-8897
ugg	-8898
▁Ghosh	-8899
▁fitness	-8900
▁conveyed	-8901
No	-8902
ridge	-8903
▁flat	-8904
▁acres	-8905
▁discipline	-8906
itaries	-8907
▁600	-8908
▁minus	-8909
▁pretty	-8910
▁microSD	-8911
▁displayed	-8912
▁waters	-8913
▁equival	-8914
icky	-8915
▁hosted	-8916
▁liquor	-8917
▁expenses	-8918
▁controversial	-8919
▁Hong	-8920
▁metro	-8921
▁Bhawan	-8922
▁Climate	-8923
▁trip	-8924
▁marked	-8925
▁acquired	-8926
▁involvement	-8927
aying	-8928
▁railways	-8929
▁2018.	-8930
▁Khans	-8931
▁Ocean	-8932
▁Marathi	-8933
▁traders	-8934
atab	-8935
rence	-8936
▁crimes	-8937
▁pronoun	-8938
▁Agricultural	-8939
▁consequences	-8940
77	-8941
DG	-8942
inter	-8943
▁2019-20	-8944
▁rapidly	-8945
▁hun	-8946
▁Harb	-8947
▁hall	-8948
▁transparency	-8949
▁Cert	-8950
▁Left	-8951
▁Viet	-8952
▁older	-8953
▁finger	-8954
▁lawyers	-8955
▁valley	-8956
▁understood	-8957
▁sav	-8958
▁deals	-8959
▁bought	-8960
▁Syria	-8961
▁accommod	-8962
▁destruction	-8963
▁Ext	-8964
▁raped	-8965
▁painful	-8966
habilitation	-8967
ulses	-8968
▁Hindustan	-8969
ato	-8970
▁Kong	-8971
▁Death	-8972
▁objectives	-8973
▁duo	-8974
▁Happy	-8975
▁shock	-8976
▁bright	-8977
▁thin	-8978
▁innoc	-8979
▁offences	-8980
▁Phase	-8981
What	-8982
▁Big	-8983
▁Parrikar	-8984
▁appearance	-8985
umn	-8986
▁van	-8987
cture	-8988
▁minds	-8989
▁Integr	-8990
▁Support	-8991
▁Standard	-8992
▁Mexic	-8993
▁unbelievers	-8994
▁contained	-8995
▁ascertained	-8996
▁Mel	-8997
▁blessed	-8998
ishwarya	-8999
▁covenant	-9000
▁irrigation	-9001
▁Whether	-9002
roff	-9003
▁Free	-9004
▁Resp	-9005
▁Thar	-9006
▁YouTube	-9007
teen	-9008
▁swit	-9009
.25	-9010
vir	-9011
lean	-9012
zy	-9013
▁IR	-9014
▁incent	-9015
▁Tru	-9016
▁Safety	-9017
▁alcohol	-9018
▁visa	-9019
▁Philipp	-9020
▁Guwahati	-9021
▁birds	-9022
▁Number	-9023
▁center	-9024
▁afternoon	-9025
▁suspect	-9026
▁qualified	-9027
▁78	-9028
▁eg	-9029
▁Eff	-9030
▁solve	-9031
▁Paswan	-9032
▁editor	-9033
▁Enterprises	-9034
▁primarily	-9035
▁forgiveness	-9036
▁Spain	-9037
▁conclusion	-9038
▁reaction	-9039
▁mAh	-9040
▁enemies	-9041
▁Intelligence	-9042
andal	-9043
▁burning	-9044
▁significance	-9045
▁contributions	-9046
mukh	-9047
▁worry	-9048
▁studying	-9049
ganj	-9050
▁Ive	-9051
▁Treat	-9052
▁ambit	-9053
▁Shroff	-9054
▁Anup	-9055
▁arrangement	-9056
▁Mufti	-9057
▁preparing	-9058
cket	-9059
▁stages	-9060
▁Results	-9061
▁launches	-9062
▁Raut	-9063
achinery	-9064
▁declare	-9065
▁Aishwarya	-9066
lad	-9067
▁mine	-9068
▁element	-9069
USH	-9070
acc	-9071
▁Nic	-9072
▁lens	-9073
rorism	-9074
▁Bul	-9075
▁relax	-9076
▁AY	-9077
aceut	-9078
▁anybody	-9079
▁Conn	-9080
venues	-9081
▁Rishi	-9082
▁divine	-9083
▁vacant	-9084
harmaceut	-9085
▁Mally	-9086
▁powder	-9087
▁touched	-9088
▁disbelievers	-9089
▁12.	-9090
rator	-9091
▁Emer	-9092
▁Malay	-9093
itt	-9094
▁cli	-9095
▁Prevention	-9096
▁continuously	-9097
unte	-9098
▁bran	-9099
▁cattle	-9100
▁portf	-9101
▁breath	-9102
▁praised	-9103
haw	-9104
gies	-9105
▁epis	-9106
▁surre	-9107
▁dreams	-9108
▁preaching	-9109
▁commissioner	-9110
india	-9111
▁cleared	-9112
▁Venkaiah	-9113
lete	-9114
▁Case	-9115
▁BRICS	-9116
▁faster	-9117
▁personally	-9118
▁psych	-9119
▁finding	-9120
▁customer	-9121
▁evac	-9122
▁athlet	-9123
▁secular	-9124
▁allocated	-9125
osal	-9126
▁Mandi	-9127
▁targets	-9128
▁seeds	-9129
▁Consult	-9130
▁Hem	-9131
▁rescued	-9132
▁therapy	-9133
▁Personnel	-9134
uram	-9135
▁Dani	-9136
wicket	-9137
▁Order	-9138
▁agitation	-9139
rithik	-9140
▁Johns	-9141
▁string	-9142
▁Chauhan	-9143
▁membership	-9144
▁95	-9145
▁Sunny	-9146
▁Equ	-9147
▁Gow	-9148
▁Kish	-9149
▁email	-9150
▁Partners	-9151
mendra	-9152
▁united	-9153
▁minority	-9154
▁representing	-9155
adh	-9156
▁AK	-9157
▁Ast	-9158
▁Bihari	-9159
▁inaugurate	-9160
▁festiv	-9161
▁hockey	-9162
▁dignitaries	-9163
FP	-9164
▁Mala	-9165
▁rein	-9166
NC	-9167
▁Working	-9168
▁arrival	-9169
▁inspiration	-9170
▁legislators	-9171
▁harvest	-9172
▁outcome	-9173
weep	-9174
▁Shikhar	-9175
▁bapt	-9176
▁ideal	-9177
▁IG	-9178
▁gear	-9179
▁criticism	-9180
▁Innovation	-9181
▁SE	-9182
▁exit	-9183
▁street	-9184
▁Greek	-9185
▁Bre	-9186
▁dust	-9187
yap	-9188
▁Front	-9189
▁catch	-9190
▁answers	-9191
▁comprom	-9192
▁6.	-9193
▁Kris	-9194
-5	-9195
acting	-9196
▁2017.	-9197
▁explo	-9198
▁opener	-9199
▁Technical	-9200
cript	-9201
ointing	-9202
ourable	-9203
resents	-9204
▁Rober	-9205
DT	-9206
▁Data	-9207
▁Name	-9208
▁twenty	-9209
▁Kashmiri	-9210
▁Rajendra	-9211
iman	-9212
▁Aur	-9213
▁dil	-9214
rahim	-9215
▁couldnt	-9216
▁Broadcasting	-9217
▁SSP	-9218
▁bonds	-9219
anation	-9220
▁shortly	-9221
▁Thailand	-9222
▁unemploy	-9223
85	-9224
stream	-9225
▁pleased	-9226
▁Raman	-9227
itary	-9228
▁tremend	-9229
▁chemical	-9230
omic	-9231
▁Were	-9232
▁2016,	-9233
▁stocks	-9234
▁resulting	-9235
▁17,	-9236
▁Pank	-9237
illance	-9238
▁lowest	-9239
▁subsidy	-9240
▁Territories	-9241
reme	-9242
▁Hold	-9243
▁jawans	-9244
▁neighbouring	-9245
24	-9246
▁programs	-9247
anes	-9248
berg	-9249
▁Mehbo	-9250
▁Shiva	-9251
▁enrol	-9252
▁Production	-9253
wag	-9254
▁tong	-9255
▁Yam	-9256
SM	-9257
xygen	-9258
▁Rath	-9259
▁Shimla	-9260
▁repent	-9261
▁Hrithik	-9262
▁preparation	-9263
zes	-9264
athi	-9265
claim	-9266
▁unjust	-9267
▁streets	-9268
▁shortage	-9269
▁Khur	-9270
▁Pension	-9271
▁Qureshi	-9272
▁protein	-9273
▁Xi	-9274
▁nurs	-9275
ucherry	-9276
iation	-9277
acing	-9278
▁paise	-9279
▁operate	-9280
▁Down	-9281
▁professor	-9282
▁reveal	-9283
▁Ray	-9284
▁Light	-9285
▁Sangh	-9286
▁Had	-9287
▁intended	-9288
▁survived	-9289
▁pump	-9290
▁scenario	-9291
▁NITI	-9292
▁Secretaries	-9293
pes	-9294
▁71	-9295
▁IPS	-9296
▁Bose	-9297
▁Phil	-9298
▁sear	-9299
▁franch	-9300
▁summer	-9301
▁illness	-9302
▁gross	-9303
▁situations	-9304
▁personality	-9305
▁...	-9306
guard	-9307
▁riots	-9308
▁shelter	-9309
▁composed	-9310
How	-9311
▁Joe	-9312
▁George	-9313
ultaneous	-9314
▁deposits	-9315
▁legislative	-9316
▁satisfaction	-9317
▁6:	-9318
▁Sidharth	-9319
▁Azam	-9320
amation	-9321
▁Gamb	-9322
▁motorcycle	-9323
▁capabilities	-9324
oma	-9325
tha	-9326
riev	-9327
▁UAE	-9328
2020	-9329
aved	-9330
omas	-9331
▁abuse	-9332
portion	-9333
▁Korean	-9334
▁Kes	-9335
▁pist	-9336
▁volunt	-9337
▁careful	-9338
▁chapter	-9339
▁transaction	-9340
▁slight	-9341
udhi	-9342
▁artist	-9343
▁uniform	-9344
▁turning	-9345
▁yoga	-9346
▁Azhar	-9347
iabetes	-9348
▁metres	-9349
▁institutes	-9350
odhpur	-9351
▁Journal	-9352
▁quarant	-9353
▁enhancing	-9354
AG	-9355
ossible	-9356
asts	-9357
▁Path	-9358
▁protected	-9359
▁developments	-9360
▁tur	-9361
▁diplomatic	-9362
▁represents	-9363
▁NT	-9364
itra	-9365
▁Aud	-9366
▁Dharmendra	-9367
▁indigenous	-9368
▁appreciation	-9369
▁strengthened	-9370
▁Naz	-9371
▁stranded	-9372
▁sentenced	-9373
ymph	-9374
▁pages	-9375
▁trigg	-9376
▁livelihood	-9377
aming	-9378
water	-9379
▁Move	-9380
▁purchased	-9381
olic	-9382
puri	-9383
▁Saj	-9384
▁anx	-9385
▁AYUSH	-9386
sequent	-9387
aped	-9388
igade	-9389
▁Silver	-9390
▁ensured	-9391
▁Puducherry	-9392
37	-9393
cend	-9394
ford	-9395
▁Gill	-9396
▁biopic	-9397
▁distan	-9398
.12	-9399
▁Rup	-9400
▁Auto	-9401
▁Creat	-9402
▁taste	-9403
ections	-9404
▁fulfil	-9405
▁examine	-9406
▁compassion	-9407
lit	-9408
▁Ri	-9409
olen	-9410
▁Fran	-9411
▁batt	-9412
iny	-9413
▁Clin	-9414
sters	-9415
atories	-9416
▁Basket	-9417
▁congratulate	-9418
▁gap	-9419
▁2006	-9420
agra	-9421
▁Ansari	-9422
ertilizers	-9423
▁colleagues	-9424
▁BSE	-9425
▁Ragh	-9426
▁Video	-9427
▁bullet	-9428
▁deterior	-9429
▁addresses	-9430
▁acquit	-9431
▁machines	-9432
▁whenever	-9433
So	-9434
▁surprised	-9435
▁18,	-9436
▁voted	-9437
▁Gorakh	-9438
▁exhibition	-9439
▁DC	-9440
▁Janhvi	-9441
▁chairperson	-9442
lar	-9443
ishe	-9444
ques	-9445
▁Soura	-9446
isi	-9447
▁mistake	-9448
▁Roman	-9449
▁scope	-9450
▁overcome	-9451
OP	-9452
▁190	-9453
▁grace	-9454
▁judiciary	-9455
zen	-9456
▁Beh	-9457
power	-9458
▁moves	-9459
▁reasonable	-9460
▁Museum	-9461
▁amazing	-9462
▁SIT	-9463
▁peak	-9464
▁chose	-9465
▁wrest	-9466
▁invite	-9467
▁representative	-9468
-15	-9469
arer	-9470
▁hopes	-9471
▁tight	-9472
▁clothes	-9473
▁Pric	-9474
▁cart	-9475
▁Organization	-9476
▁relationships	-9477
inity	-9478
arliest	-9479
▁encouraging	-9480
oral	-9481
▁wood	-9482
▁Magistrate	-9483
▁parame	-9484
▁components	-9485
▁Tag	-9486
▁refers	-9487
▁traditions	-9488
itha	-9489
▁reaches	-9490
▁releases	-9491
▁indul	-9492
▁driven	-9493
hak	-9494
▁Represent	-9495
achi	-9496
▁tools	-9497
▁eating	-9498
▁fabric	-9499
▁park	-9500
ndered	-9501
▁earliest	-9502
▁Trinam	-9503
▁examined	-9504
▁equivalent	-9505
rank	-9506
▁lev	-9507
▁regret	-9508
ica	-9509
▁fu	-9510
osystem	-9511
▁Jaishankar	-9512
▁combination	-9513
BA	-9514
▁larg	-9515
▁sanct	-9516
▁eve	-9517
▁marry	-9518
ilitary	-9519
▁Middle	-9520
▁delayed	-9521
iala	-9522
▁Ked	-9523
▁Surat	-9524
▁corner	-9525
▁winter	-9526
minton	-9527
ependent	-9528
▁strikes	-9529
EA	-9530
▁aw	-9531
▁Than	-9532
▁branches	-9533
▁IANS	-9534
▁acceler	-9535
▁execution	-9536
▁Squ	-9537
▁routes	-9538
.50	-9539
▁threats	-9540
▁exists	-9541
▁philosophy	-9542
ls	-9543
▁Himal	-9544
▁Tribal	-9545
▁Nirav	-9546
▁Review	-9547
▁backed	-9548
▁Institutions	-9549
fast	-9550
▁Rashid	-9551
▁easier	-9552
▁mortem	-9553
▁Northern	-9554
▁obtain	-9555
▁diverse	-9556
.11	-9557
▁hosts	-9558
▁Jagan	-9559
▁Medic	-9560
▁bbl	-9561
▁Live	-9562
RDO	-9563
▁likes	-9564
▁Smriti	-9565
▁colon	-9566
dis	-9567
mat	-9568
▁SS	-9569
▁Fate	-9570
▁nomine	-9571
ifically	-9572
▁visitors	-9573
▁Officials	-9574
ocon	-9575
▁chast	-9576
▁Maldives	-9577
▁commanded	-9578
▁Till	-9579
▁Jodhpur	-9580
▁Hereafter	-9581
▁77	-9582
▁Mayor	-9583
LC	-9584
ander	-9585
point	-9586
▁Pharaoh	-9587
▁colours	-9588
▁fastest	-9589
▁sincere	-9590
uke	-9591
▁universal	-9592
▁tool	-9593
nty	-9594
▁256	-9595
▁Kabir	-9596
▁Brother	-9597
agon	-9598
▁observe	-9599
▁procedures	-9600
▁unfortunate	-9601
▁Cast	-9602
▁timely	-9603
▁airports	-9604
▁magazine	-9605
▁emphasized	-9606
▁ju	-9607
▁Acts	-9608
▁vigil	-9609
▁intent	-9610
provisional	-9611
▁empowerment	-9612
28	-9613
▁Kaly	-9614
▁Nanak	-9615
▁Prabhu	-9616
▁Ibrahim	-9617
▁vulner	-9618
▁outbreak	-9619
▁cricketers	-9620
▁presentation	-9621
▁Manj	-9622
▁exempt	-9623
▁upload	-9624
▁pertaining	-9625
box	-9626
anga	-9627
▁masks	-9628
▁Shakti	-9629
▁assemb	-9630
▁civilian	-9631
▁containing	-9632
▁professionals	-9633
Pro	-9634
▁Ach	-9635
▁surgery	-9636
zer	-9637
▁immun	-9638
orne	-9639
▁flesh	-9640
operative	-9641
edi	-9642
▁rub	-9643
▁maid	-9644
▁Convention	-9645
irty	-9646
▁Near	-9647
▁Chahal	-9648
▁14.	-9649
▁rent	-9650
▁Islands	-9651
▁desires	-9652
▁rej	-9653
▁alias	-9654
▁Ayurved	-9655
▁politicians	-9656
▁Mallya	-9657
▁expectations	-9658
▁Rab	-9659
▁update	-9660
▁suspects	-9661
pathi	-9662
▁stun	-9663
▁connections	-9664
▁immig	-9665
▁Alliance	-9666
▁LPG	-9667
▁Direct	-9668
▁Taking	-9669
▁Trinamool	-9670
▁sacred	-9671
▁'%	-9672
atics	-9673
▁Bhagat	-9674
▁claiming	-9675
▁01	-9676
▁panic	-9677
▁transformation	-9678
▁UT	-9679
▁uncon	-9680
▁supplies	-9681
▁screening	-9682
jj	-9683
writ	-9684
▁unl	-9685
▁Pers	-9686
▁stab	-9687
▁click	-9688
▁practical	-9689
97	-9690
▁cogn	-9691
▁luck	-9692
▁greatly	-9693
▁largely	-9694
▁champion	-9695
▁Lot	-9696
iabad	-9697
▁Shipping	-9698
▁commemor	-9699
▁supposed	-9700
UT	-9701
▁burnt	-9702
▁evident	-9703
▁forecast	-9704
▁intervention	-9705
▁rankings	-9706
▁diversity	-9707
▁occasions	-9708
▁temporary	-9709
▁Pop	-9710
China	-9711
▁Hebrew	-9712
▁hidden	-9713
nis	-9714
▁Promotion	-9715
▁scan	-9716
▁asset	-9717
▁Mehbooba	-9718
▁quantity	-9719
▁religions	-9720
▁invitation	-9721
alli	-9722
esty	-9723
▁PAN	-9724
▁phen	-9725
▁Center	-9726
▁filmmaker	-9727
▁inhab	-9728
▁settlement	-9729
33	-9730
▁Den	-9731
crore	-9732
▁explore	-9733
▁seventh	-9734
/-	-9735
▁Rama	-9736
▁dynam	-9737
ificial	-9738
▁blocks	-9739
26	-9740
96	-9741
▁FDI	-9742
▁Solar	-9743
▁equality	-9744
▁Wi	-9745
qual	-9746
ignty	-9747
arshan	-9748
conomic	-9749
udhiana	-9750
▁indicated	-9751
ounds	-9752
wealth	-9753
feren	-9754
iques	-9755
▁equally	-9756
km	-9757
prit	-9758
▁130	-9759
▁designated	-9760
▁withdrawal	-9761
▁righteousness	-9762
▁7.	-9763
▁22,	-9764
print	-9765
▁island	-9766
▁pool	-9767
▁Country	-9768
▁consent	-9769
▁precious	-9770
▁2-	-9771
▁IB	-9772
▁semin	-9773
▁Navjot	-9774
▁activist	-9775
▁pregnant	-9776
▁Os	-9777
avati	-9778
▁flash	-9779
▁File	-9780
▁Rupe	-9781
▁mosque	-9782
▁(6	-9783
uous	-9784
ether	-9785
▁Cham	-9786
▁holid	-9787
▁Strate	-9788
▁Richard	-9789
aran	-9790
rible	-9791
▁Kapur	-9792
EF	-9793
jid	-9794
▁20,	-9795
▁Taj	-9796
▁Model	-9797
▁depends	-9798
GC	-9799
▁Self	-9800
▁booth	-9801
▁Ken	-9802
▁chart	-9803
▁Integrated	-9804
bing	-9805
▁aer	-9806
▁emphasis	-9807
oist	-9808
estyle	-9809
▁mothers	-9810
▁rumours	-9811
acle	-9812
oining	-9813
▁bread	-9814
▁Raksha	-9815
▁Photo	-9816
▁persec	-9817
▁entirely	-9818
▁machinery	-9819
▁susp	-9820
▁arrive	-9821
▁Presidents	-9822
▁criticised	-9823
▁Sis	-9824
▁Abbas	-9825
▁Brahm	-9826
▁intellectual	-9827
utory	-9828
▁verses	-9829
▁contested	-9830
▁Dalit	-9831
▁Network	-9832
yo	-9833
▁(201	-9834
▁salt	-9835
▁Choud	-9836
▁speaks	-9837
▁anticip	-9838
▁autonom	-9839
▁thorough	-9840
▁Jail	-9841
▁empt	-9842
awn	-9843
▁Club	-9844
▁pref	-9845
▁pull	-9846
▁Could	-9847
▁Thank	-9848
▁fallen	-9849
▁assistant	-9850
▁celebrities	-9851
zz	-9852
assy	-9853
▁Entertainment	-9854
▁Jaish	-9855
▁Enforcement	-9856
▁Swed	-9857
Al	-9858
rome	-9859
iverse	-9860
cr	-9861
nag	-9862
mail	-9863
▁Bid	-9864
▁shout	-9865
▁arrang	-9866
▁summon	-9867
Modi	-9868
▁19,	-9869
▁Jha	-9870
ician	-9871
▁stolen	-9872
▁Gorakhpur	-9873
▁laundering	-9874
▁viz	-9875
alted	-9876
▁Urdu	-9877
▁insult	-9878
▁weapon	-9879
▁Tripathi	-9880
wad	-9881
▁	-9882
e	-9883
a	-9884
t	-9885
i	-9886
n	-9887
o	-9888
r	-9889
s	-9890
h	-9891
d	-9892
l	-9893
c	-9894
u	-9895
m	-9896
f	-9897
p	-9898
g	-9899
y	-9900
w	-9901
b	-9902
.	-9903
v	-9904
,	-9905
k	-9906
S	-9907
T	-9908
I	-9909
A	-9910
M	-9911
P	-9912
C	-9913
"	-9914
B	-9915
R	-9916
0	-9917
1	-9918
D	-9919
H	-9920
-	-9921
j	-9922
2	-9923
N	-9924
G	-9925
x	-9926
K	-9927
J	-9928
W	-9929
E	-9930
F	-9931
(	-9932
)	-9933
L	-9934
'	-9935
O	-9936
5	-9937
U	-9938
9	-9939
3	-9940
:	-9941
4	-9942
q	-9943
V	-9944
z	-9945
6	-9946
8	-9947
7	-9948
Y	-9949
?	-9950
/	-9951
&	-9952
%	-9953
!	-9954
Z	-9955
Q	-9956
]	-9957
[	-9958
X	-9959
$	-9960
+	-9961
|	-9962
\	-9963
>	-9964
_	-9965
#	-9966
@	-9967
<	-9968
}	-9969
{	-9970
*	-9971
`	-9972
=	-9973
’	-9974
~	-9975
;	-9976
–	-9977
^	-9978
‘	-9979
“	-9980
”	-9981
‟	-9982
⁄	-9983
ī	-9984
ί	-9985
α	-9986
η	-9987
μ	-9988
χ	-9989
—	-9990
ā	-9991
°	-9992
à	-9993
é	-9994
ε	-9995
ا	-9996
