<unk>	0
<s>	0
</s>	0
▁t	-0
he	-1
▁a	-2
in	-3
re	-4
▁the	-5
▁o	-6
▁c	-7
at	-8
▁s	-9
er	-10
on	-11
is	-12
en	-13
an	-14
▁b	-15
▁of	-16
▁w	-17
or	-18
al	-19
es	-20
▁.	-21
▁p	-22
nd	-23
▁f	-24
ed	-25
it	-26
▁in	-27
ion	-28
om	-29
ic	-30
ar	-31
▁m	-32
ing	-33
▁th	-34
▁d	-35
▁and	-36
ent	-37
▁is	-38
▁to	-39
ou	-40
ct	-41
le	-42
ro	-43
as	-44
▁T	-45
▁h	-46
▁be	-47
ll	-48
▁,	-49
▁l	-50
▁re	-51
▁n	-52
ve	-53
▁S	-54
ment	-55
▁e	-56
id	-57
ation	-58
▁are	-59
▁A	-60
▁that	-61
ra	-62
us	-63
▁g	-64
▁for	-65
▁or	-66
ow	-67
▁C	-68
ly	-69
ot	-70
os	-71
▁st	-72
▁wh	-73
od	-74
▁I	-75
▁com	-76
▁on	-77
ay	-78
▁can	-79
et	-80
▁-	-81
ol	-82
ri	-83
▁The	-84
il	-85
ut	-86
▁pro	-87
mp	-88
ur	-89
▁y	-90
ch	-91
ce	-92
st	-93
ver	-94
▁comp	-95
if	-96
▁an	-97
▁ha	-98
▁it	-99
▁you	-100
▁as	-101
her	-102
ig	-103
um	-104
▁se	-105
ul	-106
reat	-107
ith	-108
▁we	-109
▁u	-110
ate	-111
▁N	-112
▁con	-113
ad	-114
▁with	-115
▁P	-116
▁by	-117
▁have	-118
ir	-119
ist	-120
ers	-121
pe	-122
rom	-123
ical	-124
▁ch	-125
ich	-126
am	-127
▁D	-128
res	-129
art	-130
▁this	-131
ction	-132
em	-133
reatment	-134
▁al	-135
▁which	-136
▁ex	-137
im	-138
ies	-139
se	-140
ill	-141
▁sh	-142
▁R	-143
▁compan	-144
ter	-145
ag	-146
▁So	-147
▁he	-148
ell	-149
cer	-150
▁us	-151
qu	-152
nt	-153
▁su	-154
▁de	-155
ak	-156
lo	-157
est	-158
ther	-159
▁treatment	-160
ru	-161
ive	-162
▁M	-163
▁ne	-164
ain	-165
▁cell	-166
rap	-167
fe	-168
▁at	-169
▁not	-170
▁G	-171
ure	-172
ble	-173
ant	-174
▁B	-175
▁(	-176
▁has	-177
iv	-178
▁mo	-179
▁from	-180
▁may	-181
ud	-182
▁company	-183
te	-184
▁cancer	-185
▁cl	-186
ac	-187
▁v	-188
so	-189
▁L	-190
and	-191
▁W	-192
▁will	-193
all	-194
rapy	-195
▁2	-196
▁tri	-197
▁1	-198
▁H	-199
ess	-200
▁ac	-201
ase	-202
pp	-203
ide	-204
▁one	-205
ity	-206
▁F	-207
un	-208
ue	-209
▁whe	-210
ire	-211
▁le	-212
▁ab	-213
ymp	-214
ors	-215
▁O	-216
▁part	-217
▁also	-218
▁E	-219
ran	-220
▁trial	-221
th	-222
nder	-223
ine	-224
end	-225
rou	-226
ial	-227
▁other	-228
pt	-229
▁li	-230
ort	-231
ild	-232
out	-233
gh	-234
oma	-235
inical	-236
ld	-237
▁tw	-238
00	-239
ose	-240
ard	-241
hem	-242
▁)	-243
▁In	-244
ymph	-245
▁cells	-246
▁under	-247
are	-248
ary	-249
igh	-250
imp	-251
▁do	-252
orm	-253
▁k	-254
▁ty	-255
▁Th	-256
one	-257
▁there	-258
over	-259
▁clinical	-260
▁tum	-261
▁pl	-262
ents	-263
▁they	-264
ind	-265
▁if	-266
▁two	-267
▁:	-268
ome	-269
▁so	-270
ge	-271
▁dis	-272
▁all	-273
▁about	-274
ated	-275
▁int	-276
▁inc	-277
og	-278
▁imp	-279
▁trials	-280
▁been	-281
▁lymph	-282
ab	-283
age	-284
ond	-285
fere	-286
op	-287
ions	-288
ree	-289
▁fo	-290
▁res	-291
rad	-292
ts	-293
▁therapy	-294
▁sp	-295
very	-296
▁up	-297
▁me	-298
aus	-299
▁form	-300
▁tak	-301
ia	-302
our	-303
ance	-304
red	-305
ib	-306
▁bet	-307
ip	-308
overn	-309
ual	-310
uc	-311
ign	-312
ous	-313
ap	-314
iss	-315
ati	-316
act	-317
▁dif	-318
▁these	-319
▁act	-320
ould	-321
▁ad	-322
ruct	-323
▁child	-324
iz	-325
▁what	-326
▁call	-327
irect	-328
llow	-329
ody	-330
ect	-331
▁r	-332
rain	-333
ks	-334
ast	-335
ric	-336
▁am	-337
form	-338
▁blo	-339
ep	-340
▁used	-341
iation	-342
ert	-343
rans	-344
▁St	-345
lic	-346
▁more	-347
ause	-348
ener	-349
ost	-350
▁af	-351
overnment	-352
ood	-353
▁differe	-354
▁cont	-355
amp	-356
▁sy	-357
▁follow	-358
▁into	-359
▁lo	-360
li	-361
▁wor	-362
▁called	-363
ition	-364
ore	-365
ear	-366
▁proc	-367
▁bas	-368
▁And	-369
▁app	-370
▁test	-371
ult	-372
ens	-373
▁This	-374
othe	-375
▁tumor	-376
▁Now	-377
ass	-378
▁was	-379
able	-380
▁bec	-381
▁trans	-382
▁prote	-383
ach	-384
▁who	-385
▁sc	-386
cy	-387
ke	-388
▁sub	-389
▁out	-390
fect	-391
▁any	-392
ub	-393
old	-394
▁per	-395
▁Com	-396
▁blood	-397
▁giv	-398
▁Government	-399
▁rad	-400
▁prov	-401
atients	-402
ec	-403
▁see	-404
▁such	-405
▁struct	-406
▁rem	-407
ations	-408
▁where	-409
otherapy	-410
▁direct	-411
▁pre	-412
▁share	-413
▁reg	-414
el	-415
int	-416
▁body	-417
ack	-418
irst	-419
row	-420
▁acid	-421
▁different	-422
▁spe	-423
ry	-424
cur	-425
ck	-426
inal	-427
▁very	-428
▁It	-429
▁when	-430
ber	-431
kay	-432
ular	-433
yd	-434
ust	-435
ample	-436
formation	-437
stem	-438
▁chem	-439
▁K	-440
cial	-441
ite	-442
ount	-443
▁three	-444
lud	-445
fic	-446
ger	-447
ities	-448
rough	-449
ail	-450
▁year	-451
▁Rs	-452
▁ro	-453
▁Act	-454
ok	-455
ph	-456
▁type	-457
amil	-458
▁then	-459
▁protein	-460
▁their	-461
▁man	-462
▁than	-463
▁state	-464
▁new	-465
por	-466
read	-467
▁ag	-468
▁exp	-469
erv	-470
▁like	-471
ject	-472
ures	-473
▁ri	-474
▁3	-475
▁Ch	-476
ution	-477
ific	-478
ays	-479
▁includ	-480
▁typ	-481
▁how	-482
hood	-483
▁mod	-484
▁un	-485
▁U	-486
▁given	-487
ven	-488
▁go	-489
▁200	-490
▁case	-491
ame	-492
ight	-493
▁stud	-494
▁through	-495
▁but	-496
ord	-497
ang	-498
▁Tamil	-499
▁iss	-500
▁brain	-501
uring	-502
▁being	-503
▁rep	-504
▁pos	-505
01	-506
erm	-507
▁fun	-508
du	-509
orpor	-510
ence	-511
ace	-512
▁first	-513
▁types	-514
▁radiation	-515
▁system	-516
▁some	-517
ty	-518
ater	-519
▁import	-520
▁done	-521
▁tim	-522
▁ef	-523
▁en	-524
eth	-525
lec	-526
rib	-527
▁sol	-528
ule	-529
▁Ind	-530
▁tiss	-531
▁following	-532
▁righ	-533
arch	-534
▁j	-535
lect	-536
▁mem	-537
▁lymphoma	-538
oint	-539
ually	-540
now	-541
kin	-542
ments	-543
▁companies	-544
▁qu	-545
▁function	-546
▁ph	-547
uk	-548
▁There	-549
hold	-550
▁after	-551
▁because	-552
erson	-553
hen	-554
ren	-555
ydro	-556
▁ant	-557
▁An	-558
▁only	-559
ved	-560
▁inter	-561
ew	-562
▁important	-563
ings	-564
ound	-565
▁know	-566
resent	-567
▁chemotherapy	-568
▁should	-569
een	-570
▁inv	-571
ublic	-572
▁need	-573
ory	-574
▁mak	-575
xt	-576
▁sur	-577
rug	-578
▁molec	-579
ates	-580
ram	-581
▁time	-582
▁hydro	-583
fer	-584
les	-585
▁its	-586
▁te	-587
gan	-588
▁them	-589
ied	-590
ious	-591
▁effect	-592
▁car	-593
ces	-594
▁disc	-595
▁For	-596
▁get	-597
▁here	-598
agn	-599
gen	-600
▁structure	-601
ible	-602
▁val	-603
▁comple	-604
▁Treatment	-605
emia	-606
▁example	-607
andard	-608
ong	-609
▁co	-610
▁ob	-611
ving	-612
▁Wh	-613
▁rec	-614
ules	-615
▁requ	-616
▁num	-617
▁tumors	-618
▁sharehold	-619
▁5	-620
ros	-621
fore	-622
▁patients	-623
▁Comp	-624
▁bond	-625
▁drug	-626
▁im	-627
eneral	-628
▁look	-629
▁hel	-630
▁person	-631
▁dep	-632
ween	-633
▁show	-634
▁between	-635
get	-636
▁remo	-637
olog	-638
▁information	-639
▁di	-640
▁201	-641
ukemia	-642
adu	-643
arc	-644
▁comm	-645
▁partic	-646
gery	-647
ted	-648
▁number	-649
ides	-650
ertain	-651
▁det	-652
▁back	-653
▁section	-654
pect	-655
ice	-656
ative	-657
▁spread	-658
entr	-659
ically	-660
ress	-661
ues	-662
▁process	-663
cept	-664
▁grou	-665
▁during	-666
▁ar	-667
▁cap	-668
▁prop	-669
ink	-670
▁treatments	-671
▁mean	-672
▁now	-673
▁bo	-674
▁4	-675
ade	-676
▁your	-677
▁ins	-678
▁side	-679
▁Dep	-680
▁help	-681
cho	-682
ided	-683
▁che	-684
▁cons	-685
▁memb	-686
▁include	-687
action	-688
▁ord	-689
ye	-690
ases	-691
▁fact	-692
▁take	-693
▁tissue	-694
▁rel	-695
▁made	-696
▁right	-697
▁nod	-698
▁sha	-699
▁tests	-700
▁We	-701
▁These	-702
alk	-703
▁ind	-704
▁mar	-705
istric	-706
▁V	-707
ath	-708
▁acc	-709
chool	-710
▁min	-711
▁mon	-712
▁organ	-713
oms	-714
ower	-715
▁find	-716
▁were	-717
arcoma	-718
▁standard	-719
ile	-720
▁Re	-721
▁proced	-722
▁prog	-723
ft	-724
▁require	-725
ute	-726
ix	-727
velo	-728
▁non	-729
▁sign	-730
ital	-731
ility	-732
▁Nadu	-733
nce	-734
▁dise	-735
▁India	-736
▁way	-737
▁grow	-738
▁group	-739
uss	-740
▁pri	-741
▁four	-742
duc	-743
▁As	-744
▁works	-745
▁okay	-746
artment	-747
osed	-748
▁gl	-749
▁lip	-750
▁dec	-751
ise	-752
▁ent	-753
▁discuss	-754
▁19	-755
▁des	-756
▁treat	-757
▁Se	-758
ef	-759
▁start	-760
▁'	-761
▁sec	-762
▁shares	-763
▁shareholders	-764
▁same	-765
velop	-766
▁Compan	-767
▁many	-768
▁Y	-769
▁av	-770
▁children	-771
heme	-772
▁som	-773
ob	-774
yl	-775
blem	-776
odg	-777
ward	-778
▁col	-779
▁problem	-780
aw	-781
▁Pro	-782
▁term	-783
odgkin	-784
▁If	-785
ission	-786
▁subst	-787
▁using	-788
▁childhood	-789
▁issue	-790
hed	-791
▁certain	-792
ons	-793
und	-794
▁Okay	-795
ange	-796
▁class	-797
▁well	-798
isk	-799
ural	-800
▁What	-801
orporate	-802
vel	-803
▁every	-804
▁taken	-805
cyt	-806
rent	-807
▁directors	-808
▁particular	-809
▁diagn	-810
▁public	-811
▁pic	-812
▁var	-813
▁ass	-814
▁end	-815
▁spec	-816
▁again	-817
ision	-818
mary	-819
other	-820
entral	-821
▁Child	-822
▁value	-823
its	-824
▁rece	-825
▁underst	-826
ids	-827
▁State	-828
▁work	-829
▁based	-830
av	-831
▁move	-832
ino	-833
▁search	-834
▁cro	-835
▁module	-836
▁bi	-837
▁no	-838
▁sm	-839
ning	-840
stit	-841
▁fe	-842
▁amount	-843
itor	-844
▁list	-845
▁disease	-846
▁NC	-847
▁Sec	-848
ys	-849
ational	-850
▁before	-851
▁better	-852
▁does	-853
▁poss	-854
ating	-855
▁those	-856
▁Ad	-857
iness	-858
▁want	-859
inding	-860
▁leukemia	-861
▁risk	-862
▁?	-863
▁imm	-864
ormal	-865
lement	-866
▁avail	-867
▁invest	-868
ature	-869
▁actually	-870
▁Department	-871
▁/	-872
▁add	-873
val	-874
▁High	-875
▁most	-876
▁Distric	-877
arget	-878
▁inte	-879
▁capital	-880
rid	-881
usiness	-882
▁ma	-883
arge	-884
▁going	-885
▁would	-886
▁Patients	-887
tern	-888
▁att	-889
▁high	-890
▁years	-891
air	-892
vent	-893
inist	-894
▁road	-895
ten	-896
bin	-897
▁carb	-898
▁make	-899
▁acids	-900
▁secur	-901
▁po	-902
ized	-903
▁represent	-904
▁meth	-905
oth	-906
▁procedure	-907
▁bu	-908
▁available	-909
▁understand	-910
▁pe	-911
ai	-912
sel	-913
▁cost	-914
oc	-915
▁business	-916
ances	-917
▁come	-918
▁order	-919
▁small	-920
me	-921
▁just	-922
▁meet	-923
▁check	-924
▁fl	-925
▁def	-926
▁use	-927
▁incre	-928
▁place	-929
par	-930
▁over	-931
▁thing	-932
ract	-933
▁second	-934
▁6	-935
▁2009	-936
▁five	-937
▁main	-938
▁Companies	-939
duct	-940
▁sum	-941
▁Some	-942
▁stem	-943
▁water	-944
aid	-945
ron	-946
▁taking	-947
▁equ	-948
▁cann	-949
▁each	-950
urther	-951
▁ext	-952
▁basically	-953
ank	-954
▁But	-955
ults	-956
▁aud	-957
▁antib	-958
▁Sc	-959
▁NCI	-960
▁amino	-961
edi	-962
▁ru	-963
▁next	-964
▁possible	-965
oid	-966
▁surgery	-967
▁Ex	-968
▁cur	-969
gy	-970
chools	-971
▁Cl	-972
▁regul	-973
ited	-974
round	-975
NS	-976
last	-977
▁anal	-978
▁cond	-979
▁fat	-980
▁gen	-981
▁prom	-982
▁supp	-983
▁thir	-984
▁parts	-985
▁transp	-986
lyc	-987
ages	-988
▁op	-989
hip	-990
olar	-991
tain	-992
▁various	-993
io	-994
ize	-995
uch	-996
▁beta	-997
▁talk	-998
▁special	-999
isions	-1000
▁point	-1001
▁kind	-1002
▁found	-1003
▁spinal	-1004
▁Childhood	-1005
▁gluc	-1006
▁rese	-1007
▁pur	-1008
als	-1009
▁drugs	-1010
crib	-1011
ffic	-1012
ension	-1013
rest	-1014
ething	-1015
▁another	-1016
▁District	-1017
▁corporate	-1018
▁securities	-1019
▁You	-1020
▁acqu	-1021
▁uses	-1022
▁Le	-1023
osis	-1024
toms	-1025
▁crores	-1026
gth	-1027
rol	-1028
ident	-1029
▁seen	-1030
▁Lymph	-1031
▁elect	-1032
▁depend	-1033
ymptoms	-1034
▁something	-1035
▁cord	-1036
bs	-1037
ish	-1038
▁let	-1039
▁Comm	-1040
▁means	-1041
▁En	-1042
▁opt	-1043
▁J	-1044
omas	-1045
▁offic	-1046
▁stage	-1047
▁II	-1048
alth	-1049
▁When	-1050
▁required	-1051
▁specific	-1052
▁chang	-1053
▁normal	-1054
hes	-1055
rit	-1056
▁promot	-1057
velopment	-1058
▁symptoms	-1059
ting	-1060
itions	-1061
ne	-1062
ified	-1063
ctor	-1064
etic	-1065
▁less	-1066
▁scheme	-1067
▁General	-1068
▁molecule	-1069
▁proteins	-1070
▁molecules	-1071
▁rest	-1072
▁impro	-1073
▁bone	-1074
▁path	-1075
▁general	-1076
▁present	-1077
▁interest	-1078
▁appoint	-1079
wn	-1080
xy	-1081
▁my	-1082
▁six	-1083
▁cannot	-1084
chn	-1085
low	-1086
raph	-1087
▁est	-1088
▁method	-1089
▁lear	-1090
▁within	-1091
▁current	-1092
ops	-1093
pha	-1094
▁div	-1095
▁cour	-1096
▁comput	-1097
▁7	-1098
▁appro	-1099
▁affect	-1100
▁z	-1101
urn	-1102
▁Man	-1103
▁plan	-1104
▁board	-1105
▁sug	-1106
AR	-1107
▁He	-1108
▁interaction	-1109
▁issu	-1110
argeted	-1111
▁exam	-1112
▁pict	-1113
▁nodes	-1114
ges	-1115
▁ear	-1116
▁emp	-1117
atory	-1118
▁near	-1119
▁ener	-1120
▁hand	-1121
▁both	-1122
▁signs	-1123
olution	-1124
▁contin	-1125
▁glucose	-1126
ves	-1127
atic	-1128
ased	-1129
▁had	-1130
▁shall	-1131
gin	-1132
igher	-1133
▁fatty	-1134
▁level	-1135
co	-1136
ian	-1137
ilar	-1138
▁How	-1139
▁ret	-1140
▁exist	-1141
▁immun	-1142
agement	-1143
▁membran	-1144
▁usually	-1145
imilar	-1146
▁health	-1147
▁sample	-1148
▁areas	-1149
vers	-1150
▁sequ	-1151
ention	-1152
▁chrom	-1153
▁research	-1154
▁fin	-1155
▁glyc	-1156
▁Second	-1157
ero	-1158
▁ra	-1159
▁energy	-1160
▁solution	-1161
▁10	-1162
ains	-1163
▁cle	-1164
▁They	-1165
▁phase	-1166
▁effects	-1167
000	-1168
▁cent	-1169
▁recur	-1170
▁further	-1171
ie	-1172
iew	-1173
ove	-1174
ograph	-1175
▁alpha	-1176
▁sarcoma	-1177
▁De	-1178
oles	-1179
▁mic	-1180
▁results	-1181
▁flu	-1182
ready	-1183
▁poly	-1184
▁serv	-1185
▁already	-1186
▁hydrogen	-1187
▁0	-1188
iod	-1189
▁len	-1190
ancer	-1191
▁object	-1192
tal	-1193
ways	-1194
▁wee	-1195
▁month	-1196
▁oc	-1197
ered	-1198
▁Sur	-1199
ization	-1200
hib	-1201
▁el	-1202
▁mat	-1203
▁brid	-1204
up	-1205
ancial	-1206
▁whether	-1207
ices	-1208
▁students	-1209
▁length	-1210
led	-1211
soc	-1212
itors	-1213
ority	-1214
▁change	-1215
ism	-1216
istic	-1217
▁dist	-1218
▁having	-1219
▁director	-1220
▁Bo	-1221
▁Un	-1222
▁inf	-1223
ability	-1224
imum	-1225
▁why	-1226
ither	-1227
▁action	-1228
akh	-1229
▁cy	-1230
▁say	-1231
▁simp	-1232
▁bonds	-1233
▁around	-1234
▁loc	-1235
▁Then	-1236
▁period	-1237
▁members	-1238
ocyt	-1239
▁Educ	-1240
▁much	-1241
▁name	-1242
▁power	-1243
dom	-1244
▁link	-1245
▁activ	-1246
▁conduct	-1247
ived	-1248
▁sto	-1249
▁separ	-1250
▁See	-1251
▁red	-1252
bsite	-1253
ional	-1254
vious	-1255
▁forms	-1256
▁structures	-1257
▁AI	-1258
▁Whe	-1259
▁set	-1260
▁good	-1261
▁skin	-1262
▁cause	-1263
▁third	-1264
▁Direct	-1265
▁Public	-1266
▁marrow	-1267
▁improve	-1268
ES	-1269
ick	-1270
▁Ac	-1271
▁ke	-1272
cess	-1273
stru	-1274
ily	-1275
aging	-1276
▁regist	-1277
▁deb	-1278
▁Offic	-1279
▁either	-1280
▁detail	-1281
rade	-1282
Hodgkin	-1283
▁carbon	-1284
▁hem	-1285
▁control	-1286
▁program	-1287
▁studied	-1288
tc	-1289
ull	-1290
▁law	-1291
▁best	-1292
minist	-1293
▁large	-1294
▁shown	-1295
▁techn	-1296
▁think	-1297
▁financial	-1298
▁ep	-1299
abor	-1300
ucle	-1301
▁land	-1302
▁gener	-1303
▁resid	-1304
ript	-1305
▁far	-1306
▁ser	-1307
▁Chem	-1308
▁zero	-1309
▁doctor	-1310
▁provided	-1311
orporation	-1312
▁To	-1313
ient	-1314
▁Con	-1315
▁plac	-1316
▁implement	-1317
▁ben	-1318
isition	-1319
▁lipids	-1320
omes	-1321
▁dom	-1322
▁adult	-1323
▁remove	-1324
▁website	-1325
▁things	-1326
▁caus	-1327
▁give	-1328
▁cases	-1329
▁Central	-1330
▁account	-1331
▁removed	-1332
ym	-1333
▁X	-1334
▁Pl	-1335
▁Te	-1336
▁ap	-1337
ator	-1338
char	-1339
▁tra	-1340
itive	-1341
▁lakh	-1342
ug	-1343
▁don	-1344
▁node	-1345
lastic	-1346
▁Schools	-1347
itte	-1348
▁del	-1349
▁begin	-1350
ines	-1351
▁lead	-1352
▁allow	-1353
▁occur	-1354
▁applic	-1355
own	-1356
cent	-1357
yelo	-1358
▁prof	-1359
▁week	-1360
▁total	-1361
▁rights	-1362
▁tissues	-1363
▁without	-1364
ring	-1365
tion	-1366
▁That	-1367
▁8	-1368
▁–	-1369
hab	-1370
▁she	-1371
gor	-1372
▁Km	-1373
▁Ro	-1374
ness	-1375
aries	-1376
▁2010	-1377
▁changes	-1378
atient	-1379
raining	-1380
▁treated	-1381
AT	-1382
uth	-1383
▁Rad	-1384
▁char	-1385
acchar	-1386
▁Hodgkin	-1387
▁computer	-1388
duce	-1389
etim	-1390
▁CNS	-1391
▁his	-1392
▁happ	-1393
▁rele	-1394
ography	-1395
▁patient	-1396
▁9	-1397
osph	-1398
▁ang	-1399
ER	-1400
▁Clinical	-1401
ever	-1402
ised	-1403
▁offer	-1404
▁Director	-1405
▁own	-1406
▁2013	-1407
▁mark	-1408
▁liver	-1409
▁become	-1410
ium	-1411
ives	-1412
▁pass	-1413
▁could	-1414
▁sugar	-1415
ined	-1416
ough	-1417
▁maj	-1418
▁pay	-1419
▁known	-1420
▁Surgery	-1421
put	-1422
▁15	-1423
▁etc	-1424
▁provide	-1425
by	-1426
onal	-1427
▁hist	-1428
▁Chemotherapy	-1429
-1	-1430
▁ref	-1431
ologist	-1432
▁design	-1433
▁Education	-1434
ML	-1435
ode	-1436
▁lim	-1437
▁init	-1438
▁plus	-1439
▁reas	-1440
etimes	-1441
ternal	-1442
▁emplo	-1443
▁membrane	-1444
▁New	-1445
ministr	-1446
ittee	-1447
odies	-1448
▁inhib	-1449
▁accept	-1450
▁project	-1451
▁substances	-1452
ople	-1453
▁san	-1454
▁heli	-1455
▁hold	-1456
▁kill	-1457
▁pres	-1458
▁including	-1459
▁provisions	-1460
lier	-1461
unal	-1462
▁free	-1463
▁common	-1464
▁addition	-1465
▁diagnose	-1466
▁completed	-1467
▁pr	-1468
,000	-1469
▁biops	-1470
▁enter	-1471
EB	-1472
▁Res	-1473
atures	-1474
▁fluid	-1475
▁model	-1476
ner	-1477
oks	-1478
▁Other	-1479
▁concept	-1480
▁Radiation	-1481
ced	-1482
ify	-1483
ned	-1484
oss	-1485
vate	-1486
▁invol	-1487
▁study	-1488
▁mention	-1489
▁winding	-1490
lant	-1491
oses	-1492
▁fil	-1493
acher	-1494
▁hydroph	-1495
henn	-1496
vency	-1497
▁left	-1498
▁helix	-1499
▁factors	-1500
▁related	-1501
▁cred	-1502
▁must	-1503
hennai	-1504
▁count	-1505
▁nucle	-1506
▁Leukemia	-1507
▁discussed	-1508
ayer	-1509
ptide	-1510
▁conc	-1511
▁soft	-1512
▁micros	-1513
▁transl	-1514
▁antibody	-1515
▁effective	-1516
ins	-1517
cope	-1518
▁oxy	-1519
▁mach	-1520
▁purp	-1521
▁stop	-1522
▁coming	-1523
▁report	-1524
▁central	-1525
▁complex	-1526
IO	-1527
▁Ph	-1528
uman	-1529
▁lit	-1530
▁fund	-1531
▁Under	-1532
ination	-1533
ax	-1534
▁em	-1535
▁while	-1536
olester	-1537
▁people	-1538
▁earlier	-1539
▁meeting	-1540
▁Information	-1541
ret	-1542
way	-1543
▁leg	-1544
▁opp	-1545
▁appe	-1546
▁area	-1547
▁Stage	-1548
▁compon	-1549
▁National	-1550
▁complete	-1551
▁interactions	-1552
EN	-1553
iqu	-1554
nect	-1555
▁cho	-1556
▁qual	-1557
▁minus	-1558
▁biopsy	-1559
▁acquisition	-1560
ets	-1561
▁Road	-1562
▁ways	-1563
olvency	-1564
▁Sy	-1565
▁ev	-1566
igen	-1567
ingle	-1568
thing	-1569
▁even	-1570
▁formed	-1571
▁Chennai	-1572
▁binding	-1573
▁similar	-1574
▁sanction	-1575
▁statement	-1576
hyd	-1577
itu	-1578
▁polar	-1579
▁diagnosed	-1580
/-	-1581
▁vol	-1582
▁scan	-1583
▁turn	-1584
▁often	-1585
▁sequence	-1586
ared	-1587
vant	-1588
▁Pri	-1589
▁Reg	-1590
▁doing	-1591
▁ident	-1592
▁picture	-1593
▁receive	-1594
▁conditions	-1595
ung	-1596
▁Che	-1597
▁open	-1598
▁phosph	-1599
ety	-1600
ogn	-1601
lied	-1602
olip	-1603
▁meas	-1604
▁Board	-1605
▁quest	-1606
olesterol	-1607
▁received	-1608
angu	-1609
ants	-1610
obic	-1611
▁ten	-1612
▁Serv	-1613
▁expl	-1614
▁role	-1615
▁above	-1616
▁assoc	-1617
▁oxygen	-1618
▁transplant	-1619
DS	-1620
▁rot	-1621
▁try	-1622
▁view	-1623
▁clear	-1624
▁eight	-1625
▁final	-1626
▁labor	-1627
ilities	-1628
ulation	-1629
▁issued	-1630
▁simple	-1631
ification	-1632
▁directly	-1633
▁followed	-1634
▁problems	-1635
▁resolution	-1636
ged	-1637
▁mal	-1638
▁subs	-1639
ference	-1640
▁options	-1641
▁difference	-1642
abl	-1643
▁fac	-1644
▁our	-1645
▁single	-1646
▁connect	-1647
▁features	-1648
-2	-1649
▁x	-1650
▁conver	-1651
▁months	-1652
▁continue	-1653
enty	-1654
▁down	-1655
▁once	-1656
▁resp	-1657
▁Adult	-1658
▁determ	-1659
▁obtain	-1660
▁Ass	-1661
▁fib	-1662
▁exec	-1663
change	-1664
▁below	-1665
▁higher	-1666
▁percent	-1667
struction	-1668
▁sw	-1669
▁ve	-1670
uted	-1671
▁repe	-1672
▁Cancer	-1673
▁auditor	-1674
ere	-1675
irm	-1676
▁12	-1677
▁art	-1678
▁met	-1679
ndrom	-1680
▁Trib	-1681
▁head	-1682
▁held	-1683
▁makes	-1684
▁summary	-1685
ally	-1686
▁mult	-1687
▁primary	-1688
▁propert	-1689
▁support	-1690
self	-1691
▁Ann	-1692
▁able	-1693
▁build	-1694
▁position	-1695
▁microscope	-1696
▁’	-1697
mit	-1698
per	-1699
▁sl	-1700
▁Eng	-1701
▁One	-1702
▁Tum	-1703
▁mer	-1704
ronic	-1705
spect	-1706
cribed	-1707
▁exper	-1708
▁human	-1709
▁rules	-1710
▁Indian	-1711
▁growth	-1712
▁Commission	-1713
RI	-1714
▁gu	-1715
▁outs	-1716
▁light	-1717
▁reason	-1718
LL	-1719
cu	-1720
▁Af	-1721
▁Co	-1722
ency	-1723
ithm	-1724
▁sal	-1725
▁Plan	-1726
accharides	-1727
▁lymphocyt	-1728
cip	-1729
cle	-1730
▁14	-1731
ceed	-1732
▁last	-1733
▁white	-1734
duction	-1735
▁hydrophobic	-1736
▁regulations	-1737
ump	-1738
▁fra	-1739
▁net	-1740
▁days	-1741
▁long	-1742
ential	-1743
ervous	-1744
▁creat	-1745
▁Scheme	-1746
▁domain	-1747
▁inside	-1748
▁needed	-1749
▁recogn	-1750
▁‘	-1751
umn	-1752
▁eas	-1753
atric	-1754
ished	-1755
lobin	-1756
▁port	-1757
gorithm	-1758
▁factor	-1759
▁organs	-1760
▁twenty	-1761
▁chromat	-1762
▁respect	-1763
ints	-1764
▁low	-1765
▁chain	-1766
▁govern	-1767
▁algorithm	-1768
af	-1769
▁Wor	-1770
arent	-1771
duced	-1772
usion	-1773
▁bind	-1774
▁radio	-1775
▁employe	-1776
▁appointed	-1777
▁substance	-1778
opy	-1779
▁dut	-1780
wards	-1781
▁docu	-1782
▁analy	-1783
oglobin	-1784
▁column	-1785
▁chemical	-1786
▁Development	-1787
▁cholesterol	-1788
▁development	-1789
ones	-1790
▁cal	-1791
▁keep	-1792
▁Instit	-1793
▁persons	-1794
ash	-1795
▁50	-1796
▁der	-1797
▁neg	-1798
rocyt	-1799
▁Minist	-1800
▁against	-1801
▁activities	-1802
▁antibodies	-1803
▁&	-1804
tle	-1805
▁Ne	-1806
apos	-1807
ross	-1808
iding	-1809
▁Thir	-1810
ecause	-1811
▁intro	-1812
anguage	-1813
RA	-1814
▁11	-1815
▁aff	-1816
▁max	-1817
▁top	-1818
▁surf	-1819
▁atoms	-1820
▁explo	-1821
▁lipid	-1822
uristic	-1823
▁depends	-1824
▁private	-1825
▁syndrom	-1826
▁Targeted	-1827
▁proposed	-1828
▁auth	-1829
gether	-1830
▁basis	-1831
▁Section	-1832
▁develop	-1833
▁together	-1834
omic	-1835
▁lot	-1836
▁conf	-1837
▁inst	-1838
▁lower	-1839
▁chance	-1840
▁course	-1841
▁Because	-1842
▁increase	-1843
▁transfer	-1844
▁heuristic	-1845
oph	-1846
▁Al	-1847
▁Po	-1848
ider	-1849
ogen	-1850
▁Cro	-1851
▁deal	-1852
▁Check	-1853
ertific	-1854
▁establ	-1855
▁machine	-1856
▁laboratory	-1857
IS	-1858
ION	-1859
ful	-1860
▁wr	-1861
▁due	-1862
ended	-1863
amples	-1864
ignant	-1865
▁roads	-1866
▁combin	-1867
▁tested	-1868
▁condition	-1869
airs	-1870
▁ann	-1871
▁liqu	-1872
▁size	-1873
▁Kapos	-1874
▁among	-1875
▁benef	-1876
▁block	-1877
▁comes	-1878
▁space	-1879
▁Tumors	-1880
▁previous	-1881
ibr	-1882
▁CS	-1883
▁mus	-1884
▁read	-1885
pecial	-1886
▁First	-1887
▁grade	-1888
▁linked	-1889
▁outside	-1890
acter	-1891
ember	-1892
ening	-1893
▁pick	-1894
▁temp	-1895
▁plate	-1896
osarcoma	-1897
day	-1898
▁rev	-1899
epend	-1900
veral	-1901
▁code	-1902
▁debt	-1903
▁prob	-1904
▁basic	-1905
▁major	-1906
▁accord	-1907
▁reduce	-1908
▁Whether	-1909
▁collect	-1910
▁progress	-1911
▁insolvency	-1912
man	-1913
▁gr	-1914
▁pow	-1915
▁Talk	-1916
▁paid	-1917
▁said	-1918
▁actin	-1919
▁System	-1920
▁liquid	-1921
▁making	-1922
ological	-1923
▁location	-1924
▁reaction	-1925
▁targeted	-1926
▁conducted	-1927
▁functions	-1928
ief	-1929
▁ves	-1930
▁date	-1931
▁play	-1932
▁upon	-1933
strocyt	-1934
▁Kaposi	-1935
▁surface	-1936
▁Tribunal	-1937
▁starting	-1938
ata	-1939
▁AML	-1940
icles	-1941
▁lung	-1942
▁getting	-1943
▁compound	-1944
▁government	-1945
AN	-1946
ners	-1947
▁ALL	-1948
▁few	-1949
▁str	-1950
hemes	-1951
ology	-1952
▁Cour	-1953
achers	-1954
▁apply	-1955
▁groups	-1956
▁inject	-1957
▁powers	-1958
▁regard	-1959
▁growing	-1960
▁functioning	-1961
▁representation	-1962
▁rule	-1963
▁indic	-1964
▁assist	-1965
▁market	-1966
▁Lymphoma	-1967
▁mentioned	-1968
sw	-1969
-10	-1970
ake	-1971
arm	-1972
▁dou	-1973
venue	-1974
active	-1975
ration	-1976
▁lakhs	-1977
▁concer	-1978
▁remain	-1979
▁becomes	-1980
▁constit	-1981
▁existing	-1982
▁employees	-1983
▁sometimes	-1984
▁;	-1985
chan	-1986
▁deg	-1987
▁bridge	-1988
▁immune	-1989
▁multip	-1990
▁placed	-1991
▁vessel	-1992
▁contain	-1993
amin	-1994
eter	-1995
ince	-1996
omer	-1997
▁III	-1998
▁dra	-1999
ience	-2000
overy	-2001
▁After	-2002
▁units	-2003
ibility	-2004
▁bridges	-2005
▁syndrome	-2006
▁Secondary	-2007
▁management	-2008
▁lymphocytes	-2009
hi	-2010
ane	-2011
rif	-2012
▁30	-2013
nosis	-2014
range	-2015
▁calc	-2016
▁care	-2017
▁situ	-2018
▁carbo	-2019
▁terms	-2020
erature	-2021
▁minimum	-2022
▁Highways	-2023
▁exchange	-2024
▁techniqu	-2025
unt	-2026
▁says	-2027
▁great	-2028
▁whose	-2029
artments	-2030
▁positive	-2031
▁prognosis	-2032
ministrative	-2033
..	-2034
att	-2035
idd	-2036
▁20	-2037
ists	-2038
▁agg	-2039
▁got	-2040
▁Prog	-2041
▁answ	-2042
▁rare	-2043
aterial	-2044
▁double	-2045
▁little	-2046
▁several	-2047
II	-2048
con	-2049
▁buy	-2050
▁fig	-2051
ledge	-2052
▁dose	-2053
▁hund	-2054
▁pric	-2055
▁Assist	-2056
▁nearby	-2057
▁listing	-2058
▁fif	-2059
utive	-2060
▁AIDS	-2061
▁reach	-2062
▁charge	-2063
▁checked	-2064
▁forward	-2065
▁hundred	-2066
▁initial	-2067
▁injected	-2068
OR	-2069
▁PD	-2070
▁Let	-2071
▁Libr	-2072
▁bank	-2073
fection	-2074
▁residues	-2075
▁structural	-2076
▁application	-2077
ENT	-2078
rie	-2079
▁13	-2080
ield	-2081
▁All	-2082
▁Non	-2083
onment	-2084
yeloid	-2085
▁active	-2086
▁mechan	-2087
▁2009-10	-2088
▁distric	-2089
▁methods	-2090
▁towards	-2091
▁terminal	-2092
▁promoters	-2093
▁supported	-2094
yp	-2095
▁Me	-2096
ably	-2097
▁unit	-2098
▁necess	-2099
▁refine	-2100
▁schools	-2101
▁recovery	-2102
▁committee	-2103
▁infection	-2104
▁Management	-2105
aj	-2106
ray	-2107
▁Ke	-2108
gest	-2109
▁off	-2110
▁loss	-2111
▁magn	-2112
▁writ	-2113
isting	-2114
utions	-2115
▁detect	-2116
▁concentr	-2117
▁provides	-2118
▁procedures	-2119
▁shareholder	-2120
de	-2121
ery	-2122
▁No	-2123
▁age	-2124
ivers	-2125
lycer	-2126
▁atom	-2127
▁base	-2128
▁stat	-2129
▁agree	-2130
▁itself	-2131
▁script	-2132
▁country	-2133
▁subject	-2134
▁working	-2135
▁prospect	-2136
omm	-2137
uro	-2138
vir	-2139
xyl	-2140
▁ed	-2141
ereb	-2142
ured	-2143
▁cor	-2144
▁enc	-2145
▁Bank	-2146
▁Chief	-2147
▁abdom	-2148
▁bound	-2149
▁forth	-2150
▁later	-2151
▁During	-2152
▁caused	-2153
oblastic	-2154
▁pension	-2155
▁learning	-2156
▁formation	-2157
▁knowledge	-2158
▁therefore	-2159
sor	-2160
wor	-2161
▁bl	-2162
iary	-2163
ries	-2164
rote	-2165
▁Law	-2166
▁par	-2167
ached	-2168
incip	-2169
▁oper	-2170
▁rhab	-2171
▁step	-2172
▁quite	-2173
▁answer	-2174
▁hemang	-2175
▁vessels	-2176
▁involved	-2177
▁material	-2178
▁18	-2179
▁25	-2180
▁Col	-2181
▁dem	-2182
lonal	-2183
▁synt	-2184
▁vein	-2185
▁along	-2186
▁polype	-2187
▁chromos	-2188
▁spreads	-2189
▁Standard	-2190
▁provision	-2191
go	-2192
EBI	-2193
anc	-2194
▁sa	-2195
igns	-2196
cript	-2197
▁SEBI	-2198
▁mass	-2199
ysical	-2200
▁office	-2201
▁independ	-2202
▁maintain	-2203
▁accepting	-2204
▁transport	-2205
omen	-2206
▁Mon	-2207
atural	-2208
▁estim	-2209
ertificate	-2210
▁generally	-2211
ET	-2212
▁CD	-2213
▁Or	-2214
olic	-2215
▁Opt	-2216
▁vot	-2217
acity	-2218
iated	-2219
▁fore	-2220
▁figure	-2221
▁states	-2222
▁abdomen	-2223
▁follows	-2224
▁meetings	-2225
▁negative	-2226
▁investors	-2227
mer	-2228
▁Min	-2229
▁Ram	-2230
aving	-2231
cular	-2232
lioma	-2233
▁site	-2234
▁nature	-2235
▁result	-2236
▁Program	-2237
▁contrib	-2238
▁governance	-2239
az	-2240
imb	-2241
ulf	-2242
▁199	-2243
▁bre	-2244
▁ion	-2245
▁lin	-2246
ately	-2247
▁slow	-2248
▁word	-2249
ensity	-2250
uation	-2251
▁audit	-2252
▁const	-2253
▁kinds	-2254
▁purpose	-2255
yosarcoma	-2256
▁training	-2257
ov	-2258
lex	-2259
ires	-2260
ivid	-2261
less	-2262
ters	-2263
▁App	-2264
▁fut	-2265
▁lif	-2266
idered	-2267
oprote	-2268
▁Court	-2269
▁layer	-2270
igation	-2271
itation	-2272
oclonal	-2273
▁electr	-2274
▁parent	-2275
▁target	-2276
▁divided	-2277
▁services	-2278
▁creditors	-2279
▁considered	-2280
▁sanctioned	-2281
▁Directorate	-2282
▁radioactive	-2283
▁conformation	-2284
atur	-2285
ense	-2286
▁Rec	-2287
▁mut	-2288
▁run	-2289
▁2008	-2290
▁Here	-2291
▁line	-2292
▁grant	-2293
▁appear	-2294
▁volunt	-2295
▁Certain	-2296
▁Revenue	-2297
▁allowed	-2298
▁respons	-2299
ng	-2300
ss	-2301
erc	-2302
uram	-2303
▁tom	-2304
▁Land	-2305
▁bran	-2306
▁force	-2307
isation	-2308
▁talking	-2309
▁independent	-2310
IC	-2311
▁“	-2312
ari	-2313
tak	-2314
-201	-2315
pees	-2316
roll	-2317
teen	-2318
istry	-2319
▁goal	-2320
imited	-2321
▁books	-2322
▁court	-2323
▁equal	-2324
▁input	-2325
▁slide	-2326
▁future	-2327
▁listed	-2328
▁centrif	-2329
▁contract	-2330
▁detailed	-2331
▁language	-2332
domyosarcoma	-2333
▁association	-2334
IN	-2335
reg	-2336
▁Sub	-2337
▁med	-2338
ising	-2339
ollow	-2340
omers	-2341
▁cereb	-2342
▁legal	-2343
▁moves	-2344
▁table	-2345
▁instit	-2346
▁Company	-2347
▁nervous	-2348
▁quality	-2349
▁Minister	-2350
▁identify	-2351
▁Corporate	-2352
▁tomography	-2353
cal	-2354
▁On	-2355
MENT	-2356
erat	-2357
▁Key	-2358
▁firm	-2359
▁learn	-2360
ividual	-2361
▁School	-2362
▁Pension	-2363
▁Project	-2364
▁proceed	-2365
▁astrocyt	-2366
▁malignant	-2367
▁mechanism	-2368
▁hemoglobin	-2369
▁translation	-2370
cl	-2371
hing	-2372
iety	-2373
oney	-2374
▁day	-2375
amily	-2376
ulated	-2377
▁Acute	-2378
▁defin	-2379
lection	-2380
▁Higher	-2381
▁Points	-2382
▁giving	-2383
▁networ	-2384
▁passed	-2385
cription	-2386
▁antigen	-2387
▁foreign	-2388
▁removal	-2389
▁pictures	-2390
ma	-2391
nel	-2392
ream	-2393
utes	-2394
▁2006	-2395
ferred	-2396
▁Where	-2397
▁acute	-2398
▁stock	-2399
▁today	-2400
▁describ	-2401
▁studies	-2402
▁phospholip	-2403
ave	-2404
ole	-2405
ton	-2406
▁21	-2407
▁ens	-2408
▁old	-2409
▁data	-2410
▁full	-2411
▁gene	-2412
▁tell	-2413
▁Elect	-2414
▁Signs	-2415
▁price	-2416
▁whole	-2417
▁expert	-2418
▁rupees	-2419
irection	-2420
▁Options	-2421
vironment	-2422
▁document	-2423
▁components	-2424
▁prospectus	-2425
▁chromatography	-2426
),	-2427
▁i	-2428
ests	-2429
ioma	-2430
line	-2431
most	-2432
▁Tir	-2433
▁asp	-2434
▁emb	-2435
▁enz	-2436
▁Even	-2437
▁exerc	-2438
▁genes	-2439
▁money	-2440
▁Secret	-2441
▁genetic	-2442
▁history	-2443
▁holding	-2444
▁maximum	-2445
▁capacity	-2446
▁increases	-2447
▁inhibitor	-2448
▁necessary	-2449
▁additional	-2450
▁individual	-2451
uv	-2452
emb	-2453
lig	-2454
▁OF	-2455
▁ess	-2456
ently	-2457
▁safe	-2458
▁Having	-2459
▁Officers	-2460
▁consider	-2461
▁implemented	-2462
▁temperature	-2463
▁Q	-2464
▁Ag	-2465
atch	-2466
athe	-2467
ired	-2468
ises	-2469
rate	-2470
▁195	-2471
▁cir	-2472
▁Port	-2473
▁Trans	-2474
▁orders	-2475
▁Primary	-2476
▁Univers	-2477
▁service	-2478
▁solvent	-2479
▁Training	-2480
▁Programme	-2481
▁direction	-2482
▁questions	-2483
CT	-2484
ral	-2485
upp	-2486
chie	-2487
eting	-2488
pinal	-2489
▁Part	-2490
▁repl	-2491
▁carry	-2492
▁always	-2493
▁recomm	-2494
aturated	-2495
▁defined	-2496
▁residue	-2497
▁examples	-2498
▁takeover	-2499
▁Institute	-2500
▁relations	-2501
rop	-2502
aves	-2503
ixed	-2504
▁PDQ	-2505
inary	-2506
▁life	-2507
▁Class	-2508
▁antic	-2509
▁travel	-2510
▁measure	-2511
▁princip	-2512
▁schemes	-2513
▁synthes	-2514
▁approval	-2515
▁liability	-2516
▁voluntary	-2517
ats	-2518
▁Bi	-2519
come	-2520
▁him	-2521
▁ide	-2522
▁crit	-2523
atever	-2524
oblast	-2525
▁Power	-2526
▁exact	-2527
▁seven	-2528
▁short	-2529
▁super	-2530
▁write	-2531
▁needle	-2532
▁However	-2533
▁Service	-2534
▁Similar	-2535
▁partners	-2536
▁probably	-2537
▁repeated	-2538
▁treating	-2539
▁agreement	-2540
▁assistance	-2541
lor	-2542
▁16	-2543
▁Ap	-2544
rast	-2545
rupt	-2546
▁Any	-2547
▁pap	-2548
andum	-2549
▁educ	-2550
▁else	-2551
▁tend	-2552
▁gives	-2553
orandum	-2554
▁Engine	-2555
▁Regist	-2556
▁causes	-2557
▁Special	-2558
▁natural	-2559
▁product	-2560
▁protect	-2561
▁station	-2562
▁personal	-2563
▁concerned	-2564
▁concentration	-2565
enc	-2566
uls	-2567
ands	-2568
bone	-2569
lets	-2570
ences	-2571
endym	-2572
▁away	-2573
▁nine	-2574
▁sour	-2575
ending	-2576
▁discl	-2577
▁helps	-2578
▁least	-2579
▁stren	-2580
▁times	-2581
viously	-2582
▁author	-2583
▁equity	-2584
▁distrib	-2585
▁articles	-2586
▁incorpor	-2587
▁separate	-2588
▁incorporation	-2589
omy	-2590
▁MW	-2591
▁ir	-2592
▁100	-2593
earch	-2594
▁Cell	-2595
▁match	-2596
▁needs	-2597
▁sheet	-2598
▁manner	-2599
▁values	-2600
▁Further	-2601
▁clearly	-2602
▁released	-2603
▁delisting	-2604
▁requirement	-2605
▁relationship	-2606
▁TN	-2607
ighb	-2608
wise	-2609
▁bor	-2610
iting	-2611
▁past	-2612
▁summ	-2613
▁analys	-2614
▁muscle	-2615
▁weight	-2616
ediatric	-2617
▁experts	-2618
▁happens	-2619
▁Children	-2620
▁investment	-2621
▁preference	-2622
▁prescribed	-2623
▁properties	-2624
▁Corporation	-2625
,0	-2626
bo	-2627
ark	-2628
mun	-2629
rar	-2630
▁dye	-2631
vered	-2632
▁sent	-2633
,000/-	-2634
ferent	-2635
ricult	-2636
▁Water	-2637
▁achie	-2638
▁intern	-2639
▁select	-2640
▁series	-2641
▁limited	-2642
▁contains	-2643
▁multiple	-2644
▁undertak	-2645
▁character	-2646
▁anticancer	-2647
▁polypeptide	-2648
▁transaction	-2649
▁construction	-2650
ND	-2651
▁CO	-2652
▁Im	-2653
▁ax	-2654
fici	-2655
▁Per	-2656
▁nin	-2657
▁Many	-2658
▁trib	-2659
▁added	-2660
▁close	-2661
▁extra	-2662
▁since	-2663
▁except	-2664
▁notice	-2665
▁profit	-2666
▁density	-2667
▁prevent	-2668
▁component	-2669
▁represented	-2670
to	-2671
cks	-2672
lob	-2673
ites	-2674
▁beh	-2675
▁bri	-2676
▁dim	-2677
▁yet	-2678
▁fifty	-2679
▁funds	-2680
▁links	-2681
▁takes	-2682
ructure	-2683
▁across	-2684
▁covered	-2685
▁external	-2686
▁facilities	-2687
▁introduced	-2688
oun	-2689
ste	-2690
▁00	-2691
▁22	-2692
▁AT	-2693
lish	-2694
sequ	-2695
▁adv	-2696
ATION	-2697
usual	-2698
▁beam	-2699
▁coll	-2700
▁duty	-2701
▁helic	-2702
▁integ	-2703
▁Follow	-2704
▁aspect	-2705
▁expect	-2706
▁neighb	-2707
▁includes	-2708
▁registered	-2709
IT	-2710
lf	-2711
ans	-2712
▁Ep	-2713
erve	-2714
here	-2715
▁CSR	-2716
▁dam	-2717
▁gro	-2718
▁pat	-2719
▁soc	-2720
▁unt	-2721
▁Stud	-2722
▁core	-2723
▁phen	-2724
▁Tests	-2725
▁carri	-2726
ascular	-2727
ression	-2728
▁entire	-2729
▁family	-2730
▁stages	-2731
▁peptide	-2732
▁profess	-2733
▁started	-2734
▁decision	-2735
▁whatever	-2736
▁Similarly	-2737
▁recurrent	-2738
▁completely	-2739
▁throughout	-2740
▁appointment	-2741
uge	-2742
▁sk	-2743
▁gas	-2744
▁mob	-2745
▁mot	-2746
▁vac	-2747
iddle	-2748
izing	-2749
pping	-2750
▁crore	-2751
▁polic	-2752
▁pract	-2753
▁still	-2754
▁Annual	-2755
▁thirty	-2756
▁helices	-2757
▁imaging	-2758
▁building	-2759
▁objective	-2760
ems	-2761
ics	-2762
pto	-2763
ylo	-2764
▁31	-2765
ened	-2766
ware	-2767
▁Acc	-2768
▁Hon	-2769
▁Som	-2770
▁lay	-2771
▁tal	-2772
cosis	-2773
▁allot	-2774
▁began	-2775
ficient	-2776
mission	-2777
▁glycos	-2778
▁likely	-2779
▁region	-2780
▁sheets	-2781
▁analysis	-2782
▁attached	-2783
▁compared	-2784
▁hydroxyl	-2785
▁movement	-2786
▁relating	-2787
▁teachers	-2788
▁essential	-2789
▁remaining	-2790
▁University	-2791
IV	-2792
▁IV	-2793
▁es	-2794
head	-2795
ilic	-2796
leen	-2797
▁Blo	-2798
▁cry	-2799
▁les	-2800
▁cate	-2801
▁prep	-2802
istics	-2803
normal	-2804
▁lands	-2805
▁might	-2806
▁purch	-2807
▁adults	-2808
▁almost	-2809
▁decide	-2810
▁easily	-2811
▁Limited	-2812
▁charged	-2813
▁explore	-2814
▁partial	-2815
▁perform	-2816
▁obtained	-2817
▁particip	-2818
▁question	-2819
▁recurred	-2820
▁inhibitors	-2821
FA	-2822
▁17	-2823
▁At	-2824
ancy	-2825
outh	-2826
▁Ins	-2827
▁adj	-2828
▁tub	-2829
▁Anna	-2830
▁TNEB	-2831
▁weak	-2832
▁divid	-2833
tenance	-2834
▁choice	-2835
▁choose	-2836
▁issuer	-2837
▁stored	-2838
▁Meeting	-2839
▁applied	-2840
▁benefit	-2841
▁suggest	-2842
▁anything	-2843
▁interact	-2844
▁Committee	-2845
▁regarding	-2846
▁Administrative	-2847
ha	-2848
IST	-2849
ett	-2850
ume	-2851
ager	-2852
alle	-2853
aring	-2854
aster	-2855
ivity	-2856
▁post	-2857
▁rate	-2858
alance	-2859
mitted	-2860
ologic	-2861
porter	-2862
valent	-2863
▁chlor	-2864
▁quick	-2865
pection	-2866
▁healthy	-2867
▁network	-2868
▁systems	-2869
▁abnormal	-2870
▁cerebros	-2871
▁dividend	-2872
▁property	-2873
▁Assistant	-2874
pr	-2875
sis	-2876
▁Be	-2877
▁Li	-2878
▁ut	-2879
back	-2880
ffer	-2881
olec	-2882
onic	-2883
▁Int	-2884
▁kin	-2885
▁ult	-2886
riend	-2887
▁lump	-2888
▁real	-2889
atives	-2890
▁proper	-2891
igenetic	-2892
▁Another	-2893
▁decided	-2894
▁details	-2895
▁explain	-2896
▁staging	-2897
valuation	-2898
▁diseases	-2899
▁transporter	-2900
OC	-2901
ta	-2902
ESI	-2903
fus	-2904
ixt	-2905
▁1,	-2906
ches	-2907
ills	-2908
▁put	-2909
▁too	-2910
asing	-2911
ather	-2912
▁With	-2913
▁gets	-2914
▁pack	-2915
rieved	-2916
▁ahead	-2917
▁spect	-2918
etition	-2919
▁Crores	-2920
▁issues	-2921
▁affairs	-2922
▁convert	-2923
▁Districts	-2924
▁recommend	-2925
▁classified	-2926
▁department	-2927
▁investigation	-2928
-0	-2929
agen	-2930
onus	-2931
osin	-2932
udic	-2933
▁Wel	-2934
▁eng	-2935
ively	-2936
▁disp	-2937
▁told	-2938
ophary	-2939
ryonal	-2940
▁binds	-2941
▁borrow	-2942
▁ensure	-2943
▁forces	-2944
▁ground	-2945
▁insert	-2946
▁kinase	-2947
▁moving	-2948
▁places	-2949
▁record	-2950
▁subsid	-2951
▁glycine	-2952
▁extended	-2953
▁membranes	-2954
▁recurring	-2955
▁secondary	-2956
vey	-2957
▁pH	-2958
▁onc	-2959
▁pot	-2960
▁suc	-2961
allel	-2962
▁fill	-2963
▁germ	-2964
▁mixt	-2965
ection	-2966
▁cover	-2967
▁field	-2968
▁branch	-2969
▁output	-2970
endymoma	-2971
▁continu	-2972
▁exactly	-2973
▁hydroly	-2974
▁looking	-2975
▁according	-2976
▁compounds	-2977
▁establish	-2978
▁platelets	-2979
▁everything	-2980
▁memorandum	-2981
▁environment	-2982
▁implementation	-2983
AL	-2984
IL	-2985
alf	-2986
iry	-2987
▁Ar	-2988
oper	-2989
▁Imp	-2990
▁Mal	-2991
▁cut	-2992
FAESI	-2993
rates	-2994
verse	-2995
▁elig	-2996
▁idea	-2997
▁medi	-2998
▁thin	-2999
genous	-3000
ricity	-3001
▁angle	-3002
▁dated	-3003
▁ended	-3004
▁lungs	-3005
lycerol	-3006
▁advant	-3007
▁voting	-3008
▁mission	-3009
▁unusual	-3010
▁External	-3011
▁accounts	-3012
▁district	-3013
▁electron	-3014
yelogenous	-3015
▁Therefore	-3016
lie	-3017
reed	-3018
▁SAR	-3019
▁ele	-3020
▁wid	-3021
ering	-3022
iomas	-3023
▁1956	-3024
▁Cent	-3025
▁fail	-3026
▁orig	-3027
▁Works	-3028
▁cryst	-3029
▁indust	-3030
▁member	-3031
▁occurs	-3032
ervation	-3033
▁lesions	-3034
▁restric	-3035
▁Services	-3036
▁Sometimes	-3037
▁executive	-3038
▁increased	-3039
▁biological	-3040
▁epigenetic	-3041
▁oncologist	-3042
osaccharides	-3043
▁combination	-3044
:-	-3045
RE	-3046
ots	-3047
tty	-3048
yme	-3049
▁My	-3050
cell	-3051
ivil	-3052
ouse	-3053
rani	-3054
rial	-3055
▁Not	-3056
erved	-3057
iders	-3058
iture	-3059
▁dest	-3060
▁sens	-3061
▁wide	-3062
onance	-3063
▁Roads	-3064
▁chess	-3065
▁fight	-3066
▁Combin	-3067
▁aggreg	-3068
▁attack	-3069
▁duties	-3070
▁instru	-3071
▁spleen	-3072
▁SARFAESI	-3073
▁majority	-3074
▁remember	-3075
▁connected	-3076
▁situation	-3077
▁techniques	-3078
▁incorporated	-3079
▁understanding	-3080
of	-3081
ale	-3082
▁Sp	-3083
requ	-3084
▁lar	-3085
▁lig	-3086
achin	-3087
ament	-3088
ights	-3089
▁food	-3090
▁late	-3091
▁neur	-3092
▁team	-3093
▁text	-3094
▁local	-3095
▁newly	-3096
estinal	-3097
utional	-3098
▁access	-3099
▁angles	-3100
▁merger	-3101
▁pretty	-3102
▁activity	-3103
▁magnetic	-3104
▁projects	-3105
▁lipoprote	-3106
▁molecular	-3107
▁neighbour	-3108
ministration	-3109
▁Departments	-3110
▁established	-3111
▁requirements	-3112
PO	-3113
ilk	-3114
isf	-3115
▁Sup	-3116
▁vir	-3117
etera	-3118
▁Stem	-3119
▁decl	-3120
▁feel	-3121
▁infl	-3122
▁laid	-3123
▁mind	-3124
▁olig	-3125
▁prec	-3126
airman	-3127
▁World	-3128
▁fixed	-3129
ificial	-3130
▁Comput	-3131
▁friend	-3132
▁metast	-3133
▁Library	-3134
▁Officer	-3135
▁balance	-3136
▁payment	-3137
▁generate	-3138
▁electrons	-3139
▁obviously	-3140
▁separation	-3141
▁certificate	-3142
▁pathologist	-3143
,3	-3144
ler	-3145
▁Pr	-3146
rees	-3147
▁Dis	-3148
▁ald	-3149
▁bar	-3150
▁bro	-3151
▁vit	-3152
▁flow	-3153
▁peak	-3154
▁tree	-3155
▁upto	-3156
rought	-3157
▁Press	-3158
▁Third	-3159
▁bonus	-3160
▁minor	-3161
▁Matric	-3162
▁gotten	-3163
▁looked	-3164
▁mobile	-3165
▁myosin	-3166
▁replac	-3167
▁Chronic	-3168
▁classes	-3169
▁examine	-3170
▁meaning	-3171
▁mixture	-3172
▁controll	-3173
▁covalent	-3174
▁resonance	-3175
rastructure	-3176
▁generation	-3177
AM	-3178
au	-3179
sp	-3180
for	-3181
aged	-3182
ched	-3183
ival	-3184
▁Met	-3185
▁aut	-3186
▁pub	-3187
▁rou	-3188
dehyd	-3189
gment	-3190
iform	-3191
lines	-3192
lling	-3193
ortun	-3194
▁glob	-3195
▁hard	-3196
▁bones	-3197
▁break	-3198
▁donor	-3199
▁fraud	-3200
conomic	-3201
▁altern	-3202
ficiency	-3203
▁chronic	-3204
▁electro	-3205
▁quickly	-3206
▁Research	-3207
▁carbohyd	-3208
▁etcetera	-3209
▁restruct	-3210
▁retrieved	-3211
▁Monoclonal	-3212
▁importance	-3213
▁regulation	-3214
ras	-3215
▁CT	-3216
▁Fe	-3217
imal	-3218
medi	-3219
unic	-3220
▁lon	-3221
▁vis	-3222
-2010	-3223
astro	-3224
▁fast	-3225
▁flex	-3226
▁ions	-3227
▁radi	-3228
▁Immun	-3229
▁chest	-3230
▁meant	-3231
▁polys	-3232
▁press	-3233
▁longer	-3234
▁though	-3235
astroint	-3236
opharyng	-3237
▁Sarcoma	-3238
▁created	-3239
▁helical	-3240
▁infusion	-3241
raniopharyng	-3242
▁cerebrospinal	-3243
astrointestinal	-3244
CH	-3245
NA	-3246
yt	-3247
ze	-3248
▁23	-3249
copy	-3250
ores	-3251
▁AND	-3252
▁MRI	-3253
anine	-3254
forms	-3255
lieve	-3256
where	-3257
▁Fore	-3258
▁laws	-3259
cholar	-3260
rosine	-3261
▁2013.	-3262
▁mouth	-3263
▁solve	-3264
▁turns	-3265
▁policy	-3266
▁school	-3267
▁strong	-3268
▁Science	-3269
▁acquire	-3270
▁arrange	-3271
▁wherein	-3272
▁affected	-3273
▁internal	-3274
▁centrifug	-3275
▁described	-3276
▁estimated	-3277
▁definition	-3278
▁objectives	-3279
▁partnership	-3280
alg	-3281
ars	-3282
mes	-3283
▁hy	-3284
▁wa	-3285
izes	-3286
omet	-3287
▁Del	-3288
▁Med	-3289
▁cyt	-3290
▁dip	-3291
▁obs	-3292
▁uns	-3293
inate	-3294
▁2007	-3295
▁Brid	-3296
▁Once	-3297
▁Brain	-3298
▁talks	-3299
unction	-3300
▁Person	-3301
▁debent	-3302
▁enzyme	-3303
▁English	-3304
▁Myeloid	-3305
▁myeloid	-3306
lementary	-3307
▁collagen	-3308
▁tribunal	-3309
ifications	-3310
▁indicates	-3311
▁placement	-3312
▁chromosome	-3313
▁conceptual	-3314
▁computerized	-3315
▁Lymphoblastic	-3316
DI	-3317
▁Z	-3318
cin	-3319
emp	-3320
ime	-3321
let	-3322
que	-3323
▁Bu	-3324
▁Di	-3325
RANS	-3326
orts	-3327
▁Ang	-3328
▁Dif	-3329
▁Fin	-3330
▁PET	-3331
▁Rem	-3332
▁aim	-3333
▁jug	-3334
▁mis	-3335
algam	-3336
atisf	-3337
ctors	-3338
eding	-3339
iling	-3340
issue	-3341
oring	-3342
▁fram	-3343
selves	-3344
▁Appro	-3345
▁Blood	-3346
▁micro	-3347
▁react	-3348
version	-3349
▁Indust	-3350
▁cannib	-3351
▁mainly	-3352
▁return	-3353
▁source	-3354
▁analyte	-3355
▁brought	-3356
▁changed	-3357
▁derived	-3358
▁forming	-3359
▁society	-3360
▁purposes	-3361
▁providing	-3362
▁technique	-3363
▁restructuring	-3364
ior	-3365
nam	-3366
ault	-3367
body	-3368
elve	-3369
idic	-3370
rect	-3371
reen	-3372
rous	-3373
then	-3374
▁Ext	-3375
▁Gov	-3376
▁Sal	-3377
▁ver	-3378
ipher	-3379
▁Most	-3380
▁Vill	-3381
▁circ	-3382
▁copy	-3383
dehyde	-3384
▁guide	-3385
▁print	-3386
▁shows	-3387
▁sixty	-3388
cholars	-3389
▁Tissue	-3390
▁entity	-3391
▁levels	-3392
▁memory	-3393
aplastic	-3394
▁histone	-3395
▁whereas	-3396
oblastoma	-3397
▁organism	-3398
▁systemic	-3399
▁determine	-3400
▁education	-3401
▁otherwise	-3402
▁potential	-3403
▁programme	-3404
▁technical	-3405
▁themselves	-3406
▁Combination	-3407
▁astrocytoma	-3408
▁departments	-3409
▁maintenance	-3410
EM	-3411
rag	-3412
rig	-3413
grad	-3414
reme	-3415
▁198	-3416
▁CSF	-3417
▁fav	-3418
▁nam	-3419
ators	-3420
gthen	-3421
inity	-3422
▁Govt	-3423
▁harm	-3424
▁horm	-3425
▁pred	-3426
▁vill	-3427
stream	-3428
▁Crore	-3429
▁aspir	-3430
▁award	-3431
▁thous	-3432
▁compli	-3433
▁degree	-3434
▁talked	-3435
▁carried	-3436
▁granted	-3437
▁vitamin	-3438
abilities	-3439
▁Physical	-3440
▁officers	-3441
▁studying	-3442
▁vascular	-3443
▁proceedings	-3444
EL	-3445
apt	-3446
har	-3447
▁60	-3448
cles	-3449
emic	-3450
zary	-3451
▁Out	-3452
▁ask	-3453
▁fit	-3454
▁hab	-3455
▁ill	-3456
anges	-3457
herom	-3458
▁Cont	-3459
▁Over	-3460
▁aver	-3461
▁goes	-3462
▁neck	-3463
goides	-3464
omeric	-3465
ptides	-3466
reedom	-3467
▁death	-3468
▁decre	-3469
▁depos	-3470
▁image	-3471
▁neuro	-3472
▁center	-3473
▁chains	-3474
▁pherom	-3475
▁success	-3476
▁exercise	-3477
▁opportun	-3478
▁planning	-3479
▁referred	-3480
▁depending	-3481
▁embryonal	-3482
▁fungoides	-3483
▁specified	-3484
▁artificial	-3485
▁continuous	-3486
▁ependymoma	-3487
▁constituted	-3488
▁Matriculation	-3489
ED	-3490
rm	-3491
cus	-3492
log	-3493
ope	-3494
▁Ab	-3495
ilit	-3496
oass	-3497
▁Pre	-3498
▁ble	-3499
anced	-3500
yment	-3501
▁Four	-3502
▁deep	-3503
▁easy	-3504
▁fold	-3505
▁lane	-3506
▁send	-3507
▁sure	-3508
▁trad	-3509
though	-3510
▁Grade	-3511
▁Rules	-3512
▁Techn	-3513
▁deriv	-3514
▁doses	-3515
▁limit	-3516
▁shape	-3517
▁stake	-3518
▁annual	-3519
▁liable	-3520
▁phases	-3521
▁prepar	-3522
enditure	-3523
▁Collect	-3524
▁amalgam	-3525
▁install	-3526
▁restore	-3527
▁travels	-3528
accharide	-3529
sociation	-3530
▁Planning	-3531
▁explored	-3532
▁official	-3533
▁presence	-3534
▁strength	-3535
ricultural	-3536
▁pheromone	-3537
▁statements	-3538
ead	-3539
isl	-3540
umb	-3541
▁27	-3542
▁NH	-3543
ruit	-3544
▁Rep	-3545
▁exc	-3546
▁lab	-3547
iving	-3548
onent	-3549
otide	-3550
▁Drug	-3551
▁Exam	-3552
▁Supp	-3553
▁dele	-3554
▁gall	-3555
▁sale	-3556
aneous	-3557
encing	-3558
ulfide	-3559
▁filed	-3560
stances	-3561
▁assets	-3562
▁begins	-3563
▁immedi	-3564
▁layers	-3565
▁rather	-3566
▁sugars	-3567
▁Nervous	-3568
▁default	-3569
▁Biologic	-3570
▁Teachers	-3571
▁auditors	-3572
▁eligible	-3573
▁relevant	-3574
▁2009-2010	-3575
▁Libraries	-3576
▁chemistry	-3577
▁construct	-3578
▁describes	-3579
▁remission	-3580
▁Electricity	-3581
▁interesting	-3582
▁lymphoblastic	-3583
,5	-3584
DP	-3585
ox	-3586
si	-3587
aff	-3588
aps	-3589
rim	-3590
yed	-3591
▁Am	-3592
▁pi	-3593
alur	-3594
atin	-3595
emed	-3596
iate	-3597
▁Mar	-3598
▁ran	-3599
erves	-3600
ulate	-3601
▁Soft	-3602
▁prot	-3603
achand	-3604
ocytic	-3605
▁delta	-3606
▁quant	-3607
▁steps	-3608
itoring	-3609
▁Sachin	-3610
▁assign	-3611
▁demand	-3612
▁glioma	-3613
▁methyl	-3614
▁others	-3615
▁satisf	-3616
▁Station	-3617
▁achieve	-3618
▁disclos	-3619
▁greater	-3620
▁objects	-3621
▁written	-3622
achandran	-3623
▁minority	-3624
▁promoter	-3625
▁selected	-3626
▁whenever	-3627
▁decisions	-3628
▁documents	-3629
▁discussing	-3630
▁evaluation	-3631
▁Examination	-3632
▁bloodstream	-3633
▁chromosomes	-3634
▁professional	-3635
LT	-3636
ls	-3637
ps	-3638
uf	-3639
...	-3640
app	-3641
ils	-3642
ple	-3643
rai	-3644
rav	-3645
▁01	-3646
▁PR	-3647
ithe	-3648
lief	-3649
olid	-3650
pper	-3651
▁Nag	-3652
▁bad	-3653
▁gam	-3654
▁key	-3655
▁phi	-3656
▁pun	-3657
vents	-3658
▁2011	-3659
▁Cons	-3660
▁Stat	-3661
▁city	-3662
▁dead	-3663
▁ster	-3664
▁till	-3665
▁tube	-3666
▁wind	-3667
ulsory	-3668
▁Delhi	-3669
▁Drugs	-3670
▁Thank	-3671
▁bring	-3672
▁speed	-3673
▁stack	-3674
▁valid	-3675
ipheral	-3676
osition	-3677
▁Social	-3678
▁destro	-3679
▁matter	-3680
▁player	-3681
▁sector	-3682
▁ability	-3683
▁amounts	-3684
▁planned	-3685
▁approach	-3686
▁bleeding	-3687
▁dividing	-3688
▁parallel	-3689
▁Standards	-3690
▁collected	-3691
▁converted	-3692
▁evolution	-3693
▁providers	-3694
▁Ramachandran	-3695
ga	-3696
itt	-3697
rel	-3698
une	-3699
xim	-3700
doid	-3701
eful	-3702
uble	-3703
▁enh	-3704
▁tax	-3705
▁win	-3706
enses	-3707
icken	-3708
▁Head	-3709
▁Next	-3710
▁draw	-3711
▁loan	-3712
▁surv	-3713
ancies	-3714
lished	-3715
▁Based	-3716
▁Level	-3717
▁Szary	-3718
▁While	-3719
▁color	-3720
▁seems	-3721
holders	-3722
▁attach	-3723
▁clause	-3724
▁define	-3725
▁farmer	-3726
▁groove	-3727
▁larger	-3728
▁social	-3729
▁supply	-3730
▁useful	-3731
▁viewed	-3732
▁approved	-3733
▁distance	-3734
▁normally	-3735
▁physical	-3736
▁districts	-3737
▁metastatic	-3738
▁expenditure	-3739
▁responsible	-3740
AB	-3741
amm	-3742
did	-3743
lay	-3744
rue	-3745
▁28	-3746
▁IN	-3747
▁Sh	-3748
▁ox	-3749
▁pK	-3750
sorb	-3751
view	-3752
▁cop	-3753
▁did	-3754
▁eth	-3755
ounce	-3756
uvall	-3757
▁Five	-3758
▁Fund	-3759
▁acts	-3760
▁coal	-3761
▁ring	-3762
iction	-3763
▁Build	-3764
▁alter	-3765
▁coord	-3766
▁focus	-3767
▁lumps	-3768
▁virus	-3769
▁wrong	-3770
mediate	-3771
olipids	-3772
▁candid	-3773
▁disord	-3774
▁fourth	-3775
▁really	-3776
▁starts	-3777
olecular	-3778
▁aspects	-3779
▁average	-3780
▁buyback	-3781
▁confirm	-3782
▁domains	-3783
▁matters	-3784
▁modules	-3785
▁pattern	-3786
▁typical	-3787
▁Approved	-3788
▁Computer	-3789
▁prepared	-3790
▁security	-3791
▁thousand	-3792
▁existence	-3793
▁generated	-3794
▁registrar	-3795
▁separated	-3796
▁functional	-3797
▁glycosidic	-3798
▁inspection	-3799
▁recognition	-3800
▁administrative	-3801
▁polysaccharides	-3802
aun	-3803
ene	-3804
udi	-3805
aled	-3806
ison	-3807
▁FDI	-3808
▁dev	-3809
▁mel	-3810
▁won	-3811
ables	-3812
atore	-3813
habil	-3814
icted	-3815
ioend	-3816
▁acet	-3817
▁wall	-3818
ducing	-3819
oassay	-3820
▁Inter	-3821
▁paper	-3822
▁solid	-3823
▁until	-3824
▁women	-3825
ressive	-3826
▁assess	-3827
▁consum	-3828
▁integr	-3829
▁ligand	-3830
ensional	-3831
imbatore	-3832
rigation	-3833
▁linkage	-3834
▁officer	-3835
ioendothe	-3836
▁2009-10,	-3837
▁rotation	-3838
▁solutions	-3839
▁sequencing	-3840
habilitation	-3841
,2	-3842
gn	-3843
gu	-3844
arb	-3845
▁29	-3846
▁40	-3847
▁DE	-3848
gers	-3849
quot	-3850
utam	-3851
▁196	-3852
▁Inf	-3853
▁nom	-3854
▁Rail	-3855
▁aque	-3856
▁cust	-3857
▁diss	-3858
▁fair	-3859
▁hill	-3860
▁purs	-3861
▁util	-3862
ficult	-3863
gments	-3864
▁climb	-3865
▁cycle	-3866
▁older	-3867
▁pregn	-3868
▁Examin	-3869
▁appeal	-3870
▁neural	-3871
▁aqueous	-3872
▁dealing	-3873
▁commence	-3874
▁expected	-3875
▁opponent	-3876
▁subscrib	-3877
▁disulfide	-3878
▁principle	-3879
▁subsidiary	-3880
▁missionaries	-3881
▁registration	-3882
▁infrastructure	-3883
CO	-3884
las	-3885
ott	-3886
abil	-3887
cers	-3888
ergy	-3889
irth	-3890
ling	-3891
oura	-3892
▁Maj	-3893
▁Why	-3894
▁arm	-3895
▁eye	-3896
actic	-3897
ariat	-3898
eteen	-3899
ochem	-3900
▁From	-3901
▁axis	-3902
▁rand	-3903
esides	-3904
liomas	-3905
▁Civil	-3906
▁amylo	-3907
▁cross	-3908
▁inher	-3909
▁trave	-3910
▁watch	-3911
raction	-3912
▁Energy	-3913
▁experi	-3914
▁happen	-3915
▁middle	-3916
▁recept	-3917
▁secret	-3918
▁static	-3919
ruitment	-3920
▁attract	-3921
▁instead	-3922
▁portion	-3923
▁thereby	-3924
▁writing	-3925
▁Internal	-3926
▁creditor	-3927
▁immature	-3928
▁nineteen	-3929
▁difficult	-3930
▁execution	-3931
▁pediatric	-3932
▁reduction	-3933
▁Coimbatore	-3934
▁debentures	-3935
▁increasing	-3936
▁liquidator	-3937
▁understood	-3938
▁Certificate	-3939
▁improvement	-3940
▁neighbourhood	-3941
▁phospholipids	-3942
br	-3943
iy	-3944
ART	-3945
acy	-3946
ern	-3947
▁03	-3948
▁Mo	-3949
▁dy	-3950
mega	-3951
nadu	-3952
rink	-3953
▁HIV	-3954
▁Raj	-3955
agent	-3956
oglyc	-3957
olved	-3958
rathe	-3959
▁More	-3960
▁Thus	-3961
▁chat	-3962
▁dash	-3963
▁heat	-3964
▁impr	-3965
▁pain	-3966
▁pair	-3967
▁pine	-3968
▁seed	-3969
▁vers	-3970
▁went	-3971
adurai	-3972
▁Union	-3973
▁grain	-3974
▁range	-3975
▁rotor	-3976
▁terat	-3977
eration	-3978
▁buffer	-3979
▁random	-3980
▁status	-3981
rathecal	-3982
▁Teacher	-3983
▁categor	-3984
▁crystal	-3985
▁degrees	-3986
▁promote	-3987
▁secured	-3988
▁benefits	-3989
▁climbing	-3990
▁critical	-3991
▁measures	-3992
▁signific	-3993
▁Different	-3994
▁Tamilnadu	-3995
▁anaplastic	-3996
▁applicable	-3997
▁candidates	-3998
▁determined	-3999
▁liabilities	-4000
▁centrifugation	-4001
raniopharyngioma	-4002
amb	-4003
ict	-4004
jug	-4005
uty	-4006
vis	-4007
▁42	-4008
▁jo	-4009
-200	-4010
nces	-4011
▁500	-4012
▁Par	-4013
▁big	-4014
▁kil	-4015
▁tas	-4016
TRANS	-4017
afety	-4018
llate	-4019
▁Bone	-4020
▁Such	-4021
▁brom	-4022
▁plot	-4023
▁rise	-4024
▁self	-4025
illion	-4026
ruptcy	-4027
static	-4028
▁Diagn	-4029
▁Every	-4030
▁arrow	-4031
▁breat	-4032
▁leads	-4033
▁wants	-4034
▁words	-4035
▁world	-4036
ediment	-4037
▁glutam	-4038
▁impart	-4039
▁review	-4040
▁sevent	-4041
▁slowly	-4042
▁stabil	-4043
▁actions	-4044
▁charges	-4045
▁content	-4046
▁organic	-4047
▁reduced	-4048
▁regular	-4049
▁request	-4050
▁affinity	-4051
▁purchase	-4052
▁regional	-4053
▁classical	-4054
▁phosphate	-4055
▁guidelines	-4056
▁maintained	-4057
▁monoclonal	-4058
▁nucleotide	-4059
▁Secretariat	-4060
▁composition	-4061
▁dimensional	-4062
▁Examinations	-4063
▁stakeholders	-4064
▁carbohydrates	-4065
DR	-4066
wo	-4067
▁36	-4068
▁75	-4069
▁MO	-4070
anks	-4071
fare	-4072
fuse	-4073
ooth	-4074
rmal	-4075
tose	-4076
▁Bur	-4077
▁Dec	-4078
▁Emp	-4079
▁Ste	-4080
▁cav	-4081
▁fox	-4082
▁ket	-4083
aling	-4084
enced	-4085
ghter	-4086
idden	-4087
▁Also	-4088
▁Back	-4089
▁came	-4090
▁diff	-4091
▁face	-4092
▁hour	-4093
▁mand	-4094
▁oxid	-4095
▁prem	-4096
▁walk	-4097
aching	-4098
itable	-4099
▁Major	-4100
▁Neuro	-4101
▁Since	-4102
▁doesn	-4103
▁gamma	-4104
▁gland	-4105
▁heart	-4106
▁loops	-4107
▁nerve	-4108
▁omega	-4109
▁plant	-4110
▁posts	-4111
▁raise	-4112
▁simpl	-4113
▁Survey	-4114
▁bacter	-4115
▁benign	-4116
▁create	-4117
▁damage	-4118
▁exceed	-4119
▁hidden	-4120
▁images	-4121
▁learnt	-4122
▁Madurai	-4123
▁Private	-4124
▁Reforms	-4125
▁Welfare	-4126
▁chicken	-4127
▁mycosis	-4128
▁proport	-4129
ventional	-4130
▁Language	-4131
▁backbone	-4132
▁controls	-4133
▁resident	-4134
▁tyrosine	-4135
▁villages	-4136
▁Engineers	-4137
▁Secretary	-4138
▁advantage	-4139
▁efficient	-4140
▁particles	-4141
▁synthesis	-4142
▁associated	-4143
▁centrifuge	-4144
▁compulsory	-4145
▁hydrolysis	-4146
▁instrument	-4147
▁production	-4148
▁programmes	-4149
▁distributed	-4150
▁myelogenous	-4151
Ms	-4152
RT	-4153
ST	-4154
ex	-4155
ARD	-4156
bot	-4157
oly	-4158
pri	-4159
ylg	-4160
▁45	-4161
▁52	-4162
▁90	-4163
alli	-4164
iter	-4165
mers	-4166
▁Gaz	-4167
▁Red	-4168
▁syn	-4169
▁ups	-4170
aches	-4171
ellig	-4172
ining	-4173
uting	-4174
▁2005	-4175
▁NCLT	-4176
▁fine	-4177
▁stor	-4178
▁user	-4179
aments	-4180
ercial	-4181
▁fever	-4182
▁house	-4183
▁sense	-4184
▁subty	-4185
▁views	-4186
▁weeks	-4187
▁cavity	-4188
▁cities	-4189
▁debtor	-4190
▁dipole	-4191
▁gallon	-4192
▁habits	-4193
pecially	-4194
▁Inspect	-4195
▁consult	-4196
▁express	-4197
▁facilit	-4198
▁ordered	-4199
▁produce	-4200
▁reasons	-4201
▁remains	-4202
▁allotted	-4203
▁checking	-4204
▁consolid	-4205
▁inserted	-4206
▁substant	-4207
▁Pediatric	-4208
▁Personnel	-4209
▁buildings	-4210
▁currently	-4211
▁recognize	-4212
▁specialist	-4213
▁Educational	-4214
▁organisation	-4215
▁transactions	-4216
be	-4217
mb	-4218
ipt	-4219
met	-4220
sec	-4221
▁24	-4222
▁26	-4223
atio	-4224
iral	-4225
riev	-4226
uary	-4227
uled	-4228
yond	-4229
▁197	-4230
▁ATP	-4231
▁MDS	-4232
▁Who	-4233
▁cod	-4234
▁eff	-4235
force	-4236
iable	-4237
lioid	-4238
osing	-4239
osite	-4240
ucine	-4241
▁2000	-4242
▁Text	-4243
▁file	-4244
▁onto	-4245
▁shap	-4246
ginine	-4247
icular	-4248
▁avoid	-4249
▁brief	-4250
▁forty	-4251
▁fully	-4252
▁hairy	-4253
▁maxim	-4254
▁paths	-4255
▁stere	-4256
▁train	-4257
atories	-4258
heduled	-4259
otactic	-4260
▁beyond	-4261
▁deemed	-4262
▁enough	-4263
▁extend	-4264
▁extent	-4265
▁linear	-4266
▁unless	-4267
▁volume	-4268
ographic	-4269
▁Schemes	-4270
▁fibrous	-4271
▁finally	-4272
▁manager	-4273
▁muscles	-4274
▁nuclear	-4275
▁regions	-4276
ithelioid	-4277
▁Secondly	-4278
▁chloride	-4279
▁consists	-4280
▁glycogen	-4281
▁involves	-4282
▁mutation	-4283
▁revision	-4284
▁Malignant	-4285
▁authority	-4286
▁myoglobin	-4287
▁practices	-4288
▁sensitive	-4289
▁Insolvency	-4290
▁collection	-4291
▁pensioners	-4292
▁Association	-4293
▁immediately	-4294
▁personality	-4295
▁implementing	-4296
▁characteristics	-4297
CL	-4298
DU	-4299
IP	-4300
ING	-4301
ift	-4302
ocy	-4303
▁GA	-4304
▁TH	-4305
▁ge	-4306
▁tr	-4307
▁vs	-4308
ails	-4309
anol	-4310
hers	-4311
like	-4312
ocal	-4313
▁Bas	-4314
▁CML	-4315
▁Des	-4316
▁Ord	-4317
▁Sar	-4318
▁bul	-4319
▁hyp	-4320
▁unl	-4321
-2011	-4322
romat	-4323
▁Auth	-4324
▁Prov	-4325
▁true	-4326
ership	-4327
idence	-4328
ightly	-4329
rouble	-4330
urrent	-4331
▁assum	-4332
▁drawn	-4333
▁lines	-4334
▁medic	-4335
▁prior	-4336
▁ratio	-4337
▁staff	-4338
▁waves	-4339
section	-4340
udicial	-4341
▁Centre	-4342
▁blocks	-4343
▁criter	-4344
▁phenyl	-4345
▁raised	-4346
▁cancers	-4347
▁consist	-4348
▁fluores	-4349
▁killing	-4350
▁release	-4351
▁smaller	-4352
▁storage	-4353
rosarcoma	-4354
▁Ministry	-4355
▁announce	-4356
▁cellular	-4357
▁rhabdoid	-4358
▁sediment	-4359
▁2010-2011	-4360
▁Classical	-4361
▁cannibals	-4362
▁diagnosis	-4363
▁exploring	-4364
▁fundament	-4365
▁published	-4366
▁categories	-4367
▁compliance	-4368
▁especially	-4369
▁stationery	-4370
▁description	-4371
▁hemangiomas	-4372
▁unsaturated	-4373
▁distribution	-4374
▁institutional	-4375
▁monosaccharides	-4376
▁recommendations	-4377
,1	-4378
AG	-4379
AI	-4380
td	-4381
tes	-4382
▁32	-4383
▁33	-4384
▁Ob	-4385
▁ST	-4386
▁ce	-4387
hest	-4388
kitt	-4389
vest	-4390
▁Ant	-4391
▁Kan	-4392
▁Ltd	-4393
▁Mad	-4394
▁hom	-4395
▁occ	-4396
artic	-4397
udget	-4398
utory	-4399
▁Appe	-4400
▁book	-4401
▁kilo	-4402
▁salt	-4403
▁tour	-4404
nesses	-4405
reated	-4406
▁Being	-4407
▁Minor	-4408
▁alone	-4409
▁cathe	-4410
▁intra	-4411
▁ionic	-4412
▁party	-4413
▁ports	-4414
▁store	-4415
▁circum	-4416
▁legisl	-4417
▁letter	-4418
▁option	-4419
▁upgrad	-4420
▁Account	-4421
▁Burkitt	-4422
▁correct	-4423
▁exposed	-4424
▁nucleus	-4425
sequently	-4426
▁Economic	-4427
▁aldehyde	-4428
▁commonly	-4429
▁priority	-4430
▁sections	-4431
▁beginning	-4432
▁filaments	-4433
▁standards	-4434
▁percentage	-4435
▁stationary	-4436
▁undertaken	-4437
▁opportunity	-4438
▁preparation	-4439
▁contribution	-4440
PV	-4441
-11	-4442
arr	-4443
ech	-4444
men	-4445
osp	-4446
ror	-4447
▁41	-4448
▁44	-4449
▁Go	-4450
▁Gu	-4451
▁US	-4452
AMIL	-4453
alam	-4454
aren	-4455
aste	-4456
dule	-4457
iaph	-4458
oids	-4459
ragm	-4460
text	-4461
▁DNA	-4462
▁Div	-4463
▁IPO	-4464
▁bat	-4465
▁lys	-4466
▁sod	-4467
▁swe	-4468
allow	-4469
arily	-4470
fered	-4471
strom	-4472
▁Init	-4473
▁Magn	-4474
▁ants	-4475
▁sett	-4476
anding	-4477
hedule	-4478
requis	-4479
▁Emplo	-4480
▁Hence	-4481
▁autom	-4482
▁delay	-4483
▁depth	-4484
▁diaph	-4485
▁enzym	-4486
▁famil	-4487
▁fruct	-4488
▁pairs	-4489
▁scale	-4490
▁serve	-4491
▁sites	-4492
▁young	-4493
isional	-4494
▁allows	-4495
▁engine	-4496
▁filled	-4497
▁handed	-4498
▁highly	-4499
▁points	-4500
▁propos	-4501
▁Mycosis	-4502
▁Whereas	-4503
▁melting	-4504
▁samples	-4505
▁scripts	-4506
▁constant	-4507
▁describe	-4508
▁flexible	-4509
▁intellig	-4510
▁products	-4511
▁surround	-4512
▁diaphragm	-4513
▁explained	-4514
▁happening	-4515
▁inherited	-4516
▁retention	-4517
▁regulatory	-4518
▁immunoassay	-4519
▁conventional	-4520
▁consideration	-4521
▁hemangioendothe	-4522
ee	-4523
ban	-4524
iff	-4525
oll	-4526
son	-4527
the	-4528
▁Of	-4529
▁ur	-4530
full	-4531
ging	-4532
iled	-4533
inam	-4534
sive	-4535
acted	-4536
atern	-4537
inium	-4538
olesc	-4539
tical	-4540
tions	-4541
▁Dist	-4542
▁Late	-4543
▁Year	-4544
▁anus	-4545
▁cash	-4546
▁cyan	-4547
▁gram	-4548
▁half	-4549
▁plas	-4550
▁swit	-4551
▁thus	-4552
ources	-4553
▁Extra	-4554
▁Three	-4555
▁broad	-4556
▁joint	-4557
▁seeds	-4558
▁tract	-4559
attinam	-4560
nection	-4561
ossible	-4562
umption	-4563
▁Magnes	-4564
▁actual	-4565
▁breast	-4566
▁eighty	-4567
▁formal	-4568
▁inputs	-4569
▁models	-4570
▁origin	-4571
▁safety	-4572
▁Bridges	-4573
▁address	-4574
▁amyloid	-4575
▁costing	-4576
▁grounds	-4577
▁nothing	-4578
▁solving	-4579
▁waiting	-4580
ferential	-4581
▁arginine	-4582
▁carboxyl	-4583
▁equation	-4584
▁glycerol	-4585
▁hormones	-4586
▁observed	-4587
▁pressure	-4588
▁requires	-4589
▁scholars	-4590
▁alternate	-4591
▁illnesses	-4592
▁prerequis	-4593
▁saturated	-4594
▁Elementary	-4595
▁completion	-4596
▁arrangement	-4597
▁substantial	-4598
▁announcement	-4599
▁Administration	-4600
3,	-4601
fib	-4602
▁By	-4603
▁CH	-4604
▁Ef	-4605
▁PO	-4606
▁Qu	-4607
▁py	-4608
clic	-4609
gory	-4610
iece	-4611
kele	-4612
lies	-4613
rays	-4614
rick	-4615
ship	-4616
▁Inc	-4617
▁NAB	-4618
▁Obs	-4619
▁cat	-4620
▁ren	-4621
acylg	-4622
ender	-4623
lease	-4624
omach	-4625
orter	-4626
unals	-4627
▁Lear	-4628
▁Prof	-4629
▁anti	-4630
▁eigh	-4631
▁lays	-4632
ometry	-4633
ording	-4634
▁Impro	-4635
▁Ports	-4636
▁aware	-4637
▁birth	-4638
▁bodys	-4639
▁grows	-4640
▁hence	-4641
▁influ	-4642
▁looks	-4643
▁piece	-4644
▁remun	-4645
vention	-4646
▁Deputy	-4647
▁Invest	-4648
▁Middle	-4649
▁NABARD	-4650
▁acting	-4651
▁scient	-4652
▁vision	-4653
▁Freedom	-4654
▁Supreme	-4655
▁alanine	-4656
▁element	-4657
▁enzymes	-4658
▁maltose	-4659
▁mergers	-4660
▁needles	-4661
▁opening	-4662
▁parties	-4663
▁playing	-4664
▁precise	-4665
▁profits	-4666
▁proline	-4667
▁reading	-4668
▁receipt	-4669
▁respond	-4670
▁trading	-4671
▁weights	-4672
operative	-4673
▁Exchange	-4674
▁accorded	-4675
▁appropri	-4676
▁aspartic	-4677
▁criteria	-4678
▁designed	-4679
▁elements	-4680
▁globular	-4681
▁solvents	-4682
▁spectrom	-4683
▁supplied	-4684
▁teratoid	-4685
▁thinking	-4686
▁According	-4687
▁Decisions	-4688
▁installed	-4689
▁replacing	-4690
▁strengthen	-4691
▁translated	-4692
acylglycerol	-4693
▁fundamental	-4694
▁significant	-4695
▁Construction	-4696
▁Registration	-4697
▁commencement	-4698
▁lipoproteins	-4699
▁preferential	-4700
▁electrostatic	-4701
).	-4702
7,	-4703
OP	-4704
OV	-4705
ECT	-4706
ERN	-4707
add	-4708
coh	-4709
ier	-4710
iny	-4711
zed	-4712
▁43	-4713
▁49	-4714
▁IC	-4715
▁er	-4716
abus	-4717
eces	-4718
look	-4719
nger	-4720
olve	-4721
umab	-4722
▁50%	-4723
▁Add	-4724
▁Pur	-4725
▁hep	-4726
▁log	-4727
▁pop	-4728
▁tau	-4729
▁tet	-4730
alore	-4731
eters	-4732
fully	-4733
oster	-4734
romal	-4735
▁Hind	-4736
▁atyp	-4737
▁bund	-4738
▁furn	-4739
▁gave	-4740
▁hous	-4741
▁laun	-4742
▁mole	-4743
▁vide	-4744
inting	-4745
llabus	-4746
▁March	-4747
▁TAMIL	-4748
▁alcoh	-4749
▁antig	-4750
▁axial	-4751
▁event	-4752
▁glass	-4753
▁liter	-4754
▁pursu	-4755
▁silic	-4756
▁upper	-4757
emption	-4758
jection	-4759
riminal	-4760
ruption	-4761
▁centre	-4762
▁distin	-4763
▁faster	-4764
▁mature	-4765
▁modern	-4766
▁recent	-4767
▁stable	-4768
ordinary	-4769
▁2010-11	-4770
▁Medical	-4771
▁carries	-4772
▁closely	-4773
▁conclud	-4774
▁doctors	-4775
▁offices	-4776
▁serious	-4777
▁younger	-4778
apattinam	-4779
▁Astrocyt	-4780
▁Remember	-4781
▁Students	-4782
▁acquirer	-4783
▁although	-4784
▁atypical	-4785
▁brighter	-4786
▁communic	-4787
▁fructose	-4788
▁stopping	-4789
▁aggregate	-4790
▁destroyed	-4791
▁sequences	-4792
▁assessment	-4793
▁calculated	-4794
▁designated	-4795
▁travelling	-4796
▁corporation	-4797
▁applications	-4798
▁astrocytomas	-4799
▁subscription	-4800
▁sedimentation	-4801
▁responsibility	-4802
6,	-4803
BC	-4804
ik	-4805
III	-4806
ami	-4807
omp	-4808
opt	-4809
rog	-4810
udd	-4811
▁Ir	-4812
▁RE	-4813
adol	-4814
gies	-4815
inem	-4816
itud	-4817
know	-4818
qual	-4819
▁ara	-4820
▁dig	-4821
▁flo	-4822
▁mor	-4823
▁pel	-4824
▁ste	-4825
aking	-4826
arant	-4827
osome	-4828
ufact	-4829
▁Book	-4830
▁Exec	-4831
▁Germ	-4832
▁Like	-4833
▁host	-4834
▁kept	-4835
▁live	-4836
▁loop	-4837
▁neut	-4838
▁phys	-4839
▁rein	-4840
▁scen	-4841
▁soon	-4842
▁town	-4843
elling	-4844
encies	-4845
ensive	-4846
orable	-4847
ulture	-4848
▁Colle	-4849
▁induc	-4850
▁wires	-4851
atively	-4852
▁Office	-4853
▁differ	-4854
▁medium	-4855
▁orient	-4856
▁preced	-4857
▁radius	-4858
▁rarely	-4859
▁sealed	-4860
▁serves	-4861
▁triple	-4862
▁twelve	-4863
▁versus	-4864
cellular	-4865
uddalore	-4866
▁Finance	-4867
▁Manager	-4868
▁alcohol	-4869
▁bonding	-4870
▁cleaves	-4871
▁enforce	-4872
▁however	-4873
▁medical	-4874
▁offered	-4875
▁possess	-4876
▁reports	-4877
▁stomach	-4878
▁superco	-4879
▁traffic	-4880
olescents	-4881
rievances	-4882
romatosis	-4883
▁Learning	-4884
▁acquired	-4885
▁antigens	-4886
▁category	-4887
▁declared	-4888
▁opposite	-4889
▁phenomen	-4890
ochemistry	-4891
▁Collector	-4892
▁calculate	-4893
▁initiated	-4894
▁processes	-4895
▁promotion	-4896
▁summation	-4897
▁Industrial	-4898
▁Pensioners	-4899
▁algorithms	-4900
▁connecting	-4901
▁connection	-4902
▁controlled	-4903
▁developing	-4904
▁discussion	-4905
▁employment	-4906
▁industrial	-4907
▁interested	-4908
▁peripheral	-4909
▁subsection	-4910
▁Observation	-4911
▁appropriate	-4912
▁hydrophilic	-4913
▁lipoprotein	-4914
▁probability	-4915
▁amalgamation	-4916
▁confirmation	-4917
▁circumstances	-4918
50	-4919
▁"	-4920
akk	-4921
raz	-4922
rin	-4923
sun	-4924
▁09	-4925
▁47	-4926
▁Dr	-4927
▁Pe	-4928
▁TO	-4929
imer	-4930
ique	-4931
itiz	-4932
otal	-4933
otic	-4934
port	-4935
rops	-4936
rose	-4937
used	-4938
writ	-4939
▁CAR	-4940
▁Jay	-4941
▁cru	-4942
▁jud	-4943
▁psi	-4944
▁squ	-4945
fects	-4946
hemat	-4947
idine	-4948
oking	-4949
▁1000	-4950
▁GIST	-4951
▁Rhab	-4952
▁Sing	-4953
▁cart	-4954
▁feed	-4955
▁numb	-4956
▁rich	-4957
▁vari	-4958
▁vote	-4959
antile	-4960
sunami	-4961
▁Right	-4962
▁Secur	-4963
▁alloc	-4964
▁amend	-4965
▁bases	-4966
▁early	-4967
▁gadol	-4968
▁initi	-4969
▁motor	-4970
▁occup	-4971
▁recon	-4972
▁route	-4973
▁skull	-4974
▁tired	-4975
▁twist	-4976
▁width	-4977
irement	-4978
uration	-4979
uvallur	-4980
▁Forest	-4981
▁agency	-4982
▁behalf	-4983
▁compet	-4984
▁lysine	-4985
▁neuron	-4986
▁sodium	-4987
▁stream	-4988
▁termed	-4989
▁consequ	-4990
▁context	-4991
▁outlook	-4992
▁relieve	-4993
▁running	-4994
▁seventy	-4995
▁swallow	-4996
▁Chairman	-4997
▁bacteria	-4998
▁chairman	-4999
▁computed	-5000
▁manufact	-5001
▁particle	-5002
▁petition	-5003
▁somebody	-5004
▁catheters	-5005
▁operation	-5006
▁ownership	-5007
ertificates	-5008
▁bankruptcy	-5009
▁conversion	-5010
▁gadolinium	-5011
▁hemangioma	-5012
▁monitoring	-5013
▁adolescents	-5014
▁competition	-5015
▁Commissioner	-5016
▁institutions	-5017
▁intermediate	-5018
▁immunotherapy	-5019
▁administration	-5020
▁chromatographic	-5021
10	-5022
IF	-5023
PL	-5024
UT	-5025
ba	-5026
rs	-5027
aim	-5028
avy	-5029
nes	-5030
ula	-5031
ype	-5032
zen	-5033
▁02	-5034
▁38	-5035
▁Do	-5036
▁NM	-5037
▁VI	-5038
ares	-5039
enal	-5040
idne	-5041
lasm	-5042
ptid	-5043
▁Art	-5044
▁Jan	-5045
▁Num	-5046
▁SCH	-5047
▁Tal	-5048
▁air	-5049
▁box	-5050
▁lat	-5051
▁sim	-5052
▁viz	-5053
cture	-5054
ensus	-5055
ettes	-5056
ortic	-5057
sorpt	-5058
ulose	-5059
▁Free	-5060
▁Grou	-5061
▁Pain	-5062
▁acad	-5063
▁blue	-5064
▁milk	-5065
▁prim	-5066
▁rank	-5067
▁rect	-5068
▁sick	-5069
▁stre	-5070
ifying	-5071
steine	-5072
▁2010,	-5073
▁Solar	-5074
▁Super	-5075
▁deals	-5076
▁debts	-5077
▁never	-5078
▁plays	-5079
▁spent	-5080
erative	-5081
▁Fourth	-5082
▁bodies	-5083
▁compar	-5084
▁credit	-5085
▁cyclic	-5086
▁income	-5087
▁magnet	-5088
▁solute	-5089
▁solved	-5090
▁Changes	-5091
▁Welcome	-5092
▁believe	-5093
▁calcium	-5094
▁consent	-5095
▁diffuse	-5096
▁encoura	-5097
▁guarant	-5098
▁printed	-5099
▁researc	-5100
▁soluble	-5101
▁sources	-5102
▁Backward	-5103
▁Building	-5104
▁eighteen	-5105
▁investig	-5106
▁replaced	-5107
▁schedule	-5108
▁upgraded	-5109
▁Authority	-5110
▁developed	-5111
▁integrity	-5112
▁permitted	-5113
▁precisely	-5114
▁reference	-5115
▁satisfied	-5116
▁vacancies	-5117
▁Resolution	-5118
▁attraction	-5119
▁commercial	-5120
▁commission	-5121
▁expression	-5122
▁irrigation	-5123
▁reasonable	-5124
▁lymphocytic	-5125
▁restriction	-5126
▁Agricultural	-5127
▁Nagapattinam	-5128
▁representing	-5129
▁Rehabilitation	-5130
BI	-5131
CE	-5132
SS	-5133
oh	-5134
pl	-5135
uz	-5136
ATE	-5137
ani	-5138
eta	-5139
isd	-5140
rec	-5141
rut	-5142
ses	-5143
uct	-5144
yes	-5145
▁80	-5146
▁Tr	-5147
▁os	-5148
enic	-5149
long	-5150
tine	-5151
▁GOV	-5152
▁THE	-5153
▁dat	-5154
▁fro	-5155
▁her	-5156
▁hyd	-5157
▁jur	-5158
▁nit	-5159
▁pan	-5160
▁sup	-5161
annel	-5162
chrom	-5163
known	-5164
usted	-5165
▁Qual	-5166
▁anne	-5167
▁bene	-5168
▁capt	-5169
▁coef	-5170
▁econ	-5171
▁hope	-5172
▁huge	-5173
▁vent	-5174
apuram	-5175
arency	-5176
ighest	-5177
ounter	-5178
▁adopt	-5179
▁compr	-5180
▁draft	-5181
▁dynam	-5182
▁maybe	-5183
▁named	-5184
▁remed	-5185
▁spots	-5186
▁tried	-5187
oration	-5188
pective	-5189
ylation	-5190
▁GOVERN	-5191
▁Intern	-5192
▁Number	-5193
▁assume	-5194
▁conven	-5195
▁machin	-5196
▁nerves	-5197
▁overse	-5198
▁packed	-5199
▁plasma	-5200
▁propag	-5201
▁sweats	-5202
▁termin	-5203
▁unlike	-5204
aternary	-5205
lication	-5206
▁Foreign	-5207
▁Tsunami	-5208
▁Village	-5209
▁assumed	-5210
▁awarded	-5211
▁banking	-5212
▁channel	-5213
▁finding	-5214
▁located	-5215
▁minutes	-5216
▁neurons	-5217
▁neutral	-5218
▁passing	-5219
▁precond	-5220
▁testing	-5221
▁Engineer	-5222
▁academic	-5223
▁changing	-5224
▁fragment	-5225
▁launched	-5226
▁original	-5227
▁properly	-5228
▁reducing	-5229
▁relation	-5230
▁simplest	-5231
▁breathing	-5232
▁mutations	-5233
▁preceding	-5234
▁presented	-5235
odeficiency	-5236
▁Regulation	-5237
▁accordance	-5238
▁aggressive	-5239
▁aspiration	-5240
▁conducting	-5241
▁identified	-5242
▁impossible	-5243
▁permission	-5244
▁retirement	-5245
▁technology	-5246
▁constructed	-5247
▁differences	-5248
▁examination	-5249
▁performance	-5250
▁remuneration	-5251
▁shareholding	-5252
2,	-5253
Cl	-5254
esh	-5255
osa	-5256
ukk	-5257
▁70	-5258
▁Ma	-5259
▁Sm	-5260
airy	-5261
alse	-5262
anti	-5263
carb	-5264
ette	-5265
icle	-5266
land	-5267
pped	-5268
▁Det	-5269
▁Est	-5270
▁Ret	-5271
▁XII	-5272
▁abs	-5273
▁den	-5274
▁fet	-5275
▁lic	-5276
▁oil	-5277
iring	-5278
ocyte	-5279
organ	-5280
ostic	-5281
ource	-5282
ranch	-5283
ranul	-5284
ukudi	-5285
uvant	-5286
▁2014	-5287
▁Main	-5288
▁exch	-5289
▁exit	-5290
▁fees	-5291
▁libr	-5292
▁myel	-5293
▁nose	-5294
▁perp	-5295
▁resc	-5296
▁ship	-5297
▁trig	-5298
ayment	-5299
fected	-5300
ocytes	-5301
ounced	-5302
ranose	-5303
urgery	-5304
vement	-5305
▁Labor	-5306
▁Local	-5307
▁Organ	-5308
▁claim	-5309
▁datab	-5310
▁false	-5311
▁insol	-5312
▁kidne	-5313
▁names	-5314
▁night	-5315
▁outer	-5316
▁param	-5317
▁renew	-5318
aration	-5319
mitives	-5320
▁Branch	-5321
▁States	-5322
▁absorb	-5323
▁arises	-5324
▁belong	-5325
▁bonded	-5326
▁events	-5327
▁frozen	-5328
▁jurisd	-5329
▁ninety	-5330
▁shaped	-5331
▁stated	-5332
▁strate	-5333
resident	-5334
sorption	-5335
▁appears	-5336
▁aspirin	-5337
▁bromide	-5338
▁carboxy	-5339
▁chatbot	-5340
▁concern	-5341
▁conform	-5342
▁enhance	-5343
▁equival	-5344
▁extract	-5345
▁highest	-5346
▁himself	-5347
▁markers	-5348
▁reached	-5349
▁showing	-5350
▁steroid	-5351
▁trained	-5352
riculture	-5353
▁accepted	-5354
▁administ	-5355
▁combined	-5356
▁estimate	-5357
▁everyone	-5358
▁fraction	-5359
▁indirect	-5360
▁receptor	-5361
oblastomas	-5362
▁Cuddalore	-5363
▁Inspector	-5364
▁Magnesite	-5365
▁Registrar	-5366
▁allotment	-5367
▁annealing	-5368
▁branching	-5369
▁diffusion	-5370
▁disorders	-5371
▁fragments	-5372
▁positions	-5373
▁reactions	-5374
▁substrate	-5375
▁advantages	-5376
▁breastbone	-5377
▁containing	-5378
▁contribute	-5379
▁experience	-5380
▁primitives	-5381
▁quaternary	-5382
▁situations	-5383
▁Myelogenous	-5384
▁authorities	-5385
▁controlling	-5386
▁convertible	-5387
▁synthesized	-5388
▁undertaking	-5389
▁intelligence	-5390
▁introduction	-5391
▁respectively	-5392
▁establishment	-5393
ght	-5394
▁35	-5395
▁39	-5396
▁51	-5397
aces	-5398
akum	-5399
awed	-5400
clus	-5401
ingu	-5402
mber	-5403
moid	-5404
onse	-5405
ored	-5406
temp	-5407
uate	-5408
ytic	-5409
▁Emb	-5410
▁FOR	-5411
▁Low	-5412
▁May	-5413
▁bit	-5414
▁gel	-5415
▁pla	-5416
▁rib	-5417
ading	-5418
anche	-5419
books	-5420
ental	-5421
first	-5422
fused	-5423
inion	-5424
itime	-5425
ought	-5426
rical	-5427
rogen	-5428
rosso	-5429
stein	-5430
▁2016	-5431
▁Acqu	-5432
▁Mach	-5433
▁Meth	-5434
▁Mini	-5435
▁NMRI	-5436
▁Prom	-5437
▁Ster	-5438
▁clos	-5439
▁eyes	-5440
▁mess	-5441
▁mism	-5442
▁ones	-5443
▁pump	-5444
▁room	-5445
▁sulf	-5446
▁task	-5447
atinib	-5448
ylogen	-5449
▁2009,	-5450
▁Phase	-5451
▁Stere	-5452
▁Watch	-5453
▁Which	-5454
▁boost	-5455
▁catal	-5456
▁dealt	-5457
▁entit	-5458
▁green	-5459
▁hands	-5460
▁heavy	-5461
▁rural	-5462
▁users	-5463
▁worse	-5464
rasound	-5465
▁agents	-5466
▁checks	-5467
▁colour	-5468
▁commit	-5469
▁consec	-5470
▁humans	-5471
▁mostly	-5472
▁outlay	-5473
▁precur	-5474
▁punish	-5475
▁retain	-5476
▁skills	-5477
▁square	-5478
▁summar	-5479
▁thawed	-5480
▁toward	-5481
ordinate	-5482
rossover	-5483
▁Thermal	-5484
▁crucial	-5485
▁disqual	-5486
▁engaged	-5487
▁harming	-5488
▁holders	-5489
▁inflamm	-5490
▁leading	-5491
▁leucine	-5492
▁opinion	-5493
▁outcome	-5494
▁rotates	-5495
▁subtype	-5496
oothukudi	-5497
oproteins	-5498
▁Anything	-5499
▁Maritime	-5500
▁analytes	-5501
▁infected	-5502
▁phylogen	-5503
▁programs	-5504
▁response	-5505
▁cellulose	-5506
▁preferred	-5507
▁pregnancy	-5508
▁qualified	-5509
▁reinfused	-5510
▁resulting	-5511
▁somewhere	-5512
▁untreated	-5513
▁GOVERNMENT	-5514
▁Inspection	-5515
▁businesses	-5516
▁disclosure	-5517
▁processing	-5518
▁proteoglyc	-5519
▁coefficient	-5520
▁Astrocytomas	-5521
▁Stereotactic	-5522
▁polypeptides	-5523
▁environmental	-5524
▁triacylglycerol	-5525
,8	-5526
sy	-5527
ww	-5528
LIC	-5529
MML	-5530
Max	-5531
raw	-5532
rea	-5533
rix	-5534
▁(2	-5535
▁DI	-5536
▁DT	-5537
▁LP	-5538
▁Lo	-5539
▁Ur	-5540
aser	-5541
aved	-5542
bine	-5543
igil	-5544
leic	-5545
olit	-5546
pond	-5547
ques	-5548
rane	-5549
reas	-5550
riet	-5551
uvar	-5552
▁Ben	-5553
▁CAT	-5554
▁Dal	-5555
▁Lab	-5556
▁Net	-5557
▁Rel	-5558
▁fee	-5559
▁sig	-5560
▁und	-5561
▁web	-5562
agine	-5563
ariff	-5564
astal	-5565
cence	-5566
gency	-5567
itary	-5568
lfare	-5569
tches	-5570
ximab	-5571
ymmet	-5572
▁2001	-5573
▁Anal	-5574
▁ICDR	-5575
▁JMML	-5576
▁Just	-5577
▁MOOC	-5578
▁Risk	-5579
▁Wing	-5580
▁aims	-5581
▁angi	-5582
▁anim	-5583
▁biom	-5584
▁bulk	-5585
▁emer	-5586
▁fall	-5587
▁legs	-5588
▁sell	-5589
▁sole	-5590
▁tune	-5591
lation	-5592
oscopy	-5593
razine	-5594
▁Books	-5595
▁Cinem	-5596
▁Group	-5597
▁Hairy	-5598
▁Hydro	-5599
▁Salem	-5600
▁apart	-5601
▁arach	-5602
▁arter	-5603
▁cytos	-5604
▁fiber	-5605
▁happy	-5606
▁leave	-5607
▁river	-5608
istical	-5609
▁Kanche	-5610
▁Parkin	-5611
▁Report	-5612
▁Spinal	-5613
▁acetyl	-5614
▁barrel	-5615
▁behind	-5616
▁chiral	-5617
▁config	-5618
▁conjug	-5619
▁doesnt	-5620
▁fibers	-5621
▁lesser	-5622
▁misman	-5623
▁pieces	-5624
▁prohib	-5625
▁repeat	-5626
▁silica	-5627
▁sphing	-5628
▁string	-5629
ifically	-5630
inations	-5631
osurgery	-5632
▁Machine	-5633
▁MiniMax	-5634
▁Profess	-5635
▁Railway	-5636
▁affects	-5637
▁asymmet	-5638
▁besides	-5639
▁feeling	-5640
▁formula	-5641
▁hypothe	-5642
▁inspect	-5643
▁parents	-5644
▁plaques	-5645
▁procure	-5646
▁student	-5647
▁unknown	-5648
▁welfare	-5649
hematical	-5650
molecular	-5651
▁Watchful	-5652
▁advanced	-5653
▁anomeric	-5654
▁database	-5655
▁economic	-5656
▁glutamic	-5657
▁medicine	-5658
▁propriet	-5659
▁removing	-5660
▁Recurrent	-5661
▁commenced	-5662
▁crossover	-5663
▁introduce	-5664
▁submitted	-5665
▁swallowed	-5666
▁accounting	-5667
▁borrowings	-5668
▁derivative	-5669
▁efficiency	-5670
▁electronic	-5671
▁experiment	-5672
▁positively	-5673
▁Environment	-5674
▁Recruitment	-5675
▁Thoothukudi	-5676
▁consecutive	-5677
▁differently	-5678
▁educational	-5679
▁flexibility	-5680
▁instruments	-5681
▁continuously	-5682
▁organization	-5683
▁prerequisites	-5684
,6	-5685
,7	-5686
48	-5687
AP	-5688
EF	-5689
In	-5690
KI	-5691
UB	-5692
eg	-5693
ERV	-5694
IFR	-5695
aur	-5696
ork	-5697
oup	-5698
sil	-5699
▁Ed	-5700
▁PE	-5701
▁SH	-5702
▁Wa	-5703
PART	-5704
aram	-5705
ello	-5706
esis	-5707
oste	-5708
unit	-5709
vere	-5710
vert	-5711
ymus	-5712
▁Aud	-5713
▁Cap	-5714
▁Due	-5715
▁End	-5716
▁HPV	-5717
▁RBI	-5718
▁TKI	-5719
▁Two	-5720
▁Van	-5721
▁anc	-5722
▁bil	-5723
▁saw	-5724
-2009	-5725
alact	-5726
duces	-5727
ifies	-5728
inant	-5729
olice	-5730
oxide	-5731
prise	-5732
roach	-5733
silon	-5734
unity	-5735
▁BIFR	-5736
▁Each	-5737
▁Lakh	-5738
▁deli	-5739
▁film	-5740
▁gone	-5741
▁mode	-5742
▁seek	-5743
▁sold	-5744
elveli	-5745
epuram	-5746
idonic	-5747
lusion	-5748
oscope	-5749
urance	-5750
▁Apart	-5751
▁Initi	-5752
▁Liver	-5753
▁Newly	-5754
▁Total	-5755
▁Urban	-5756
▁arran	-5757
▁barri	-5758
▁chall	-5759
▁drink	-5760
▁equip	-5761
▁items	-5762
▁molar	-5763
▁rings	-5764
▁sound	-5765
akumari	-5766
ertiary	-5767
respond	-5768
▁Bridge	-5769
▁Dalton	-5770
▁Promot	-5771
▁Relief	-5772
▁Search	-5773
▁buying	-5774
▁granul	-5775
▁houses	-5776
▁impact	-5777
▁papers	-5778
▁please	-5779
▁precip	-5780
▁relief	-5781
▁shared	-5782
▁submit	-5783
▁widely	-5784
anguages	-5785
unelveli	-5786
▁Process	-5787
▁analyze	-5788
▁conflic	-5789
▁deposit	-5790
▁epsilon	-5791
▁issuing	-5792
▁payable	-5793
▁placing	-5794
▁prepare	-5795
▁records	-5796
▁replace	-5797
▁scanner	-5798
▁trouble	-5799
▁uniform	-5800
▁Moreover	-5801
▁approxim	-5802
▁conclude	-5803
▁creating	-5804
▁criminal	-5805
▁decrease	-5806
▁depicted	-5807
▁improved	-5808
▁intercal	-5809
▁national	-5810
▁networks	-5811
▁software	-5812
▁spectros	-5813
▁subjects	-5814
▁Financial	-5815
▁Scheduled	-5816
▁Technical	-5817
▁exception	-5818
▁hydrocarb	-5819
▁improving	-5820
▁initially	-5821
▁precursor	-5822
▁receiving	-5823
▁spreading	-5824
▁stability	-5825
▁statutory	-5826
▁stretches	-5827
▁unlimited	-5828
▁Assistance	-5829
▁Stationery	-5830
▁alteration	-5831
▁determines	-5832
▁heuristics	-5833
▁hypothesis	-5834
▁infections	-5835
▁negatively	-5836
▁respective	-5837
▁transition	-5838
▁consumption	-5839
▁declaration	-5840
▁individuals	-5841
▁intrathecal	-5842
▁investments	-5843
▁researchers	-5844
▁specialists	-5845
▁transferred	-5846
▁transparent	-5847
▁Kancheepuram	-5848
▁Extraordinary	-5849
▁mismanagement	-5850
20	-5851
ID	-5852
MM	-5853
oe	-5854
ali	-5855
awn	-5856
mon	-5857
ril	-5858
uck	-5859
ura	-5860
urs	-5861
yam	-5862
▁BA	-5863
▁RT	-5864
brid	-5865
cine	-5866
cket	-5867
lios	-5868
psin	-5869
rine	-5870
take	-5871
ungo	-5872
▁ADP	-5873
▁Day	-5874
▁Ear	-5875
▁Hem	-5876
▁Iss	-5877
▁Pan	-5878
▁Pud	-5879
▁San	-5880
▁Shi	-5881
▁TAN	-5882
▁Tax	-5883
▁Top	-5884
▁amp	-5885
▁hor	-5886
▁job	-5887
▁men	-5888
▁sem	-5889
▁tox	-5890
▁via	-5891
▁yes	-5892
arest	-5893
embly	-5894
eties	-5895
ilage	-5896
odend	-5897
onnes	-5898
ottai	-5899
rehen	-5900
▁100%	-5901
▁2003	-5902
▁Memb	-5903
▁Phil	-5904
▁Toll	-5905
▁arms	-5906
▁enqu	-5907
▁fulf	-5908
▁game	-5909
▁sort	-5910
▁tool	-5911
▁tors	-5912
▁wise	-5913
ficial	-5914
guided	-5915
illary	-5916
oplasm	-5917
ustain	-5918
▁Again	-5919
▁Aided	-5920
▁Alpha	-5921
▁Fungo	-5922
▁actor	-5923
▁banks	-5924
▁behav	-5925
▁black	-5926
▁optim	-5927
▁plane	-5928
▁posit	-5929
▁roles	-5930
▁sales	-5931
▁spine	-5932
▁stick	-5933
▁video	-5934
▁vital	-5935
anglios	-5936
▁DEPART	-5937
▁Moving	-5938
▁PTRANS	-5939
▁Proton	-5940
▁aldose	-5941
▁attrib	-5942
▁enable	-5943
▁enanti	-5944
▁enroll	-5945
▁enters	-5946
▁filing	-5947
▁hybrid	-5948
▁intens	-5949
▁latest	-5950
▁matrix	-5951
▁rescue	-5952
▁screen	-5953
▁serine	-5954
▁speech	-5955
▁trying	-5956
▁unable	-5957
fficient	-5958
isitions	-5959
ogenesis	-5960
ribution	-5961
▁January	-5962
▁Thirdly	-5963
▁capable	-5964
▁compens	-5965
▁enacted	-5966
▁failure	-5967
▁folding	-5968
▁funding	-5969
▁numbers	-5970
▁raising	-5971
▁reagent	-5972
▁routine	-5973
▁science	-5974
▁survive	-5975
▁walking	-5976
▁workmen	-5977
▁Neurolog	-5978
▁Superint	-5979
▁adjuvant	-5980
▁carbonyl	-5981
▁composed	-5982
▁connects	-5983
▁definite	-5984
▁emission	-5985
▁excision	-5986
▁executed	-5987
▁families	-5988
▁fourteen	-5989
▁ordinary	-5990
▁produced	-5991
▁recently	-5992
respective	-5993
▁Directors	-5994
▁Fungoides	-5995
▁customers	-5996
▁designing	-5997
▁detection	-5998
▁encourage	-5999
▁induction	-6000
▁mandatory	-6001
▁materials	-6002
▁partially	-6003
▁purchased	-6004
▁regulated	-6005
▁torsional	-6006
▁tribunals	-6007
orporations	-6008
▁DEPARTMENT	-6009
▁Statistics	-6010
▁acceptable	-6011
▁asymmetric	-6012
▁authorised	-6013
▁authorized	-6014
▁benefitted	-6015
▁correspond	-6016
▁missionary	-6017
▁previously	-6018
▁principles	-6019
▁Accordingly	-6020
▁Acquisition	-6021
▁arachidonic	-6022
▁epithelioid	-6023
▁agricultural	-6024
▁coordination	-6025
▁jurisdiction	-6026
▁specifically	-6027
▁configuration	-6028
▁conformational	-6029
▁recommendation	-6030
40	-6031
LA	-6032
ho	-6033
-09	-6034
ICA	-6035
ana	-6036
gid	-6037
ita	-6038
ois	-6039
ury	-6040
yan	-6041
yur	-6042
▁(1	-6043
▁04	-6044
▁48	-6045
▁Gl	-6046
▁Gs	-6047
ache	-6048
acks	-6049
amps	-6050
asts	-6051
chay	-6052
icos	-6053
ipal	-6054
orry	-6055
pass	-6056
rend	-6057
sych	-6058
ulin	-6059
▁Aff	-6060
▁Mem	-6061
▁Nos	-6062
▁PRO	-6063
▁Ran	-6064
▁bab	-6065
▁cis	-6066
▁dil	-6067
▁eat	-6068
▁ice	-6069
▁upd	-6070
▁veh	-6071
▁vom	-6072
ework	-6073
icals	-6074
rance	-6075
ravid	-6076
veloc	-6077
venth	-6078
▁Both	-6079
▁June	-6080
▁SICA	-6081
▁Sect	-6082
▁aged	-6083
▁conv	-6084
▁diet	-6085
▁entr	-6086
▁fats	-6087
▁load	-6088
▁note	-6089
▁took	-6090
idents	-6091
ittees	-6092
orship	-6093
person	-6094
▁Fight	-6095
▁Prote	-6096
▁SCHEM	-6097
▁Waals	-6098
▁agent	-6099
▁asset	-6100
▁empir	-6101
▁encod	-6102
▁exhib	-6103
▁fails	-6104
▁hours	-6105
▁refer	-6106
▁rigid	-6107
▁tetra	-6108
▁ultra	-6109
▁veloc	-6110
▁withd	-6111
▁worth	-6112
imately	-6113
itional	-6114
nership	-6115
ologies	-6116
ptember	-6117
▁Comple	-6118
▁Health	-6119
▁Method	-6120
▁Orders	-6121
▁Police	-6122
▁attend	-6123
▁exclus	-6124
▁impris	-6125
▁limits	-6126
▁manage	-6127
▁medull	-6128
▁reacts	-6129
▁severe	-6130
▁unique	-6131
ituximab	-6132
olecules	-6133
unicipal	-6134
▁2008-09	-6135
▁Effects	-6136
▁Offices	-6137
▁aldoses	-6138
▁bilayer	-6139
▁challen	-6140
▁induced	-6141
▁reverse	-6142
▁thought	-6143
▁undergo	-6144
▁viewing	-6145
▁whereby	-6146
▁Disaster	-6147
▁Gazettes	-6148
▁Projects	-6149
▁Scholars	-6150
▁biologic	-6151
▁circular	-6152
▁collects	-6153
▁covering	-6154
▁defenses	-6155
▁disclose	-6156
▁explains	-6157
▁filament	-6158
▁judicial	-6159
▁junction	-6160
▁lymphoid	-6161
▁suitable	-6162
▁swelling	-6163
▁Executive	-6164
▁appellate	-6165
▁borrowing	-6166
▁cartilage	-6167
▁consumers	-6168
▁expressed	-6169
▁influence	-6170
▁personnel	-6171
▁resection	-6172
▁selection	-6173
▁summaries	-6174
▁Tiruvallur	-6175
▁equivalent	-6176
▁facilitate	-6177
▁limitation	-6178
▁multiplied	-6179
▁operations	-6180
▁successful	-6181
▁Cholesterol	-6182
▁Initiatives	-6183
▁Partnership	-6184
▁epigenetics	-6185
▁participate	-6186
▁publication	-6187
▁specializes	-6188
▁Distribution	-6189
▁fluorescence	-6190
▁imprisonment	-6191
▁modification	-6192
▁phospholipid	-6193
▁radiosurgery	-6194
▁restrictions	-6195
▁spectroscopy	-6196
▁transparency	-6197
▁International	-6198
▁transcription	-6199
47	-6200
CR	-6201
DB	-6202
FI	-6203
KS	-6204
OL	-6205
VR	-6206
ek	-6207
▁%	-6208
ERS	-6209
amy	-6210
far	-6211
uri	-6212
▁62	-6213
▁85	-6214
▁88	-6215
▁OH	-6216
ISTR	-6217
aily	-6218
apor	-6219
arat	-6220
arse	-6221
eral	-6222
geon	-6223
hase	-6224
irls	-6225
lain	-6226
mark	-6227
ming	-6228
ofib	-6229
rete	-6230
urse	-6231
uven	-6232
▁139	-6233
▁600	-6234
▁BRA	-6235
▁Dem	-6236
▁Kar	-6237
▁Leg	-6238
▁Leu	-6239
▁Mod	-6240
▁Six	-6241
▁dup	-6242
▁mir	-6243
▁nan	-6244
▁rap	-6245
▁unw	-6246
acent	-6247
amine	-6248
cytic	-6249
faraz	-6250
icity	-6251
itude	-6252
ophan	-6253
ories	-6254
▁2015	-6255
▁Barr	-6256
▁Code	-6257
▁Loss	-6258
▁Town	-6259
▁baby	-6260
▁grad	-6261
▁pawn	-6262
▁rear	-6263
▁root	-6264
▁zone	-6265
advant	-6266
ecture	-6267
estern	-6268
idemic	-6269
upuram	-6270
▁Award	-6271
▁Hello	-6272
▁Joint	-6273
▁MOOCs	-6274
▁Rural	-6275
▁Study	-6276
▁chair	-6277
▁civil	-6278
▁crick	-6279
▁dense	-6280
▁drain	-6281
▁exemp	-6282
▁groin	-6283
▁hyper	-6284
▁incur	-6285
▁loans	-6286
▁marks	-6287
▁metal	-6288
▁motif	-6289
▁penal	-6290
▁prost	-6291
▁round	-6292
▁scrut	-6293
appoint	-6294
ptophan	-6295
▁Budget	-6296
▁Proced	-6297
▁Sector	-6298
▁centim	-6299
▁copied	-6300
▁copies	-6301
▁degrad	-6302
▁device	-6303
▁exists	-6304
▁intest	-6305
▁kidney	-6306
▁living	-6307
▁mental	-6308
▁mirror	-6309
▁partly	-6310
▁pelvis	-6311
▁repuls	-6312
▁resign	-6313
▁strand	-6314
▁tempor	-6315
▁tender	-6316
▁theory	-6317
▁toxins	-6318
▁valine	-6319
paragine	-6320
utaneous	-6321
▁Epstein	-6322
▁Reagent	-6323
▁barrier	-6324
▁courses	-6325
▁decides	-6326
▁efforts	-6327
▁evolved	-6328
▁feature	-6329
▁freedom	-6330
▁fulfill	-6331
▁hormone	-6332
▁learned	-6333
▁monthly	-6334
▁nearest	-6335
▁nucleic	-6336
▁shorter	-6337
▁suppose	-6338
▁vacancy	-6339
ettlement	-6340
▁Although	-6341
▁Fighters	-6342
▁Sarfaraz	-6343
▁achieved	-6344
▁branches	-6345
▁carrying	-6346
▁cyanogen	-6347
▁cysteine	-6348
▁disorder	-6349
▁employee	-6350
▁evidence	-6351
▁overseen	-6352
▁positron	-6353
▁powerful	-6354
▁practice	-6355
▁syllabus	-6356
▁tertiary	-6357
▁Diagnosed	-6358
▁Municipal	-6359
▁September	-6360
▁complexes	-6361
▁computers	-6362
▁continues	-6363
▁disadvant	-6364
▁histidine	-6365
▁languages	-6366
▁lymphomas	-6367
▁machinery	-6368
▁monomeric	-6369
▁organized	-6370
▁proposals	-6371
▁registers	-6372
▁underwrit	-6373
▁Collectors	-6374
▁Diagnostic	-6375
▁Monitoring	-6376
▁Substances	-6377
▁Villupuram	-6378
▁assignment	-6379
▁conference	-6380
▁consisting	-6381
▁grievances	-6382
▁nucleosome	-6383
▁oppression	-6384
▁proportion	-6385
▁recognized	-6386
▁redemption	-6387
▁settlement	-6388
▁Tirunelveli	-6389
▁propagation	-6390
▁requisition	-6391
▁Laboratories	-6392
▁constitution	-6393
▁differential	-6394
▁examinations	-6395
▁particularly	-6396
▁presentation	-6397
▁communication	-6398
▁determination	-6399
▁disaccharides	-6400
/2	-6401
45	-6402
CI	-6403
OT	-6404
UR	-6405
tt	-6406
wh	-6407
NRE	-6408
isc	-6409
ote	-6410
pes	-6411
uly	-6412
▁05	-6413
▁65	-6414
▁IM	-6415
▁Up	-6416
▁Us	-6417
anes	-6418
asis	-6419
atta	-6420
chem	-6421
ipar	-6422
izon	-6423
load	-6424
lock	-6425
memb	-6426
nore	-6427
oday	-6428
otyp	-6429
pons	-6430
prol	-6431
soon	-6432
ulty	-6433
xose	-6434
▁10%	-6435
▁BCL	-6436
▁DRT	-6437
▁Ele	-6438
▁Exp	-6439
▁HCl	-6440
▁Mer	-6441
▁Oct	-6442
▁Ren	-6443
▁Soc	-6444
▁fix	-6445
▁inn	-6446
▁mes	-6447
▁muc	-6448
▁ply	-6449
▁sun	-6450
NSION	-6451
ained	-6452
apter	-6453
atham	-6454
chase	-6455
ginal	-6456
isted	-6457
itals	-6458
licit	-6459
odysp	-6460
otype	-6461
rated	-6462
▁Data	-6463
▁Form	-6464
▁Milk	-6465
▁Only	-6466
▁SERV	-6467
▁Take	-6468
▁dues	-6469
▁endo	-6470
▁leaf	-6471
▁scre	-6472
▁stro	-6473
▁tiny	-6474
▁vest	-6475
formal	-6476
ionine	-6477
luding	-6478
osomes	-6479
peptid	-6480
spring	-6481
▁2006,	-6482
▁Allow	-6483
▁April	-6484
▁Depth	-6485
▁Found	-6486
▁Hindu	-6487
▁Human	-6488
▁Today	-6489
▁Tumor	-6490
▁abled	-6491
▁curve	-6492
▁firms	-6493
▁frequ	-6494
▁goods	-6495
▁heard	-6496
▁kerat	-6497
▁laser	-6498
▁mixed	-6499
▁rapid	-6500
▁rates	-6501
▁relax	-6502
▁scope	-6503
▁stops	-6504
▁throw	-6505
▁wound	-6506
arcomas	-6507
ignment	-6508
iteracy	-6509
izontal	-6510
lyceral	-6511
ractory	-6512
reation	-6513
resents	-6514
uvenile	-6515
▁Action	-6516
▁Ennore	-6517
▁acidic	-6518
▁adsorb	-6519
▁anemia	-6520
▁animal	-6521
▁blasts	-6522
▁contra	-6523
▁courts	-6524
▁dissoc	-6525
▁galact	-6526
▁handle	-6527
▁headed	-6528
▁hollow	-6529
▁marked	-6530
▁mening	-6531
▁namely	-6532
▁perman	-6533
▁pineal	-6534
▁plants	-6535
▁pocket	-6536
▁rating	-6537
▁rectum	-6538
▁resist	-6539
▁shrink	-6540
▁suffer	-6541
▁survey	-6542
▁switch	-6543
▁topics	-6544
▁wanted	-6545
etitions	-6546
izations	-6547
▁Besides	-6548
▁College	-6549
▁Natural	-6550
▁Respons	-6551
▁amended	-6552
▁antipar	-6553
▁contact	-6554
▁economy	-6555
▁enables	-6556
▁fifteen	-6557
▁glucopy	-6558
▁hearing	-6559
▁involve	-6560
▁keeping	-6561
▁million	-6562
▁pending	-6563
▁premium	-6564
▁returns	-6565
▁sustain	-6566
▁univers	-6567
hydrazine	-6568
iferative	-6569
olization	-6570
peptidase	-6571
rehensive	-6572
▁Official	-6573
▁Printing	-6574
▁adjacent	-6575
▁angstrom	-6576
▁arranged	-6577
▁assisted	-6578
▁cannibal	-6579
▁distinct	-6580
▁drinking	-6581
▁facility	-6582
▁ganglios	-6583
▁industry	-6584
▁investor	-6585
▁managing	-6586
▁measured	-6587
▁nitrogen	-6588
▁occupied	-6589
▁offering	-6590
▁pregnant	-6591
▁printing	-6592
▁register	-6593
▁regulate	-6594
▁relative	-6595
▁reserves	-6596
▁velocity	-6597
▁Appellate	-6598
▁Basically	-6599
▁Obviously	-6600
▁announced	-6601
▁associate	-6602
▁chromatin	-6603
▁exchanges	-6604
▁guarantee	-6605
▁operating	-6606
▁principal	-6607
▁promoting	-6608
▁subscribe	-6609
▁suggested	-6610
odysplastic	-6611
osaccharide	-6612
▁Assistants	-6613
▁Conference	-6614
▁Industries	-6615
▁Technology	-6616
▁asparagine	-6617
▁definitely	-6618
▁directions	-6619
▁electrical	-6620
▁horizontal	-6621
▁protection	-6622
▁represents	-6623
▁scientific	-6624
▁specialize	-6625
▁tryptophan	-6626
▁ultimately	-6627
▁ultrasound	-6628
▁Intrathecal	-6629
▁Lymphocytic	-6630
▁accordingly	-6631
▁aggregation	-6632
▁disclosures	-6633
▁hydrocarbon	-6634
▁liquidation	-6635
▁maintaining	-6636
▁recruitment	-6637
lyceraldehyde	-6638
▁acquisitions	-6639
▁carbohydrate	-6640
▁mathematical	-6641
▁supercoiling	-6642
▁Immunotherapy	-6643
▁approximately	-6644
▁conformations	-6645
▁glucopyranose	-6646
▁Responsibility	-6647
19	-6648
2.	-6649
Bs	-6650
LP	-6651
No	-6652
PR	-6653
va	-6654
ESS	-6655
anj	-6656
any	-6657
emy	-6658
equ	-6659
iar	-6660
ipl	-6661
ken	-6662
pec	-6663
rep	-6664
▁55	-6665
▁59	-6666
▁95	-6667
▁AD	-6668
▁BO	-6669
▁Ms	-6670
▁Op	-6671
▁Ty	-6672
▁km	-6673
alai	-6674
arth	-6675
avur	-6676
baxy	-6677
boke	-6678
cing	-6679
imus	-6680
itin	-6681
ocon	-6682
oram	-6683
reon	-6684
ried	-6685
rish	-6686
rode	-6687
ster	-6688
uing	-6689
uste	-6690
▁529	-6691
▁Cal	-6692
▁Gen	-6693
▁Kas	-6694
▁Lic	-6695
▁Lip	-6696
▁mid	-6697
▁tit	-6698
arter	-6699
atile	-6700
class	-6701
ellow	-6702
eries	-6703
immun	-6704
ogram	-6705
ollen	-6706
omics	-6707
opoly	-6708
polar	-6709
ulent	-6710
▁Cord	-6711
▁Hist	-6712
▁Side	-6713
▁Week	-6714
▁Well	-6715
▁band	-6716
▁cyst	-6717
▁echo	-6718
▁gift	-6719
▁hind	-6720
▁intr	-6721
▁lost	-6722
▁vary	-6723
ancing	-6724
arters	-6725
ctrine	-6726
enders	-6727
hedral	-6728
ieties	-6729
inated	-6730
▁GISTs	-6731
▁Issue	-6732
▁Polic	-6733
▁Singh	-6734
▁Small	-6735
▁Thanj	-6736
▁deleg	-6737
▁heter	-6738
▁palli	-6739
▁panel	-6740
▁queen	-6741
▁ships	-6742
▁thres	-6743
certain	-6744
hematic	-6745
keletal	-6746
licated	-6747
reonine	-6748
▁Before	-6749
▁Coming	-6750
▁Dravid	-6751
▁Family	-6752
▁Madras	-6753
▁Record	-6754
▁Supply	-6755
▁carcin	-6756
▁digest	-6757
▁elabor	-6758
▁esters	-6759
▁favour	-6760
▁guided	-6761
▁lessen	-6762
▁losses	-6763
▁nearly	-6764
▁predom	-6765
▁proton	-6766
▁salary	-6767
▁signed	-6768
▁sparse	-6769
▁starch	-6770
▁stores	-6771
▁stress	-6772
▁tariff	-6773
▁theore	-6774
igilance	-6775
membrane	-6776
▁Affairs	-6777
▁Centres	-6778
▁Gazette	-6779
▁PENSION	-6780
▁Panchay	-6781
▁Quality	-6782
▁Ranbaxy	-6783
▁Studies	-6784
▁Tension	-6785
▁animals	-6786
▁bundles	-6787
▁compare	-6788
▁cricket	-6789
▁deleted	-6790
▁entered	-6791
▁ethanol	-6792
▁farmers	-6793
▁hydroxy	-6794
▁mapping	-6795
▁monomer	-6796
▁optimal	-6797
▁protons	-6798
▁removes	-6799
▁reserve	-6800
▁stromal	-6801
▁subsidy	-6802
▁swollen	-6803
▁tightly	-6804
▁trypsin	-6805
▁variety	-6806
▁Business	-6807
▁Tyrosine	-6808
▁applying	-6809
▁assigned	-6810
▁constitu	-6811
▁included	-6812
▁instance	-6813
▁neurolog	-6814
▁oxidized	-6815
▁peptides	-6816
▁policies	-6817
▁recorded	-6818
▁vomiting	-6819
▁weakened	-6820
▁Parkinson	-6821
▁accidents	-6822
▁amendment	-6823
▁dependent	-6824
▁encounter	-6825
▁entrusted	-6826
▁indicated	-6827
▁insoluble	-6828
▁interacts	-6829
▁officials	-6830
▁reasoning	-6831
▁resources	-6832
▁secretary	-6833
▁similarly	-6834
▁threshold	-6835
▁Electrical	-6836
▁Employment	-6837
▁Evaluation	-6838
▁Peripheral	-6839
▁enterprise	-6840
▁eventually	-6841
▁exceptions	-6842
▁extraction	-6843
▁fraudulent	-6844
▁proceeding	-6845
▁Maintenance	-6846
▁derivatives	-6847
▁methylation	-6848
▁antiparallel	-6849
▁certificates	-6850
▁combinations	-6851
▁irrespective	-6852
▁laboratories	-6853
▁spectrometer	-6854
▁Institutional	-6855
▁consolidation	-6856
▁extracellular	-6857
▁participation	-6858
▁phospholipase	-6859
▁precipitation	-6860
▁transmembrane	-6861
▁classification	-6862
▁representative	-6863
▁phenylhydrazine	-6864
13	-6865
22	-6866
4.	-6867
49	-6868
FS	-6869
SP	-6870
ah	-6871
’.	-6872
AND	-6873
ERT	-6874
MAG	-6875
bit	-6876
bru	-6877
edd	-6878
inc	-6879
loc	-6880
med	-6881
olk	-6882
oud	-6883
rof	-6884
rum	-6885
tic	-6886
use	-6887
usp	-6888
zes	-6889
▁07	-6890
▁5%	-6891
▁66	-6892
▁AP	-6893
▁Gr	-6894
▁SC	-6895
▁SP	-6896
▁SS	-6897
▁WH	-6898
▁br	-6899
▁ly	-6900
▁ov	-6901
avis	-6902
enth	-6903
etry	-6904
oman	-6905
oton	-6906
plus	-6907
uity	-6908
uros	-6909
▁ACT	-6910
▁Car	-6911
▁Cyt	-6912
▁FPO	-6913
▁PVR	-6914
▁ROC	-6915
▁Rev	-6916
▁Typ	-6917
▁bru	-6918
▁dot	-6919
▁hip	-6920
▁map	-6921
▁row	-6922
angam	-6923
eling	-6924
enior	-6925
epass	-6926
ishes	-6927
olent	-6928
osaic	-6929
rishn	-6930
trans	-6931
ukary	-6932
▁2012	-6933
▁Area	-6934
▁Beta	-6935
▁Grad	-6936
▁IIIE	-6937
▁Pine	-6938
▁Post	-6939
▁VIII	-6940
▁arch	-6941
▁boat	-6942
▁dark	-6943
▁diag	-6944
▁fash	-6945
▁hair	-6946
▁isol	-6947
▁mood	-6948
▁stay	-6949
▁stra	-6950
▁tail	-6951
amycin	-6952
bruary	-6953
cember	-6954
inates	-6955
omencl	-6956
onduct	-6957
onsils	-6958
ronger	-6959
ropsin	-6960
uction	-6961
▁Erode	-6962
▁Gavis	-6963
▁Renew	-6964
▁Salai	-6965
▁asked	-6966
▁dimer	-6967
▁ester	-6968
▁ether	-6969
▁goals	-6970
▁multi	-6971
▁physi	-6972
▁prion	-6973
▁ready	-6974
▁recip	-6975
artered	-6976
atorial	-6977
ulating	-6978
▁Milkha	-6979
▁SERVIC	-6980
▁broken	-6981
▁echoes	-6982
▁eleven	-6983
▁height	-6984
▁learns	-6985
▁mother	-6986
▁nation	-6987
▁online	-6988
▁prefer	-6989
▁stroke	-6990
▁superv	-6991
▁threat	-6992
,000,000	-6993
oramboke	-6994
standing	-6995
ulations	-6996
▁Employe	-6997
▁Methods	-6998
▁Syndrom	-6999
▁captive	-7000
▁combine	-7001
▁dynamic	-7002
▁fashion	-7003
▁mediast	-7004
▁partner	-7005
▁pertain	-7006
▁reduces	-7007
▁resting	-7008
▁revenue	-7009
▁revised	-7010
▁segment	-7011
▁signals	-7012
▁simpler	-7013
▁species	-7014
operation	-7015
saturated	-7016
▁Complete	-7017
▁February	-7018
▁Sanction	-7019
▁agencies	-7020
▁anywhere	-7021
▁complain	-7022
▁complied	-7023
▁delivery	-7024
▁division	-7025
▁encroach	-7026
▁entities	-7027
▁entitled	-7028
▁feelings	-7029
▁governed	-7030
▁imparted	-7031
▁incision	-7032
▁polarity	-7033
▁situated	-7034
▁slightly	-7035
▁stronger	-7036
▁teaching	-7037
▁2008-2009	-7038
▁Allowance	-7039
▁Thanjavur	-7040
▁Vigilance	-7041
▁attention	-7042
▁awareness	-7043
▁empirical	-7044
▁framework	-7045
▁inserting	-7046
▁obtaining	-7047
▁offspring	-7048
▁phenomena	-7049
▁primitive	-7050
▁syndromes	-7051
omenclature	-7052
▁Institutes	-7053
▁biotherapy	-7054
▁comparison	-7055
▁conclusion	-7056
▁connective	-7057
▁constitute	-7058
▁literature	-7059
▁palliative	-7060
▁sufficient	-7061
▁Agriculture	-7062
▁Improvement	-7063
▁accountable	-7064
▁connections	-7065
▁legislation	-7066
▁arrangements	-7067
▁consultation	-7068
▁fibrosarcoma	-7069
▁phylogenetic	-7070
▁proportional	-7071
▁amalgamations	-7072
▁qualification	-7073
▁Infrastructure	-7074
▁rehabilitation	-7075
3.	-7076
34	-7077
4,	-7078
PS	-7079
St	-7080
jo	-7081
la	-7082
zy	-7083
VEL	-7084
adi	-7085
agi	-7086
ara	-7087
bal	-7088
eno	-7089
how	-7090
ina	-7091
iol	-7092
zhe	-7093
▁37	-7094
▁67	-7095
▁69	-7096
▁Id	-7097
▁Is	-7098
▁KE	-7099
▁LA	-7100
▁NF	-7101
▁NS	-7102
▁tn	-7103
CTOR	-7104
JECT	-7105
acet	-7106
adel	-7107
adre	-7108
alay	-7109
avan	-7110
ifts	-7111
itis	-7112
lled	-7113
miss	-7114
ober	-7115
odal	-7116
oked	-7117
omal	-7118
oneg	-7119
orum	-7120
osen	-7121
phia	-7122
upin	-7123
zero	-7124
▁25%	-7125
▁Can	-7126
▁Fac	-7127
▁POW	-7128
▁REG	-7129
▁Siv	-7130
▁Tra	-7131
▁bus	-7132
▁lie	-7133
▁tap	-7134
▁unf	-7135
▁unp	-7136
▁vul	-7137
▁wat	-7138
adder	-7139
anath	-7140
andhi	-7141
chant	-7142
elled	-7143
erous	-7144
estic	-7145
gical	-7146
iates	-7147
ipole	-7148
lings	-7149
ohist	-7150
oidal	-7151
oprol	-7152
▁1998	-7153
▁Acad	-7154
▁Anne	-7155
▁Bhar	-7156
▁Deep	-7157
▁Down	-7158
▁Medi	-7159
▁TKIs	-7160
▁Vell	-7161
▁Work	-7162
▁brow	-7163
▁card	-7164
▁cele	-7165
▁coil	-7166
▁coup	-7167
▁earn	-7168
▁enjo	-7169
▁fron	-7170
▁king	-7171
▁miss	-7172
▁obst	-7173
▁oils	-7174
▁pour	-7175
▁sand	-7176
▁scal	-7177
▁virt	-7178
alling	-7179
anoids	-7180
charge	-7181
itting	-7182
izumab	-7183
opolys	-7184
▁Alzhe	-7185
▁Amino	-7186
▁Basic	-7187
▁Gener	-7188
▁Lupin	-7189
▁Pharm	-7190
▁Thiru	-7191
▁acres	-7192
▁colon	-7193
▁daily	-7194
▁eicos	-7195
▁empty	-7196
▁entry	-7197
▁equil	-7198
▁frame	-7199
▁graph	-7200
▁inert	-7201
▁logic	-7202
▁minim	-7203
▁plans	-7204
▁rooms	-7205
▁sperm	-7206
▁stand	-7207
▁tells	-7208
▁trees	-7209
▁usual	-7210
▁yield	-7211
inoleic	-7212
itizens	-7213
oconjug	-7214
peptide	-7215
proline	-7216
rection	-7217
▁Hemang	-7218
▁Policy	-7219
▁attemp	-7220
▁bigger	-7221
▁budget	-7222
▁chosen	-7223
▁coiled	-7224
▁easier	-7225
▁eukary	-7226
▁gender	-7227
▁interp	-7228
▁joined	-7229
▁lowest	-7230
▁paying	-7231
▁plates	-7232
▁prices	-7233
▁retail	-7234
▁seeing	-7235
▁simply	-7236
▁stands	-7237
▁thymus	-7238
▁tonnes	-7239
▁truste	-7240
adelphia	-7241
gthening	-7242
isations	-7243
odendrog	-7244
ogenetic	-7245
▁Members	-7246
▁Mission	-7247
▁Topical	-7248
▁adverse	-7249
▁carrier	-7250
▁creates	-7251
▁extreme	-7252
▁friends	-7253
▁hipbone	-7254
▁largest	-7255
▁license	-7256
▁onwards	-7257
▁opposed	-7258
▁optical	-7259
▁perfect	-7260
▁setting	-7261
▁sixteen	-7262
▁valence	-7263
ignancies	-7264
lications	-7265
uvalluvar	-7266
▁Angstrom	-7267
▁Contract	-7268
▁December	-7269
▁Managing	-7270
▁Purchase	-7271
▁Security	-7272
▁Undertak	-7273
▁auditing	-7274
▁combines	-7275
▁conflict	-7276
▁detector	-7277
▁enrolled	-7278
▁feedback	-7279
▁indicate	-7280
▁literacy	-7281
▁modified	-7282
▁overview	-7283
▁premises	-7284
▁remedies	-7285
▁reported	-7286
▁speaking	-7287
▁straight	-7288
▁survival	-7289
▁underarm	-7290
ingolipids	-7291
structions	-7292
▁Embryonal	-7293
▁Transport	-7294
▁cutaneous	-7295
▁decreases	-7296
▁favorable	-7297
▁identical	-7298
▁infantile	-7299
▁measuring	-7300
▁naturally	-7301
▁oxidation	-7302
▁rearrange	-7303
▁repulsion	-7304
▁rituximab	-7305
▁simulated	-7306
▁testicles	-7307
▁transform	-7308
▁undertake	-7309
▁unwinding	-7310
▁variation	-7311
▁Irrigation	-7312
▁Memorandum	-7313
▁Settlement	-7314
▁allocation	-7315
▁attractive	-7316
▁electroneg	-7317
▁industries	-7318
▁initiative	-7319
▁lymphocyte	-7320
▁managerial	-7321
▁methionine	-7322
▁personally	-7323
▁population	-7324
fibromatosis	-7325
▁Engineering	-7326
▁Epithelioid	-7327
▁centimeters	-7328
▁degradation	-7329
▁determining	-7330
▁effectively	-7331
▁eligibility	-7332
▁enantiomers	-7333
▁fluorescent	-7334
▁Corporations	-7335
▁Institutions	-7336
▁Philadelphia	-7337
▁commissioned	-7338
▁consequences	-7339
▁maximization	-7340
▁nomenclature	-7341
▁proteoglycan	-7342
▁subsequently	-7343
oproliferative	-7344
▁Investigation	-7345
▁opportunities	-7346
ohistochemistry	-7347
▁proprietorship	-7348
▁qualifications	-7349
▁transformation	-7350
76	-7351
8,	-7352
AS	-7353
IG	-7354
NT	-7355
RO	-7356
VA	-7357
dd	-7358
lu	-7359
ya	-7360
▁”	-7361
ARY	-7362
DDB	-7363
IES	-7364
URE	-7365
eal	-7366
eni	-7367
hot	-7368
ien	-7369
ilg	-7370
ira	-7371
leg	-7372
och	-7373
oon	-7374
pel	-7375
tub	-7376
two	-7377
typ	-7378
yro	-7379
▁06	-7380
▁61	-7381
▁Lk	-7382
▁SM	-7383
00/-	-7384
alid	-7385
apar	-7386
ario	-7387
book	-7388
chym	-7389
erce	-7390
fall	-7391
fers	-7392
inee	-7393
irol	-7394
ksha	-7395
lear	-7396
orph	-7397
osal	-7398
resh	-7399
rils	-7400
umes	-7401
with	-7402
▁120	-7403
▁150	-7404
▁180	-7405
▁190	-7406
▁250	-7407
▁Adi	-7408
▁Cor	-7409
▁Fib	-7410
▁Fif	-7411
▁PUB	-7412
▁Pay	-7413
▁RES	-7414
▁Sat	-7415
▁Unt	-7416
▁WHO	-7417
▁WOR	-7418
▁Wid	-7419
▁cas	-7420
▁ded	-7421
▁dri	-7422
▁esc	-7423
▁sea	-7424
▁sil	-7425
VELOP	-7426
abled	-7427
agiri	-7428
akkam	-7429
apsed	-7430
celer	-7431
elles	-7432
going	-7433
inars	-7434
inent	-7435
ophen	-7436
ostel	-7437
osupp	-7438
putes	-7439
retch	-7440
umbar	-7441
veill	-7442
yroid	-7443
▁Core	-7444
▁Dear	-7445
▁Hous	-7446
▁LeuT	-7447
▁Look	-7448
▁Rule	-7449
▁Tour	-7450
▁adds	-7451
▁aden	-7452
▁clar	-7453
▁cycl	-7454
▁diam	-7455
▁ease	-7456
▁flat	-7457
▁home	-7458
▁lies	-7459
▁pent	-7460
▁rain	-7461
▁rede	-7462
▁rent	-7463
▁runs	-7464
▁stip	-7465
▁wing	-7466
aratus	-7467
equate	-7468
ground	-7469
inomas	-7470
omycin	-7471
overed	-7472
rapies	-7473
ritish	-7474
▁Annex	-7475
▁Chest	-7476
▁Fever	-7477
▁Field	-7478
▁Heads	-7479
▁Ident	-7480
▁Metro	-7481
▁Psych	-7482
▁Those	-7483
▁accur	-7484
▁aided	-7485
▁alien	-7486
▁annum	-7487
▁beams	-7488
▁cargo	-7489
▁clock	-7490
▁cloud	-7491
▁cured	-7492
▁fetus	-7493
▁marri	-7494
▁moved	-7495
▁oblig	-7496
▁owned	-7497
▁proxy	-7498
▁regim	-7499
▁suits	-7500
▁toile	-7501
▁trade	-7502
▁trust	-7503
▁waste	-7504
▁wheel	-7505
inguish	-7506
ivities	-7507
keleton	-7508
ourable	-7509
pecific	-7510
▁Agency	-7511
▁Benign	-7512
▁Design	-7513
▁Detail	-7514
▁Gandhi	-7515
▁Income	-7516
▁Legisl	-7517
▁PUBLIC	-7518
▁Peramb	-7519
▁Satyam	-7520
▁TANMAG	-7521
▁United	-7522
▁Weight	-7523
▁amphip	-7524
▁attain	-7525
▁bypass	-7526
▁cleave	-7527
▁embedd	-7528
▁inform	-7529
▁mosaic	-7530
▁mutual	-7531
▁offers	-7532
▁purple	-7533
▁reject	-7534
▁render	-7535
▁steric	-7536
▁worksh	-7537
irolimus	-7538
oisomers	-7539
▁Academy	-7540
▁Capital	-7541
▁Consult	-7542
▁DEVELOP	-7543
▁Justice	-7544
▁Records	-7545
▁SCHEMES	-7546
▁Steroid	-7547
▁Suppose	-7548
▁Uniform	-7549
▁approve	-7550
▁belongs	-7551
▁briefly	-7552
▁chapter	-7553
▁culture	-7554
▁damaged	-7555
▁defines	-7556
▁finance	-7557
▁gliomas	-7558
▁handled	-7559
▁handout	-7560
▁library	-7561
▁ligands	-7562
▁message	-7563
▁monitor	-7564
▁offence	-7565
▁perpend	-7566
▁polymer	-7567
▁popular	-7568
▁restaur	-7569
▁sectors	-7570
▁sharing	-7571
▁sigmoid	-7572
▁stretch	-7573
▁sulfate	-7574
▁surplus	-7575
▁thermal	-7576
ISTRATION	-7577
cutaneous	-7578
ficiaries	-7579
ibilities	-7580
overnance	-7581
▁Resource	-7582
▁Transfer	-7583
▁Unguided	-7584
▁breaking	-7585
▁bruising	-7586
▁chlorine	-7587
▁deposits	-7588
▁expenses	-7589
▁friendly	-7590
▁geometry	-7591
▁happened	-7592
▁labelled	-7593
▁linoleic	-7594
▁marginal	-7595
▁microtub	-7596
▁notified	-7597
▁phosphat	-7598
▁proposal	-7599
▁puncture	-7600
▁surgical	-7601
▁turnover	-7602
▁volatile	-7603
▁watching	-7604
▁Alzheimer	-7605
▁Buildings	-7606
▁Computers	-7607
▁Divisions	-7608
▁President	-7609
▁Textbooks	-7610
▁adsorbent	-7611
▁allowance	-7612
▁apparatus	-7613
▁applicant	-7614
▁dissolved	-7615
▁exercised	-7616
▁expensive	-7617
▁extremely	-7618
▁permanent	-7619
▁petitions	-7620
▁receptors	-7621
▁recursive	-7622
▁repayment	-7623
▁requested	-7624
▁scheduled	-7625
▁signature	-7626
▁therapies	-7627
▁threonine	-7628
▁triglycer	-7629
rengthening	-7630
▁Ependymoma	-7631
▁activation	-7632
▁committees	-7633
▁parameters	-7634
▁pertaining	-7635
▁prevention	-7636
▁profession	-7637
▁recognised	-7638
▁DEVELOPMENT	-7639
▁Publication	-7640
▁centrifugal	-7641
▁cooperative	-7642
▁electricity	-7643
▁exclusively	-7644
▁glycoconjug	-7645
▁institution	-7646
▁investigate	-7647
▁progression	-7648
▁recommended	-7649
▁Intermediate	-7650
▁Malignancies	-7651
▁Psychologist	-7652
▁administered	-7653
▁transporters	-7654
▁comprehensive	-7655
▁corresponding	-7656
▁manufacturing	-7657
▁modifications	-7658
▁perpendicular	-7659
▁physiological	-7660
▁preconditions	-7661
▁Superintending	-7662
▁accountability	-7663
▁characteristic	-7664
▁identification	-7665
▁intensification	-7666
79	-7667
PP	-7668
TH	-7669
lt	-7670
EAR	-7671
TOR	-7672
ape	-7673
aph	-7674
che	-7675
cop	-7676
elt	-7677
len	-7678
ped	-7679
udh	-7680
▁08	-7681
▁AS	-7682
▁Dh	-7683
▁IX	-7684
▁TA	-7685
ANCE	-7686
CIAL	-7687
cipl	-7688
ecun	-7689
iche	-7690
ichy	-7691
inib	-7692
iris	-7693
lial	-7694
olol	-7695
omon	-7696
onso	-7697
reek	-7698
umul	-7699
uvan	-7700
zing	-7701
▁101	-7702
▁110	-7703
▁20%	-7704
▁CBC	-7705
▁Cir	-7706
▁EDU	-7707
▁Equ	-7708
▁Kil	-7709
▁LLP	-7710
▁Mat	-7711
▁Tri	-7712
▁Vir	-7713
▁Vol	-7714
▁bow	-7715
▁dab	-7716
▁din	-7717
▁fer	-7718
▁lev	-7719
▁nor	-7720
▁vag	-7721
DDBFI	-7722
MENTS	-7723
Tamil	-7724
adium	-7725
after	-7726
allur	-7727
iolet	-7728
lexes	-7729
order	-7730
stead	-7731
uppur	-7732
ylate	-7733
▁BCLC	-7734
▁Calc	-7735
▁DIRE	-7736
▁Dept	-7737
▁Gram	-7738
▁NHAI	-7739
▁Nilg	-7740
▁Oper	-7741
▁Pass	-7742
▁Phot	-7743
▁Poly	-7744
▁Test	-7745
▁clot	-7746
▁cool	-7747
▁emph	-7748
▁eval	-7749
▁felt	-7750
▁foot	-7751
▁hect	-7752
▁lone	-7753
▁mTOR	-7754
▁pure	-7755
▁rend	-7756
▁silk	-7757
▁whom	-7758
▁wish	-7759
dipole	-7760
operat	-7761
overty	-7762
▁1956.	-7763
▁Anglo	-7764
▁Early	-7765
▁Nagar	-7766
▁POWER	-7767
▁Place	-7768
▁Ravan	-7769
▁acted	-7770
▁blast	-7771
▁cadre	-7772
▁calls	-7773
▁chief	-7774
▁empow	-7775
▁fibro	-7776
▁focal	-7777
▁habit	-7778
▁liber	-7779
▁manip	-7780
▁metab	-7781
▁mobil	-7782
▁moral	-7783
▁setup	-7784
▁sorry	-7785
▁speak	-7786
▁thick	-7787
▁vires	-7788
genital	-7789
onsored	-7790
▁Anyway	-7791
▁Glioma	-7792
▁Lumbar	-7793
▁MTRANS	-7794
▁Medium	-7795
▁Prepar	-7796
▁Sangam	-7797
▁anomer	-7798
▁artery	-7799
▁banker	-7800
▁breath	-7801
▁closer	-7802
▁comply	-7803
▁earned	-7804
▁failed	-7805
▁framed	-7806
▁inters	-7807
▁leaves	-7808
▁native	-7809
▁quorum	-7810
▁safely	-7811
▁senses	-7812
▁sheath	-7813
▁worker	-7814
ecuniary	-7815
ferences	-7816
idential	-7817
▁British	-7818
▁Cinemas	-7819
▁Classes	-7820
▁Constit	-7821
▁Instead	-7822
▁Monsoon	-7823
▁October	-7824
▁Princip	-7825
▁Regular	-7826
▁Reports	-7827
▁Stromal	-7828
▁Trouble	-7829
▁Website	-7830
▁bromine	-7831
▁carbons	-7832
▁centres	-7833
▁concess	-7834
▁designs	-7835
▁dipoles	-7836
▁equally	-7837
▁filling	-7838
▁invoked	-7839
▁isomers	-7840
▁lecture	-7841
▁operate	-7842
▁overall	-7843
▁patches	-7844
▁publish	-7845
▁quantit	-7846
▁redress	-7847
▁thyroid	-7848
▁village	-7849
ciplinary	-7850
veillance	-7851
▁DIRECTOR	-7852
▁Eleventh	-7853
▁Nilgiris	-7854
▁Syndrome	-7855
▁Systemic	-7856
▁Takeover	-7857
▁deletion	-7858
▁incurred	-7859
▁machines	-7860
▁mesylate	-7861
▁monomers	-7862
▁multiply	-7863
▁pointing	-7864
▁prevents	-7865
▁reserved	-7866
▁salesman	-7867
▁scenario	-7868
▁stranded	-7869
▁subtypes	-7870
▁supposed	-7871
▁switches	-7872
raskeletal	-7873
▁Conformal	-7874
▁Employees	-7875
▁Infantile	-7876
▁Promotion	-7877
▁Renewable	-7878
▁attracted	-7879
▁cancerous	-7880
▁catalytic	-7881
▁chemicals	-7882
▁comparing	-7883
▁comprises	-7884
▁conserved	-7885
▁countries	-7886
▁cytometry	-7887
▁debenture	-7888
▁exercises	-7889
▁president	-7890
▁prototype	-7891
▁recognise	-7892
▁summarize	-7893
▁temporary	-7894
▁universal	-7895
operativity	-7896
▁2009-2010,	-7897
▁Activities	-7898
▁Perambalur	-7899
▁Securities	-7900
▁adsorption	-7901
▁aggregates	-7902
▁hydrolyzed	-7903
▁indicating	-7904
▁phenomenon	-7905
▁punishable	-7906
▁restaurant	-7907
▁Cytogenetic	-7908
▁considering	-7909
▁eicosanoids	-7910
▁enforcement	-7911
▁experiments	-7912
▁integration	-7913
▁obligations	-7914
▁particulars	-7915
▁procurement	-7916
▁prospective	-7917
▁resignation	-7918
▁sanctioning	-7919
▁specialized	-7920
▁transported	-7921
▁Pediatrician	-7922
▁compensation	-7923
▁disaccharide	-7924
▁improvements	-7925
▁inflammatory	-7926
▁intersection	-7927
▁intervention	-7928
▁legislations	-7929
▁spectrometry	-7930
▁glycosylation	-7931
▁international	-7932
▁organisations	-7933
▁participating	-7934
▁rearrangement	-7935
▁hydroxyproline	-7936
▁electronegative	-7937
▁representations	-7938
30	-7939
31	-7940
5,	-7941
90	-7942
RU	-7943
oy	-7944
▁+	-7945
ARC	-7946
ITY	-7947
asi	-7948
ilt	-7949
irs	-7950
lim	-7951
uks	-7952
▁3.	-7953
▁46	-7954
▁54	-7955
▁58	-7956
▁76	-7957
▁AB	-7958
▁Cy	-7959
▁Fr	-7960
▁Ge	-7961
▁RO	-7962
▁SF	-7963
▁UV	-7964
▁xi	-7965
IONS	-7966
agar	-7967
amer	-7968
bots	-7969
elsi	-7970
iduc	-7971
ilot	-7972
irap	-7973
ogle	-7974
omat	-7975
orms	-7976
regn	-7977
rict	-7978
rium	-7979
ulam	-7980
vial	-7981
xoid	-7982
▁15%	-7983
▁300	-7984
▁ASS	-7985
▁Adv	-7986
▁Aug	-7987
▁Enc	-7988
▁Mut	-7989
▁PRI	-7990
▁SEF	-7991
▁Sch	-7992
▁Ser	-7993
▁Ult	-7994
▁enl	-7995
▁mac	-7996
▁mim	-7997
▁mit	-7998
▁sib	-7999
▁son	-8000
▁sue	-8001
▁suf	-8002
▁wel	-8003
000/-	-8004
agang	-8005
allic	-8006
azone	-8007
ellum	-8008
ensed	-8009
feree	-8010
ficit	-8011
inger	-8012
iofib	-8013
lasts	-8014
oform	-8015
oming	-8016
osine	-8017
osure	-8018
ronch	-8019
tered	-8020
umbai	-8021
units	-8022
using	-8023
ylose	-8024
▁1999	-8025
▁BRAF	-8026
▁Dani	-8027
▁Dipl	-8028
▁Fine	-8029
▁Glyc	-8030
▁IMRT	-8031
▁Kann	-8032
▁Kany	-8033
▁Mark	-8034
▁Meet	-8035
▁Phys	-8036
▁Wind	-8037
▁argu	-8038
▁ball	-8039
▁cult	-8040
▁cure	-8041
▁desc	-8042
▁drop	-8043
▁ends	-8044
▁ever	-8045
▁hear	-8046
▁lose	-8047
▁mill	-8048
▁mono	-8049
▁phot	-8050
▁pitu	-8051
▁reve	-8052
▁suit	-8053
▁susp	-8054
▁symb	-8055
▁void	-8056
agents	-8057
agland	-8058
astere	-8059
atuity	-8060
elsius	-8061
hesion	-8062
ighter	-8063
imeric	-8064
ogenic	-8065
olymer	-8066
otonin	-8067
struct	-8068
▁2016.	-8069
▁Agree	-8070
▁Asian	-8071
▁Cereb	-8072
▁Estim	-8073
▁Fifth	-8074
▁Greek	-8075
▁House	-8076
▁PRESS	-8077
▁SMARC	-8078
▁Sarva	-8079
▁Taluk	-8080
▁Theni	-8081
▁Women	-8082
▁abund	-8083
▁arise	-8084
▁array	-8085
▁elute	-8086
▁fiduc	-8087
▁fifth	-8088
▁fluor	-8089
▁judge	-8090
▁label	-8091
▁lease	-8092
▁modes	-8093
▁myelo	-8094
▁owner	-8095
▁proph	-8096
▁recru	-8097
▁resin	-8098
▁rigor	-8099
▁sanct	-8100
▁solar	-8101
▁solub	-8102
▁surpr	-8103
▁topic	-8104
▁woman	-8105
ception	-8106
ichever	-8107
ocortic	-8108
romatic	-8109
sequent	-8110
uchirap	-8111
vertise	-8112
▁Bodies	-8113
▁Census	-8114
▁Course	-8115
▁Google	-8116
▁Import	-8117
▁Krishn	-8118
▁Member	-8119
▁Mumbai	-8120
▁Networ	-8121
▁Normal	-8122
▁Parent	-8123
▁RDDBFI	-8124
▁advice	-8125
▁agreed	-8126
▁ancest	-8127
▁apprec	-8128
▁childs	-8129
▁coated	-8130
▁discip	-8131
▁effort	-8132
▁equals	-8133
▁evapor	-8134
▁excell	-8135
▁extens	-8136
▁folded	-8137
▁global	-8138
▁hyalur	-8139
▁killer	-8140
▁marker	-8141
▁obstac	-8142
▁picked	-8143
▁proved	-8144
▁pursue	-8145
▁relate	-8146
▁scenes	-8147
▁showed	-8148
▁spaces	-8149
▁subdom	-8150
▁temper	-8151
▁vested	-8152
▁visual	-8153
▁window	-8154
00,000/-	-8155
avorable	-8156
function	-8157
iofibrom	-8158
oprotein	-8159
ukkottai	-8160
▁Coastal	-8161
▁Control	-8162
▁Current	-8163
▁Develop	-8164
▁Diploma	-8165
▁Million	-8166
▁Shiksha	-8167
▁Staging	-8168
▁Subject	-8169
▁Vellore	-8170
▁Western	-8171
▁adjudic	-8172
▁batches	-8173
▁biology	-8174
▁blocked	-8175
▁blocker	-8176
▁deficit	-8177
▁devices	-8178
▁diagram	-8179
▁distant	-8180
▁fitness	-8181
▁grouped	-8182
▁hepatic	-8183
▁infants	-8184
▁ketoses	-8185
▁knowing	-8186
▁nominal	-8187
▁optimum	-8188
▁outputs	-8189
▁rapidly	-8190
▁reaches	-8191
▁realize	-8192
▁stadium	-8193
▁statute	-8194
▁targets	-8195
▁tenders	-8196
▁therein	-8197
▁trivial	-8198
asibility	-8199
gradation	-8200
yelocytic	-8201
▁Annexure	-8202
▁Assembly	-8203
▁Dearness	-8204
▁Detailed	-8205
▁Fourthly	-8206
▁Literacy	-8207
▁Register	-8208
▁Sivagang	-8209
▁accurate	-8210
▁behavior	-8211
▁biopsies	-8212
▁cerebrum	-8213
▁concepts	-8214
▁consumer	-8215
▁creation	-8216
▁crystals	-8217
▁detected	-8218
▁diameter	-8219
▁disputes	-8220
▁doctrine	-8221
▁enhanced	-8222
▁epidemic	-8223
▁handling	-8224
▁headache	-8225
▁indolent	-8226
▁linkages	-8227
▁offences	-8228
▁oriented	-8229
▁protects	-8230
▁pursuing	-8231
▁releases	-8232
▁sectoral	-8233
▁segments	-8234
▁smallest	-8235
▁subunits	-8236
▁transloc	-8237
▁utilized	-8238
▁variable	-8239
▁vertical	-8240
▁withdraw	-8241
▁yourself	-8242
▁Community	-8243
▁Implement	-8244
▁Improving	-8245
▁Resources	-8246
▁benefited	-8247
▁carcinoma	-8248
▁constrain	-8249
▁correctly	-8250
▁disclosed	-8251
▁estimates	-8252
▁extension	-8253
▁fiduciary	-8254
▁furnished	-8255
▁glutamine	-8256
▁immediate	-8257
▁insurance	-8258
▁intensity	-8259
▁optically	-8260
▁pecuniary	-8261
▁pituitary	-8262
▁presently	-8263
▁reappoint	-8264
▁regulator	-8265
▁repeating	-8266
▁resistant	-8267
▁serotonin	-8268
▁signifies	-8269
▁specially	-8270
▁takeovers	-8271
▁whichever	-8272
anathapuram	-8273
▁Accountant	-8274
▁Anaplastic	-8275
▁agreements	-8276
▁attributes	-8277
▁broadening	-8278
▁frequently	-8279
▁integrated	-8280
▁prohibited	-8281
▁rotational	-8282
▁stabilized	-8283
▁strategies	-8284
▁DIRECTORATE	-8285
▁Kanyakumari	-8286
▁Preparation	-8287
▁Statistical	-8288
▁alterations	-8289
▁alternative	-8290
▁calculation	-8291
▁compliances	-8292
▁complicated	-8293
▁distinction	-8294
▁ganglioside	-8295
▁manufacture	-8296
▁measurement	-8297
▁subscribers	-8298
▁theoretical	-8299
▁Chairmanship	-8300
▁REGISTRATION	-8301
▁availability	-8302
▁consolidated	-8303
▁continuation	-8304
▁dissociation	-8305
▁establishing	-8306
▁instructions	-8307
▁notification	-8308
▁optimization	-8309
▁precondition	-8310
▁stereotactic	-8311
▁subcutaneous	-8312
▁successfully	-8313
▁underwriting	-8314
▁beneficiaries	-8315
▁cooperativity	-8316
▁developmental	-8317
▁glycoproteins	-8318
▁pineoblastoma	-8319
▁polysaccharide	-8320
▁reconstruction	-8321
▁medulloblastoma	-8322
/0	-8323
/4	-8324
25	-8325
5.	-8326
72	-8327
BA	-8328
CM	-8329
Ch	-8330
KG	-8331
MW	-8332
NN	-8333
gg	-8334
gi	-8335
’,	-8336
▁@	-8337
ADU	-8338
FOR	-8339
Reg	-8340
The	-8341
ala	-8342
bed	-8343
gon	-8344
idy	-8345
ife	-8346
irl	-8347
lev	-8348
ohe	-8349
oor	-8350
run	-8351
vac	-8352
xts	-8353
▁34	-8354
▁5,	-8355
▁63	-8356
▁68	-8357
▁71	-8358
▁72	-8359
▁78	-8360
▁79	-8361
▁AG	-8362
▁Av	-8363
▁Bl	-8364
▁ES	-8365
▁EX	-8366
▁Ry	-8367
▁ec	-8368
▁ml	-8369
▁ow	-8370
▁tR	-8371
,5,0	-8372
FORM	-8373
adic	-8374
aper	-8375
axis	-8376
eers	-8377
elli	-8378
enib	-8379
etty	-8380
icip	-8381
iour	-8382
more	-8383
osts	-8384
path	-8385
role	-8386
ties	-8387
time	-8388
tson	-8389
ulph	-8390
umer	-8391
vile	-8392
▁141	-8393
▁Air	-8394
▁Ari	-8395
▁Att	-8396
▁Exc	-8397
▁Her	-8398
▁Lit	-8399
▁Mus	-8400
▁Sug	-8401
▁Vac	-8402
▁bee	-8403
▁cul	-8404
▁dys	-8405
▁hex	-8406
▁hot	-8407
▁mix	-8408
▁mol	-8409
▁mom	-8410
▁pKR	-8411
▁sex	-8412
aceut	-8413
aiyur	-8414
amide	-8415
aning	-8416
arged	-8417
asome	-8418
athic	-8419
comes	-8420
emale	-8421
eness	-8422
erest	-8423
feron	-8424
hiyan	-8425
hydro	-8426
ially	-8427
ignar	-8428
iotic	-8429
light	-8430
lobal	-8431
point	-8432
rease	-8433
rooms	-8434
unior	-8435
ursed	-8436
verts	-8437
yalur	-8438
▁1991	-8439
▁1997	-8440
▁Biom	-8441
▁City	-8442
▁EDUC	-8443
▁East	-8444
▁Hill	-8445
▁Katt	-8446
▁MNRE	-8447
▁Past	-8448
▁Prop	-8449
▁Sita	-8450
▁Upto	-8451
▁Weak	-8452
▁bend	-8453
▁bile	-8454
▁bott	-8455
▁camp	-8456
▁lack	-8457
▁lock	-8458
▁male	-8459
▁page	-8460
▁phil	-8461
▁poor	-8462
▁ribs	-8463
▁rice	-8464
▁save	-8465
▁sets	-8466
Sachin	-8467
abling	-8468
ansion	-8469
ervice	-8470
holder	-8471
ibrium	-8472
icated	-8473
itored	-8474
olenic	-8475
olitan	-8476
readth	-8477
rected	-8478
retion	-8479
usters	-8480
uzumab	-8481
ylaxis	-8482
▁1956,	-8483
▁2008,	-8484
▁2011.	-8485
▁3,5,0	-8486
▁Plant	-8487
▁Rober	-8488
▁South	-8489
▁Terat	-8490
▁Trust	-8491
▁bowel	-8492
▁colle	-8493
▁conce	-8494
▁elong	-8495
▁embry	-8496
▁facts	-8497
▁forum	-8498
▁fresh	-8499
▁gathe	-8500
▁girls	-8501
▁heads	-8502
▁kills	-8503
▁moles	-8504
▁motiv	-8505
▁opens	-8506
▁proof	-8507
▁sandw	-8508
▁shelf	-8509
▁shell	-8510
▁shift	-8511
▁sixth	-8512
▁tails	-8513
▁tasks	-8514
▁tends	-8515
atorium	-8516
licitly	-8517
namalai	-8518
otyping	-8519
ranolol	-8520
unities	-8521
▁August	-8522
▁Medull	-8523
▁Natham	-8524
▁People	-8525
▁Rights	-8526
▁Schank	-8527
▁Tollen	-8528
▁Trichy	-8529
▁atomic	-8530
▁border	-8531
▁butter	-8532
▁codons	-8533
▁covers	-8534
▁divers	-8535
▁eating	-8536
▁evolve	-8537
▁explan	-8538
▁glands	-8539
▁invent	-8540
▁lastly	-8541
▁lights	-8542
▁moment	-8543
▁opened	-8544
▁perpet	-8545
▁phased	-8546
▁polyun	-8547
▁repair	-8548
▁ribose	-8549
▁shapes	-8550
▁shifts	-8551
▁sought	-8552
▁update	-8553
▁weaker	-8554
▁yellow	-8555
atically	-8556
itecture	-8557
olitical	-8558
osterone	-8559
transfer	-8560
▁Abhiyan	-8561
▁Auditor	-8562
▁Celsius	-8563
▁Details	-8564
▁Diffuse	-8565
▁Electro	-8566
▁Firstly	-8567
▁Housing	-8568
▁PROJECT	-8569
▁Reserve	-8570
▁Several	-8571
▁Society	-8572
▁Support	-8573
▁Thirukk	-8574
▁Unusual	-8575
▁advance	-8576
▁amongst	-8577
▁authors	-8578
▁calling	-8579
▁causing	-8580
▁chooses	-8581
▁cleaved	-8582
▁coastal	-8583
▁columns	-8584
▁comprom	-8585
▁diverse	-8586
▁earning	-8587
▁enquiry	-8588
▁erected	-8589
▁exceeds	-8590
▁execute	-8591
▁figures	-8592
▁furnish	-8593
▁harmful	-8594
▁homogen	-8595
▁justice	-8596
▁keratin	-8597
▁nanomet	-8598
▁nominee	-8599
▁osazone	-8600
▁predict	-8601
▁screens	-8602
▁settled	-8603
▁toilets	-8604
▁tonsils	-8605
▁venture	-8606
▁workers	-8607
ropolitan	-8608
▁Activity	-8609
▁Danielli	-8610
▁Election	-8611
▁Function	-8612
▁Independ	-8613
▁Interest	-8614
▁Normally	-8615
▁Painless	-8616
▁Particip	-8617
▁Regional	-8618
▁SERVICES	-8619
▁Syllabus	-8620
▁Tiruppur	-8621
▁Weakness	-8622
▁accident	-8623
▁adequate	-8624
▁analyzed	-8625
▁comments	-8626
▁converts	-8627
▁damaging	-8628
▁directed	-8629
▁gathered	-8630
▁glycosph	-8631
▁imatinib	-8632
▁intended	-8633
▁merchant	-8634
▁prescrib	-8635
▁retained	-8636
▁sentence	-8637
▁siblings	-8638
▁strategy	-8639
▁strongly	-8640
▁thirteen	-8641
chromicity	-8642
omonocytic	-8643
▁Angstroms	-8644
▁EDUCATION	-8645
▁Economics	-8646
▁Panchayat	-8647
▁Placement	-8648
▁Professor	-8649
▁Robertson	-8650
▁achieving	-8651
▁advertise	-8652
▁automated	-8653
▁automatic	-8654
▁clearance	-8655
▁conferred	-8656
▁empowered	-8657
▁equipment	-8658
▁everybody	-8659
▁exceeding	-8660
▁executing	-8661
▁expertise	-8662
▁galactose	-8663
▁hindrance	-8664
▁intermedi	-8665
▁intestine	-8666
▁libraries	-8667
▁linolenic	-8668
▁liposomes	-8669
▁lymphatic	-8670
▁monitored	-8671
▁nominated	-8672
▁professor	-8673
▁routinely	-8674
▁sanctuary	-8675
▁sirolimus	-8676
▁societies	-8677
onstruction	-8678
uvannamalai	-8679
▁Additional	-8680
▁Bankruptcy	-8681
▁Foundation	-8682
▁Honourable	-8683
▁Immunophen	-8684
▁absorption	-8685
▁accessible	-8686
▁chloroform	-8687
▁coordinate	-8688
▁corruption	-8689
▁dependency	-8690
▁discovered	-8691
▁distamycin	-8692
▁eukaryotic	-8693
▁generating	-8694
▁mechanical	-8695
▁membership	-8696
▁microscopy	-8697
▁possession	-8698
▁protective	-8699
▁proteomics	-8700
▁regulating	-8701
▁relatively	-8702
▁structured	-8703
▁transferee	-8704
▁transferor	-8705
▁Legislative	-8706
▁Neurologist	-8707
▁Pudukkottai	-8708
▁amphipathic	-8709
▁chairperson	-8710
▁cooperation	-8711
▁distinguish	-8712
▁dysfunction	-8713
▁electrochem	-8714
▁equilibrium	-8715
▁exploration	-8716
▁extensively	-8717
▁interacting	-8718
▁observation	-8719
▁outstanding	-8720
▁possibility	-8721
▁predominant	-8722
▁prophylaxis	-8723
▁prostagland	-8724
▁subscribing	-8725
▁Certificates	-8726
▁Constitution	-8727
▁Subsequently	-8728
▁Transmission	-8729
▁biomolecules	-8730
▁contributing	-8731
▁oligodendrog	-8732
▁participated	-8733
▁periodically	-8734
▁Strengthening	-8735
▁contravention	-8736
▁craniopharyng	-8737
▁encroachments	-8738
▁fragmentation	-8739
▁hybridization	-8740
▁incorporating	-8741
▁organizations	-8742
▁professionals	-8743
▁supplementary	-8744
▁Implementation	-8745
▁Ramanathapuram	-8746
opolysaccharides	-8747
▁polyunsaturated	-8748
.,	-8749
75	-8750
94	-8751
Os	-8752
YE	-8753
fl	-8754
mn	-8755
oz	-8756
we	-8757
-07	-8758
-08	-8759
ALT	-8760
Cor	-8761
ISH	-8762
IVE	-8763
Ind	-8764
cil	-8765
iot	-8766
lut	-8767
nem	-8768
nge	-8769
ock	-8770
off	-8771
ori	-8772
rup	-8773
uts	-8774
vol	-8775
▁-1	-8776
▁53	-8777
▁93	-8778
▁EL	-8779
▁Hb	-8780
▁IT	-8781
▁Mr	-8782
▁PP	-8783
▁Pi	-8784
▁Py	-8785
▁Ri	-8786
▁SE	-8787
▁Sw	-8788
▁Tw	-8789
▁Ut	-8790
▁Ve	-8791
▁ok	-8792
▁pu	-8793
axes	-8794
econ	-8795
epar	-8796
ians	-8797
ibly	-8798
icyt	-8799
igul	-8800
ilty	-8801
inol	-8802
inus	-8803
leep	-8804
onst	-8805
opsy	-8806
reet	-8807
ucid	-8808
ulum	-8809
utic	-8810
uzzy	-8811
zene	-8812
▁447	-8813
▁75%	-8814
▁90%	-8815
▁CLL	-8816
▁Chi	-8817
▁Don	-8818
▁Eas	-8819
▁Its	-8820
▁Jap	-8821
▁Mur	-8822
▁Nam	-8823
▁Oil	-8824
▁Pal	-8825
▁PrP	-8826
▁QIP	-8827
▁Sha	-8828
▁Var	-8829
▁Web	-8830
▁alt	-8831
▁avo	-8832
▁egg	-8833
▁eve	-8834
▁hon	-8835
▁nar	-8836
▁osm	-8837
▁van	-8838
agist	-8839
akkal	-8840
anate	-8841
apuri	-8842
ausea	-8843
avson	-8844
enary	-8845
eract	-8846
etime	-8847
gener	-8848
indle	-8849
inoma	-8850
inted	-8851
itute	-8852
olism	-8853
olute	-8854
omide	-8855
onate	-8856
ovial	-8857
parov	-8858
senic	-8859
state	-8860
▁1980	-8861
▁2002	-8862
▁Acts	-8863
▁Angi	-8864
▁Anti	-8865
▁Atyp	-8866
▁COMM	-8867
▁CTLA	-8868
▁DIET	-8869
▁FISH	-8870
▁Hand	-8871
▁Hary	-8872
▁Hect	-8873
▁Home	-8874
▁Hosp	-8875
▁July	-8876
▁MALT	-8877
▁Myel	-8878
▁Open	-8879
▁Pack	-8880
▁Rank	-8881
▁SFIO	-8882
▁Thin	-8883
▁cast	-8884
▁doll	-8885
▁emot	-8886
▁fish	-8887
▁foll	-8888
▁iron	-8889
▁lens	-8890
▁love	-8891
▁mild	-8892
▁panc	-8893
▁pers	-8894
▁pill	-8895
▁poll	-8896
▁rash	-8897
▁redd	-8898
▁soil	-8899
▁tang	-8900
▁thro	-8901
▁tick	-8902
▁warr	-8903
Indian	-8904
arding	-8905
chymal	-8906
ectomy	-8907
ershed	-8908
iaries	-8909
inuing	-8910
ivered	-8911
marked	-8912
odynam	-8913
olipid	-8914
oresis	-8915
osomal	-8916
phobic	-8917
rendel	-8918
riched	-8919
throse	-8920
▁2013,	-8921
▁Birth	-8922
▁Cells	-8923
▁Cross	-8924
▁Equip	-8925
▁Final	-8926
▁Guide	-8927
▁Karur	-8928
▁Nodal	-8929
▁Nucle	-8930
▁Order	-8931
▁Plans	-8932
▁Prime	-8933
▁Prize	-8934
▁River	-8935
▁Think	-8936
▁accum	-8937
▁advis	-8938
▁brown	-8939
▁built	-8940
▁cleft	-8941
▁coils	-8942
▁demer	-8943
▁exams	-8944
▁favor	-8945
▁flows	-8946
▁fuzzy	-8947
▁grand	-8948
▁grown	-8949
▁hepat	-8950
▁inner	-8951
▁irreg	-8952
▁jetty	-8953
▁lever	-8954
▁lists	-8955
▁mills	-8956
▁misle	-8957
▁negot	-8958
▁norms	-8959
▁nurse	-8960
▁prone	-8961
▁pumps	-8962
▁purif	-8963
▁rehab	-8964
▁reimb	-8965
▁scler	-8966
▁serum	-8967
▁sides	-8968
▁slant	-8969
▁sleep	-8970
▁spend	-8971
▁steep	-8972
▁stone	-8973
▁texts	-8974
▁towns	-8975
▁track	-8976
▁trend	-8977
▁twice	-8978
General	-8979
alanine	-8980
ductive	-8981
essment	-8982
icytoma	-8983
indigul	-8984
ohexose	-8985
▁ASSIST	-8986
▁ATRANS	-8987
▁Common	-8988
▁Global	-8989
▁Gorter	-8990
▁Ground	-8991
▁Junior	-8992
▁Metric	-8993
▁Neural	-8994
▁Object	-8995
▁Scient	-8996
▁Stages	-8997
▁Strate	-8998
▁Virudh	-8999
▁Vision	-9000
▁anyway	-9001
▁apolip	-9002
▁bottom	-9003
▁casual	-9004
▁cation	-9005
▁celebr	-9006
▁divide	-9007
▁elucid	-9008
▁expand	-9009
▁funded	-9010
▁genome	-9011
▁guilty	-9012
▁linker	-9013
▁manual	-9014
▁mapped	-9015
▁merits	-9016
▁modify	-9017
▁myofib	-9018
▁narrow	-9019
▁postal	-9020
▁refers	-9021
▁rotate	-9022
▁saying	-9023
▁smooth	-9024
▁spider	-9025
▁spiral	-9026
▁vacant	-9027
▁varies	-9028
▁virtue	-9029
armapuri	-9030
economic	-9031
esseract	-9032
fication	-9033
phoresis	-9034
raviolet	-9035
ublished	-9036
udiciary	-9037
▁Appoint	-9038
▁Biomass	-9039
▁Conduct	-9040
▁Designs	-9041
▁Fibrous	-9042
▁Grendel	-9043
▁Haryana	-9044
▁Network	-9045
▁Package	-9046
▁Tenders	-9047
▁Usually	-9048
▁aldonic	-9049
▁amylose	-9050
▁avoided	-9051
▁bladder	-9052
▁century	-9053
▁chances	-9054
▁closure	-9055
▁display	-9056
▁dispute	-9057
▁emerged	-9058
▁ependym	-9059
▁fibrils	-9060
▁genomic	-9061
▁guanine	-9062
▁homolog	-9063
▁insider	-9064
▁interim	-9065
▁picking	-9066
▁privile	-9067
▁regards	-9068
▁relates	-9069
▁repeats	-9070
▁resumes	-9071
▁scrutin	-9072
▁somehow	-9073
▁specify	-9074
▁strands	-9075
▁streams	-9076
▁sucrose	-9077
▁surgeon	-9078
▁teacher	-9079
▁watched	-9080
▁welcome	-9081
▁widened	-9082
▁winning	-9083
alization	-9084
aunomycin	-9085
celerated	-9086
iyakumari	-9087
ocational	-9088
umulative	-9089
vacizumab	-9090
▁Articles	-9091
▁Atypical	-9092
▁Colleges	-9093
▁Graduate	-9094
▁Hectares	-9095
▁Kasparov	-9096
▁Overview	-9097
▁Servants	-9098
▁absolute	-9099
▁acquires	-9100
▁ancestor	-9101
▁aromatic	-9102
▁becoming	-9103
▁branched	-9104
▁collabor	-9105
▁crystall	-9106
▁denature	-9107
▁diastere	-9108
▁disposal	-9109
▁dissolve	-9110
▁dominant	-9111
▁drainage	-9112
▁effected	-9113
▁embedded	-9114
▁engineer	-9115
▁enlarged	-9116
▁enriched	-9117
▁exposure	-9118
▁hectares	-9119
▁intercon	-9120
▁judgment	-9121
▁juvenile	-9122
▁obstacle	-9123
▁occurred	-9124
▁pancreas	-9125
▁patterns	-9126
▁polymers	-9127
▁promoted	-9128
▁protease	-9129
▁reagents	-9130
▁reflexes	-9131
▁rendered	-9132
▁retiring	-9133
▁secondly	-9134
▁seminars	-9135
▁shortest	-9136
▁slanting	-9137
▁surfaces	-9138
▁synthase	-9139
Corruption	-9140
▁Agreement	-9141
▁Chemistry	-9142
▁Procedure	-9143
▁Transform	-9144
▁Tribunals	-9145
▁Untreated	-9146
▁admission	-9147
▁alignment	-9148
▁allocated	-9149
▁carefully	-9150
▁committed	-9151
▁community	-9152
▁contained	-9153
▁convicted	-9154
▁dedicated	-9155
▁delegated	-9156
▁delivered	-9157
▁deposited	-9158
▁distances	-9159
▁diversion	-9160
▁excellent	-9161
▁expansion	-9162
▁extending	-9163
▁extensive	-9164
▁forwarded	-9165
▁generator	-9166
▁incisions	-9167
▁interests	-9168
▁interpret	-9169
▁irregular	-9170
▁maintains	-9171
▁modulated	-9172
▁objection	-9173
▁occurring	-9174
▁perpetual	-9175
▁polarized	-9176
▁primarily	-9177
▁producing	-9178
▁recipient	-9179
▁releasing	-9180
▁responses	-9181
▁separates	-9182
▁suffering	-9183
▁surprised	-9184
▁travelled	-9185
▁variables	-9186
corporation	-9187
immunoassay	-9188
inoblastoma	-9189
opericytoma	-9190
resentation	-9191
▁Continuing	-9192
▁Divisional	-9193
▁Excisional	-9194
▁Grievances	-9195
▁Incisional	-9196
▁Investment	-9197
▁Sivagangai	-9198
▁Supportive	-9199
▁Tiruchirap	-9200
▁beneficial	-9201
▁cerebellum	-9202
▁complement	-9203
▁equatorial	-9204
▁equipments	-9205
▁neurologic	-9206
▁organelles	-9207
▁refractory	-9208
▁supplement	-9209
▁surrounded	-9210
▁translator	-9211
▁undertakes	-9212
▁Governments	-9213
▁Krishnagiri	-9214
▁Ministerial	-9215
▁Scholarship	-9216
▁computation	-9217
▁consequence	-9218
▁constituent	-9219
▁dissociates	-9220
▁essentially	-9221
▁formalities	-9222
▁necessarily	-9223
▁programming	-9224
▁superficial	-9225
▁Neurological	-9226
▁architecture	-9227
▁constructive	-9228
▁disqualified	-9229
▁experimental	-9230
▁inflammation	-9231
▁nationalized	-9232
▁neighbouring	-9233
▁temperatures	-9234
▁translations	-9235
▁transmission	-9236
▁Thiruvalluvar	-9237
▁disadvantages	-9238
▁promyelocytic	-9239
▁glyceraldehyde	-9240
▁hydrophobicity	-9241
▁phospholipases	-9242
▁differentiation	-9243
▁glycoconjugates	-9244
▁myelodysplastic	-9245
.’	-9246
35	-9247
44	-9248
46	-9249
86	-9250
AC	-9251
An	-9252
As	-9253
BM	-9254
CC	-9255
DH	-9256
FO	-9257
IZ	-9258
NH	-9259
RG	-9260
So	-9261
bu	-9262
hr	-9263
mu	-9264
oj	-9265
ABL	-9266
AID	-9267
ANG	-9268
DRP	-9269
EDA	-9270
MPL	-9271
OYE	-9272
RIC	-9273
ahs	-9274
aug	-9275
ees	-9276
fly	-9277
ika	-9278
lia	-9279
lis	-9280
lit	-9281
lus	-9282
mar	-9283
syl	-9284
uff	-9285
urb	-9286
urd	-9287
urt	-9288
▁2,	-9289
▁2.	-9290
▁56	-9291
▁81	-9292
▁91	-9293
▁92	-9294
▁BH	-9295
▁CP	-9296
▁Gh	-9297
▁fa	-9298
▁hi	-9299
▁il	-9300
▁wi	-9301
,0,0	-9302
/200	-9303
LICY	-9304
abha	-9305
ades	-9306
aray	-9307
ards	-9308
axic	-9309
comp	-9310
ding	-9311
erry	-9312
five	-9313
inic	-9314
iocy	-9315
isal	-9316
ixel	-9317
mosp	-9318
odes	-9319
oget	-9320
orin	-9321
osit	-9322
raft	-9323
rase	-9324
room	-9325
yyan	-9326
▁193	-9327
▁5,0	-9328
▁APL	-9329
▁CIT	-9330
▁DIP	-9331
▁FIN	-9332
▁GIS	-9333
▁GRA	-9334
▁His	-9335
▁MIN	-9336
▁Mor	-9337
▁Ref	-9338
▁Sel	-9339
▁Sri	-9340
▁Sun	-9341
▁Vis	-9342
▁Yes	-9343
▁alk	-9344
▁bea	-9345
▁inj	-9346
▁obl	-9347
▁ped	-9348
▁por	-9349
▁rat	-9350
▁sac	-9351
OYEES	-9352
Phase	-9353
amber	-9354
amous	-9355
anted	-9356
apore	-9357
astes	-9358
atect	-9359
athiy	-9360
atson	-9361
based	-9362
copic	-9363
enoic	-9364
esian	-9365
heast	-9366
ialic	-9367
iment	-9368
inter	-9369
iocyt	-9370
iries	-9371
ocrin	-9372
offic	-9373
olden	-9374
oline	-9375
ommod	-9376
ondon	-9377
power	-9378
rears	-9379
rosis	-9380
▁1500	-9381
▁ASBA	-9382
▁Cart	-9383
▁Coll	-9384
▁Copy	-9385
▁Coun	-9386
▁EMPL	-9387
▁Fact	-9388
▁Gene	-9389
▁Hend	-9390
▁Mand	-9391
▁Meas	-9392
▁Name	-9393
▁Nort	-9394
▁Park	-9395
▁Prad	-9396
▁Rest	-9397
▁Ring	-9398
▁Same	-9399
▁Scal	-9400
▁Tahs	-9401
▁Time	-9402
▁cert	-9403
▁cook	-9404
▁coun	-9405
▁defe	-9406
▁fork	-9407
▁grav	-9408
▁grid	-9409
▁hosp	-9410
▁join	-9411
▁limb	-9412
▁maps	-9413
▁mere	-9414
▁mist	-9415
▁pert	-9416
▁plat	-9417
▁rail	-9418
▁semi	-9419
▁sera	-9420
▁visc	-9421
asters	-9422
atomic	-9423
hydrin	-9424
ivided	-9425
izures	-9426
nemara	-9427
orphic	-9428
otaxic	-9429
pectin	-9430
terday	-9431
thanol	-9432
uclein	-9433
unagar	-9434
urgeon	-9435
vation	-9436
veolar	-9437
▁2009.	-9438
▁8,0,0	-9439
▁Antib	-9440
▁Block	-9441
▁Funds	-9442
▁Japan	-9443
▁Marri	-9444
▁NSAID	-9445
▁Offer	-9446
▁Plate	-9447
▁Share	-9448
▁Short	-9449
▁Staff	-9450
▁Units	-9451
▁WORKS	-9452
▁amine	-9453
▁ammon	-9454
▁bulky	-9455
▁chond	-9456
▁coval	-9457
▁deter	-9458
▁drast	-9459
▁exped	-9460
▁faith	-9461
▁fused	-9462
▁glial	-9463
▁heirs	-9464
▁illeg	-9465
▁inaug	-9466
▁innov	-9467
▁isole	-9468
▁lanes	-9469
▁loose	-9470
▁macro	-9471
▁merge	-9472
▁mimic	-9473
▁newsp	-9474
▁patta	-9475
▁pixel	-9476
▁plies	-9477
▁redox	-9478
▁resol	-9479
▁scans	-9480
▁scene	-9481
▁sigma	-9482
▁socio	-9483
▁steam	-9484
▁syner	-9485
▁tense	-9486
▁therm	-9487
▁throm	-9488
▁touch	-9489
▁usage	-9490
▁wages	-9491
▁walls	-9492
▁worry	-9493
astatic	-9494
ausible	-9495
ensions	-9496
ependym	-9497
etitive	-9498
ilation	-9499
inating	-9500
lements	-9501
liament	-9502
ogether	-9503
utation	-9504
▁10,000	-9505
▁50,000	-9506
▁Biopsy	-9507
▁Cinema	-9508
▁Davson	-9509
▁Demand	-9510
▁Govern	-9511
▁Labour	-9512
▁London	-9513
▁Mining	-9514
▁POLICY	-9515
▁Please	-9516
▁Retino	-9517
▁Spleen	-9518
▁Taluks	-9519
▁Though	-9520
▁Watson	-9521
▁agglut	-9522
▁analog	-9523
▁atmosp	-9524
▁bought	-9525
▁bronch	-9526
▁bullet	-9527
▁bundle	-9528
▁clever	-9529
▁colony	-9530
▁concur	-9531
▁correl	-9532
▁dabsyl	-9533
▁deeper	-9534
▁defect	-9535
▁dissem	-9536
▁donors	-9537
▁duplex	-9538
▁eluted	-9539
▁excess	-9540
▁exclud	-9541
▁expiry	-9542
▁female	-9543
▁finger	-9544
▁hostel	-9545
▁intram	-9546
▁ketose	-9547
▁lining	-9548
▁losing	-9549
▁magnes	-9550
▁maxima	-9551
▁passes	-9552
▁philos	-9553
▁portal	-9554
▁protru	-9555
▁server	-9556
▁settle	-9557
▁sialic	-9558
▁sickle	-9559
▁slides	-9560
▁symbol	-9561
▁throat	-9562
▁vector	-9563
▁worked	-9564
ammatory	-9565
asophary	-9566
astrocyt	-9567
atectomy	-9568
hematics	-9569
missible	-9570
▁Balance	-9571
▁Banking	-9572
▁Connect	-9573
▁Faculty	-9574
▁Fighter	-9575
▁Genetic	-9576
▁Highway	-9577
▁Perform	-9578
▁Pradesh	-9579
▁Presses	-9580
▁Related	-9581
▁Revised	-9582
▁Systems	-9583
▁Tahsild	-9584
▁Tollens	-9585
▁Vaccine	-9586
▁ancient	-9587
▁anomers	-9588
▁applies	-9589
▁article	-9590
▁biggest	-9591
▁billion	-9592
▁biochem	-9593
▁convers	-9594
▁counter	-9595
▁damages	-9596
▁demonst	-9597
▁descend	-9598
▁discrim	-9599
▁dispers	-9600
▁enabled	-9601
▁essence	-9602
▁faculty	-9603
▁generic	-9604
▁hostile	-9605
▁infrast	-9606
▁insulin	-9607
▁largely	-9608
▁lengths	-9609
▁neither	-9610
▁ovaries	-9611
▁packing	-9612
▁plotted	-9613
▁pointed	-9614
▁profile	-9615
▁readers	-9616
▁relaxed	-9617
▁renewed	-9618
▁selling	-9619
▁subunit	-9620
▁ventric	-9621
▁version	-9622
▁weather	-9623
▁willing	-9624
atologist	-9625
aturation	-9626
iocyanate	-9627
osarcomas	-9628
ptidoglyc	-9629
steroidal	-9630
ucleotide	-9631
▁Calcined	-9632
▁Endocrin	-9633
▁Hydrogen	-9634
▁Judicial	-9635
▁Personal	-9636
▁Teratoid	-9637
▁Vascular	-9638
▁Widening	-9639
▁absorbed	-9640
▁abundant	-9641
▁accommod	-9642
▁assembly	-9643
▁citizens	-9644
▁convened	-9645
▁deciding	-9646
▁defining	-9647
▁develops	-9648
▁enabling	-9649
▁ensuring	-9650
▁examined	-9651
▁exempted	-9652
▁familiar	-9653
▁fullness	-9654
▁genetics	-9655
▁initiate	-9656
▁learners	-9657
▁mediated	-9658
▁membered	-9659
▁methanol	-9660
▁misclass	-9661
▁nonpolar	-9662
▁outcomes	-9663
▁responds	-9664
▁scrutiny	-9665
▁suppress	-9666
▁tendency	-9667
▁trioxide	-9668
▁wherever	-9669
ordination	-9670
urosurgeon	-9671
▁Connemara	-9672
▁EMPLOYEES	-9673
▁Henderson	-9674
▁Northeast	-9675
▁Otherwise	-9676
▁Poramboke	-9677
▁Providing	-9678
▁Structure	-9679
▁Universal	-9680
▁addresses	-9681
▁aggrieved	-9682
▁belonging	-9683
▁conjugate	-9684
▁consensus	-9685
▁cytoplasm	-9686
▁discharge	-9687
▁earmarked	-9688
▁effecting	-9689
▁elsewhere	-9690
▁finalized	-9691
▁fulfilled	-9692
▁generates	-9693
▁governing	-9694
▁hepatitis	-9695
▁imparting	-9696
▁inability	-9697
▁injection	-9698
▁inspector	-9699
▁institute	-9700
▁investing	-9701
▁mediastin	-9702
▁necessity	-9703
▁netropsin	-9704
▁partition	-9705
▁performed	-9706
▁predicted	-9707
▁protected	-9708
▁recruited	-9709
▁reporting	-9710
▁sclerosis	-9711
▁strengths	-9712
▁subdomain	-9713
▁surrounds	-9714
▁synuclein	-9715
▁translate	-9716
▁workshops	-9717
astrocytoma	-9718
ocorticoids	-9719
▁Collection	-9720
▁Commercial	-9721
▁Dharmapuri	-9722
▁Inspectors	-9723
▁Literature	-9724
▁Procedures	-9725
▁Treatments	-9726
▁absorbance	-9727
▁amendments	-9728
▁appearance	-9729
▁approaches	-9730
▁attachment	-9731
▁carboxylic	-9732
▁confidence	-9733
▁consistent	-9734
▁converting	-9735
▁covalently	-9736
▁daunomycin	-9737
▁dimensions	-9738
▁follicular	-9739
▁immunosupp	-9740
▁indirectly	-9741
▁isoleucine	-9742
▁mechanisms	-9743
▁metabolism	-9744
▁performing	-9745
▁promotions	-9746
▁qualifying	-9747
▁signalling	-9748
▁solubility	-9749
▁subscribed	-9750
▁Cooperative	-9751
▁Hydrophobic	-9752
▁Lymphocytes	-9753
▁Secretaries	-9754
▁Undertaking	-9755
▁agriculture	-9756
▁amylopectin	-9757
▁coordinates	-9758
▁identifying	-9759
▁registering	-9760
▁replacement	-9761
▁replication	-9762
▁sphingosine	-9763
▁stabilizing	-9764
▁statistical	-9765
▁stereotaxic	-9766
Incorporation	-9767
ofibrosarcoma	-9768
▁Disciplinary	-9769
▁Embolization	-9770
▁Metropolitan	-9771
▁Notification	-9772
▁Organisation	-9773
▁Professional	-9774
▁cerebrosides	-9775
▁competitions	-9776
▁connectivity	-9777
▁disadvantage	-9778
▁evolutionary	-9779
▁implications	-9780
▁microtubules	-9781
▁pathological	-9782
▁prerequisite	-9783
▁significance	-9784
▁structurally	-9785
▁surveillance	-9786
▁Kanniyakumari	-9787
▁advertisement	-9788
▁automatically	-9789
▁comparatively	-9790
▁documentation	-9791
▁phenylalanine	-9792
▁proteoglycans	-9793
▁strengthening	-9794
▁translocation	-9795
▁monosaccharide	-9796
▁myelomonocytic	-9797
▁Endocrinologist	-9798
▁oligosaccharide	-9799
):	-9800
18	-9801
41	-9802
52	-9803
70	-9804
80	-9805
87	-9806
EG	-9807
HI	-9808
IM	-9809
LC	-9810
MP	-9811
RS	-9812
Th	-9813
ae	-9814
fo	-9815
ns	-9816
▁[	-9817
201	-9818
AST	-9819
EST	-9820
IGH	-9821
MIN	-9822
OTE	-9823
RAL	-9824
TER	-9825
ann	-9826
box	-9827
bre	-9828
des	-9829
ios	-9830
lly	-9831
lop	-9832
mia	-9833
nic	-9834
oep	-9835
oga	-9836
otw	-9837
set	-9838
tte	-9839
ttp	-9840
unj	-9841
www	-9842
yar	-9843
▁(3	-9844
▁0.	-9845
▁73	-9846
▁82	-9847
▁97	-9848
▁EC	-9849
▁GI	-9850
▁IE	-9851
▁NK	-9852
▁Sa	-9853
▁Sl	-9854
▁UG	-9855
▁Ud	-9856
▁et	-9857
▁ib	-9858
▁kn	-9859
OLAR	-9860
Rhab	-9861
abad	-9862
apse	-9863
arai	-9864
ason	-9865
aths	-9866
cast	-9867
down	-9868
eric	-9869
erus	-9870
feas	-9871
hesh	-9872
ione	-9873
muir	-9874
obil	-9875
ondi	-9876
oned	-9877
orth	-9878
oure	-9879
oves	-9880
ozhi	-9881
rary	-9882
rawn	-9883
rors	-9884
that	-9885
ying	-9886
▁102	-9887
▁103	-9888
▁140	-9889
▁147	-9890
▁BOO	-9891
▁DFS	-9892
▁Deb	-9893
▁FNA	-9894
▁Fat	-9895
▁Flu	-9896
▁Gar	-9897
▁Har	-9898
▁IIE	-9899
▁INC	-9900
▁Kav	-9901
▁Lok	-9902
▁NRI	-9903
▁Nob	-9904
▁Oxy	-9905
▁Pap	-9906
▁Pat	-9907
▁She	-9908
▁Syn	-9909
▁Tur	-9910
▁Val	-9911
▁ban	-9912
▁bra	-9913
▁dop	-9914
▁ery	-9915
▁fed	-9916
▁fly	-9917
▁fue	-9918
▁hal	-9919
▁lac	-9920
▁led	-9921
▁lex	-9922
▁nic	-9923
▁orb	-9924
▁rho	-9925
▁ter	-9926
▁tur	-9927
▁unc	-9928
EMENT	-9929
agers	-9930
andal	-9931
anged	-9932
astic	-9933
ducer	-9934
ediol	-9935
enger	-9936
eping	-9937
ermat	-9938
icher	-9939
idity	-9940
imers	-9941
lated	-9942
lying	-9943
ngeal	-9944
olves	-9945
orial	-9946
ously	-9947
recan	-9948
renal	-9949
rench	-9950
rofen	-9951
uraip	-9952
urope	-9953
uster	-9954
virus	-9955
▁1992	-9956
▁1995	-9957
▁1996	-9958
▁2004	-9959
▁Bohr	-9960
▁Cash	-9961
▁Char	-9962
▁Chat	-9963
▁Coal	-9964
▁Dend	-9965
▁Emer	-9966
▁Farm	-9967
▁Fees	-9968
▁Fisc	-9969
▁Furn	-9970
▁IIIS	-9971
▁Know	-9972
▁Lang	-9973
▁Last	-9974
▁Line	-9975
▁NADU	-9976
▁Neur	-9977
▁Nove	-9978
▁PROG	-9979
▁Pand	-9980
▁Purp	-9981
▁Ramn	-9982
▁Sick	-9983
▁Unit	-9984
▁Yoga	-9985
▁bids	-9986
▁bump	-9987
▁cans	-9988
▁cerv	-9989
▁dece	-9990
▁disb	-9991
▁dorm	-9992
▁elim	-9993
▁filt	-9994
▁gain	-9995
▁heme	-9996
▁hole	-9997
▁http	-9998
▁lieu	-9999
▁lyso	-10000
▁mann	-10001
▁mine	-10002
▁null	-10003
▁seem	-10004
▁span	-10005
▁spot	-10006
▁stri	-10007
▁sued	-10008
▁toss	-10009
▁unex	-10010
▁valu	-10011
▁viol	-10012
▁wait	-10013
▁wrap	-10014
▁zeta	-10015
ANCIAL	-10016
adding	-10017
arness	-10018
elated	-10019
ermost	-10020
igrade	-10021
illing	-10022
iously	-10023
irable	-10024
loride	-10025
onucle	-10026
otwari	-10027
ourers	-10028
phosph	-10029
prison	-10030
rogens	-10031
uvarur	-10032
▁2008.	-10033
▁About	-10034
▁Bened	-10035
▁Clear	-10036
▁Coast	-10037
▁Earth	-10038
▁Exhib	-10039
▁Ghats	-10040
▁Girls	-10041
▁Index	-10042
▁Integ	-10043
▁Kerat	-10044
▁Lands	-10045
▁Minus	-10046
▁Pregn	-10047
▁Rajan	-10048
▁Sabha	-10049
▁Tutic	-10050
▁blind	-10051
▁boxes	-10052
▁clots	-10053
▁depic	-10054
▁edges	-10055
▁envis	-10056
▁finds	-10057
▁grams	-10058
▁keeps	-10059
▁pharm	-10060
▁proto	-10061
▁relig	-10062
▁sinus	-10063
▁spill	-10064
▁spray	-10065
▁stamp	-10066
▁swing	-10067
▁tries	-10068
▁urban	-10069
▁visit	-10070
angalam	-10071
aughter	-10072
oepithe	-10073
olition	-10074
omestic	-10075
organic	-10076
orities	-10077
osamine	-10078
osteric	-10079
otation	-10080
ramways	-10081
related	-10082
service	-10083
theless	-10084
uprofen	-10085
▁Active	-10086
▁Bharat	-10087
▁Europe	-10088
▁Inform	-10089
▁Mahesh	-10090
▁Nausea	-10091
▁Notice	-10092
▁Plants	-10093
▁Recogn	-10094
▁Senior	-10095
▁Tamils	-10096
▁Tender	-10097
▁Transp	-10098
▁Tribes	-10099
▁accomp	-10100
▁adding	-10101
▁anyone	-10102
▁barbed	-10103
▁casted	-10104
▁clears	-10105
▁closed	-10106
▁coding	-10107
▁copper	-10108
▁curves	-10109
▁econom	-10110
▁errors	-10111
▁filter	-10112
▁freely	-10113
▁gained	-10114
▁grants	-10115
▁hetero	-10116
▁hosted	-10117
▁invari	-10118
▁lesion	-10119
▁moiety	-10120
▁myelob	-10121
▁played	-10122
▁predic	-10123
▁reconc	-10124
▁redeem	-10125
▁requis	-10126
▁rotors	-10127
▁safegu	-10128
▁served	-10129
▁signal	-10130
▁simult	-10131
▁statue	-10132
▁titles	-10133
▁tracks	-10134
▁uterus	-10135
▁vagina	-10136
▁wishes	-10137
Rhabdoid	-10138
arcinoma	-10139
eniority	-10140
feasance	-10141
itudinal	-10142
levision	-10143
liminary	-10144
odynamic	-10145
ructural	-10146
▁2006-07	-10147
▁2007-08	-10148
▁Address	-10149
▁Byepass	-10150
▁Earlier	-10151
▁Fischer	-10152
▁Poverty	-10153
▁Proceed	-10154
▁Reverse	-10155
▁absence	-10156
▁adenine	-10157
▁adopted	-10158
▁attempt	-10159
▁byepass	-10160
▁cancell	-10161
▁chamber	-10162
▁classic	-10163
▁coupled	-10164
▁debtors	-10165
▁demands	-10166
▁dormant	-10167
▁empower	-10168
▁encodes	-10169
▁encount	-10170
▁enediol	-10171
▁enjoyed	-10172
▁ethical	-10173
▁firstly	-10174
▁gallons	-10175
▁greatly	-10176
▁grooves	-10177
▁heating	-10178
▁ideally	-10179
▁inaugur	-10180
▁inhibit	-10181
▁invalid	-10182
▁joining	-10183
▁jointly	-10184
▁morning	-10185
▁ongoing	-10186
▁papules	-10187
▁pentose	-10188
▁pricing	-10189
▁quantum	-10190
▁resolve	-10191
▁sitting	-10192
▁smoking	-10193
▁strings	-10194
▁thirdly	-10195
▁trustee	-10196
▁viruses	-10197
ationally	-10198
attention	-10199
roductive	-10200
▁Accounts	-10201
▁Advanced	-10202
▁Benedict	-10203
▁Capacity	-10204
▁Cerebros	-10205
▁Chimeric	-10206
▁Criminal	-10207
▁Dindigul	-10208
▁Identity	-10209
▁Increase	-10210
▁Juvenile	-10211
▁Langmuir	-10212
▁Meetings	-10213
▁Namakkal	-10214
▁November	-10215
▁Shipping	-10216
▁Standing	-10217
▁Symptoms	-10218
▁Whatever	-10219
▁admitted	-10220
▁arteries	-10221
▁backward	-10222
▁bounding	-10223
▁chatbots	-10224
▁classify	-10225
▁clotting	-10226
▁colleges	-10227
▁concerns	-10228
▁conducts	-10229
▁contents	-10230
▁culverts	-10231
▁customer	-10232
▁cytosine	-10233
▁destroys	-10234
▁discrete	-10235
▁dynamics	-10236
▁erection	-10237
▁evaluate	-10238
▁fairness	-10239
▁fibrosis	-10240
▁gluconic	-10241
▁gratuity	-10242
▁identity	-10243
▁inactive	-10244
▁inhibits	-10245
▁integral	-10246
▁messages	-10247
▁metallic	-10248
▁periodic	-10249
▁possibly	-10250
▁reaching	-10251
▁realized	-10252
▁regarded	-10253
▁regimens	-10254
▁sarcomas	-10255
▁solvency	-10256
▁sonogram	-10257
▁stacking	-10258
▁stations	-10259
▁supplies	-10260
▁utilised	-10261
▁vehicles	-10262
▁weakness	-10263
▁weighted	-10264
Governance	-10265
▁Admission	-10266
▁Emergency	-10267
▁FINANCIAL	-10268
▁Liability	-10269
▁Pregnancy	-10270
▁Principal	-10271
▁Qualified	-10272
▁Reduction	-10273
▁Singapore	-10274
▁Tesseract	-10275
▁Tuticorin	-10276
▁acquiring	-10277
▁additions	-10278
▁alienated	-10279
▁ascertain	-10280
▁bacterial	-10281
▁behaviour	-10282
▁butterfly	-10283
▁capillary	-10284
▁converter	-10285
▁divisions	-10286
▁enquiries	-10287
▁excluding	-10288
▁factories	-10289
▁imprinted	-10290
▁inorganic	-10291
▁intrusion	-10292
▁marriages	-10293
▁movements	-10294
▁newspaper	-10295
▁phosphory	-10296
▁phylogeny	-10297
▁plausible	-10298
▁political	-10299
▁pursuance	-10300
▁renewable	-10301
▁seventeen	-10302
▁stabilize	-10303
▁targeting	-10304
▁tiredness	-10305
▁valuation	-10306
▁withdrawn	-10307
▁yesterday	-10308
orticulture	-10309
ptidoglycan	-10310
transferase	-10311
▁ASSISTANCE	-10312
▁Artificial	-10313
▁Assignment	-10314
▁Metastatic	-10315
▁Refractory	-10316
▁Vocational	-10317
▁centigrade	-10318
▁collective	-10319
▁conjugated	-10320
▁criminally	-10321
▁cumulative	-10322
▁describing	-10323
▁dispersion	-10324
▁elementary	-10325
▁exercising	-10326
▁filtration	-10327
▁foundation	-10328
▁imprinting	-10329
▁intestines	-10330
▁misleading	-10331
▁obligation	-10332
▁purchasing	-10333
▁regression	-10334
▁revolution	-10335
▁scientists	-10336
▁simplified	-10337
▁statistics	-10338
▁stipulated	-10339
▁suggesting	-10340
▁transacted	-10341
▁Application	-10342
▁Appointment	-10343
▁Authorities	-10344
▁Performance	-10345
▁Regulations	-10346
▁Residential	-10347
▁concentrate	-10348
▁constitutes	-10349
▁consultants	-10350
▁contributes	-10351
▁correlation	-10352
▁destination	-10353
▁drastically	-10354
▁efficiently	-10355
▁formulation	-10356
▁glycolipids	-10357
▁habitations	-10358
▁hepatectomy	-10359
▁intelligent	-10360
▁placeholder	-10361
▁progressive	-10362
▁propranolol	-10363
▁restructure	-10364
▁supercoiled	-10365
▁ultraviolet	-10366
▁unpublished	-10367
asopharyngeal	-10368
▁Conservation	-10369
▁Organization	-10370
▁Virudhunagar	-10371
▁alternatives	-10372
▁appointments	-10373
▁cytoskeleton	-10374
▁directorship	-10375
▁fibromatosis	-10376
▁installation	-10377
▁longitudinal	-10378
▁measurements	-10379
▁simultaneous	-10380
▁standardized	-10381
▁technologies	-10382
▁tetrapeptide	-10383
▁agglutination	-10384
▁collaboration	-10385
▁contributions	-10386
▁extraordinary	-10387
▁immunological	-10388
▁intercalation	-10389
▁intracellular	-10390
▁substantially	-10391
▁triglycerides	-10392
▁Glyceraldehyde	-10393
▁Reconstruction	-10394
▁chondrosarcoma	-10395
▁retinoblastoma	-10396
▁Myelodysplastic	-10397
-5	-10398
//	-10399
1)	-10400
11	-10401
55	-10402
56	-10403
73	-10404
92	-10405
EO	-10406
LK	-10407
SC	-10408
TN	-10409
UE	-10410
UL	-10411
UN	-10412
VE	-10413
WD	-10414
gl	-10415
kk	-10416
rh	-10417
sh	-10418
vi	-10419
⁄2	-10420
,36	-10421
-19	-10422
://	-10423
AIL	-10424
EGF	-10425
ICI	-10426
ILD	-10427
ISS	-10428
ITS	-10429
NAI	-10430
NCH	-10431
NES	-10432
OCU	-10433
ORY	-10434
RAT	-10435
UND	-10436
ams	-10437
cav	-10438
cel	-10439
dis	-10440
div	-10441
fix	-10442
gic	-10443
hav	-10444
hus	-10445
lal	-10446
oke	-10447
omb	-10448
ows	-10449
oxy	-10450
pet	-10451
pro	-10452
raf	-10453
rob	-10454
teb	-10455
tro	-10456
tym	-10457
vot	-10458
wat	-10459
yal	-10460
yer	-10461
▁1%	-10462
▁2%	-10463
▁4,	-10464
▁74	-10465
▁EN	-10466
▁ON	-10467
▁PL	-10468
▁PU	-10469
▁Sk	-10470
▁VM	-10471
▁Vi	-10472
▁XI	-10473
▁ca	-10474
▁gy	-10475
▁tM	-10476
▁ul	-10477
▁zo	-10478
,5,3	-10479
RAMM	-10480
THER	-10481
UILD	-10482
aise	-10483
akes	-10484
alls	-10485
alog	-10486
amar	-10487
anth	-10488
asth	-10489
athy	-10490
berg	-10491
cape	-10492
chea	-10493
cran	-10494
cyte	-10495
enes	-10496
enta	-10497
erox	-10498
face	-10499
germ	-10500
idyl	-10501
ieth	-10502
inet	-10503
infl	-10504
iser	-10505
iyan	-10506
late	-10507
leph	-10508
lope	-10509
oeba	-10510
oice	-10511
okes	-10512
ophy	-10513
otri	-10514
pite	-10515
rene	-10516
ride	-10517
rist	-10518
term	-10519
thly	-10520
ucke	-10521
ught	-10522
unch	-10523
utri	-10524
wide	-10525
▁-10	-10526
▁1,0	-10527
▁125	-10528
▁145	-10529
▁146	-10530
▁148	-10531
▁164	-10532
▁192	-10533
▁330	-10534
▁80%	-10535
▁AGM	-10536
▁API	-10537
▁Ast	-10538
▁BFS	-10539
▁Bar	-10540
▁Bio	-10541
▁Bul	-10542
▁Bus	-10543
▁CFO	-10544
▁Def	-10545
▁Dig	-10546
▁Fre	-10547
▁Gam	-10548
▁Gas	-10549
▁Has	-10550
▁IBC	-10551
▁INS	-10552
▁INT	-10553
▁Kal	-10554
▁Kms	-10555
▁Les	-10556
▁Max	-10557
▁Moh	-10558
▁NCL	-10559
▁OCR	-10560
▁Ori	-10561
▁PIO	-10562
▁SSA	-10563
▁Say	-10564
▁Sph	-10565
▁Sum	-10566
▁Tac	-10567
▁Tic	-10568
▁Toe	-10569
▁UND	-10570
▁Unf	-10571
▁VII	-10572
▁aid	-10573
▁bim	-10574
▁bio	-10575
▁cof	-10576
▁cou	-10577
▁cri	-10578
▁fle	-10579
▁gap	-10580
▁gun	-10581
▁iso	-10582
▁odd	-10583
▁pin	-10584
▁ple	-10585
▁rod	-10586
▁ven	-10587
▁wit	-10588
▁www	-10589
-2007	-10590
ATIVE	-10591
CTION	-10592
EARCH	-10593
ENNAI	-10594
aemia	-10595
angal	-10596
aptic	-10597
atics	-10598
atium	-10599
attas	-10600
auses	-10601
awful	-10602
balch	-10603
blast	-10604
chron	-10605
ecess	-10606
ertil	-10607
etary	-10608
ettai	-10609
feren	-10610
field	-10611
gence	-10612
gered	-10613
heric	-10614
ifier	-10615
igare	-10616
inees	-10617
insic	-10618
ionic	-10619
isoth	-10620
olded	-10621
ongal	-10622
onomy	-10623
oondi	-10624
oside	-10625
otomy	-10626
otrop	-10627
quiry	-10628
ritor	-10629
ucher	-10630
ufted	-10631
under	-10632
unjab	-10633
urosc	-10634
vated	-10635
viral	-10636
▁1975	-10637
▁1988	-10638
▁Blue	-10639
▁CENT	-10640
▁Cert	-10641
▁Cost	-10642
▁Crop	-10643
▁Cust	-10644
▁DIPG	-10645
▁DOCU	-10646
▁Easy	-10647
▁Flow	-10648
▁Fram	-10649
▁Good	-10650
▁King	-10651
▁Lact	-10652
▁NOTE	-10653
▁Olig	-10654
▁ROBs	-10655
▁Rain	-10656
▁TEDA	-10657
▁VEGF	-10658
▁Very	-10659
▁Will	-10660
▁Writ	-10661
▁alle	-10662
▁auto	-10663
▁beat	-10664
▁bill	-10665
▁dict	-10666
▁duct	-10667
▁feet	-10668
▁fits	-10669
▁gaps	-10670
▁genu	-10671
▁hike	-10672
▁hurt	-10673
▁jack	-10674
▁perm	-10675
▁prev	-10676
▁pull	-10677
▁roll	-10678
▁sess	-10679
▁shot	-10680
▁subt	-10681
▁thym	-10682
▁trip	-10683
▁urea	-10684
▁verb	-10685
00,000	-10686
Higher	-10687
Public	-10688
alayam	-10689
angudi	-10690
earing	-10691
eroids	-10692
etties	-10693
ifocal	-10694
iotics	-10695
ipuram	-10696
iretro	-10697
isible	-10698
lihood	-10699
medull	-10700
mester	-10701
oelect	-10702
ometer	-10703
orical	-10704
ragali	-10705
raisal	-10706
ridged	-10707
rocyte	-10708
stract	-10709
ulates	-10710
uments	-10711
▁0,5,3	-10712
▁2005,	-10713
▁2010)	-10714
▁5,0,3	-10715
▁500/-	-10716
▁ADMIN	-10717
▁Achie	-10718
▁Actin	-10719
▁Advis	-10720
▁Amend	-10721
▁Among	-10722
▁Angle	-10723
▁Audit	-10724
▁BOOKS	-10725
▁Banks	-10726
▁Bonus	-10727
▁CHART	-10728
▁CITIZ	-10729
▁Calam	-10730
▁Caste	-10731
▁Count	-10732
▁DIETs	-10733
▁Donor	-10734
▁Draft	-10735
▁Event	-10736
▁Forum	-10737
▁Hindi	-10738
▁Intra	-10739
▁Lakhs	-10740
▁Later	-10741
▁Mahar	-10742
▁Model	-10743
▁OTHER	-10744
▁Rajiv	-10745
▁STATE	-10746
▁Sales	-10747
▁Scler	-10748
▁Separ	-10749
▁Sixth	-10750
▁Splen	-10751
▁align	-10752
▁argon	-10753
▁audio	-10754
▁bands	-10755
▁bills	-10756
▁cater	-10757
▁cough	-10758
▁cream	-10759
▁dilig	-10760
▁floor	-10761
▁frict	-10762
▁front	-10763
▁ideal	-10764
▁lapar	-10765
▁merit	-10766
▁noted	-10767
▁oleic	-10768
▁oligo	-10769
▁polym	-10770
▁prize	-10771
▁pucke	-10772
▁radix	-10773
▁relay	-10774
▁robot	-10775
▁secre	-10776
▁skill	-10777
▁slope	-10778
▁split	-10779
▁steel	-10780
▁stool	-10781
▁stuck	-10782
▁sulph	-10783
▁tenth	-10784
▁titer	-10785
▁tools	-10786
▁tubes	-10787
▁vapor	-10788
▁waxes	-10789
▁widen	-10790
▁wings	-10791
Chennai	-10792
ISATION	-10793
anallur	-10794
ankulam	-10795
centive	-10796
charged	-10797
chromic	-10798
cranial	-10799
ensitiz	-10800
gestion	-10801
heating	-10802
inciple	-10803
iocytic	-10804
lephone	-10805
lishers	-10806
omerism	-10807
ophosph	-10808
ositive	-10809
polymer	-10810
requent	-10811
rolment	-10812
tically	-10813
ukottai	-10814
▁Appeal	-10815
▁BRANCH	-10816
▁Estate	-10817
▁Freund	-10818
▁Jayesh	-10819
▁Master	-10820
▁Modern	-10821
▁Period	-10822
▁Pharma	-10823
▁Pieces	-10824
▁Pongal	-10825
▁Punjab	-10826
▁Review	-10827
▁SMARCB	-10828
▁Sickle	-10829
▁Single	-10830
▁Taking	-10831
▁Thymus	-10832
▁Unlike	-10833
▁amoeba	-10834
▁ascent	-10835
▁assemb	-10836
▁buried	-10837
▁campus	-10838
▁couple	-10839
▁delays	-10840
▁dilute	-10841
▁emerge	-10842
▁emphas	-10843
▁escrow	-10844
▁explos	-10845
▁father	-10846
▁fluids	-10847
▁format	-10848
▁geomet	-10849
▁gyrase	-10850
▁helium	-10851
▁hexose	-10852
▁illust	-10853
▁impose	-10854
▁lawful	-10855
▁meters	-10856
▁mucosa	-10857
▁myxoid	-10858
▁patent	-10859
▁plenty	-10860
▁prosec	-10861
▁pyrole	-10862
▁reader	-10863
▁reserv	-10864
▁retino	-10865
▁reward	-10866
▁solids	-10867
▁stones	-10868
▁tables	-10869
▁taught	-10870
▁ticket	-10871
▁winter	-10872
▁writhe	-10873
cavitary	-10874
ecturers	-10875
etically	-10876
ilocytic	-10877
iocytoma	-10878
oglycans	-10879
prisoner	-10880
ractices	-10881
rievance	-10882
selbalch	-10883
▁5,000/-	-10884
▁Applied	-10885
▁CHENNAI	-10886
▁Example	-10887
▁Feeling	-10888
▁Initial	-10889
▁Lesions	-10890
▁Maltose	-10891
▁Payment	-10892
▁Physics	-10893
▁Redress	-10894
▁Scallop	-10895
▁Tourism	-10896
▁Wadding	-10897
▁altered	-10898
▁analyse	-10899
▁antique	-10900
▁arrears	-10901
▁attacks	-10902
▁audited	-10903
▁avidity	-10904
▁benzene	-10905
▁biomass	-10906
▁bounced	-10907
▁cartoon	-10908
▁clauses	-10909
▁concert	-10910
▁conting	-10911
▁defects	-10912
▁descent	-10913
▁despite	-10914
▁destroy	-10915
▁dioxide	-10916
▁donated	-10917
▁elution	-10918
▁endothe	-10919
▁flowing	-10920
▁halogen	-10921
▁hemangi	-10922
▁illegal	-10923
▁instant	-10924
▁invited	-10925
▁leaders	-10926
▁lenders	-10927
▁managed	-10928
▁mannose	-10929
▁obvious	-10930
▁outward	-10931
▁pathway	-10932
▁penalty	-10933
▁presses	-10934
▁propose	-10935
▁putting	-10936
▁railway	-10937
▁recover	-10938
▁reflect	-10939
▁retired	-10940
▁rotated	-10941
▁servant	-10942
▁sliding	-10943
▁stained	-10944
▁tangles	-10945
▁tension	-10946
▁trachea	-10947
▁vaccine	-10948
▁variant	-10949
▁weakens	-10950
▁western	-10951
agulation	-10952
ferencing	-10953
iofibroma	-10954
itionally	-10955
ivascular	-10956
ocysteine	-10957
principle	-10958
roduction	-10959
▁2007-200	-10960
▁50,000/-	-10961
▁Coaching	-10962
▁Commerce	-10963
▁Consider	-10964
▁Dihedral	-10965
▁Division	-10966
▁Domestic	-10967
▁Imatinib	-10968
▁PROGRAMM	-10969
▁PROJECTS	-10970
▁Quarters	-10971
▁RESEARCH	-10972
▁Retinoid	-10973
▁Ryotwari	-10974
▁Software	-10975
▁Villages	-10976
▁adhesion	-10977
▁adjusted	-10978
▁aggrecan	-10979
▁alcohols	-10980
▁annually	-10981
▁assuming	-10982
▁borrower	-10983
▁carriers	-10984
▁channels	-10985
▁choosing	-10986
▁comprise	-10987
▁contrary	-10988
▁dealings	-10989
▁deceased	-10990
▁delisted	-10991
▁demerits	-10992
▁derivati	-10993
▁dihedral	-10994
▁discount	-10995
▁domestic	-10996
▁drafting	-10997
▁duration	-10998
▁energies	-10999
▁extracts	-11000
▁fronting	-11001
▁glycosyl	-11002
▁granting	-11003
▁histones	-11004
▁infinity	-11005
▁isolated	-11006
▁neighbor	-11007
▁operates	-11008
▁orbitals	-11009
▁overcome	-11010
▁pathways	-11011
▁proceeds	-11012
▁promotes	-11013
▁prostate	-11014
▁puckered	-11015
▁pumpsets	-11016
▁pursuant	-11017
▁pyranose	-11018
▁quantity	-11019
▁receipts	-11020
▁reddened	-11021
▁relapsed	-11022
▁restrict	-11023
▁returned	-11024
▁revealed	-11025
▁sandwich	-11026
▁solatium	-11027
▁standing	-11028
▁steepest	-11029
▁steroids	-11030
▁suggests	-11031
▁transmit	-11032
▁trustees	-11033
▁unguided	-11034
▁unlisted	-11035
▁widening	-11036
arenchymal	-11037
ensitizers	-11038
generation	-11039
ortunately	-11040
▁Appraisal	-11041
▁Astragali	-11042
▁Cartesian	-11043
▁Centrally	-11044
▁Chartered	-11045
▁Functions	-11046
▁Generally	-11047
▁Insurance	-11048
▁Intensity	-11049
▁Netropsin	-11050
▁Neuropath	-11051
▁Platelets	-11052
▁Provision	-11053
▁Selection	-11054
▁Sponsored	-11055
▁affecting	-11056
▁analyzing	-11057
▁antiretro	-11058
▁approvals	-11059
▁approving	-11060
▁arguments	-11061
▁breakdown	-11062
▁chartered	-11063
▁complaint	-11064
▁computing	-11065
▁confusing	-11066
▁consuming	-11067
▁contracts	-11068
▁crossings	-11069
▁decrement	-11070
▁defaulted	-11071
▁deficient	-11072
▁disbursed	-11073
▁displayed	-11074
▁entertain	-11075
▁envisaged	-11076
▁equitable	-11077
▁evaporate	-11078
▁exemption	-11079
▁exploited	-11080
▁highlight	-11081
▁household	-11082
▁hydrolyze	-11083
▁ibuprofen	-11084
▁indicator	-11085
▁intrinsic	-11086
▁involving	-11087
▁junctions	-11088
▁landscape	-11089
▁magnesium	-11090
▁magnitude	-11091
▁marketing	-11092
▁medicines	-11093
▁ninhydrin	-11094
▁packaging	-11095
▁parameter	-11096
▁pathology	-11097
▁penalties	-11098
▁poramboke	-11099
▁possesses	-11100
▁practical	-11101
▁preparing	-11102
▁processed	-11103
▁promising	-11104
▁relatives	-11105
▁rendering	-11106
▁ribonucle	-11107
▁schematic	-11108
▁screening	-11109
▁seniority	-11110
▁separator	-11111
▁summarise	-11112
▁terminals	-11113
▁thousands	-11114
▁typically	-11115
▁undivided	-11116
▁warranted	-11117
▁Assessment	-11118
▁Compulsory	-11119
▁Developing	-11120
▁Equipments	-11121
▁Hemangioma	-11122
▁Objectives	-11123
▁Programmes	-11124
▁Registrars	-11125
▁Waddington	-11126
▁allosteric	-11127
▁allowances	-11128
▁analytical	-11129
▁appointing	-11130
▁background	-11131
▁capability	-11132
▁challenges	-11133
▁circulated	-11134
▁classrooms	-11135
▁complaints	-11136
▁completing	-11137
▁compromise	-11138
▁congenital	-11139
▁constantly	-11140
▁deficiency	-11141
▁depository	-11142
▁exemptions	-11143
▁explicitly	-11144
▁generalize	-11145
▁historical	-11146
▁hyaluronic	-11147
▁invariably	-11148
▁ionization	-11149
▁meningioma	-11150
▁metastasis	-11151
▁minimizing	-11152
▁originally	-11153
▁physically	-11154
▁procedural	-11155
▁proteasome	-11156
▁punishment	-11157
▁quantities	-11158
▁restricted	-11159
▁separately	-11160
▁sleepiness	-11161
▁subependym	-11162
▁synthesise	-11163
▁underlying	-11164
▁volunteers	-11165
inflammatory	-11166
▁Proceedings	-11167
▁Registering	-11168
▁Splenectomy	-11169
▁Subordinate	-11170
▁Superintend	-11171
▁accommodate	-11172
▁antibiotics	-11173
▁atmospheric	-11174
▁bimolecular	-11175
▁biochemical	-11176
▁calculating	-11177
▁contractual	-11178
▁crystalline	-11179
▁descendants	-11180
▁diffraction	-11181
▁dissociated	-11182
▁encountered	-11183
▁explanation	-11184
▁inaugurated	-11185
▁incorporate	-11186
▁intensities	-11187
▁introducing	-11188
▁limitations	-11189
▁liposarcoma	-11190
▁machineries	-11191
▁mediastinal	-11192
▁misfeasance	-11193
▁phenylisoth	-11194
▁resolutions	-11195
▁supervision	-11196
▁surrounding	-11197
▁terminating	-11198
▁transmitted	-11199
▁Associations	-11200
▁Connectivity	-11201
▁Foundational	-11202
▁Independence	-11203
▁Publications	-11204
▁angiogenesis	-11205
▁collectively	-11206
▁constituents	-11207
▁developments	-11208
▁dinucleotide	-11209
▁expectations	-11210
▁independence	-11211
▁neurological	-11212
▁transporting	-11213
▁undertakings	-11214
▁underwriters	-11215
ioendothelioma	-11216
▁Notifications	-11217
▁Participation	-11218
▁angiosarcomas	-11219
▁differentiate	-11220
▁extraskeletal	-11221
▁interestingly	-11222
▁peptidoglycan	-11223
▁presentations	-11224
▁proportionate	-11225
medulloblastoma	-11226
▁Hydrophobicity	-11227
▁antiretroviral	-11228
▁concentrations	-11229
▁intermediaries	-11230
▁intramolecular	-11231
▁investigations	-11232
▁pineoblastomas	-11233
▁electrochemical	-11234
/6	-11235
09	-11236
2)	-11237
26	-11238
28	-11239
6.	-11240
60	-11241
71	-11242
89	-11243
AD	-11244
AY	-11245
EE	-11246
IB	-11247
MD	-11248
MR	-11249
NG	-11250
PC	-11251
RD	-11252
Rs	-11253
SI	-11254
UD	-11255
UG	-11256
UM	-11257
bi	-11258
do	-11259
dy	-11260
ii	-11261
ms	-11262
mt	-11263
pa	-11264
rd	-11265
sc	-11266
yn	-11267
-06	-11268
4,3	-11269
ACH	-11270
ANT	-11271
Act	-11272
Ala	-11273
COT	-11274
DHC	-11275
ERY	-11276
Fra	-11277
Gen	-11278
ITE	-11279
OCI	-11280
RAI	-11281
Sec	-11282
Tir	-11283
VID	-11284
YST	-11285
ads	-11286
aik	-11287
aks	-11288
asm	-11289
clo	-11290
fee	-11291
gar	-11292
icy	-11293
ini	-11294
ius	-11295
ley	-11296
nat	-11297
nth	-11298
osy	-11299
oul	-11300
tra	-11301
usb	-11302
var	-11303
you	-11304
▁(5	-11305
▁1.	-11306
▁57	-11307
▁7-	-11308
▁89	-11309
▁96	-11310
▁Ax	-11311
▁BC	-11312
▁DU	-11313
▁Ev	-11314
▁Ew	-11315
▁FC	-11316
▁HA	-11317
▁HT	-11318
▁MS	-11319
▁OB	-11320
▁Pa	-11321
▁TE	-11322
▁ll	-11323
▁pk	-11324
▁pp	-11325
▁ub	-11326
DIES	-11327
ENER	-11328
MNRE	-11329
RIDP	-11330
RODU	-11331
aked	-11332
aker	-11333
ales	-11334
anda	-11335
aphe	-11336
arts	-11337
athi	-11338
bond	-11339
brev	-11340
dden	-11341
dund	-11342
ears	-11343
elow	-11344
erty	-11345
ften	-11346
gile	-11347
gone	-11348
hist	-11349
husi	-11350
iani	-11351
idhi	-11352
iers	-11353
inel	-11354
ioph	-11355
izer	-11356
lder	-11357
mmet	-11358
ogas	-11359
olgi	-11360
onad	-11361
onaf	-11362
onym	-11363
otes	-11364
ping	-11365
plan	-11366
racy	-11367
rich	-11368
road	-11369
ront	-11370
rugg	-11371
runk	-11372
tery	-11373
uber	-11374
umar	-11375
uous	-11376
urai	-11377
vine	-11378
what	-11379
zyme	-11380
▁...	-11381
▁1,5	-11382
▁10,	-11383
▁143	-11384
▁144	-11385
▁182	-11386
▁185	-11387
▁ALK	-11388
▁Adj	-11389
▁Age	-11390
▁Aru	-11391
▁Aut	-11392
▁Buy	-11393
▁CEO	-11394
▁Doc	-11395
▁Eff	-11396
▁Ery	-11397
▁Flo	-11398
▁IIA	-11399
▁IIB	-11400
▁Ide	-11401
▁LOC	-11402
▁Lot	-11403
▁MOP	-11404
▁PDL	-11405
▁PWD	-11406
▁Pet	-11407
▁Pop	-11408
▁RTI	-11409
▁SPE	-11410
▁SPV	-11411
▁Sem	-11412
▁Sir	-11413
▁Spe	-11414
▁Squ	-11415
▁TMD	-11416
▁Ten	-11417
▁Tub	-11418
▁UGC	-11419
▁UVB	-11420
▁Wal	-11421
▁ast	-11422
▁bye	-11423
▁cab	-11424
▁die	-11425
▁dry	-11426
▁gli	-11427
▁haz	-11428
▁lia	-11429
▁neo	-11430
▁oct	-11431
▁ont	-11432
▁pon	-11433
▁pus	-11434
▁ray	-11435
▁sor	-11436
▁tun	-11437
▁unb	-11438
▁zer	-11439
Fraum	-11440
ISTER	-11441
YSTEM	-11442
alaya	-11443
alian	-11444
antle	-11445
arees	-11446
asons	-11447
erala	-11448
erals	-11449
ester	-11450
ethyl	-11451
etite	-11452
ffici	-11453
ichro	-11454
icure	-11455
idium	-11456
ients	-11457
isher	-11458
ivors	-11459
lters	-11460
muram	-11461
olate	-11462
omyel	-11463
ongue	-11464
oradi	-11465
osity	-11466
oules	-11467
oured	-11468
ourse	-11469
phant	-11470
print	-11471
ptake	-11472
resis	-11473
ringe	-11474
rofit	-11475
rying	-11476
techn	-11477
ucket	-11478
ulins	-11479
urden	-11480
ureau	-11481
urity	-11482
vance	-11483
water	-11484
which	-11485
▁(200	-11486
▁112,	-11487
▁1948	-11488
▁1963	-11489
▁1985	-11490
▁1986	-11491
▁ATRA	-11492
▁BHEL	-11493
▁Best	-11494
▁Body	-11495
▁Bond	-11496
▁Chit	-11497
▁Dead	-11498
▁Dest	-11499
▁Disp	-11500
▁Eddy	-11501
▁Foll	-11502
▁Food	-11503
▁Gall	-11504
▁Gare	-11505
▁Heat	-11506
▁IIIA	-11507
▁Laws	-11508
▁Long	-11509
▁Madh	-11510
▁Mond	-11511
▁Mult	-11512
▁MurE	-11513
▁Muth	-11514
▁Path	-11515
▁Patt	-11516
▁Pick	-11517
▁Pres	-11518
▁Rece	-11519
▁Ruff	-11520
▁STAT	-11521
▁Self	-11522
▁Sens	-11523
▁Ship	-11524
▁Simp	-11525
▁Skin	-11526
▁Subs	-11527
▁Tata	-11528
▁Temp	-11529
▁Type	-11530
▁Vand	-11531
▁Vice	-11532
▁Vidy	-11533
▁West	-11534
▁arri	-11535
▁born	-11536
▁cART	-11537
▁dens	-11538
▁duly	-11539
▁edge	-11540
▁fuel	-11541
▁girl	-11542
▁hamp	-11543
▁hept	-11544
▁insp	-11545
▁lacs	-11546
▁leuk	-11547
▁mamm	-11548
▁misc	-11549
▁misf	-11550
▁nice	-11551
▁pave	-11552
▁pipe	-11553
▁puts	-11554
▁quad	-11555
▁seat	-11556
▁star	-11557
▁sync	-11558
▁tall	-11559
▁tens	-11560
▁wife	-11561
▁zoom	-11562
ATIONS	-11563
ISSION	-11564
Secret	-11565
acting	-11566
acytic	-11567
assium	-11568
astric	-11569
hoties	-11570
idines	-11571
immune	-11572
iplasm	-11573
itamin	-11574
itizen	-11575
itrops	-11576
ivable	-11577
liance	-11578
loaded	-11579
mnized	-11580
orrect	-11581
ostels	-11582
otides	-11583
owment	-11584
pected	-11585
rhosis	-11586
teenth	-11587
venous	-11588
verted	-11589
▁1997,	-11590
▁2002.	-11591
▁2007,	-11592
▁2011,	-11593
▁2014.	-11594
▁Aware	-11595
▁Ayyan	-11596
▁Below	-11597
▁Bound	-11598
▁COVID	-11599
▁Carbo	-11600
▁Codes	-11601
▁Depot	-11602
▁ELECT	-11603
▁Edman	-11604
▁Eight	-11605
▁Ewing	-11606
▁Famil	-11607
▁Garry	-11608
▁Golgi	-11609
▁Kumar	-11610
▁Large	-11611
▁Light	-11612
▁NCLAT	-11613
▁PRINT	-11614
▁Patta	-11615
▁SOLAR	-11616
▁Seven	-11617
▁Space	-11618
▁Sperm	-11619
▁Steno	-11620
▁Towns	-11621
▁Trade	-11622
▁Treas	-11623
▁Types	-11624
▁Upper	-11625
▁White	-11626
▁Xerox	-11627
▁admit	-11628
▁aimed	-11629
▁anion	-11630
▁arbit	-11631
▁bonaf	-11632
▁bored	-11633
▁calam	-11634
▁camps	-11635
▁cease	-11636
▁coded	-11637
▁comma	-11638
▁costs	-11639
▁crops	-11640
▁democ	-11641
▁deoxy	-11642
▁drops	-11643
▁dying	-11644
▁enfor	-11645
▁error	-11646
▁fetal	-11647
▁fewer	-11648
▁flood	-11649
▁gross	-11650
▁holds	-11651
▁kapos	-11652
▁lives	-11653
▁loses	-11654
▁media	-11655
▁meter	-11656
▁molal	-11657
▁mouse	-11658
▁noble	-11659
▁nutri	-11660
▁peaks	-11661
▁pelma	-11662
▁perme	-11663
▁pione	-11664
▁plasm	-11665
▁polyc	-11666
▁prime	-11667
▁psych	-11668
▁salts	-11669
▁shore	-11670
▁sizes	-11671
▁spong	-11672
▁stain	-11673
▁thank	-11674
▁tours	-11675
▁tread	-11676
▁trunk	-11677
▁ubiqu	-11678
▁union	-11679
▁urine	-11680
▁veget	-11681
▁verbs	-11682
▁vigil	-11683
▁volat	-11684
▁wider	-11685
▁worst	-11686
Central	-11687
Related	-11688
achalam	-11689
ambaram	-11690
cleaved	-11691
ectable	-11692
forward	-11693
icurean	-11694
ionally	-11695
lograph	-11696
monthly	-11697
nerable	-11698
oassays	-11699
ocation	-11700
ository	-11701
otatory	-11702
ralymph	-11703
riculum	-11704
uberans	-11705
▁20,000	-11706
▁Arunth	-11707
▁Blocks	-11708
▁Bullet	-11709
▁Bureau	-11710
▁Castes	-11711
▁Change	-11712
▁Christ	-11713
▁Clause	-11714
▁Doctor	-11715
▁Excell	-11716
▁Filing	-11717
▁Kerala	-11718
▁Lastly	-11719
▁Mening	-11720
▁Merger	-11721
▁Option	-11722
▁Oxygen	-11723
▁Ramnad	-11724
▁Region	-11725
▁SCHEME	-11726
▁SYSTEM	-11727
▁Safety	-11728
▁Sports	-11729
▁Street	-11730
▁Talent	-11731
▁Tariff	-11732
▁Tonnes	-11733
▁Tribal	-11734
▁Within	-11735
▁abbrev	-11736
▁adjust	-11737
▁afford	-11738
▁ballot	-11739
▁bovine	-11740
▁bucket	-11741
▁burden	-11742
▁cataly	-11743
▁census	-11744
▁claims	-11745
▁coffee	-11746
▁commem	-11747
▁cortic	-11748
▁critic	-11749
▁custom	-11750
▁decree	-11751
▁demise	-11752
▁derive	-11753
▁dichro	-11754
▁distal	-11755
▁enumer	-11756
▁eradic	-11757
▁estate	-11758
▁ethics	-11759
▁export	-11760
▁fields	-11761
▁frames	-11762
▁gather	-11763
▁helped	-11764
▁honest	-11765
▁induce	-11766
▁instal	-11767
▁invite	-11768
▁joints	-11769
▁knight	-11770
▁laning	-11771
▁laying	-11772
▁lesson	-11773
▁levied	-11774
▁merely	-11775
▁merged	-11776
▁microm	-11777
▁millim	-11778
▁minima	-11779
▁misrep	-11780
▁mucous	-11781
▁packet	-11782
▁pattas	-11783
▁permit	-11784
▁platin	-11785
▁prizes	-11786
▁radial	-11787
▁ranges	-11788
▁redund	-11789
▁refund	-11790
▁remedy	-11791
▁retrie	-11792
▁revise	-11793
▁roster	-11794
▁routes	-11795
▁scales	-11796
▁secure	-11797
▁senior	-11798
▁sorted	-11799
▁strugg	-11800
▁suffix	-11801
▁symmet	-11802
▁talent	-11803
▁tetram	-11804
▁tufted	-11805
▁turned	-11806
▁ulcers	-11807
▁verteb	-11808
▁weekly	-11809
▁writer	-11810
Fraumeni	-11811
Training	-11812
ableness	-11813
athiyars	-11814
ecessary	-11815
igarette	-11816
ishermen	-11817
judicial	-11818
learning	-11819
ructures	-11820
specific	-11821
umbrance	-11822
uthuraip	-11823
▁Adjudic	-11824
▁Chromat	-11825
▁Classic	-11826
▁Council	-11827
▁Country	-11828
▁Culture	-11829
▁England	-11830
▁Ependym	-11831
▁Finally	-11832
▁Forests	-11833
▁Gliomas	-11834
▁Glycine	-11835
▁History	-11836
▁INTRODU	-11837
▁Kiliani	-11838
▁Mineral	-11839
▁Partial	-11840
▁Persons	-11841
▁Protein	-11842
▁Purpose	-11843
▁STATION	-11844
▁Seventh	-11845
▁Spindle	-11846
▁Typists	-11847
▁acetylg	-11848
▁answers	-11849
▁anybody	-11850
▁arising	-11851
▁bearing	-11852
▁boiling	-11853
▁breadth	-11854
▁ceiling	-11855
▁centers	-11856
▁clarity	-11857
▁cleared	-11858
▁compact	-11859
▁counsel	-11860
▁cutting	-11861
▁cytosol	-11862
▁decades	-11863
▁desired	-11864
▁desmoid	-11865
▁differs	-11866
▁directs	-11867
▁dispose	-11868
▁dollars	-11869
▁encoder	-11870
▁epimers	-11871
▁expedit	-11872
▁extends	-11873
▁focuses	-11874
▁fragile	-11875
▁genuine	-11876
▁housing	-11877
▁immobil	-11878
▁imposed	-11879
▁induces	-11880
▁inherit	-11881
▁inquiry	-11882
▁integer	-11883
▁intense	-11884
▁jetties	-11885
▁kidneys	-11886
▁liaison	-11887
▁linking	-11888
▁locally	-11889
▁majorly	-11890
▁massive	-11891
▁mistake	-11892
▁neglect	-11893
▁notices	-11894
▁package	-11895
▁painful	-11896
▁passage	-11897
▁patents	-11898
▁players	-11899
▁posture	-11900
▁rankers	-11901
▁reorgan	-11902
▁salient	-11903
▁satisfy	-11904
▁scalpel	-11905
▁scandal	-11906
▁sending	-11907
▁serving	-11908
▁session	-11909
▁shortly	-11910
▁sinuses	-11911
▁spectra	-11912
▁stacked	-11913
▁startup	-11914
▁storing	-11915
▁tailing	-11916
▁tensile	-11917
▁topical	-11918
▁utility	-11919
▁vectors	-11920
▁vehicle	-11921
▁visible	-11922
▁workman	-11923
agistrate	-11924
apheresis	-11925
fficiency	-11926
unication	-11927
▁10,000/-	-11928
▁2010-11,	-11929
▁Accident	-11930
▁Ariyalur	-11931
▁Chemical	-11932
▁Citizens	-11933
▁Clusters	-11934
▁Collagen	-11935
▁Dravidar	-11936
▁Encroach	-11937
▁Epidemic	-11938
▁Estimate	-11939
▁Examples	-11940
▁Frequent	-11941
▁Governor	-11942
▁Industry	-11943
▁Internet	-11944
▁Likewise	-11945
▁Minority	-11946
▁Possible	-11947
▁Railways	-11948
▁Solution	-11949
▁Stations	-11950
▁Steroids	-11951
▁Textbook	-11952
▁Udangudi	-11953
▁Whenever	-11954
▁alveolar	-11955
▁appetite	-11956
▁attempts	-11957
▁boundary	-11958
▁catheter	-11959
▁concrete	-11960
▁daughter	-11961
▁demanded	-11962
▁distress	-11963
▁donation	-11964
▁dopamine	-11965
▁drawings	-11966
▁electric	-11967
▁elephant	-11968
▁elevated	-11969
▁emphasis	-11970
▁employed	-11971
▁ethidium	-11972
▁floating	-11973
▁frequent	-11974
▁glycines	-11975
▁grouping	-11976
▁informed	-11977
▁interval	-11978
▁invested	-11979
▁inviting	-11980
▁invoking	-11981
▁isoforms	-11982
▁keratins	-11983
▁landmark	-11984
▁lighting	-11985
▁mandates	-11986
▁manpower	-11987
▁marriage	-11988
▁matching	-11989
▁maturity	-11990
▁maximize	-11991
▁metastas	-11992
▁mixtures	-11993
▁monetary	-11994
▁numerous	-11995
▁operated	-11996
▁parental	-11997
▁payments	-11998
▁platform	-11999
▁punished	-12000
▁purified	-12001
▁receives	-12002
▁redeemed	-12003
▁reliable	-12004
▁religion	-12005
▁requests	-12006
▁resolved	-12007
▁resource	-12008
▁resulted	-12009
▁reviewed	-12010
▁securing	-12011
▁sometime	-12012
▁swinging	-12013
▁taxonomy	-12014
▁thrombox	-12015
▁tuberous	-12016
▁unlawful	-12017
▁utilizes	-12018
▁ventures	-12019
▁verified	-12020
▁visiting	-12021
aceuticals	-12022
germinomas	-12023
itropsines	-12024
ographical	-12025
▁Awareness	-12026
▁Centenary	-12027
▁Destitute	-12028
▁Dravidian	-12029
▁Epicurean	-12030
▁Erythrose	-12031
▁Following	-12032
▁Formation	-12033
▁Furniture	-12034
▁Hospitals	-12035
▁Incentive	-12036
▁Knowledge	-12037
▁Labourers	-12038
▁Lecturers	-12039
▁Lymphomas	-12040
▁Magnesium	-12041
▁Ministers	-12042
▁Neuroradi	-12043
▁Provident	-12044
▁Remission	-12045
▁Societies	-12046
▁Something	-12047
▁Statutory	-12048
▁Tahsildar	-12049
▁acceptors	-12050
▁appearing	-12051
▁attribute	-12052
▁cirrhosis	-12053
▁concluded	-12054
▁contraven	-12055
▁diligence	-12056
▁diversity	-12057
▁dividends	-12058
▁elaborate	-12059
▁endoscope	-12060
▁exchanged	-12061
▁explosion	-12062
▁inception	-12063
▁inclusion	-12064
▁insolvent	-12065
▁inspected	-12066
▁interface	-12067
▁interview	-12068
▁invisible	-12069
▁iterative	-12070
▁meningeal	-12071
▁modifying	-12072
▁periplasm	-12073
▁potassium	-12074
▁prevalent	-12075
▁redressal	-12076
▁regulates	-12077
▁reimburse	-12078
▁relevance	-12079
▁sentences	-12080
▁sentiment	-12081
▁sponsored	-12082
▁survivors	-12083
▁suspended	-12084
▁synergies	-12085
▁textbooks	-12086
▁thickness	-12087
▁undergone	-12088
▁vehicular	-12089
histiocytic	-12090
ralymphatic	-12091
steosarcoma	-12092
▁Committees	-12093
▁Conducting	-12094
▁Congenital	-12095
▁Depository	-12096
▁Electronic	-12097
▁Eventually	-12098
▁Excellency	-12099
▁Follicular	-12100
▁Generation	-12101
▁Importance	-12102
▁Integrated	-12103
▁Laboratory	-12104
▁Panchayats	-12105
▁Parliament	-12106
▁Protection	-12107
▁Scientific	-12108
▁Television	-12109
▁Ultrasound	-12110
▁absolutely	-12111
▁autoimmune	-12112
▁checkpoint	-12113
▁comprising	-12114
▁conception	-12115
▁concession	-12116
▁concurrent	-12117
▁congestion	-12118
▁conjugates	-12119
▁diagnostic	-12120
▁discipline	-12121
▁discretion	-12122
▁exhibition	-12123
▁explaining	-12124
▁frictional	-12125
▁indicators	-12126
▁instituted	-12127
▁interferon	-12128
▁internally	-12129
▁kaposiform	-12130
▁ketohexose	-12131
▁livelihood	-12132
▁moratorium	-12133
▁negotiated	-12134
▁noncleaved	-12135
▁polyclonal	-12136
▁privileges	-12137
▁productive	-12138
▁randomness	-12139
▁refinement	-12140
▁resistance	-12141
▁sequential	-12142
▁similarity	-12143
▁substrates	-12144
▁suggestion	-12145
▁supportive	-12146
lycerophosph	-12147
oepithelioma	-12148
oplasmacytic	-12149
▁Bevacizumab	-12150
▁Competition	-12151
▁Degradation	-12152
▁Feasibility	-12153
▁Informatics	-12154
▁Thiruvallur	-12155
▁Translation	-12156
▁acetylmuram	-12157
▁communities	-12158
▁compartment	-12159
▁competitive	-12160
▁contractile	-12161
▁corticoster	-12162
▁directorate	-12163
▁disciplines	-12164
▁discussions	-12165
▁generations	-12166
▁genetically	-12167
▁importantly	-12168
▁involvement	-12169
▁myeloblasts	-12170
▁nucleotides	-12171
▁orientation	-12172
▁preparative	-12173
▁protuberans	-12174
▁recognizing	-12175
▁restoration	-12176
▁selectivity	-12177
▁specificity	-12178
▁suggestions	-12179
▁synthesised	-12180
▁temporarily	-12181
▁terminology	-12182
▁traditional	-12183
▁unfavorable	-12184
▁upgradation	-12185
uthuraipoondi	-12186
▁Collectorate	-12187
▁Horticulture	-12188
▁INTRODUCTION	-12189
▁Neurosurgeon	-12190
▁Transparency	-12191
▁Undertakings	-12192
▁additionally	-12193
▁angiosarcoma	-12194
▁bronchoscope	-12195
▁capabilities	-12196
▁celebrations	-12197
▁chairmanship	-12198
▁characterize	-12199
▁considerably	-12200
▁corporations	-12201
▁gangliosides	-12202
▁granulocytes	-12203
▁hydrogenated	-12204
▁immunoassays	-12205
▁participants	-12206
▁phosphatidyl	-12207
▁ribonuclease	-12208
▁subsidiaries	-12209
▁surroundings	-12210
▁triglyceride	-12211
▁unsaturation	-12212
▁Communication	-12213
▁Environmental	-12214
▁Extraskeletal	-12215
▁characterized	-12216
▁Arunthathiyars	-12217
▁Pineoblastomas	-12218
▁Tiruchirapalli	-12219
▁crystallograph	-12220
▁prostaglandins	-12221
▁transportation	-12222
▁apolipoproteins	-12223
▁electrophoresis	-12224
▁stereochemistry	-12225
▁translationally	-12226
,9	-12227
-7	-12228
15	-12229
3)	-12230
33	-12231
42	-12232
5%	-12233
68	-12234
69	-12235
7.	-12236
74	-12237
96	-12238
BV	-12239
CG	-12240
Do	-12241
EW	-12242
FC	-12243
FP	-12244
HV	-12245
MT	-12246
OM	-12247
OW	-12248
RM	-12249
RP	-12250
SO	-12251
US	-12252
bl	-12253
na	-12254
za	-12255
(1)	-12256
-79	-12257
/18	-12258
AGE	-12259
CES	-12260
Dis	-12261
EMA	-12262
ERC	-12263
FER	-12264
ILL	-12265
IRE	-12266
Jay	-12267
OOL	-12268
PCR	-12269
Sam	-12270
ava	-12271
cap	-12272
chy	-12273
coc	-12274
com	-12275
cot	-12276
cro	-12277
eed	-12278
ema	-12279
ese	-12280
fan	-12281
fin	-12282
fra	-12283
gal	-12284
gas	-12285
gun	-12286
hak	-12287
hin	-12288
hoc	-12289
ips	-12290
jay	-12291
jun	-12292
kal	-12293
kan	-12294
lan	-12295
mop	-12296
pee	-12297
ria	-12298
ris	-12299
utr	-12300
uum	-12301
zot	-12302
▁(7	-12303
▁4.	-12304
▁6.	-12305
▁64	-12306
▁99	-12307
▁Bh	-12308
▁Ce	-12309
▁DL	-12310
▁DN	-12311
▁Hy	-12312
▁IP	-12313
▁Ig	-12314
▁KA	-12315
▁KM	-12316
▁Ka	-12317
▁LT	-12318
▁MB	-12319
▁MC	-12320
▁ME	-12321
▁Sq	-12322
▁TS	-12323
▁fx	-12324
▁mm	-12325
▁sq	-12326
▁vi	-12327
▁ye	-12328
,500	-12329
50/-	-12330
AILS	-12331
ATER	-12332
EDCO	-12333
ENCE	-12334
IVIT	-12335
Info	-12336
RUCT	-12337
TION	-12338
adow	-12339
agaz	-12340
agog	-12341
alar	-12342
alat	-12343
anib	-12344
anim	-12345
anka	-12346
aria	-12347
asal	-12348
asan	-12349
atti	-12350
atum	-12351
auss	-12352
bert	-12353
bted	-12354
cale	-12355
care	-12356
chin	-12357
cond	-12358
elly	-12359
eous	-12360
esom	-12361
eted	-12362
greg	-12363
hara	-12364
icon	-12365
ideo	-12366
inte	-12367
iram	-12368
issa	-12369
iven	-12370
king	-12371
list	-12372
onam	-12373
osyl	-12374
otel	-12375
outs	-12376
oval	-12377
phab	-12378
risk	-12379
ryst	-12380
such	-12381
tage	-12382
they	-12383
thur	-12384
umen	-12385
umet	-12386
umin	-12387
uran	-12388
well	-12389
▁0/0	-12390
▁113	-12391
▁115	-12392
▁133	-12393
▁135	-12394
▁152	-12395
▁16,	-12396
▁161	-12397
▁179	-12398
▁212	-12399
▁230	-12400
▁26%	-12401
▁271	-12402
▁4,2	-12403
▁400	-12404
▁412	-12405
▁433	-12406
▁49%	-12407
▁5,3	-12408
▁AFP	-12409
▁Ala	-12410
▁Apo	-12411
▁Asp	-12412
▁BEN	-12413
▁Bre	-12414
▁Cru	-12415
▁DEM	-12416
▁DET	-12417
▁DIN	-12418
▁Dri	-12419
▁ECO	-12420
▁Ent	-12421
▁Fee	-12422
▁Guj	-12423
▁Hyd	-12424
▁ING	-12425
▁Joh	-12426
▁Jud	-12427
▁Kel	-12428
▁LPG	-12429
▁Lig	-12430
▁Mel	-12431
▁Mic	-12432
▁NIL	-12433
▁Nav	-12434
▁Our	-12435
▁Own	-12436
▁PPT	-12437
▁Pub	-12438
▁REL	-12439
▁RUB	-12440
▁Rob	-12441
▁Rot	-12442
▁Roy	-12443
▁SAL	-12444
▁Sam	-12445
▁Sil	-12446
▁Sim	-12447
▁Toh	-12448
▁VIP	-12449
▁Veh	-12450
▁Vot	-12451
▁ago	-12452
▁bal	-12453
▁bid	-12454
▁bis	-12455
▁cer	-12456
▁eta	-12457
▁gaz	-12458
▁gov	-12459
▁gre	-12460
▁guy	-12461
▁ign	-12462
▁iod	-12463
▁nos	-12464
▁pal	-12465
▁pit	-12466
▁piv	-12467
▁que	-12468
▁sit	-12469
▁tag	-12470
▁wal	-12471
▁war	-12472
ANGAM	-12473
APTER	-12474
FORMS	-12475
Genie	-12476
aders	-12477
akini	-12478
akudi	-12479
alled	-12480
andra	-12481
andur	-12482
apses	-12483
arial	-12484
atial	-12485
atres	-12486
axter	-12487
backs	-12488
build	-12489
chers	-12490
ching	-12491
clear	-12492
endar	-12493
etics	-12494
front	-12495
gasus	-12496
gents	-12497
grade	-12498
hetic	-12499
idyle	-12500
ineal	-12501
ingly	-12502
ipped	-12503
iquid	-12504
isera	-12505
itage	-12506
itate	-12507
ittam	-12508
itted	-12509
oling	-12510
olish	-12511
oning	-12512
ophys	-12513
orate	-12514
ottle	-12515
overs	-12516
parse	-12517
plete	-12518
rence	-12519
rency	-12520
rices	-12521
ridor	-12522
there	-12523
ttage	-12524
ulses	-12525
ungle	-12526
upees	-12527
uracy	-12528
ureus	-12529
uries	-12530
while	-12531
ximal	-12532
▁11⁄2	-12533
▁15/-	-12534
▁1949	-12535
▁1954	-12536
▁1966	-12537
▁1974	-12538
▁1978	-12539
▁1993	-12540
▁Arts	-12541
▁Axon	-12542
▁Boil	-12543
▁COMP	-12544
▁CONS	-12545
▁CONT	-12546
▁Capt	-12547
▁Caus	-12548
▁Chey	-12549
▁Cond	-12550
▁Conf	-12551
▁Cook	-12552
▁Cyst	-12553
▁ESOP	-12554
▁FEMA	-12555
▁Fire	-12556
▁Foss	-12557
▁Gary	-12558
▁Girl	-12559
▁Grid	-12560
▁IIIB	-12561
▁Kiln	-12562
▁Kood	-12563
▁Lapt	-12564
▁Less	-12565
▁Lung	-12566
▁Mohs	-12567
▁Move	-12568
▁NRIs	-12569
▁Node	-12570
▁Noon	-12571
▁Nurs	-12572
▁PROP	-12573
▁PUVA	-12574
▁Poll	-12575
▁Prem	-12576
▁Pros	-12577
▁Raja	-12578
▁Rare	-12579
▁Rent	-12580
▁Requ	-12581
▁Salt	-12582
▁Sent	-12583
▁Situ	-12584
▁Slum	-12585
▁Soil	-12586
▁Term	-12587
▁Trad	-12588
▁YEAR	-12589
▁arts	-12590
▁bail	-12591
▁bean	-12592
▁bike	-12593
▁boys	-12594
▁buoy	-12595
▁caps	-12596
▁chit	-12597
▁club	-12598
▁cogn	-12599
▁crop	-12600
▁crow	-12601
▁cuts	-12602
▁dish	-12603
▁door	-12604
▁doub	-12605
▁draf	-12606
▁epit	-12607
▁fals	-12608
▁fart	-12609
▁harb	-12610
▁hide	-12611
▁intu	-12612
▁jail	-12613
▁keen	-12614
▁keto	-12615
▁latt	-12616
▁lect	-12617
▁lend	-12618
▁malp	-12619
▁menu	-12620
▁mesh	-12621
▁nonc	-12622
▁orth	-12623
▁owed	-12624
▁pend	-12625
▁puck	-12626
▁puri	-12627
▁scar	-12628
▁seal	-12629
▁shed	-12630
▁shoe	-12631
▁skip	-12632
▁spin	-12633
▁spor	-12634
▁stim	-12635
▁tank	-12636
▁unst	-12637
▁vibr	-12638
▁vice	-12639
▁warm	-12640
NESITE	-12641
actory	-12642
afenib	-12643
alamus	-12644
alinga	-12645
amaraj	-12646
ancers	-12647
apenta	-12648
aphylo	-12649
avaram	-12650
binose	-12651
coccus	-12652
enalid	-12653
glomer	-12654
icious	-12655
icking	-12656
icytic	-12657
iguous	-12658
illoma	-12659
inoper	-12660
intend	-12661
iphery	-12662
ipping	-12663
lusive	-12664
mentia	-12665
neuram	-12666
olding	-12667
olemia	-12668
omatic	-12669
orless	-12670
osable	-12671
ossary	-12672
oupled	-12673
pectus	-12674
ptroll	-12675
radiol	-12676
roitin	-12677
ronium	-12678
udalur	-12679
urning	-12680
usband	-12681
utants	-12682
velope	-12683
venues	-12684
ylomic	-12685
▁1,000	-12686
▁2003,	-12687
▁CRIDP	-12688
▁China	-12689
▁Crick	-12690
▁DNase	-12691
▁DTERT	-12692
▁Eicos	-12693
▁Fluid	-12694
▁GENER	-12695
▁Gauss	-12696
▁Green	-12697
▁Headm	-12698
▁Hotel	-12699
▁Hyper	-12700
▁Irfan	-12701
▁Kalvi	-12702
▁Lapar	-12703
▁Legal	-12704
▁Mixed	-12705
▁Night	-12706
▁Often	-12707
▁Outer	-12708
▁Periy	-12709
▁Plasm	-12710
▁Point	-12711
▁RTPCR	-12712
▁Stamp	-12713
▁Using	-12714
▁Vijay	-12715
▁Waste	-12716
▁Years	-12717
▁accru	-12718
▁affix	-12719
▁begun	-12720
▁belie	-12721
▁bumps	-12722
▁bunch	-12723
▁buyer	-12724
▁camer	-12725
▁catch	-12726
▁celeb	-12727
▁cents	-12728
▁cinem	-12729
▁cyano	-12730
▁dates	-12731
▁digit	-12732
▁ducts	-12733
▁email	-12734
▁epoch	-12735
▁essay	-12736
▁evalu	-12737
▁expon	-12738
▁faced	-12739
▁foods	-12740
▁infer	-12741
▁loves	-12742
▁meets	-12743
▁music	-12744
▁naked	-12745
▁newer	-12746
▁nodal	-12747
▁occas	-12748
▁optic	-12749
▁ought	-12750
▁ovary	-12751
▁overs	-12752
▁oxide	-12753
▁pages	-12754
▁paras	-12755
▁paste	-12756
▁pilot	-12757
▁prope	-12758
▁props	-12759
▁pyrim	-12760
▁rated	-12761
▁repel	-12762
▁rupee	-12763
▁scams	-12764
▁seeks	-12765
▁selen	-12766
▁sends	-12767
▁shunt	-12768
▁smear	-12769
▁spast	-12770
▁stead	-12771
▁sweat	-12772
▁taluk	-12773
▁taxes	-12774
▁tears	-12775
▁teeth	-12776
▁title	-12777
▁toler	-12778
▁trail	-12779
▁unsec	-12780
▁votes	-12781
▁zones	-12782
IVITIES	-12783
Special	-12784
TRANSCO	-12785
adaiyur	-12786
agnetic	-12787
ativity	-12788
atorily	-12789
centrif	-12790
changes	-12791
dehydes	-12792
ecutive	-12793
ensable	-12794
erating	-12795
ersheds	-12796
ifiable	-12797
ilitary	-12798
lectual	-12799
ligence	-12800
loading	-12801
milling	-12802
oblasts	-12803
odeling	-12804
officio	-12805
ollagen	-12806
ourcing	-12807
phabets	-12808
ranched	-12809
ranodal	-12810
reprene	-12811
romatin	-12812
rorists	-12813
velling	-12814
writing	-12815
zotinib	-12816
▁2000/-	-12817
▁25,000	-12818
▁Adalat	-12819
▁Animal	-12820
▁Boards	-12821
▁COMMIT	-12822
▁Courts	-12823
▁DEMAND	-12824
▁Effect	-12825
▁Grants	-12826
▁Hostel	-12827
▁INFORM	-12828
▁Keesom	-12829
▁Letter	-12830
▁Lipids	-12831
▁Market	-12832
▁Mutual	-12833
▁NSAIDs	-12834
▁Nobita	-12835
▁Orissa	-12836
▁Phosph	-12837
▁Pineal	-12838
▁Radios	-12839
▁SCHOOL	-12840
▁SMARCA	-12841
▁Sahara	-12842
▁Sample	-12843
▁Serine	-12844
▁Sezary	-12845
▁Sparse	-12846
▁Statue	-12847
▁Twenty	-12848
▁Visual	-12849
▁Volunt	-12850
▁abroad	-12851
▁affirm	-12852
▁antiqu	-12853
▁archae	-12854
▁aureus	-12855
▁basics	-12856
▁basins	-12857
▁beaker	-12858
▁beauty	-12859
▁biogas	-12860
▁boards	-12861
▁bright	-12862
▁brings	-12863
▁builds	-12864
▁buyers	-12865
▁chitin	-12866
▁convey	-12867
▁coparc	-12868
▁cutoff	-12869
▁cycles	-12870
▁defeat	-12871
▁dimers	-12872
▁dinner	-12873
▁divest	-12874
▁driven	-12875
▁ending	-12876
▁enrich	-12877
▁escape	-12878
▁famous	-12879
▁finite	-12880
▁forget	-12881
▁golden	-12882
▁hazard	-12883
▁heptad	-12884
▁holder	-12885
▁incent	-12886
▁intent	-12887
▁inward	-12888
▁iodine	-12889
▁labour	-12890
▁lowers	-12891
▁marine	-12892
▁metals	-12893
▁microg	-12894
▁minute	-12895
▁natham	-12896
▁nuclei	-12897
▁observ	-12898
▁pillar	-12899
▁pixels	-12900
▁planar	-12901
▁planet	-12902
▁recurs	-12903
▁regrow	-12904
▁relied	-12905
▁sarees	-12906
▁sexual	-12907
▁shadow	-12908
▁shield	-12909
▁silver	-12910
▁solves	-12911
▁sphere	-12912
▁spongy	-12913
▁sports	-12914
▁stayed	-12915
▁sterol	-12916
▁subdiv	-12917
▁sudden	-12918
▁thirst	-12919
▁tunnel	-12920
▁unanim	-12921
▁untrue	-12922
▁uptake	-12923
▁vacuum	-12924
▁vulvar	-12925
▁watery	-12926
▁wealth	-12927
▁whales	-12928
▁wholly	-12929
▁widget	-12930
alaignar	-12931
ambakkam	-12932
arbonate	-12933
ardation	-12934
asatinib	-12935
building	-12936
chloride	-12937
erations	-12938
ertility	-12939
hydrogen	-12940
ifferent	-12941
igration	-12942
omatosis	-12943
omorphic	-12944
ptroller	-12945
quarters	-12946
rections	-12947
ructured	-12948
urbation	-12949
vertible	-12950
▁2005-06	-12951
▁Appeals	-12952
▁Arsenic	-12953
▁Biology	-12954
▁Breadth	-12955
▁CHAPTER	-12956
▁CHARTER	-12957
▁Captive	-12958
▁Caustic	-12959
▁Circles	-12960
▁Complex	-12961
▁Courses	-12962
▁DETAILS	-12963
▁Dendral	-12964
▁Digital	-12965
▁Efforts	-12966
▁Gujarat	-12967
▁Hostels	-12968
▁Infants	-12969
▁Kamaraj	-12970
▁Lactose	-12971
▁Lenalid	-12972
▁Licence	-12973
▁License	-12974
▁Measure	-12975
▁Opening	-12976
▁Overton	-12977
▁Pegasus	-12978
▁Product	-12979
▁REFORMS	-12980
▁Receipt	-12981
▁SERVICE	-12982
▁SPECIAL	-12983
▁Sholing	-12984
▁Testing	-12985
▁Thittam	-12986
▁Through	-12987
▁Tonsils	-12988
▁Traffic	-12989
▁Turbine	-12990
▁Various	-12991
▁acetone	-12992
▁anticip	-12993
▁anytime	-12994
▁appeals	-12995
▁arsenic	-12996
▁bending	-12997
▁blastic	-12998
▁brother	-12999
▁capture	-13000
▁cluster	-13001
▁contemp	-13002
▁convene	-13003
▁cooking	-13004
▁cooling	-13005
▁defence	-13006
▁deflect	-13007
▁delayed	-13008
▁deliver	-13009
▁depicts	-13010
▁dhoties	-13011
▁diction	-13012
▁dismiss	-13013
▁disrupt	-13014
▁distort	-13015
▁earnest	-13016
▁elected	-13017
▁eminent	-13018
▁encoded	-13019
▁ensuing	-13020
▁enthusi	-13021
▁exhibit	-13022
▁expects	-13023
▁factory	-13024
▁filters	-13025
▁gazette	-13026
▁harness	-13027
▁headers	-13028
▁helpful	-13029
▁helping	-13030
▁implied	-13031
▁lattice	-13032
▁leaving	-13033
▁legally	-13034
▁liberal	-13035
▁lighted	-13036
▁lumpsum	-13037
▁minimal	-13038
▁mutated	-13039
▁nearing	-13040
▁neurosc	-13041
▁nodular	-13042
▁pedagog	-13043
▁periods	-13044
▁pillars	-13045
▁pivotal	-13046
▁pontine	-13047
▁porcine	-13048
▁poverty	-13049
▁quadrup	-13050
▁quarter	-13051
▁queries	-13052
▁ranking	-13053
▁recipro	-13054
▁reforms	-13055
▁refused	-13056
▁regimen	-13057
▁relapse	-13058
▁renewal	-13059
▁reveals	-13060
▁reviews	-13061
▁revival	-13062
▁sensing	-13063
▁speaker	-13064
▁spotted	-13065
▁stopped	-13066
▁supreme	-13067
▁synonym	-13068
▁telling	-13069
▁tendons	-13070
▁thymine	-13071
▁totally	-13072
▁twisted	-13073
▁updated	-13074
▁vaginal	-13075
▁washing	-13076
▁witness	-13077
ISTRATIVE	-13078
aceutical	-13079
alidomide	-13080
blastomas	-13081
cholester	-13082
harapuram	-13083
including	-13084
itisation	-13085
moplastic	-13086
othalamus	-13087
renchment	-13088
ufficient	-13089
ylomicron	-13090
▁25,000/-	-13091
▁Advisory	-13092
▁Approval	-13093
▁Calamity	-13094
▁Doctrine	-13095
▁ELECTRIC	-13096
▁European	-13097
▁Gaussian	-13098
▁Instruct	-13099
▁Kavignar	-13100
▁MINISTER	-13101
▁NodeInfo	-13102
▁Optional	-13103
▁Peptides	-13104
▁Provided	-13105
▁Puducher	-13106
▁Pyogenic	-13107
▁Relapsed	-13108
▁Schedule	-13109
▁Specific	-13110
▁Synovial	-13111
▁abridged	-13112
▁abstract	-13113
▁acceptor	-13114
▁accuracy	-13115
▁advances	-13116
▁advisory	-13117
▁ammonium	-13118
▁antisera	-13119
▁attaches	-13120
▁attended	-13121
▁awarding	-13122
▁birthday	-13123
▁clusters	-13124
▁coaching	-13125
▁cohesion	-13126
▁confined	-13127
▁cultural	-13128
▁dementia	-13129
▁designer	-13130
▁dictates	-13131
▁emotions	-13132
▁entering	-13133
▁entirely	-13134
▁envelope	-13135
▁equipped	-13136
▁eviction	-13137
▁expanded	-13138
▁farthest	-13139
▁fighters	-13140
▁findings	-13141
▁fixation	-13142
▁fluidity	-13143
▁fluoride	-13144
▁gradient	-13145
▁greatest	-13146
▁highrisk	-13147
▁improves	-13148
▁instruct	-13149
▁invented	-13150
▁isomeric	-13151
▁jacketed	-13152
▁landless	-13153
▁leukotri	-13154
▁liposome	-13155
▁minerals	-13156
▁molality	-13157
▁molarity	-13158
▁neuronal	-13159
▁novation	-13160
▁ontology	-13161
▁operator	-13162
▁ortholog	-13163
▁packages	-13164
▁painless	-13165
▁pendency	-13166
▁phenotyp	-13167
▁preserve	-13168
▁procured	-13169
▁producer	-13170
▁produces	-13171
▁proteoly	-13172
▁proximal	-13173
▁quarters	-13174
▁rainfall	-13175
▁rational	-13176
▁reacting	-13177
▁remedial	-13178
▁retinoic	-13179
▁revenues	-13180
▁rotating	-13181
▁seizures	-13182
▁severely	-13183
▁sporadic	-13184
▁staphylo	-13185
▁synchron	-13186
▁synovial	-13187
▁theories	-13188
▁throwing	-13189
▁totaling	-13190
▁tramways	-13191
▁variants	-13192
▁vesicles	-13193
▁workshop	-13194
Government	-13195
Regulation	-13196
intendence	-13197
iofibromas	-13198
neuraminic	-13199
ologically	-13200
polymerase	-13201
rification	-13202
structured	-13203
▁2006-2007	-13204
▁2007-2008	-13205
▁Amendment	-13206
▁Chemicals	-13207
▁Colorless	-13208
▁DOCUMENTS	-13209
▁Disulfide	-13210
▁HeatGenie	-13211
▁Important	-13212
▁Judiciary	-13213
▁Marriages	-13214
▁PROGRAMME	-13215
▁Pericytic	-13216
▁Regarding	-13217
▁Residence	-13218
▁Rituximab	-13219
▁Shortness	-13220
▁Strategic	-13221
▁Tiruvarur	-13222
▁Undertake	-13223
▁administr	-13224
▁aldehydes	-13225
▁alphabets	-13226
▁animation	-13227
▁arabinose	-13228
▁authorize	-13229
▁cancelled	-13230
▁certainty	-13231
▁certified	-13232
▁chirality	-13233
▁confirmed	-13234
▁consented	-13235
▁container	-13236
▁continued	-13237
▁contribut	-13238
▁deepening	-13239
▁democracy	-13240
▁desirable	-13241
▁developer	-13242
▁digestive	-13243
▁disasters	-13244
▁discovery	-13245
▁eliminate	-13246
▁elongated	-13247
▁embryonic	-13248
▁endoscopy	-13249
▁enhancing	-13250
▁enrolment	-13251
▁ependymal	-13252
▁estradiol	-13253
▁exclusive	-13254
▁extracted	-13255
▁financing	-13256
▁formulate	-13257
▁heritable	-13258
▁hydrazine	-13259
▁hydronium	-13260
▁incorrect	-13261
▁increment	-13262
▁integrate	-13263
▁intention	-13264
▁judgments	-13265
▁judiciary	-13266
▁locations	-13267
▁nanometer	-13268
▁noncancer	-13269
▁normality	-13270
▁nutrients	-13271
▁organisms	-13272
▁outsiders	-13273
▁papilloma	-13274
▁pensioner	-13275
▁periphery	-13276
▁pertinent	-13277
▁predicate	-13278
▁prescribe	-13279
▁processor	-13280
▁proteases	-13281
▁requisite	-13282
▁responded	-13283
▁rotations	-13284
▁searching	-13285
▁secretase	-13286
▁selective	-13287
▁teratomas	-13288
▁transfers	-13289
▁triggered	-13290
▁trimester	-13291
▁uncertain	-13292
▁unsecured	-13293
▁ventricle	-13294
▁viscosity	-13295
apentaenoic	-13296
hematically	-13297
idylethanol	-13298
inoperineal	-13299
tymological	-13300
▁1,00,000/-	-13301
▁ACTIVITIES	-13302
▁Astrocytic	-13303
▁Consequent	-13304
▁Distamycin	-13305
▁Efficiency	-13306
▁Epigenetic	-13307
▁Estimation	-13308
▁Immunosupp	-13309
▁Interferon	-13310
▁Kaposiform	-13311
▁Moratorium	-13312
▁PENSIONERS	-13313
▁Population	-13314
▁Prevention	-13315
▁Prospectus	-13316
▁STATIONERY	-13317
▁admissible	-13318
▁affordable	-13319
▁altogether	-13320
▁answerable	-13321
▁appreciate	-13322
▁assumption	-13323
▁astrocytic	-13324
▁benefiting	-13325
▁betterment	-13326
▁boundaries	-13327
▁chemically	-13328
▁collecting	-13329
▁consultant	-13330
▁consulting	-13331
▁convenient	-13332
▁delegation	-13333
▁developers	-13334
▁diagnosing	-13335
▁difficulty	-13336
▁disappoint	-13337
▁disclosing	-13338
▁enantiomer	-13339
▁encourages	-13340
▁entreprene	-13341
▁estimation	-13342
▁formulated	-13343
▁furnishing	-13344
▁homogenous	-13345
▁households	-13346
▁influences	-13347
▁initiating	-13348
▁innovative	-13349
▁maximizing	-13350
▁misconduct	-13351
▁nanometers	-13352
▁negligence	-13353
▁nomination	-13354
▁nucleation	-13355
▁periodical	-13356
▁philosophy	-13357
▁preventive	-13358
▁protruding	-13359
▁publishing	-13360
▁regulators	-13361
▁separating	-13362
▁solemnized	-13363
▁spasticity	-13364
▁stabilizes	-13365
▁subsequent	-13366
▁succession	-13367
▁supporting	-13368
▁swallowing	-13369
▁thereafter	-13370
▁transcript	-13371
▁transports	-13372
▁unbranched	-13373
▁variations	-13374
▁vulnerable	-13375
aminoglycans	-13376
▁Accelerated	-13377
▁Accountants	-13378
▁Communities	-13379
▁Competitive	-13380
▁Comptroller	-13381
▁Conferences	-13382
▁Hasselbalch	-13383
▁Koodankulam	-13384
▁PUBLICATION	-13385
▁Recognition	-13386
▁Thirukkural	-13387
▁Transaction	-13388
▁Transformer	-13389
▁abbreviated	-13390
▁accelerated	-13391
▁assignments	-13392
▁challenging	-13393
▁circulation	-13394
▁compilation	-13395
▁contributed	-13396
▁corrections	-13397
▁derivatized	-13398
▁endothelial	-13399
▁ependymomas	-13400
▁exponential	-13401
▁facilitated	-13402
▁governments	-13403
▁implication	-13404
▁initiatives	-13405
▁intravenous	-13406
▁lymphoblast	-13407
▁mandatorily	-13408
▁methodology	-13409
▁microscopic	-13410
▁microtubule	-13411
▁operational	-13412
▁perspective	-13413
▁precipitate	-13414
▁preliminary	-13415
▁prohibition	-13416
▁proprietary	-13417
▁reappointed	-13418
▁reservation	-13419
▁sphingomyel	-13420
▁technically	-13421
▁translating	-13422
▁translators	-13423
▁underground	-13424
▁utilization	-13425
▁Angiosarcoma	-13426
▁Consequently	-13427
▁Departmental	-13428
▁Introduction	-13429
▁Lenalidomide	-13430
▁Mathematical	-13431
▁Nonsteroidal	-13432
▁Perivascular	-13433
▁Phototherapy	-13434
▁Tiruvalluvar	-13435
▁Universities	-13436
▁adjudicatory	-13437
▁communicated	-13438
▁computerised	-13439
▁concentrates	-13440
▁conversation	-13441
▁demonstrated	-13442
▁dependencies	-13443
▁embolization	-13444
▁encroachment	-13445
▁extracranial	-13446
▁glioblastoma	-13447
▁granulocytic	-13448
▁hematologist	-13449
▁hyperchromic	-13450
▁interference	-13451
▁lymphoblasts	-13452
▁malpractices	-13453
▁mobilization	-13454
▁nevertheless	-13455
▁purification	-13456
▁satisfaction	-13457
▁strengthened	-13458
▁testosterone	-13459
▁thromboxanes	-13460
▁transduction	-13461
▁transferable	-13462
▁treadmilling	-13463
▁ultracentrif	-13464
▁Cerebrospinal	-13465
▁Craniopharyng	-13466
▁Electrostatic	-13467
▁Intracavitary	-13468
▁Sclerotherapy	-13469
▁Sphingolipids	-13470
▁administering	-13471
▁administrator	-13472
▁clarification	-13473
▁combinatorial	-13474
▁notifications	-13475
▁prostaglandin	-13476
▁reappointment	-13477
▁significantly	-13478
▁sphingolipids	-13479
▁terminologies	-13480
cholesterolemia	-13481
▁ADMINISTRATIVE	-13482
▁Chromatography	-13483
▁Municipalities	-13484
▁Sholinganallur	-13485
▁Superintendent	-13486
▁Thirukkadaiyur	-13487
▁Tiruvannamalai	-13488
▁incorporations	-13489
▁interpretation	-13490
▁intralymphatic	-13491
▁nasopharyngeal	-13492
▁papillomavirus	-13493
▁staphylococcus	-13494
,000,000,000,000	-13495
▁Computerization	-13496
▁Thiruvannamalai	-13497
▁infrastructural	-13498
▁myofibromatosis	-13499
▁superintendence	-13500
".	-13501
-3	-13502
-9	-13503
.)	-13504
02	-13505
07	-13506
1,	-13507
1.	-13508
14	-13509
29	-13510
32	-13511
62	-13512
81	-13513
84	-13514
88	-13515
9(	-13516
DA	-13517
DE	-13518
DL	-13519
GY	-13520
HA	-13521
MG	-13522
OI	-13523
SE	-13524
TC	-13525
TE	-13526
TL	-13527
TY	-13528
YC	-13529
ds	-13530
ja	-13531
ky	-13532
vo	-13533
yc	-13534
ία	-13535
ημ	-13536
”,	-13537
▁>	-13538
▁q	-13539
▁χ	-13540
,19	-13541
,65	-13542
-0,	-13543
400	-13544
700	-13545
ANK	-13546
CHI	-13547
Che	-13548
END	-13549
GDP	-13550
GIS	-13551
IBs	-13552
ICe	-13553
IED	-13554
INA	-13555
INT	-13556
IRU	-13557
MAs	-13558
Non	-13559
Now	-13560
ORT	-13561
OUR	-13562
PRs	-13563
PSC	-13564
Pro	-13565
RID	-13566
Ram	-13567
SPV	-13568
TIT	-13569
ULT	-13570
akf	-13571
arp	-13572
ask	-13573
aud	-13574
aws	-13575
dep	-13576
dim	-13577
dul	-13578
eds	-13579
eem	-13580
enn	-13581
eor	-13582
fol	-13583
han	-13584
hra	-13585
hru	-13586
iac	-13587
iae	-13588
iam	-13589
iom	-13590
isp	-13591
leb	-13592
lls	-13593
luc	-13594
mam	-13595
oco	-13596
ont	-13597
ony	-13598
orn	-13599
plo	-13600
pti	-13601
pus	-13602
rae	-13603
reb	-13604
rew	-13605
six	-13606
tha	-13607
thy	-13608
ube	-13609
ued	-13610
ugh	-13611
ums	-13612
wan	-13613
xop	-13614
yle	-13615
▁2)	-13616
▁3,	-13617
▁7,	-13618
▁77	-13619
▁94	-13620
▁:-	-13621
▁Ah	-13622
▁BE	-13623
▁BT	-13624
▁BY	-13625
▁Dn	-13626
▁GG	-13627
▁HI	-13628
▁HP	-13629
▁IA	-13630
▁IB	-13631
▁ID	-13632
▁IS	-13633
▁MU	-13634
▁Na	-13635
▁OC	-13636
▁UU	-13637
▁Vs	-13638
▁YO	-13639
▁aw	-13640
▁gi	-13641
▁nu	-13642
▁ol	-13643
,361	-13644
-104	-13645
0000	-13646
ANTS	-13647
ERGY	-13648
FICI	-13649
IGHT	-13650
NHAI	-13651
PECT	-13652
RING	-13653
Then	-13654
Thir	-13655
URAL	-13656
UTER	-13657
aced	-13658
acit	-13659
adam	-13660
addy	-13661
adec	-13662
aden	-13663
agas	-13664
ajaj	-13665
appe	-13666
aran	-13667
avit	-13668
azop	-13669
bust	-13670
cies	-13671
cill	-13672
comm	-13673
cont	-13674
cter	-13675
gage	-13676
garh	-13677
gins	-13678
gred	-13679
gypt	-13680
haus	-13681
hess	-13682
iest	-13683
iful	-13684
igue	-13685
iles	-13686
inyl	-13687
ivol	-13688
ixer	-13689
kers	-13690
lymp	-13691
mail	-13692
oech	-13693
oemb	-13694
ogue	-13695
okay	-13696
omab	-13697
onom	-13698
oted	-13699
ours	-13700
owed	-13701
prop	-13702
rama	-13703
raud	-13704
romy	-13705
rons	-13706
ropy	-13707
rown	-13708
rust	-13709
seud	-13710
side	-13711
site	-13712
step	-13713
tail	-13714
tons	-13715
umav	-13716
uses	-13717
west	-13718
word	-13719
▁(10	-13720
▁1,1	-13721
▁1,2	-13722
▁1,6	-13723
▁1,8	-13724
▁104	-13725
▁128	-13726
▁15(	-13727
▁165	-13728
▁166	-13729
▁178	-13730
▁2,2	-13731
▁2,5	-13732
▁2,7	-13733
▁206	-13734
▁210	-13735
▁211	-13736
▁219	-13737
▁224	-13738
▁225	-13739
▁234	-13740
▁285	-13741
▁29%	-13742
▁290	-13743
▁3,2	-13744
▁3,8	-13745
▁30%	-13746
▁350	-13747
▁4,1	-13748
▁410	-13749
▁417	-13750
▁425	-13751
▁51%	-13752
▁700	-13753
▁8-0	-13754
▁800	-13755
▁900	-13756
▁ACO	-13757
▁ATT	-13758
▁Agg	-13759
▁Aid	-13760
▁Amb	-13761
▁Amp	-13762
▁Ash	-13763
▁BAS	-13764
▁Bal	-13765
▁Bet	-13766
▁Bot	-13767
▁Bro	-13768
▁Cau	-13769
▁Cho	-13770
▁Cry	-13771
▁DTE	-13772
▁Der	-13773
▁EXP	-13774
▁Enh	-13775
▁Ess	-13776
▁FAP	-13777
▁Far	-13778
▁Feh	-13779
▁Few	-13780
▁Fil	-13781
▁GoI	-13782
▁HCL	-13783
▁Hep	-13784
▁Hrs	-13785
▁Hyp	-13786
▁IBM	-13787
▁Ion	-13788
▁Jew	-13789
▁LKG	-13790
▁LPD	-13791
▁Lee	-13792
▁MAG	-13793
▁MLA	-13794
▁MRS	-13795
▁Mah	-13796
▁NPR	-13797
▁Nan	-13798
▁ORG	-13799
▁PAY	-13800
▁PEC	-13801
▁PMG	-13802
▁Pak	-13803
▁PhD	-13804
▁Phi	-13805
▁Psi	-13806
▁RET	-13807
▁Raw	-13808
▁Ray	-13809
▁SBI	-13810
▁Sol	-13811
▁Sou	-13812
▁TSP	-13813
▁Ter	-13814
▁Tot	-13815
▁UPS	-13816
▁USA	-13817
▁Und	-13818
▁Use	-13819
▁Vel	-13820
▁Ven	-13821
▁Ver	-13822
▁Wat	-13823
▁Wed	-13824
▁ala	-13825
▁ate	-13826
▁buf	-13827
▁cit	-13828
▁cum	-13829
▁cyl	-13830
▁eco	-13831
▁exo	-13832
▁fri	-13833
▁gra	-13834
▁hai	-13835
▁hum	-13836
▁jar	-13837
▁lob	-13838
▁pig	-13839
▁ppm	-13840
▁pru	-13841
▁sad	-13842
▁sap	-13843
▁std	-13844
▁tip	-13845
▁une	-13846
▁unn	-13847
▁vap	-13848
▁wea	-13849
▁χημ	-13850
Crick	-13851
EFITS	-13852
ISION	-13853
ITION	-13854
State	-13855
TITUT	-13856
aceti	-13857
aired	-13858
alker	-13859
amins	-13860
anied	-13861
anoma	-13862
apand	-13863
arios	-13864
asand	-13865
attis	-13866
auric	-13867
being	-13868
cereb	-13869
cious	-13870
ckets	-13871
clone	-13872
cyclo	-13873
eless	-13874
emark	-13875
emble	-13876
eners	-13877
ensur	-13878
erate	-13879
erted	-13880
estri	-13881
feres	-13882
ginet	-13883
groom	-13884
hesis	-13885
iacet	-13886
ibule	-13887
iched	-13888
idges	-13889
ifted	-13890
illed	-13891
imate	-13892
inoly	-13893
istan	-13894
layer	-13895
liest	-13896
llion	-13897
mozhi	-13898
nicul	-13899
ocent	-13900
ombin	-13901
onary	-13902
onder	-13903
orioc	-13904
orvot	-13905
osals	-13906
osynt	-13907
palli	-13908
pedia	-13909
pepti	-13910
phoid	-13911
posis	-13912
prong	-13913
puted	-13914
ratic	-13915
reose	-13916
reous	-13917
riber	-13918
ricks	-13919
rific	-13920
right	-13921
ritic	-13922
ritis	-13923
ropoc	-13924
ruits	-13925
shine	-13926
stall	-13927
thern	-13928
three	-13929
ulous	-13930
umbak	-13931
ument	-13932
umers	-13933
ungry	-13934
ustan	-13935
xopap	-13936
yalty	-13937
ylase	-13938
▁11,2	-13939
▁1908	-13940
▁1947	-13941
▁1959	-13942
▁1960	-13943
▁1971	-13944
▁1981	-13945
▁1984	-13946
▁2017	-13947
▁2018	-13948
▁2020	-13949
▁2520	-13950
▁Ariv	-13951
▁CMAs	-13952
▁Camp	-13953
▁Card	-13954
▁Cris	-13955
▁Deli	-13956
▁Draw	-13957
▁EAST	-13958
▁ECBs	-13959
▁FUND	-13960
▁Face	-13961
▁Fast	-13962
▁Folk	-13963
▁Gard	-13964
▁Gluc	-13965
▁HIGH	-13966
▁Harb	-13967
▁Horm	-13968
▁Inam	-13969
▁Kend	-13970
▁LAND	-13971
▁Loan	-13972
▁Maps	-13973
▁Mass	-13974
▁Meal	-13975
▁Mess	-13976
▁Need	-13977
▁PART	-13978
▁PDDL	-13979
▁PLAN	-13980
▁PRES	-13981
▁Pond	-13982
▁Prob	-13983
▁Puro	-13984
▁QIBs	-13985
▁RELA	-13986
▁Raju	-13987
▁Reed	-13988
▁Repe	-13989
▁SOCI	-13990
▁SSLC	-13991
▁Sand	-13992
▁Sell	-13993
▁Sole	-13994
▁Sund	-13995
▁Task	-13996
▁Vall	-13997
▁Vive	-13998
▁Wakf	-13999
▁acre	-14000
▁adip	-14001
▁allo	-14002
▁apps	-14003
▁bent	-14004
▁blot	-14005
▁boil	-14006
▁bold	-14007
▁cass	-14008
▁choc	-14009
▁chor	-14010
▁cree	-14011
▁cyto	-14012
▁eggs	-14013
▁emol	-14014
▁evac	-14015
▁evid	-14016
▁fake	-14017
▁feas	-14018
▁fire	-14019
▁guid	-14020
▁haem	-14021
▁hain	-14022
▁inef	-14023
▁jump	-14024
▁keys	-14025
▁lact	-14026
▁lets	-14027
▁lots	-14028
▁nuts	-14029
▁owes	-14030
▁pemb	-14031
▁pink	-14032
▁pron	-14033
▁pros	-14034
▁psor	-14035
▁quit	-14036
▁race	-14037
▁sert	-14038
▁soda	-14039
▁soul	-14040
▁symp	-14041
▁tnre	-14042
▁toll	-14043
▁tone	-14044
▁vast	-14045
▁wash	-14046
ablish	-14047
acheer	-14048
agasse	-14049
amalai	-14050
aminar	-14051
amless	-14052
aphtha	-14053
arayan	-14054
arcane	-14055
arithm	-14056
ashtra	-14057
assion	-14058
asthan	-14059
bonded	-14060
chrome	-14061
crores	-14062
ctomes	-14063
design	-14064
echiae	-14065
enchym	-14066
erving	-14067
estion	-14068
except	-14069
formed	-14070
fusion	-14071
hrooms	-14072
iculum	-14073
igious	-14074
imozhi	-14075
isable	-14076
licate	-14077
nesday	-14078
ochond	-14079
oechst	-14080
oliday	-14081
olkapp	-14082
ostomy	-14083
othing	-14084
passes	-14085
plored	-14086
prises	-14087
propag	-14088
raline	-14089
redeem	-14090
ribose	-14091
riends	-14092
rogram	-14093
roleum	-14094
school	-14095
stance	-14096
utiful	-14097
volous	-14098
▁2002,	-14099
▁2015.	-14100
▁5,000	-14101
▁APDRP	-14102
▁Abdom	-14103
▁Abdul	-14104
▁Afric	-14105
▁Ahmed	-14106
▁Antic	-14107
▁Assoc	-14108
▁BOARD	-14109
▁BUILD	-14110
▁Bajaj	-14111
▁Bench	-14112
▁Brown	-14113
▁Burnt	-14114
▁Chair	-14115
▁Chess	-14116
▁Chond	-14117
▁Const	-14118
▁Daily	-14119
▁Death	-14120
▁Debye	-14121
▁Delta	-14122
▁Derry	-14123
▁Egypt	-14124
▁Enter	-14125
▁Exper	-14126
▁Ferry	-14127
▁Force	-14128
▁Forms	-14129
▁GRASP	-14130
▁Games	-14131
▁Given	-14132
▁Grant	-14133
▁Great	-14134
▁Kanch	-14135
▁Laser	-14136
▁Lease	-14137
▁Lever	-14138
▁Mines	-14139
▁Mount	-14140
▁Music	-14141
▁NILAM	-14142
▁North	-14143
▁Parks	-14144
▁Radio	-14145
▁Rajya	-14146
▁Regul	-14147
▁SPICe	-14148
▁Scrut	-14149
▁Shaft	-14150
▁Sorry	-14151
▁Stern	-14152
▁Stock	-14153
▁TEACH	-14154
▁TRANS	-14155
▁Their	-14156
▁Until	-14157
▁Value	-14158
▁WATER	-14159
▁Whole	-14160
▁Wills	-14161
▁absor	-14162
▁amide	-14163
▁anhyd	-14164
▁aside	-14165
▁assay	-14166
▁avert	-14167
▁basin	-14168
▁beads	-14169
▁bench	-14170
▁borne	-14171
▁bride	-14172
▁chart	-14173
▁circu	-14174
▁clone	-14175
▁codes	-14176
▁cyber	-14177
▁dehyd	-14178
▁delib	-14179
▁dives	-14180
▁earth	-14181
▁echin	-14182
▁emuls	-14183
▁eryth	-14184
▁falls	-14185
▁fatal	-14186
▁feels	-14187
▁folds	-14188
▁gains	-14189
▁gamet	-14190
▁giant	-14191
▁hered	-14192
▁hills	-14193
▁incap	-14194
▁incom	-14195
▁index	-14196
▁irrad	-14197
▁jelly	-14198
▁knows	-14199
▁lingu	-14200
▁litre	-14201
▁loads	-14202
▁lying	-14203
▁magaz	-14204
▁minds	-14205
▁motto	-14206
▁mutar	-14207
▁nails	-14208
▁notes	-14209
▁obser	-14210
▁onset	-14211
▁overl	-14212
▁paddy	-14213
▁paise	-14214
▁perce	-14215
▁pores	-14216
▁pound	-14217
▁pseud	-14218
▁pyran	-14219
▁quasi	-14220
▁quote	-14221
▁recap	-14222
▁rough	-14223
▁saliv	-14224
▁score	-14225
▁shock	-14226
▁sight	-14227
▁slash	-14228
▁smell	-14229
▁sphin	-14230
▁stran	-14231
▁taste	-14232
▁teach	-14233
▁thats	-14234
▁thumb	-14235
▁tight	-14236
▁tough	-14237
▁twent	-14238
▁twins	-14239
▁undue	-14240
▁vulva	-14241
▁wrote	-14242
▁youth	-14243
▁zeros	-14244
RUCTURE	-14245
acteria	-14246
anthrop	-14247
biology	-14248
bladder	-14249
ceptron	-14250
choline	-14251
clusion	-14252
clusive	-14253
editing	-14254
embered	-14255
grading	-14256
hedules	-14257
hoteric	-14258
icherry	-14259
idental	-14260
inolone	-14261
iveness	-14262
kananda	-14263
keeping	-14264
lapping	-14265
oisomer	-14266
omatous	-14267
ophilic	-14268
ortgage	-14269
otropic	-14270
ovation	-14271
payment	-14272
rafenib	-14273
rishnan	-14274
rolling	-14275
umavadi	-14276
upettai	-14277
uranose	-14278
vements	-14279
ynaptic	-14280
▁3000/-	-14281
▁5000/-	-14282
▁Access	-14283
▁Almost	-14284
▁Andhra	-14285
▁Around	-14286
▁Atomic	-14287
▁Attrib	-14288
▁Baxter	-14289
▁Buyout	-14290
▁Colour	-14291
▁Dermat	-14292
▁ENERGY	-14293
▁Enzyme	-14294
▁Extrag	-14295
▁Farmer	-14296
▁Fertil	-14297
▁Golden	-14298
▁Groups	-14299
▁Guides	-14300
▁INGEST	-14301
▁Irving	-14302
▁Janmam	-14303
▁Jungle	-14304
▁Kumbak	-14305
▁Ligase	-14306
▁Liquid	-14307
▁Madhya	-14308
▁Manual	-14309
▁OBJECT	-14310
▁Others	-14311
▁PROPEL	-14312
▁Papers	-14313
▁Radhak	-14314
▁Radial	-14315
▁Rating	-14316
▁Remote	-14317
▁Rupees	-14318
▁Season	-14319
▁Smooth	-14320
▁Source	-14321
▁Speech	-14322
▁Spread	-14323
▁Square	-14324
▁Stores	-14325
▁Subsid	-14326
▁Summer	-14327
▁Techno	-14328
▁Tempor	-14329
▁Thirum	-14330
▁Trials	-14331
▁Voting	-14332
▁Walker	-14333
▁absent	-14334
▁actors	-14335
▁aiders	-14336
▁anomal	-14337
▁arrest	-14338
▁arrows	-14339
▁assump	-14340
▁autumn	-14341
▁awards	-14342
▁became	-14343
▁binary	-14344
▁brains	-14345
▁breaks	-14346
▁camera	-14347
▁cervix	-14348
▁chairs	-14349
▁coined	-14350
▁collag	-14351
▁corner	-14352
▁corpus	-14353
▁counts	-14354
▁coupon	-14355
▁curved	-14356
▁cylind	-14357
▁debate	-14358
▁dermat	-14359
▁dining	-14360
▁dispar	-14361
▁dollar	-14362
▁eighth	-14363
▁embark	-14364
▁employ	-14365
▁fairly	-14366
▁fixing	-14367
▁floats	-14368
▁former	-14369
▁gravit	-14370
▁guides	-14371
▁harder	-14372
▁heater	-14373
▁hypert	-14374
▁incomp	-14375
▁inflic	-14376
▁inflow	-14377
▁ingest	-14378
▁ingred	-14379
▁injury	-14380
▁jargon	-14381
▁latter	-14382
▁lauric	-14383
▁loving	-14384
▁mantle	-14385
▁masses	-14386
▁matern	-14387
▁melted	-14388
▁monoun	-14389
▁motifs	-14390
▁motive	-14391
▁nitric	-14392
▁occupy	-14393
▁oocyte	-14394
▁owners	-14395
▁pickup	-14396
▁poison	-14397
▁presum	-14398
▁prompt	-14399
▁regime	-14400
▁remitt	-14401
▁repeal	-14402
▁resemb	-14403
▁revamp	-14404
▁revers	-14405
▁shells	-14406
▁sounds	-14407
▁speedy	-14408
▁spouse	-14409
▁steady	-14410
▁street	-14411
▁strict	-14412
▁subfra	-14413
▁tenure	-14414
▁thread	-14415
▁tongue	-14416
▁trends	-14417
▁triose	-14418
▁tubing	-14419
▁unload	-14420
▁varied	-14421
▁verbal	-14422
▁viable	-14423
▁weaken	-14424
▁wonder	-14425
activity	-14426
arterial	-14427
asipuram	-14428
azopanib	-14429
cerebros	-14430
endering	-14431
ensation	-14432
ensurate	-14433
hydrates	-14434
iterates	-14435
ivolumab	-14436
oelectro	-14437
oplasmic	-14438
organism	-14439
orsening	-14440
peptides	-14441
positive	-14442
ributory	-14443
ritories	-14444
romyxoid	-14445
utrition	-14446
ventions	-14447
voluting	-14448
▁2,000/-	-14449
▁Actions	-14450
▁Alanine	-14451
▁Article	-14452
▁CITIZEN	-14453
▁Cancers	-14454
▁Cauvery	-14455
▁Chandra	-14456
▁Chapter	-14457
▁Charges	-14458
▁Charter	-14459
▁Chattis	-14460
▁Cheyyur	-14461
▁Chicken	-14462
▁Cyclone	-14463
▁Ethanol	-14464
▁Express	-14465
▁Factors	-14466
▁Farmers	-14467
▁Fehling	-14468
▁Friends	-14469
▁Gudalur	-14470
▁Heating	-14471
▁INSPECT	-14472
▁Imaging	-14473
▁Install	-14474
▁Keeping	-14475
▁Keratan	-14476
▁Minimum	-14477
▁Morning	-14478
▁Nuclear	-14479
▁PEComas	-14480
▁PRESSES	-14481
▁Parents	-14482
▁Readers	-14483
▁Removal	-14484
▁SYSTEMS	-14485
▁Samples	-14486
▁Sensing	-14487
▁Smoking	-14488
▁Thought	-14489
▁Totally	-14490
▁Utility	-14491
▁Vehicle	-14492
▁Vitamin	-14493
▁Wherein	-14494
▁Workers	-14495
▁acceler	-14496
▁adrenal	-14497
▁advised	-14498
▁airways	-14499
▁alleged	-14500
▁allotte	-14501
▁ammonia	-14502
▁anaemia	-14503
▁auction	-14504
▁autonom	-14505
▁availed	-14506
▁broadly	-14507
▁budgets	-14508
▁buffers	-14509
▁bundled	-14510
▁cardiac	-14511
▁citizen	-14512
[...]
