<unk>	0
<s>	0
</s>	0
▁t	-0
he	-1
▁a	-2
in	-3
re	-4
▁the	-5
▁o	-6
▁c	-7
at	-8
▁s	-9
er	-10
on	-11
is	-12
en	-13
an	-14
▁b	-15
▁of	-16
▁w	-17
or	-18
al	-19
es	-20
▁.	-21
▁p	-22
nd	-23
▁f	-24
ed	-25
it	-26
▁in	-27
ion	-28
om	-29
ic	-30
ar	-31
▁m	-32
ing	-33
▁th	-34
▁d	-35
▁and	-36
ent	-37
▁is	-38
▁to	-39
ou	-40
ct	-41
le	-42
ro	-43
as	-44
▁T	-45
▁h	-46
▁be	-47
ll	-48
▁,	-49
▁l	-50
▁re	-51
▁n	-52
ve	-53
▁S	-54
ment	-55
▁e	-56
id	-57
ation	-58
▁are	-59
▁A	-60
▁that	-61
ra	-62
us	-63
▁g	-64
▁for	-65
▁or	-66
ow	-67
▁C	-68
ly	-69
ot	-70
os	-71
▁st	-72
▁wh	-73
od	-74
▁I	-75
▁com	-76
▁on	-77
ay	-78
▁can	-79
et	-80
▁-	-81
ol	-82
ri	-83
▁The	-84
il	-85
ut	-86
▁pro	-87
mp	-88
ur	-89
▁y	-90
ch	-91
ce	-92
st	-93
ver	-94
▁comp	-95
if	-96
▁an	-97
▁ha	-98
▁it	-99
▁you	-100
▁as	-101
her	-102
ig	-103
um	-104
▁se	-105
ul	-106
reat	-107
ith	-108
▁we	-109
▁u	-110
ate	-111
▁N	-112
▁con	-113
ad	-114
▁with	-115
▁P	-116
▁by	-117
▁have	-118
ir	-119
ist	-120
ers	-121
pe	-122
rom	-123
ical	-124
▁ch	-125
ich	-126
am	-127
▁D	-128
res	-129
art	-130
▁this	-131
ction	-132
em	-133
reatment	-134
▁al	-135
▁which	-136
▁ex	-137
im	-138
ies	-139
se	-140
ill	-141
▁sh	-142
▁R	-143
▁compan	-144
ter	-145
ag	-146
▁So	-147
▁he	-148
ell	-149
cer	-150
▁us	-151
qu	-152
nt	-153
▁su	-154
▁de	-155
ak	-156
lo	-157
est	-158
ther	-159
▁treatment	-160
ru	-161
ive	-162
▁M	-163
▁ne	-164
ain	-165
▁cell	-166
rap	-167
fe	-168
▁at	-169
▁not	-170
▁G	-171
ure	-172
ble	-173
ant	-174
▁B	-175
▁(	-176
▁has	-177
iv	-178
▁mo	-179
▁from	-180
▁may	-181
ud	-182
▁company	-183
te	-184
▁cancer	-185
▁cl	-186
ac	-187
▁v	-188
so	-189
▁L	-190
and	-191
▁W	-192
▁will	-193
all	-194
rapy	-195
▁2	-196
▁tri	-197
▁1	-198
▁H	-199
ess	-200
▁ac	-201
ase	-202
pp	-203
ide	-204
▁one	-205
ity	-206
▁F	-207
un	-208
ue	-209
▁whe	-210
ire	-211
▁le	-212
▁ab	-213
ymp	-214
ors	-215
▁O	-216
▁part	-217
▁also	-218
▁E	-219
ran	-220
▁trial	-221
th	-222
nder	-223
ine	-224
end	-225
rou	-226
ial	-227
▁other	-228
pt	-229
▁li	-230
ort	-231
ild	-232
out	-233
gh	-234
oma	-235
inical	-236
ld	-237
▁tw	-238
00	-239
ose	-240
ard	-241
hem	-242
▁)	-243
▁In	-244
ymph	-245
▁cells	-246
▁under	-247
are	-248
ary	-249
igh	-250
imp	-251
▁do	-252
orm	-253
▁k	-254
▁ty	-255
▁Th	-256
one	-257
▁there	-258
over	-259
▁clinical	-260
▁tum	-261
▁pl	-262
ents	-263
▁they	-264
ind	-265
▁if	-266
▁two	-267
▁:	-268
ome	-269
▁so	-270
ge	-271
▁dis	-272
▁all	-273
▁about	-274
ated	-275
▁int	-276
▁inc	-277
og	-278
▁imp	-279
▁trials	-280
▁been	-281
▁lymph	-282
ab	-283
age	-284
ond	-285
fere	-286
op	-287
ions	-288
ree	-289
▁fo	-290
▁res	-291
rad	-292
ts	-293
▁therapy	-294
▁sp	-295
very	-296
▁up	-297
▁me	-298
aus	-299
▁form	-300
▁tak	-301
ia	-302
our	-303
ance	-304
red	-305
ib	-306
▁bet	-307
ip	-308
overn	-309
ual	-310
uc	-311
ign	-312
ous	-313
ap	-314
iss	-315
ati	-316
act	-317
▁dif	-318
▁these	-319
▁act	-320
ould	-321
▁ad	-322
ruct	-323
▁child	-324
iz	-325
▁what	-326
▁call	-327
irect	-328
llow	-329
ody	-330
ect	-331
▁r	-332
rain	-333
ks	-334
ast	-335
ric	-336
▁am	-337
form	-338
▁blo	-339
ep	-340
▁used	-341
iation	-342
ert	-343
rans	-344
▁St	-345
lic	-346
▁more	-347
ause	-348
ener	-349
ost	-350
▁af	-351
overnment	-352
ood	-353
▁differe	-354
▁cont	-355
amp	-356
▁sy	-357
▁follow	-358
▁into	-359
▁lo	-360
li	-361
▁wor	-362
▁called	-363
ition	-364
ore	-365
ear	-366
▁proc	-367
▁bas	-368
▁And	-369
▁app	-370
▁test	-371
ult	-372
ens	-373
▁This	-374
othe	-375
▁tumor	-376
▁Now	-377
ass	-378
▁was	-379
able	-380
▁bec	-381
▁trans	-382
▁prote	-383
ach	-384
▁who	-385
▁sc	-386
cy	-387
ke	-388
▁sub	-389
▁out	-390
fect	-391
▁any	-392
ub	-393
old	-394
▁per	-395
▁Com	-396
▁blood	-397
▁giv	-398
▁Government	-399
▁rad	-400
▁prov	-401
atients	-402
ec	-403
▁see	-404
▁such	-405
▁struct	-406
▁rem	-407
ations	-408
▁where	-409
otherapy	-410
▁direct	-411
▁pre	-412
▁share	-413
▁reg	-414
el	-415
int	-416
▁body	-417
ack	-418
irst	-419
row	-420
▁acid	-421
▁different	-422
▁spe	-423
ry	-424
cur	-425
ck	-426
inal	-427
▁very	-428
▁It	-429
▁when	-430
ber	-431
kay	-432
ular	-433
yd	-434
ust	-435
ample	-436
formation	-437
stem	-438
▁chem	-439
▁K	-440
cial	-441
ite	-442
ount	-443
▁three	-444
lud	-445
fic	-446
ger	-447
ities	-448
rough	-449
ail	-450
▁year	-451
▁Rs	-452
▁ro	-453
▁Act	-454
ok	-455
ph	-456
▁type	-457
amil	-458
▁then	-459
▁protein	-460
▁their	-461
▁man	-462
▁than	-463
▁state	-464
▁new	-465
por	-466
read	-467
▁ag	-468
▁exp	-469
erv	-470
▁like	-471
ject	-472
ures	-473
▁ri	-474
▁3	-475
▁Ch	-476
ution	-477
ific	-478
ays	-479
▁includ	-480
▁typ	-481
▁how	-482
hood	-483
▁mod	-484
▁un	-485
▁U	-486
▁given	-487
ven	-488
▁go	-489
▁200	-490
▁case	-491
ame	-492
ight	-493
▁stud	-494
▁through	-495
▁but	-496
ord	-497
ang	-498
▁Tamil	-499
▁iss	-500
▁brain	-501
uring	-502
▁being	-503
▁rep	-504
▁pos	-505
01	-506
erm	-507
▁fun	-508
du	-509
orpor	-510
ence	-511
ace	-512
▁first	-513
▁types	-514
▁radiation	-515
▁system	-516
▁some	-517
ty	-518
ater	-519
▁import	-520
▁done	-521
▁tim	-522
▁ef	-523
▁en	-524
eth	-525
lec	-526
rib	-527
▁sol	-528
ule	-529
▁Ind	-530
▁tiss	-531
▁following	-532
▁righ	-533
arch	-534
▁j	-535
lect	-536
▁mem	-537
▁lymphoma	-538
oint	-539
ually	-540
now	-541
kin	-542
ments	-543
▁companies	-544
▁qu	-545
▁function	-546
▁ph	-547
uk	-548
▁There	-549
hold	-550
▁after	-551
▁because	-552
erson	-553
hen	-554
ren	-555
ydro	-556
▁ant	-557
▁An	-558
▁only	-559
ved	-560
▁inter	-561
ew	-562
▁important	-563
ings	-564
ound	-565
▁know	-566
resent	-567
▁chemotherapy	-568
▁should	-569
een	-570
▁inv	-571
ublic	-572
▁need	-573
ory	-574
▁mak	-575
xt	-576
▁sur	-577
rug	-578
▁molec	-579
ates	-580
ram	-581
▁time	-582
▁hydro	-583
fer	-584
les	-585
▁its	-586
▁te	-587
gan	-588
▁them	-589
ied	-590
ious	-591
▁effect	-592
▁car	-593
ces	-594
▁disc	-595
▁For	-596
▁get	-597
▁here	-598
agn	-599
gen	-600
▁structure	-601
ible	-602
▁val	-603
▁comple	-604
▁Treatment	-605
emia	-606
▁example	-607
andard	-608
ong	-609
▁co	-610
▁ob	-611
ving	-612
▁Wh	-613
▁rec	-614
ules	-615
▁requ	-616
▁num	-617
▁tumors	-618
▁sharehold	-619
▁5	-620
ros	-621
fore	-622
▁patients	-623
▁Comp	-624
▁bond	-625
▁drug	-626
▁im	-627
eneral	-628
▁look	-629
▁hel	-630
▁person	-631
▁dep	-632
ween	-633
▁show	-634
▁between	-635
get	-636
▁remo	-637
olog	-638
▁information	-639
▁di	-640
▁201	-641
ukemia	-642
adu	-643
arc	-644
▁comm	-645
▁partic	-646
gery	-647
ted	-648
▁number	-649
ides	-650
ertain	-651
▁det	-652
▁back	-653
▁section	-654
pect	-655
ice	-656
ative	-657
▁spread	-658
entr	-659
ically	-660
ress	-661
ues	-662
▁process	-663
cept	-664
▁grou	-665
▁during	-666
▁ar	-667
▁cap	-668
▁prop	-669
ink	-670
▁treatments	-671
▁mean	-672
▁now	-673
▁bo	-674
▁4	-675
ade	-676
▁your	-677
▁ins	-678
▁side	-679
▁Dep	-680
▁help	-681
cho	-682
ided	-683
▁che	-684
▁cons	-685
▁memb	-686
▁include	-687
action	-688
▁ord	-689
ye	-690
ases	-691
▁fact	-692
▁take	-693
▁tissue	-694
▁rel	-695
▁made	-696
▁right	-697
▁nod	-698
▁sha	-699
▁tests	-700
▁We	-701
▁These	-702
alk	-703
▁ind	-704
▁mar	-705
istric	-706
▁V	-707
ath	-708
▁acc	-709
chool	-710
▁min	-711
▁mon	-712
▁organ	-713
oms	-714
ower	-715
▁find	-716
▁were	-717
arcoma	-718
▁standard	-719
ile	-720
▁Re	-721
▁proced	-722
▁prog	-723
ft	-724
▁require	-725
ute	-726
ix	-727
velo	-728
▁non	-729
▁sign	-730
ital	-731
ility	-732
▁Nadu	-733
nce	-734
▁dise	-735
▁India	-736
▁way	-737
▁grow	-738
▁group	-739
uss	-740
▁pri	-741
▁four	-742
duc	-743
▁As	-744
▁works	-745
▁okay	-746
artment	-747
osed	-748
▁gl	-749
▁lip	-750
▁dec	-751
ise	-752
▁ent	-753
▁discuss	-754
▁19	-755
▁des	-756
▁treat	-757
▁Se	-758
ef	-759
▁start	-760
▁'	-761
▁sec	-762
▁shares	-763
▁shareholders	-764
▁same	-765
velop	-766
▁Compan	-767
▁many	-768
▁Y	-769
▁av	-770
▁children	-771
heme	-772
▁som	-773
ob	-774
yl	-775
blem	-776
odg	-777
ward	-778
▁col	-779
▁problem	-780
aw	-781
▁Pro	-782
▁term	-783
odgkin	-784
▁If	-785
ission	-786
▁subst	-787
▁using	-788
▁childhood	-789
▁issue	-790
hed	-791
▁certain	-792
ons	-793
und	-794
▁Okay	-795
ange	-796
▁class	-797
▁well	-798
isk	-799
ural	-800
▁What	-801
orporate	-802
vel	-803
▁every	-804
▁taken	-805
cyt	-806
rent	-807
▁directors	-808
▁particular	-809
▁diagn	-810
▁public	-811
▁pic	-812
▁var	-813
▁ass	-814
▁end	-815
▁spec	-816
▁again	-817
ision	-818
mary	-819
other	-820
entral	-821
▁Child	-822
▁value	-823
its	-824
▁rece	-825
▁underst	-826
ids	-827
▁State	-828
▁work	-829
▁based	-830
av	-831
▁move	-832
ino	-833
▁search	-834
▁cro	-835
▁module	-836
▁bi	-837
▁no	-838
▁sm	-839
ning	-840
stit	-841
▁fe	-842
▁amount	-843
itor	-844
▁list	-845
▁disease	-846
▁NC	-847
▁Sec	-848
ys	-849
ational	-850
▁before	-851
▁better	-852
▁does	-853
▁poss	-854
ating	-855
▁those	-856
▁Ad	-857
iness	-858
▁want	-859
inding	-860
▁leukemia	-861
▁risk	-862
▁?	-863
▁imm	-864
ormal	-865
lement	-866
▁avail	-867
▁invest	-868
ature	-869
▁actually	-870
▁Department	-871
▁/	-872
▁add	-873
val	-874
▁High	-875
▁most	-876
▁Distric	-877
arget	-878
▁inte	-879
▁capital	-880
rid	-881
usiness	-882
▁ma	-883
arge	-884
▁going	-885
▁would	-886
▁Patients	-887
tern	-888
▁att	-889
▁high	-890
▁years	-891
air	-892
vent	-893
inist	-894
▁road	-895
ten	-896
bin	-897
▁carb	-898
▁make	-899
▁acids	-900
▁secur	-901
▁po	-902
ized	-903
▁represent	-904
▁meth	-905
oth	-906
▁procedure	-907
▁bu	-908
▁available	-909
▁understand	-910
▁pe	-911
ai	-912
sel	-913
▁cost	-914
oc	-915
▁business	-916
ances	-917
▁come	-918
▁order	-919
▁small	-920
me	-921
▁just	-922
▁meet	-923
▁check	-924
▁fl	-925
▁def	-926
▁use	-927
▁incre	-928
▁place	-929
par	-930
▁over	-931
▁thing	-932
ract	-933
▁second	-934
▁6	-935
▁2009	-936
▁five	-937
▁main	-938
▁Companies	-939
duct	-940
▁sum	-941
▁Some	-942
▁stem	-943
▁water	-944
aid	-945
ron	-946
▁taking	-947
▁equ	-948
▁cann	-949
▁each	-950
urther	-951
▁ext	-952
▁basically	-953
ank	-954
▁But	-955
ults	-956
▁aud	-957
▁antib	-958
▁Sc	-959
▁NCI	-960
▁amino	-961
edi	-962
▁ru	-963
▁next	-964
▁possible	-965
oid	-966
▁surgery	-967
▁Ex	-968
▁cur	-969
gy	-970
chools	-971
▁Cl	-972
▁regul	-973
ited	-974
round	-975
NS	-976
last	-977
▁anal	-978
▁cond	-979
▁fat	-980
▁gen	-981
▁prom	-982
▁supp	-983
▁thir	-984
▁parts	-985
▁transp	-986
lyc	-987
ages	-988
▁op	-989
hip	-990
olar	-991
tain	-992
▁various	-993
io	-994
ize	-995
uch	-996
▁beta	-997
▁talk	-998
▁special	-999
isions	-1000
▁point	-1001
▁kind	-1002
▁found	-1003
▁spinal	-1004
▁Childhood	-1005
▁gluc	-1006
▁rese	-1007
▁pur	-1008
als	-1009
▁drugs	-1010
crib	-1011
ffic	-1012
ension	-1013
rest	-1014
ething	-1015
▁another	-1016
▁District	-1017
▁corporate	-1018
▁securities	-1019
▁You	-1020
▁acqu	-1021
▁uses	-1022
▁Le	-1023
osis	-1024
toms	-1025
▁crores	-1026
gth	-1027
rol	-1028
ident	-1029
▁seen	-1030
▁Lymph	-1031
▁elect	-1032
▁depend	-1033
ymptoms	-1034
▁something	-1035
▁cord	-1036
bs	-1037
ish	-1038
▁let	-1039
▁Comm	-1040
▁means	-1041
▁En	-1042
▁opt	-1043
▁J	-1044
omas	-1045
▁offic	-1046
▁stage	-1047
▁II	-1048
alth	-1049
▁When	-1050
▁required	-1051
▁specific	-1052
▁chang	-1053
▁normal	-1054
hes	-1055
rit	-1056
▁promot	-1057
velopment	-1058
▁symptoms	-1059
ting	-1060
itions	-1061
ne	-1062
ified	-1063
ctor	-1064
etic	-1065
▁less	-1066
▁scheme	-1067
▁General	-1068
▁molecule	-1069
▁proteins	-1070
▁molecules	-1071
▁rest	-1072
▁impro	-1073
▁bone	-1074
▁path	-1075
▁general	-1076
▁present	-1077
▁interest	-1078
▁appoint	-1079
wn	-1080
xy	-1081
▁my	-1082
▁six	-1083
▁cannot	-1084
chn	-1085
low	-1086
raph	-1087
▁est	-1088
▁method	-1089
▁lear	-1090
▁within	-1091
▁current	-1092
ops	-1093
pha	-1094
▁div	-1095
▁cour	-1096
▁comput	-1097
▁7	-1098
▁appro	-1099
▁affect	-1100
▁z	-1101
urn	-1102
▁Man	-1103
▁plan	-1104
▁board	-1105
▁sug	-1106
AR	-1107
▁He	-1108
▁interaction	-1109
▁issu	-1110
argeted	-1111
▁exam	-1112
▁pict	-1113
▁nodes	-1114
ges	-1115
▁ear	-1116
▁emp	-1117
atory	-1118
▁near	-1119
▁ener	-1120
▁hand	-1121
▁both	-1122
▁signs	-1123
olution	-1124
▁contin	-1125
▁glucose	-1126
ves	-1127
atic	-1128
ased	-1129
▁had	-1130
▁shall	-1131
gin	-1132
igher	-1133
▁fatty	-1134
▁level	-1135
co	-1136
ian	-1137
ilar	-1138
▁How	-1139
▁ret	-1140
▁exist	-1141
▁immun	-1142
agement	-1143
▁membran	-1144
▁usually	-1145
imilar	-1146
▁health	-1147
▁sample	-1148
▁areas	-1149
vers	-1150
▁sequ	-1151
ention	-1152
▁chrom	-1153
▁research	-1154
▁fin	-1155
▁glyc	-1156
▁Second	-1157
ero	-1158
▁ra	-1159
▁energy	-1160
▁solution	-1161
▁10	-1162
ains	-1163
▁cle	-1164
▁They	-1165
▁phase	-1166
▁effects	-1167
000	-1168
▁cent	-1169
▁recur	-1170
▁further	-1171
ie	-1172
iew	-1173
ove	-1174
ograph	-1175
▁alpha	-1176
▁sarcoma	-1177
▁De	-1178
oles	-1179
▁mic	-1180
▁results	-1181
▁flu	-1182
ready	-1183
▁poly	-1184
▁serv	-1185
▁already	-1186
▁hydrogen	-1187
▁0	-1188
iod	-1189
▁len	-1190
ancer	-1191
▁object	-1192
tal	-1193
ways	-1194
▁wee	-1195
▁month	-1196
▁oc	-1197
ered	-1198
▁Sur	-1199
ization	-1200
hib	-1201
▁el	-1202
▁mat	-1203
▁brid	-1204
up	-1205
ancial	-1206
▁whether	-1207
ices	-1208
▁students	-1209
▁length	-1210
led	-1211
soc	-1212
itors	-1213
ority	-1214
▁change	-1215
ism	-1216
istic	-1217
▁dist	-1218
▁having	-1219
▁director	-1220
▁Bo	-1221
▁Un	-1222
▁inf	-1223
ability	-1224
imum	-1225
▁why	-1226
ither	-1227
▁action	-1228
akh	-1229
▁cy	-1230
▁say	-1231
▁simp	-1232
▁bonds	-1233
▁around	-1234
▁loc	-1235
▁Then	-1236
▁period	-1237
▁members	-1238
ocyt	-1239
▁Educ	-1240
▁much	-1241
▁name	-1242
▁power	-1243
dom	-1244
▁link	-1245
▁activ	-1246
▁conduct	-1247
ived	-1248
▁sto	-1249
▁separ	-1250
▁See	-1251
▁red	-1252
bsite	-1253
ional	-1254
vious	-1255
▁forms	-1256
▁structures	-1257
▁AI	-1258
▁Whe	-1259
▁set	-1260
▁good	-1261
▁skin	-1262
▁cause	-1263
▁third	-1264
▁Direct	-1265
▁Public	-1266
▁marrow	-1267
▁improve	-1268
ES	-1269
ick	-1270
▁Ac	-1271
▁ke	-1272
cess	-1273
stru	-1274
ily	-1275
aging	-1276
▁regist	-1277
▁deb	-1278
▁Offic	-1279
▁either	-1280
▁detail	-1281
rade	-1282
Hodgkin	-1283
▁carbon	-1284
▁hem	-1285
▁control	-1286
▁program	-1287
▁studied	-1288
tc	-1289
ull	-1290
▁law	-1291
▁best	-1292
minist	-1293
▁large	-1294
▁shown	-1295
▁techn	-1296
▁think	-1297
▁financial	-1298
▁ep	-1299
abor	-1300
ucle	-1301
▁land	-1302
▁gener	-1303
▁resid	-1304
ript	-1305
▁far	-1306
▁ser	-1307
▁Chem	-1308
▁zero	-1309
▁doctor	-1310
▁provided	-1311
orporation	-1312
▁To	-1313
ient	-1314
▁Con	-1315
▁plac	-1316
▁implement	-1317
▁ben	-1318
isition	-1319
▁lipids	-1320
omes	-1321
▁dom	-1322
▁adult	-1323
▁remove	-1324
▁website	-1325
▁things	-1326
▁caus	-1327
▁give	-1328
▁cases	-1329
▁Central	-1330
▁account	-1331
▁removed	-1332
ym	-1333
▁X	-1334
▁Pl	-1335
▁Te	-1336
▁ap	-1337
ator	-1338
char	-1339
▁tra	-1340
itive	-1341
▁lakh	-1342
ug	-1343
▁don	-1344
▁node	-1345
lastic	-1346
▁Schools	-1347
itte	-1348
▁del	-1349
▁begin	-1350
ines	-1351
▁lead	-1352
▁allow	-1353
▁occur	-1354
▁applic	-1355
own	-1356
cent	-1357
yelo	-1358
▁prof	-1359
▁week	-1360
▁total	-1361
▁rights	-1362
▁tissues	-1363
▁without	-1364
ring	-1365
tion	-1366
▁That	-1367
▁8	-1368
▁–	-1369
hab	-1370
▁she	-1371
gor	-1372
▁Km	-1373
▁Ro	-1374
ness	-1375
aries	-1376
▁2010	-1377
▁changes	-1378
atient	-1379
raining	-1380
▁treated	-1381
AT	-1382
uth	-1383
▁Rad	-1384
▁char	-1385
acchar	-1386
▁Hodgkin	-1387
▁computer	-1388
duce	-1389
etim	-1390
▁CNS	-1391
▁his	-1392
▁happ	-1393
▁rele	-1394
ography	-1395
▁patient	-1396
▁9	-1397
osph	-1398
▁ang	-1399
ER	-1400
▁Clinical	-1401
ever	-1402
ised	-1403
▁offer	-1404
▁Director	-1405
▁own	-1406
▁2013	-1407
▁mark	-1408
▁liver	-1409
▁become	-1410
ium	-1411
ives	-1412
▁pass	-1413
▁could	-1414
▁sugar	-1415
ined	-1416
ough	-1417
▁maj	-1418
▁pay	-1419
▁known	-1420
▁Surgery	-1421
put	-1422
▁15	-1423
▁etc	-1424
▁provide	-1425
by	-1426
onal	-1427
▁hist	-1428
▁Chemotherapy	-1429
-1	-1430
▁ref	-1431
ologist	-1432
▁design	-1433
▁Education	-1434
ML	-1435
ode	-1436
▁lim	-1437
▁init	-1438
▁plus	-1439
▁reas	-1440
etimes	-1441
ternal	-1442
▁emplo	-1443
▁membrane	-1444
▁New	-1445
ministr	-1446
ittee	-1447
odies	-1448
▁inhib	-1449
▁accept	-1450
▁project	-1451
▁substances	-1452
ople	-1453
▁san	-1454
▁heli	-1455
▁hold	-1456
▁kill	-1457
▁pres	-1458
▁including	-1459
▁provisions	-1460
lier	-1461
unal	-1462
▁free	-1463
▁common	-1464
▁addition	-1465
▁diagnose	-1466
▁completed	-1467
▁pr	-1468
,000	-1469
▁biops	-1470
▁enter	-1471
EB	-1472
▁Res	-1473
atures	-1474
▁fluid	-1475
▁model	-1476
ner	-1477
oks	-1478
▁Other	-1479
▁concept	-1480
▁Radiation	-1481
ced	-1482
ify	-1483
ned	-1484
oss	-1485
vate	-1486
▁invol	-1487
▁study	-1488
▁mention	-1489
▁winding	-1490
lant	-1491
oses	-1492
▁fil	-1493
acher	-1494
▁hydroph	-1495
henn	-1496
vency	-1497
▁left	-1498
▁helix	-1499
▁factors	-1500
▁related	-1501
▁cred	-1502
▁must	-1503
hennai	-1504
▁count	-1505
▁nucle	-1506
▁Leukemia	-1507
▁discussed	-1508
ayer	-1509
ptide	-1510
▁conc	-1511
▁soft	-1512
▁micros	-1513
▁transl	-1514
▁antibody	-1515
▁effective	-1516
ins	-1517
cope	-1518
▁oxy	-1519
▁mach	-1520
▁purp	-1521
▁stop	-1522
▁coming	-1523
▁report	-1524
▁central	-1525
▁complex	-1526
IO	-1527
▁Ph	-1528
uman	-1529
▁lit	-1530
▁fund	-1531
▁Under	-1532
ination	-1533
ax	-1534
▁em	-1535
▁while	-1536
olester	-1537
▁people	-1538
▁earlier	-1539
▁meeting	-1540
▁Information	-1541
ret	-1542
way	-1543
▁leg	-1544
▁opp	-1545
▁appe	-1546
▁area	-1547
▁Stage	-1548
▁compon	-1549
▁National	-1550
▁complete	-1551
▁interactions	-1552
EN	-1553
iqu	-1554
nect	-1555
▁cho	-1556
▁qual	-1557
▁minus	-1558
▁biopsy	-1559
▁acquisition	-1560
ets	-1561
▁Road	-1562
▁ways	-1563
olvency	-1564
▁Sy	-1565
▁ev	-1566
igen	-1567
ingle	-1568
thing	-1569
▁even	-1570
▁formed	-1571
▁Chennai	-1572
▁binding	-1573
▁similar	-1574
▁sanction	-1575
▁statement	-1576
hyd	-1577
itu	-1578
▁polar	-1579
▁diagnosed	-1580
/-	-1581
▁vol	-1582
▁scan	-1583
▁turn	-1584
▁often	-1585
▁sequence	-1586
ared	-1587
vant	-1588
▁Pri	-1589
▁Reg	-1590
▁doing	-1591
▁ident	-1592
▁picture	-1593
▁receive	-1594
▁conditions	-1595
ung	-1596
▁Che	-1597
▁open	-1598
▁phosph	-1599
ety	-1600
ogn	-1601
lied	-1602
olip	-1603
▁meas	-1604
▁Board	-1605
▁quest	-1606
olesterol	-1607
▁received	-1608
angu	-1609
ants	-1610
obic	-1611
▁ten	-1612
▁Serv	-1613
▁expl	-1614
▁role	-1615
▁above	-1616
▁assoc	-1617
▁oxygen	-1618
▁transplant	-1619
DS	-1620
▁rot	-1621
▁try	-1622
▁view	-1623
▁clear	-1624
▁eight	-1625
▁final	-1626
▁labor	-1627
ilities	-1628
ulation	-1629
▁issued	-1630
▁simple	-1631
ification	-1632
▁directly	-1633
▁followed	-1634
▁problems	-1635
▁resolution	-1636
ged	-1637
▁mal	-1638
▁subs	-1639
ference	-1640
▁options	-1641
▁difference	-1642
abl	-1643
▁fac	-1644
▁our	-1645
▁single	-1646
▁connect	-1647
▁features	-1648
-2	-1649
▁x	-1650
▁conver	-1651
▁months	-1652
▁continue	-1653
enty	-1654
▁down	-1655
▁once	-1656
▁resp	-1657
▁Adult	-1658
▁determ	-1659
▁obtain	-1660
▁Ass	-1661
▁fib	-1662
▁exec	-1663
change	-1664
▁below	-1665
▁higher	-1666
▁percent	-1667
struction	-1668
▁sw	-1669
▁ve	-1670
uted	-1671
▁repe	-1672
▁Cancer	-1673
▁auditor	-1674
ere	-1675
irm	-1676
▁12	-1677
▁art	-1678
▁met	-1679
ndrom	-1680
▁Trib	-1681
▁head	-1682
▁held	-1683
▁makes	-1684
▁summary	-1685
ally	-1686
▁mult	-1687
▁primary	-1688
▁propert	-1689
▁support	-1690
self	-1691
▁Ann	-1692
▁able	-1693
▁build	-1694
▁position	-1695
▁microscope	-1696
▁’	-1697
mit	-1698
per	-1699
▁sl	-1700
▁Eng	-1701
▁One	-1702
▁Tum	-1703
▁mer	-1704
ronic	-1705
spect	-1706
cribed	-1707
▁exper	-1708
▁human	-1709
▁rules	-1710
▁Indian	-1711
▁growth	-1712
▁Commission	-1713
RI	-1714
▁gu	-1715
▁outs	-1716
▁light	-1717
▁reason	-1718
LL	-1719
cu	-1720
▁Af	-1721
▁Co	-1722
ency	-1723
ithm	-1724
▁sal	-1725
▁Plan	-1726
accharides	-1727
▁lymphocyt	-1728
cip	-1729
cle	-1730
▁14	-1731
ceed	-1732
▁last	-1733
▁white	-1734
duction	-1735
▁hydrophobic	-1736
▁regulations	-1737
ump	-1738
▁fra	-1739
▁net	-1740
▁days	-1741
▁long	-1742
ential	-1743
ervous	-1744
▁creat	-1745
▁Scheme	-1746
▁domain	-1747
▁inside	-1748
▁needed	-1749
▁recogn	-1750
▁‘	-1751
umn	-1752
▁eas	-1753
atric	-1754
ished	-1755
lobin	-1756
▁port	-1757
gorithm	-1758
▁factor	-1759
▁organs	-1760
▁twenty	-1761
▁chromat	-1762
▁respect	-1763
ints	-1764
▁low	-1765
▁chain	-1766
▁govern	-1767
▁algorithm	-1768
af	-1769
▁Wor	-1770
arent	-1771
duced	-1772
usion	-1773
▁bind	-1774
▁radio	-1775
▁employe	-1776
▁appointed	-1777
▁substance	-1778
opy	-1779
▁dut	-1780
wards	-1781
▁docu	-1782
▁analy	-1783
oglobin	-1784
▁column	-1785
▁chemical	-1786
▁Development	-1787
▁cholesterol	-1788
▁development	-1789
ones	-1790
▁cal	-1791
▁keep	-1792
▁Instit	-1793
▁persons	-1794
ash	-1795
▁50	-1796
▁der	-1797
▁neg	-1798
rocyt	-1799
▁Minist	-1800
▁against	-1801
▁activities	-1802
▁antibodies	-1803
▁&	-1804
tle	-1805
▁Ne	-1806
apos	-1807
ross	-1808
iding	-1809
▁Thir	-1810
ecause	-1811
▁intro	-1812
anguage	-1813
RA	-1814
▁11	-1815
▁aff	-1816
▁max	-1817
▁top	-1818
▁surf	-1819
▁atoms	-1820
▁explo	-1821
▁lipid	-1822
uristic	-1823
▁depends	-1824
▁private	-1825
▁syndrom	-1826
▁Targeted	-1827
▁proposed	-1828
▁auth	-1829
gether	-1830
▁basis	-1831
▁Section	-1832
▁develop	-1833
▁together	-1834
omic	-1835
▁lot	-1836
▁conf	-1837
▁inst	-1838
▁lower	-1839
▁chance	-1840
▁course	-1841
▁Because	-1842
▁increase	-1843
▁transfer	-1844
▁heuristic	-1845
oph	-1846
▁Al	-1847
▁Po	-1848
ider	-1849
ogen	-1850
▁Cro	-1851
▁deal	-1852
▁Check	-1853
ertific	-1854
▁establ	-1855
▁machine	-1856
▁laboratory	-1857
IS	-1858
ION	-1859
ful	-1860
▁wr	-1861
▁due	-1862
ended	-1863
amples	-1864
ignant	-1865
▁roads	-1866
▁combin	-1867
▁tested	-1868
▁condition	-1869
airs	-1870
▁ann	-1871
▁liqu	-1872
▁size	-1873
▁Kapos	-1874
▁among	-1875
▁benef	-1876
▁block	-1877
▁comes	-1878
▁space	-1879
▁Tumors	-1880
▁previous	-1881
ibr	-1882
▁CS	-1883
▁mus	-1884
▁read	-1885
pecial	-1886
▁First	-1887
▁grade	-1888
▁linked	-1889
▁outside	-1890
acter	-1891
ember	-1892
ening	-1893
▁pick	-1894
▁temp	-1895
▁plate	-1896
osarcoma	-1897
day	-1898
▁rev	-1899
epend	-1900
veral	-1901
▁code	-1902
▁debt	-1903
▁prob	-1904
▁basic	-1905
▁major	-1906
▁accord	-1907
▁reduce	-1908
▁Whether	-1909
▁collect	-1910
▁progress	-1911
▁insolvency	-1912
man	-1913
▁gr	-1914
▁pow	-1915
▁Talk	-1916
▁paid	-1917
▁said	-1918
▁actin	-1919
▁System	-1920
▁liquid	-1921
▁making	-1922
ological	-1923
▁location	-1924
▁reaction	-1925
▁targeted	-1926
▁conducted	-1927
▁functions	-1928
ief	-1929
▁ves	-1930
▁date	-1931
▁play	-1932
▁upon	-1933
strocyt	-1934
▁Kaposi	-1935
▁surface	-1936
▁Tribunal	-1937
▁starting	-1938
ata	-1939
▁AML	-1940
icles	-1941
▁lung	-1942
▁getting	-1943
▁compound	-1944
▁government	-1945
AN	-1946
ners	-1947
▁ALL	-1948
▁few	-1949
▁str	-1950
hemes	-1951
ology	-1952
▁Cour	-1953
achers	-1954
▁apply	-1955
▁groups	-1956
▁inject	-1957
▁powers	-1958
▁regard	-1959
▁growing	-1960
▁functioning	-1961
▁representation	-1962
▁rule	-1963
▁indic	-1964
▁assist	-1965
▁market	-1966
▁Lymphoma	-1967
▁mentioned	-1968
sw	-1969
-10	-1970
ake	-1971
arm	-1972
▁dou	-1973
venue	-1974
active	-1975
ration	-1976
▁lakhs	-1977
▁concer	-1978
▁remain	-1979
▁becomes	-1980
▁constit	-1981
▁existing	-1982
▁employees	-1983
▁sometimes	-1984
▁;	-1985
chan	-1986
▁deg	-1987
▁bridge	-1988
▁immune	-1989
▁multip	-1990
▁placed	-1991
▁vessel	-1992
▁contain	-1993
amin	-1994
eter	-1995
ince	-1996
omer	-1997
▁III	-1998
▁dra	-1999
ience	-2000
overy	-2001
▁After	-2002
▁units	-2003
ibility	-2004
▁bridges	-2005
▁syndrome	-2006
▁Secondary	-2007
▁management	-2008
▁lymphocytes	-2009
hi	-2010
ane	-2011
rif	-2012
▁30	-2013
nosis	-2014
range	-2015
▁calc	-2016
▁care	-2017
▁situ	-2018
▁carbo	-2019
▁terms	-2020
erature	-2021
▁minimum	-2022
▁Highways	-2023
▁exchange	-2024
▁techniqu	-2025
unt	-2026
▁says	-2027
▁great	-2028
▁whose	-2029
artments	-2030
▁positive	-2031
▁prognosis	-2032
ministrative	-2033
..	-2034
att	-2035
idd	-2036
▁20	-2037
ists	-2038
▁agg	-2039
▁got	-2040
▁Prog	-2041
▁answ	-2042
▁rare	-2043
aterial	-2044
▁double	-2045
▁little	-2046
▁several	-2047
II	-2048
con	-2049
▁buy	-2050
▁fig	-2051
ledge	-2052
▁dose	-2053
▁hund	-2054
▁pric	-2055
▁Assist	-2056
▁nearby	-2057
▁listing	-2058
▁fif	-2059
utive	-2060
▁AIDS	-2061
▁reach	-2062
▁charge	-2063
▁checked	-2064
▁forward	-2065
▁hundred	-2066
▁initial	-2067
▁injected	-2068
OR	-2069
▁PD	-2070
▁Let	-2071
▁Libr	-2072
▁bank	-2073
fection	-2074
▁residues	-2075
▁structural	-2076
▁application	-2077
ENT	-2078
rie	-2079
▁13	-2080
ield	-2081
▁All	-2082
▁Non	-2083
onment	-2084
yeloid	-2085
▁active	-2086
▁mechan	-2087
▁2009-10	-2088
▁distric	-2089
▁methods	-2090
▁towards	-2091
▁terminal	-2092
▁promoters	-2093
▁supported	-2094
yp	-2095
▁Me	-2096
ably	-2097
▁unit	-2098
▁necess	-2099
▁refine	-2100
▁schools	-2101
▁recovery	-2102
▁committee	-2103
▁infection	-2104
▁Management	-2105
aj	-2106
ray	-2107
▁Ke	-2108
gest	-2109
▁off	-2110
▁loss	-2111
▁magn	-2112
▁writ	-2113
isting	-2114
utions	-2115
▁detect	-2116
▁concentr	-2117
▁provides	-2118
▁procedures	-2119
▁shareholder	-2120
de	-2121
ery	-2122
▁No	-2123
▁age	-2124
ivers	-2125
lycer	-2126
▁atom	-2127
▁base	-2128
▁stat	-2129
▁agree	-2130
▁itself	-2131
▁script	-2132
▁country	-2133
▁subject	-2134
▁working	-2135
▁prospect	-2136
omm	-2137
uro	-2138
vir	-2139
xyl	-2140
▁ed	-2141
ereb	-2142
ured	-2143
▁cor	-2144
▁enc	-2145
▁Bank	-2146
▁Chief	-2147
▁abdom	-2148
▁bound	-2149
▁forth	-2150
▁later	-2151
▁During	-2152
▁caused	-2153
oblastic	-2154
▁pension	-2155
▁learning	-2156
▁formation	-2157
▁knowledge	-2158
▁therefore	-2159
sor	-2160
wor	-2161
▁bl	-2162
iary	-2163
ries	-2164
rote	-2165
▁Law	-2166
▁par	-2167
ached	-2168
incip	-2169
▁oper	-2170
▁rhab	-2171
▁step	-2172
▁quite	-2173
▁answer	-2174
▁hemang	-2175
▁vessels	-2176
▁involved	-2177
▁material	-2178
▁18	-2179
▁25	-2180
▁Col	-2181
▁dem	-2182
lonal	-2183
▁synt	-2184
▁vein	-2185
▁along	-2186
▁polype	-2187
▁chromos	-2188
▁spreads	-2189
▁Standard	-2190
▁provision	-2191
go	-2192
EBI	-2193
anc	-2194
▁sa	-2195
igns	-2196
cript	-2197
▁SEBI	-2198
▁mass	-2199
ysical	-2200
▁office	-2201
▁independ	-2202
▁maintain	-2203
▁accepting	-2204
▁transport	-2205
omen	-2206
▁Mon	-2207
atural	-2208
▁estim	-2209
ertificate	-2210
▁generally	-2211
ET	-2212
▁CD	-2213
▁Or	-2214
olic	-2215
▁Opt	-2216
▁vot	-2217
acity	-2218
iated	-2219
▁fore	-2220
▁figure	-2221
▁states	-2222
▁abdomen	-2223
▁follows	-2224
▁meetings	-2225
▁negative	-2226
▁investors	-2227
mer	-2228
▁Min	-2229
▁Ram	-2230
aving	-2231
cular	-2232
lioma	-2233
▁site	-2234
▁nature	-2235
▁result	-2236
▁Program	-2237
▁contrib	-2238
▁governance	-2239
az	-2240
imb	-2241
ulf	-2242
▁199	-2243
▁bre	-2244
▁ion	-2245
▁lin	-2246
ately	-2247
▁slow	-2248
▁word	-2249
ensity	-2250
uation	-2251
▁audit	-2252
▁const	-2253
▁kinds	-2254
▁purpose	-2255
yosarcoma	-2256
▁training	-2257
ov	-2258
lex	-2259
ires	-2260
ivid	-2261
less	-2262
ters	-2263
▁App	-2264
▁fut	-2265
▁lif	-2266
idered	-2267
oprote	-2268
▁Court	-2269
▁layer	-2270
igation	-2271
itation	-2272
oclonal	-2273
▁electr	-2274
▁parent	-2275
▁target	-2276
▁divided	-2277
▁services	-2278
▁creditors	-2279
▁considered	-2280
▁sanctioned	-2281
▁Directorate	-2282
▁radioactive	-2283
▁conformation	-2284
atur	-2285
ense	-2286
▁Rec	-2287
▁mut	-2288
▁run	-2289
▁2008	-2290
▁Here	-2291
▁line	-2292
▁grant	-2293
▁appear	-2294
▁volunt	-2295
▁Certain	-2296
▁Revenue	-2297
▁allowed	-2298
▁respons	-2299
ng	-2300
ss	-2301
erc	-2302
uram	-2303
▁tom	-2304
▁Land	-2305
▁bran	-2306
▁force	-2307
isation	-2308
▁talking	-2309
▁independent	-2310
IC	-2311
▁“	-2312
ari	-2313
tak	-2314
-201	-2315
pees	-2316
roll	-2317
teen	-2318
istry	-2319
▁goal	-2320
imited	-2321
▁books	-2322
▁court	-2323
▁equal	-2324
▁input	-2325
▁slide	-2326
▁future	-2327
▁listed	-2328
▁centrif	-2329
▁contract	-2330
▁detailed	-2331
▁language	-2332
domyosarcoma	-2333
▁association	-2334
IN	-2335
reg	-2336
▁Sub	-2337
▁med	-2338
ising	-2339
ollow	-2340
omers	-2341
▁cereb	-2342
▁legal	-2343
▁moves	-2344
▁table	-2345
▁instit	-2346
▁Company	-2347
▁nervous	-2348
▁quality	-2349
▁Minister	-2350
▁identify	-2351
▁Corporate	-2352
▁tomography	-2353
cal	-2354
▁On	-2355
MENT	-2356
erat	-2357
▁Key	-2358
▁firm	-2359
▁learn	-2360
ividual	-2361
▁School	-2362
▁Pension	-2363
▁Project	-2364
▁proceed	-2365
▁astrocyt	-2366
▁malignant	-2367
▁mechanism	-2368
▁hemoglobin	-2369
▁translation	-2370
cl	-2371
hing	-2372
iety	-2373
oney	-2374
▁day	-2375
amily	-2376
ulated	-2377
▁Acute	-2378
▁defin	-2379
lection	-2380
▁Higher	-2381
▁Points	-2382
▁giving	-2383
▁networ	-2384
▁passed	-2385
cription	-2386
▁antigen	-2387
▁foreign	-2388
▁removal	-2389
▁pictures	-2390
ma	-2391
nel	-2392
ream	-2393
utes	-2394
▁2006	-2395
ferred	-2396
▁Where	-2397
▁acute	-2398
▁stock	-2399
▁today	-2400
▁describ	-2401
▁studies	-2402
▁phospholip	-2403
ave	-2404
ole	-2405
ton	-2406
▁21	-2407
▁ens	-2408
▁old	-2409
▁data	-2410
▁full	-2411
▁gene	-2412
▁tell	-2413
▁Elect	-2414
▁Signs	-2415
▁price	-2416
▁whole	-2417
▁expert	-2418
▁rupees	-2419
irection	-2420
▁Options	-2421
vironment	-2422
▁document	-2423
▁components	-2424
▁prospectus	-2425
▁chromatography	-2426
),	-2427
▁i	-2428
ests	-2429
ioma	-2430
line	-2431
most	-2432
▁Tir	-2433
▁asp	-2434
▁emb	-2435
▁enz	-2436
▁Even	-2437
▁exerc	-2438
▁genes	-2439
▁money	-2440
▁Secret	-2441
▁genetic	-2442
▁history	-2443
▁holding	-2444
▁maximum	-2445
▁capacity	-2446
▁increases	-2447
▁inhibitor	-2448
▁necessary	-2449
▁additional	-2450
▁individual	-2451
uv	-2452
emb	-2453
lig	-2454
▁OF	-2455
▁ess	-2456
ently	-2457
▁safe	-2458
▁Having	-2459
▁Officers	-2460
▁consider	-2461
▁implemented	-2462
▁temperature	-2463
▁Q	-2464
▁Ag	-2465
atch	-2466
athe	-2467
ired	-2468
ises	-2469
rate	-2470
▁195	-2471
▁cir	-2472
▁Port	-2473
▁Trans	-2474
▁orders	-2475
▁Primary	-2476
▁Univers	-2477
▁service	-2478
▁solvent	-2479
▁Training	-2480
▁Programme	-2481
▁direction	-2482
▁questions	-2483
CT	-2484
ral	-2485
upp	-2486
chie	-2487
eting	-2488
pinal	-2489
▁Part	-2490
▁repl	-2491
▁carry	-2492
▁always	-2493
▁recomm	-2494
aturated	-2495
▁defined	-2496
▁residue	-2497
▁examples	-2498
▁takeover	-2499
▁Institute	-2500
▁relations	-2501
rop	-2502
aves	-2503
ixed	-2504
▁PDQ	-2505
inary	-2506
▁life	-2507
▁Class	-2508
▁antic	-2509
▁travel	-2510
▁measure	-2511
▁princip	-2512
▁schemes	-2513
▁synthes	-2514
▁approval	-2515
▁liability	-2516
▁voluntary	-2517
ats	-2518
▁Bi	-2519
come	-2520
▁him	-2521
▁ide	-2522
▁crit	-2523
atever	-2524
oblast	-2525
▁Power	-2526
▁exact	-2527
▁seven	-2528
▁short	-2529
▁super	-2530
▁write	-2531
▁needle	-2532
▁However	-2533
▁Service	-2534
▁Similar	-2535
▁partners	-2536
▁probably	-2537
▁repeated	-2538
▁treating	-2539
▁agreement	-2540
▁assistance	-2541
lor	-2542
▁16	-2543
▁Ap	-2544
rast	-2545
rupt	-2546
▁Any	-2547
▁pap	-2548
andum	-2549
▁educ	-2550
▁else	-2551
▁tend	-2552
▁gives	-2553
orandum	-2554
▁Engine	-2555
▁Regist	-2556
▁causes	-2557
▁Special	-2558
▁natural	-2559
▁product	-2560
▁protect	-2561
▁station	-2562
▁personal	-2563
▁concerned	-2564
▁concentration	-2565
enc	-2566
uls	-2567
ands	-2568
bone	-2569
lets	-2570
ences	-2571
endym	-2572
▁away	-2573
▁nine	-2574
▁sour	-2575
ending	-2576
▁discl	-2577
▁helps	-2578
▁least	-2579
▁stren	-2580
▁times	-2581
viously	-2582
▁author	-2583
▁equity	-2584
▁distrib	-2585
▁articles	-2586
▁incorpor	-2587
▁separate	-2588
▁incorporation	-2589
omy	-2590
▁MW	-2591
▁ir	-2592
▁100	-2593
earch	-2594
▁Cell	-2595
▁match	-2596
▁needs	-2597
▁sheet	-2598
▁manner	-2599
▁values	-2600
▁Further	-2601
▁clearly	-2602
▁released	-2603
▁delisting	-2604
▁requirement	-2605
▁relationship	-2606
▁TN	-2607
ighb	-2608
wise	-2609
▁bor	-2610
iting	-2611
▁past	-2612
▁summ	-2613
▁analys	-2614
▁muscle	-2615
▁weight	-2616
ediatric	-2617
▁experts	-2618
▁happens	-2619
▁Children	-2620
▁investment	-2621
▁preference	-2622
▁prescribed	-2623
▁properties	-2624
▁Corporation	-2625
,0	-2626
bo	-2627
ark	-2628
mun	-2629
rar	-2630
▁dye	-2631
vered	-2632
▁sent	-2633
,000/-	-2634
ferent	-2635
ricult	-2636
▁Water	-2637
▁achie	-2638
▁intern	-2639
▁select	-2640
▁series	-2641
▁limited	-2642
▁contains	-2643
▁multiple	-2644
▁undertak	-2645
▁character	-2646
▁anticancer	-2647
▁polypeptide	-2648
▁transaction	-2649
▁construction	-2650
ND	-2651
▁CO	-2652
▁Im	-2653
▁ax	-2654
fici	-2655
▁Per	-2656
▁nin	-2657
▁Many	-2658
▁trib	-2659
▁added	-2660
▁close	-2661
▁extra	-2662
▁since	-2663
▁except	-2664
▁notice	-2665
▁profit	-2666
▁density	-2667
▁prevent	-2668
▁component	-2669
▁represented	-2670
to	-2671
cks	-2672
lob	-2673
ites	-2674
▁beh	-2675
▁bri	-2676
▁dim	-2677
▁yet	-2678
▁fifty	-2679
▁funds	-2680
▁links	-2681
▁takes	-2682
ructure	-2683
▁across	-2684
▁covered	-2685
▁external	-2686
▁facilities	-2687
▁introduced	-2688
oun	-2689
ste	-2690
▁00	-2691
▁22	-2692
▁AT	-2693
lish	-2694
sequ	-2695
▁adv	-2696
ATION	-2697
usual	-2698
▁beam	-2699
▁coll	-2700
▁duty	-2701
▁helic	-2702
▁integ	-2703
▁Follow	-2704
▁aspect	-2705
▁expect	-2706
▁neighb	-2707
▁includes	-2708
▁registered	-2709
IT	-2710
lf	-2711
ans	-2712
▁Ep	-2713
erve	-2714
here	-2715
▁CSR	-2716
▁dam	-2717
▁gro	-2718
▁pat	-2719
▁soc	-2720
▁unt	-2721
▁Stud	-2722
▁core	-2723
▁phen	-2724
▁Tests	-2725
▁carri	-2726
ascular	-2727
ression	-2728
▁entire	-2729
▁family	-2730
▁stages	-2731
▁peptide	-2732
▁profess	-2733
▁started	-2734
▁decision	-2735
▁whatever	-2736
▁Similarly	-2737
▁recurrent	-2738
▁completely	-2739
▁throughout	-2740
▁appointment	-2741
uge	-2742
▁sk	-2743
▁gas	-2744
▁mob	-2745
▁mot	-2746
▁vac	-2747
iddle	-2748
izing	-2749
pping	-2750
▁crore	-2751
▁polic	-2752
▁pract	-2753
▁still	-2754
▁Annual	-2755
▁thirty	-2756
▁helices	-2757
▁imaging	-2758
▁building	-2759
▁objective	-2760
ems	-2761
ics	-2762
pto	-2763
ylo	-2764
▁31	-2765
ened	-2766
ware	-2767
▁Acc	-2768
▁Hon	-2769
▁Som	-2770
▁lay	-2771
▁tal	-2772
cosis	-2773
▁allot	-2774
▁began	-2775
ficient	-2776
mission	-2777
▁glycos	-2778
▁likely	-2779
▁region	-2780
▁sheets	-2781
▁analysis	-2782
▁attached	-2783
▁compared	-2784
▁hydroxyl	-2785
▁movement	-2786
▁relating	-2787
▁teachers	-2788
▁essential	-2789
▁remaining	-2790
▁University	-2791
IV	-2792
▁IV	-2793
▁es	-2794
head	-2795
ilic	-2796
leen	-2797
▁Blo	-2798
▁cry	-2799
▁les	-2800
▁cate	-2801
▁prep	-2802
istics	-2803
normal	-2804
▁lands	-2805
▁might	-2806
▁purch	-2807
▁adults	-2808
▁almost	-2809
▁decide	-2810
▁easily	-2811
▁Limited	-2812
▁charged	-2813
▁explore	-2814
▁partial	-2815
▁perform	-2816
▁obtained	-2817
▁particip	-2818
▁question	-2819
▁recurred	-2820
▁inhibitors	-2821
FA	-2822
▁17	-2823
▁At	-2824
ancy	-2825
outh	-2826
▁Ins	-2827
▁adj	-2828
▁tub	-2829
▁Anna	-2830
▁TNEB	-2831
▁weak	-2832
▁divid	-2833
tenance	-2834
▁choice	-2835
▁choose	-2836
▁issuer	-2837
▁stored	-2838
▁Meeting	-2839
▁applied	-2840
▁benefit	-2841
▁suggest	-2842
▁anything	-2843
▁interact	-2844
▁Committee	-2845
▁regarding	-2846
▁Administrative	-2847
ha	-2848
IST	-2849
ett	-2850
ume	-2851
ager	-2852
alle	-2853
aring	-2854
aster	-2855
ivity	-2856
▁post	-2857
▁rate	-2858
alance	-2859
mitted	-2860
ologic	-2861
porter	-2862
valent	-2863
▁chlor	-2864
▁quick	-2865
pection	-2866
▁healthy	-2867
▁network	-2868
▁systems	-2869
▁abnormal	-2870
▁cerebros	-2871
▁dividend	-2872
▁property	-2873
▁Assistant	-2874
pr	-2875
sis	-2876
▁Be	-2877
▁Li	-2878
▁ut	-2879
back	-2880
ffer	-2881
olec	-2882
onic	-2883
▁Int	-2884
▁kin	-2885
▁ult	-2886
riend	-2887
▁lump	-2888
▁real	-2889
atives	-2890
▁proper	-2891
igenetic	-2892
▁Another	-2893
▁decided	-2894
▁details	-2895
▁explain	-2896
▁staging	-2897
valuation	-2898
▁diseases	-2899
▁transporter	-2900
OC	-2901
ta	-2902
ESI	-2903
fus	-2904
ixt	-2905
▁1,	-2906
ches	-2907
ills	-2908
▁put	-2909
▁too	-2910
asing	-2911
ather	-2912
▁With	-2913
▁gets	-2914
▁pack	-2915
rieved	-2916
▁ahead	-2917
▁spect	-2918
etition	-2919
▁Crores	-2920
▁issues	-2921
▁affairs	-2922
▁convert	-2923
▁Districts	-2924
▁recommend	-2925
▁classified	-2926
▁department	-2927
▁investigation	-2928
-0	-2929
agen	-2930
onus	-2931
osin	-2932
udic	-2933
▁Wel	-2934
▁eng	-2935
ively	-2936
▁disp	-2937
▁told	-2938
ophary	-2939
ryonal	-2940
▁binds	-2941
▁borrow	-2942
▁ensure	-2943
▁forces	-2944
▁ground	-2945
▁insert	-2946
▁kinase	-2947
▁moving	-2948
▁places	-2949
▁record	-2950
▁subsid	-2951
▁glycine	-2952
▁extended	-2953
▁membranes	-2954
▁recurring	-2955
▁secondary	-2956
vey	-2957
▁pH	-2958
▁onc	-2959
▁pot	-2960
▁suc	-2961
allel	-2962
▁fill	-2963
▁germ	-2964
▁mixt	-2965
ection	-2966
▁cover	-2967
▁field	-2968
▁branch	-2969
▁output	-2970
endymoma	-2971
▁continu	-2972
▁exactly	-2973
▁hydroly	-2974
▁looking	-2975
▁according	-2976
▁compounds	-2977
▁establish	-2978
▁platelets	-2979
▁everything	-2980
▁memorandum	-2981
▁environment	-2982
▁implementation	-2983
AL	-2984
IL	-2985
alf	-2986
iry	-2987
▁Ar	-2988
oper	-2989
▁Imp	-2990
▁Mal	-2991
▁cut	-2992
FAESI	-2993
rates	-2994
verse	-2995
▁elig	-2996
▁idea	-2997
▁medi	-2998
▁thin	-2999
genous	-3000
ricity	-3001
▁angle	-3002
▁dated	-3003
▁ended	-3004
▁lungs	-3005
lycerol	-3006
▁advant	-3007
▁voting	-3008
▁mission	-3009
▁unusual	-3010
▁External	-3011
▁accounts	-3012
▁district	-3013
▁electron	-3014
yelogenous	-3015
▁Therefore	-3016
lie	-3017
reed	-3018
▁SAR	-3019
▁ele	-3020
▁wid	-3021
ering	-3022
iomas	-3023
▁1956	-3024
▁Cent	-3025
▁fail	-3026
▁orig	-3027
▁Works	-3028
▁cryst	-3029
▁indust	-3030
▁member	-3031
▁occurs	-3032
ervation	-3033
▁lesions	-3034
▁restric	-3035
▁Services	-3036
▁Sometimes	-3037
▁executive	-3038
▁increased	-3039
▁biological	-3040
▁epigenetic	-3041
▁oncologist	-3042
osaccharides	-3043
▁combination	-3044
:-	-3045
RE	-3046
ots	-3047
tty	-3048
yme	-3049
▁My	-3050
cell	-3051
ivil	-3052
ouse	-3053
rani	-3054
rial	-3055
▁Not	-3056
erved	-3057
iders	-3058
iture	-3059
▁dest	-3060
▁sens	-3061
▁wide	-3062
onance	-3063
▁Roads	-3064
▁chess	-3065
▁fight	-3066
▁Combin	-3067
▁aggreg	-3068
▁attack	-3069
▁duties	-3070
▁instru	-3071
▁spleen	-3072
▁SARFAESI	-3073
▁majority	-3074
▁remember	-3075
▁connected	-3076
▁situation	-3077
▁techniques	-3078
▁incorporated	-3079
▁understanding	-3080
of	-3081
ale	-3082
▁Sp	-3083
requ	-3084
▁lar	-3085
▁lig	-3086
achin	-3087
ament	-3088
ights	-3089
▁food	-3090
▁late	-3091
▁neur	-3092
▁team	-3093
▁text	-3094
▁local	-3095
▁newly	-3096
estinal	-3097
utional	-3098
▁access	-3099
▁angles	-3100
▁merger	-3101
▁pretty	-3102
▁activity	-3103
▁magnetic	-3104
▁projects	-3105
▁lipoprote	-3106
▁molecular	-3107
▁neighbour	-3108
ministration	-3109
▁Departments	-3110
▁established	-3111
▁requirements	-3112
PO	-3113
ilk	-3114
isf	-3115
▁Sup	-3116
▁vir	-3117
etera	-3118
▁Stem	-3119
▁decl	-3120
▁feel	-3121
▁infl	-3122
▁laid	-3123
▁mind	-3124
▁olig	-3125
▁prec	-3126
airman	-3127
▁World	-3128
▁fixed	-3129
ificial	-3130
▁Comput	-3131
▁friend	-3132
▁metast	-3133
▁Library	-3134
▁Officer	-3135
▁balance	-3136
▁payment	-3137
▁generate	-3138
▁electrons	-3139
▁obviously	-3140
▁separation	-3141
▁certificate	-3142
▁pathologist	-3143
,3	-3144
ler	-3145
▁Pr	-3146
rees	-3147
▁Dis	-3148
▁ald	-3149
▁bar	-3150
▁bro	-3151
▁vit	-3152
▁flow	-3153
▁peak	-3154
▁tree	-3155
▁upto	-3156
rought	-3157
▁Press	-3158
▁Third	-3159
▁bonus	-3160
▁minor	-3161
▁Matric	-3162
▁gotten	-3163
▁looked	-3164
▁mobile	-3165
▁myosin	-3166
▁replac	-3167
▁Chronic	-3168
▁classes	-3169
▁examine	-3170
▁meaning	-3171
▁mixture	-3172
▁controll	-3173
▁covalent	-3174
▁resonance	-3175
rastructure	-3176
▁generation	-3177
AM	-3178
au	-3179
sp	-3180
for	-3181
aged	-3182
ched	-3183
ival	-3184
▁Met	-3185
▁aut	-3186
▁pub	-3187
▁rou	-3188
dehyd	-3189
gment	-3190
iform	-3191
lines	-3192
lling	-3193
ortun	-3194
▁glob	-3195
▁hard	-3196
▁bones	-3197
▁break	-3198
▁donor	-3199
▁fraud	-3200
conomic	-3201
▁altern	-3202
ficiency	-3203
▁chronic	-3204
▁electro	-3205
▁quickly	-3206
▁Research	-3207
▁carbohyd	-3208
▁etcetera	-3209
▁restruct	-3210
▁retrieved	-3211
▁Monoclonal	-3212
▁importance	-3213
▁regulation	-3214
ras	-3215
▁CT	-3216
▁Fe	-3217
imal	-3218
medi	-3219
unic	-3220
▁lon	-3221
▁vis	-3222
-2010	-3223
astro	-3224
▁fast	-3225
▁flex	-3226
▁ions	-3227
▁radi	-3228
▁Immun	-3229
▁chest	-3230
▁meant	-3231
▁polys	-3232
▁press	-3233
▁longer	-3234
▁though	-3235
astroint	-3236
opharyng	-3237
▁Sarcoma	-3238
▁created	-3239
▁helical	-3240
▁infusion	-3241
raniopharyng	-3242
▁cerebrospinal	-3243
astrointestinal	-3244
CH	-3245
NA	-3246
yt	-3247
ze	-3248
▁23	-3249
copy	-3250
ores	-3251
▁AND	-3252
▁MRI	-3253
anine	-3254
forms	-3255
lieve	-3256
where	-3257
▁Fore	-3258
▁laws	-3259
cholar	-3260
rosine	-3261
▁2013.	-3262
▁mouth	-3263
▁solve	-3264
▁turns	-3265
▁policy	-3266
▁school	-3267
▁strong	-3268
▁Science	-3269
▁acquire	-3270
▁arrange	-3271
▁wherein	-3272
▁affected	-3273
▁internal	-3274
▁centrifug	-3275
▁described	-3276
▁estimated	-3277
▁definition	-3278
▁objectives	-3279
▁partnership	-3280
alg	-3281
ars	-3282
mes	-3283
▁hy	-3284
▁wa	-3285
izes	-3286
omet	-3287
▁Del	-3288
▁Med	-3289
▁cyt	-3290
▁dip	-3291
▁obs	-3292
▁uns	-3293
inate	-3294
▁2007	-3295
▁Brid	-3296
▁Once	-3297
▁Brain	-3298
▁talks	-3299
unction	-3300
▁Person	-3301
▁debent	-3302
▁enzyme	-3303
▁English	-3304
▁Myeloid	-3305
▁myeloid	-3306
lementary	-3307
▁collagen	-3308
▁tribunal	-3309
ifications	-3310
▁indicates	-3311
▁placement	-3312
▁chromosome	-3313
▁conceptual	-3314
▁computerized	-3315
▁Lymphoblastic	-3316
DI	-3317
▁Z	-3318
cin	-3319
emp	-3320
ime	-3321
let	-3322
que	-3323
▁Bu	-3324
▁Di	-3325
RANS	-3326
orts	-3327
▁Ang	-3328
▁Dif	-3329
▁Fin	-3330
▁PET	-3331
▁Rem	-3332
▁aim	-3333
▁jug	-3334
▁mis	-3335
algam	-3336
atisf	-3337
ctors	-3338
eding	-3339
iling	-3340
issue	-3341
oring	-3342
▁fram	-3343
selves	-3344
▁Appro	-3345
▁Blood	-3346
▁micro	-3347
▁react	-3348
version	-3349
▁Indust	-3350
▁cannib	-3351
▁mainly	-3352
▁return	-3353
▁source	-3354
▁analyte	-3355
▁brought	-3356
▁changed	-3357
▁derived	-3358
▁forming	-3359
▁society	-3360
▁purposes	-3361
▁providing	-3362
▁technique	-3363
▁restructuring	-3364
ior	-3365
nam	-3366
ault	-3367
body	-3368
elve	-3369
idic	-3370
rect	-3371
reen	-3372
rous	-3373
then	-3374
▁Ext	-3375
▁Gov	-3376
▁Sal	-3377
▁ver	-3378
ipher	-3379
▁Most	-3380
▁Vill	-3381
▁circ	-3382
▁copy	-3383
dehyde	-3384
▁guide	-3385
▁print	-3386
▁shows	-3387
▁sixty	-3388
cholars	-3389
▁Tissue	-3390
▁entity	-3391
▁levels	-3392
▁memory	-3393
aplastic	-3394
▁histone	-3395
▁whereas	-3396
oblastoma	-3397
▁organism	-3398
▁systemic	-3399
▁determine	-3400
▁education	-3401
▁otherwise	-3402
▁potential	-3403
▁programme	-3404
▁technical	-3405
▁themselves	-3406
▁Combination	-3407
▁astrocytoma	-3408
▁departments	-3409
▁maintenance	-3410
EM	-3411
rag	-3412
rig	-3413
grad	-3414
reme	-3415
▁198	-3416
▁CSF	-3417
▁fav	-3418
▁nam	-3419
ators	-3420
gthen	-3421
inity	-3422
▁Govt	-3423
▁harm	-3424
▁horm	-3425
▁pred	-3426
▁vill	-3427
stream	-3428
▁Crore	-3429
▁aspir	-3430
▁award	-3431
▁thous	-3432
▁compli	-3433
▁degree	-3434
▁talked	-3435
▁carried	-3436
▁granted	-3437
▁vitamin	-3438
abilities	-3439
▁Physical	-3440
▁officers	-3441
▁studying	-3442
▁vascular	-3443
▁proceedings	-3444
EL	-3445
apt	-3446
har	-3447
▁60	-3448
cles	-3449
emic	-3450
zary	-3451
▁Out	-3452
▁ask	-3453
▁fit	-3454
▁hab	-3455
▁ill	-3456
anges	-3457
herom	-3458
▁Cont	-3459
▁Over	-3460
▁aver	-3461
▁goes	-3462
▁neck	-3463
goides	-3464
omeric	-3465
ptides	-3466
reedom	-3467
▁death	-3468
▁decre	-3469
▁depos	-3470
▁image	-3471
▁neuro	-3472
▁center	-3473
▁chains	-3474
▁pherom	-3475
▁success	-3476
▁exercise	-3477
▁opportun	-3478
▁planning	-3479
▁referred	-3480
▁depending	-3481
▁embryonal	-3482
▁fungoides	-3483
▁specified	-3484
▁artificial	-3485
▁continuous	-3486
▁ependymoma	-3487
▁constituted	-3488
▁Matriculation	-3489
ED	-3490
rm	-3491
cus	-3492
log	-3493
ope	-3494
▁Ab	-3495
ilit	-3496
oass	-3497
▁Pre	-3498
▁ble	-3499
anced	-3500
yment	-3501
▁Four	-3502
▁deep	-3503
▁easy	-3504
▁fold	-3505
▁lane	-3506
▁send	-3507
▁sure	-3508
▁trad	-3509
though	-3510
▁Grade	-3511
▁Rules	-3512
▁Techn	-3513
▁deriv	-3514
▁doses	-3515
▁limit	-3516
▁shape	-3517
▁stake	-3518
▁annual	-3519
▁liable	-3520
▁phases	-3521
▁prepar	-3522
enditure	-3523
▁Collect	-3524
▁amalgam	-3525
▁install	-3526
▁restore	-3527
▁travels	-3528
accharide	-3529
sociation	-3530
▁Planning	-3531
▁explored	-3532
▁official	-3533
▁presence	-3534
▁strength	-3535
ricultural	-3536
▁pheromone	-3537
▁statements	-3538
ead	-3539
isl	-3540
umb	-3541
▁27	-3542
▁NH	-3543
ruit	-3544
▁Rep	-3545
▁exc	-3546
▁lab	-3547
iving	-3548
onent	-3549
otide	-3550
▁Drug	-3551
▁Exam	-3552
▁Supp	-3553
▁dele	-3554
▁gall	-3555
▁sale	-3556
aneous	-3557
encing	-3558
ulfide	-3559
▁filed	-3560
stances	-3561
▁assets	-3562
▁begins	-3563
▁immedi	-3564
▁layers	-3565
▁rather	-3566
▁sugars	-3567
▁Nervous	-3568
▁default	-3569
▁Biologic	-3570
▁Teachers	-3571
▁auditors	-3572
▁eligible	-3573
▁relevant	-3574
▁2009-2010	-3575
▁Libraries	-3576
▁chemistry	-3577
▁construct	-3578
▁describes	-3579
▁remission	-3580
▁Electricity	-3581
▁interesting	-3582
▁lymphoblastic	-3583
,5	-3584
DP	-3585
ox	-3586
si	-3587
aff	-3588
aps	-3589
rim	-3590
yed	-3591
▁Am	-3592
▁pi	-3593
alur	-3594
atin	-3595
emed	-3596
iate	-3597
▁Mar	-3598
▁ran	-3599
erves	-3600
ulate	-3601
▁Soft	-3602
▁prot	-3603
achand	-3604
ocytic	-3605
▁delta	-3606
▁quant	-3607
▁steps	-3608
itoring	-3609
▁Sachin	-3610
▁assign	-3611
▁demand	-3612
▁glioma	-3613
▁methyl	-3614
▁others	-3615
▁satisf	-3616
▁Station	-3617
▁achieve	-3618
▁disclos	-3619
▁greater	-3620
▁objects	-3621
▁written	-3622
achandran	-3623
▁minority	-3624
▁promoter	-3625
▁selected	-3626
▁whenever	-3627
▁decisions	-3628
▁documents	-3629
▁discussing	-3630
▁evaluation	-3631
▁Examination	-3632
▁bloodstream	-3633
▁chromosomes	-3634
▁professional	-3635
LT	-3636
ls	-3637
ps	-3638
uf	-3639
...	-3640
app	-3641
ils	-3642
ple	-3643
rai	-3644
rav	-3645
▁01	-3646
▁PR	-3647
ithe	-3648
lief	-3649
olid	-3650
pper	-3651
▁Nag	-3652
▁bad	-3653
▁gam	-3654
▁key	-3655
▁phi	-3656
▁pun	-3657
vents	-3658
▁2011	-3659
▁Cons	-3660
▁Stat	-3661
▁city	-3662
▁dead	-3663
▁ster	-3664
▁till	-3665
▁tube	-3666
▁wind	-3667
ulsory	-3668
▁Delhi	-3669
▁Drugs	-3670
▁Thank	-3671
▁bring	-3672
▁speed	-3673
▁stack	-3674
▁valid	-3675
ipheral	-3676
osition	-3677
▁Social	-3678
▁destro	-3679
▁matter	-3680
▁player	-3681
▁sector	-3682
▁ability	-3683
▁amounts	-3684
▁planned	-3685
▁approach	-3686
▁bleeding	-3687
▁dividing	-3688
▁parallel	-3689
▁Standards	-3690
▁collected	-3691
▁converted	-3692
▁evolution	-3693
▁providers	-3694
▁Ramachandran	-3695
ga	-3696
itt	-3697
rel	-3698
une	-3699
xim	-3700
doid	-3701
eful	-3702
uble	-3703
▁enh	-3704
▁tax	-3705
▁win	-3706
enses	-3707
icken	-3708
▁Head	-3709
▁Next	-3710
▁draw	-3711
▁loan	-3712
▁surv	-3713
ancies	-3714
lished	-3715
▁Based	-3716
▁Level	-3717
▁Szary	-3718
▁While	-3719
▁color	-3720
▁seems	-3721
holders	-3722
▁attach	-3723
▁clause	-3724
▁define	-3725
▁farmer	-3726
▁groove	-3727
▁larger	-3728
▁social	-3729
▁supply	-3730
▁useful	-3731
▁viewed	-3732
▁approved	-3733
▁distance	-3734
▁normally	-3735
▁physical	-3736
▁districts	-3737
▁metastatic	-3738
▁expenditure	-3739
▁responsible	-3740
AB	-3741
amm	-3742
did	-3743
lay	-3744
rue	-3745
▁28	-3746
▁IN	-3747
▁Sh	-3748
▁ox	-3749
▁pK	-3750
sorb	-3751
view	-3752
▁cop	-3753
▁did	-3754
▁eth	-3755
ounce	-3756
uvall	-3757
▁Five	-3758
▁Fund	-3759
▁acts	-3760
▁coal	-3761
▁ring	-3762
iction	-3763
▁Build	-3764
▁alter	-3765
▁coord	-3766
▁focus	-3767
▁lumps	-3768
▁virus	-3769
▁wrong	-3770
mediate	-3771
olipids	-3772
▁candid	-3773
▁disord	-3774
▁fourth	-3775
▁really	-3776
▁starts	-3777
olecular	-3778
▁aspects	-3779
▁average	-3780
▁buyback	-3781
▁confirm	-3782
▁domains	-3783
▁matters	-3784
▁modules	-3785
▁pattern	-3786
▁typical	-3787
▁Approved	-3788
▁Computer	-3789
▁prepared	-3790
▁security	-3791
▁thousand	-3792
▁existence	-3793
▁generated	-3794
▁registrar	-3795
▁separated	-3796
▁functional	-3797
▁glycosidic	-3798
▁inspection	-3799
▁recognition	-3800
▁administrative	-3801
▁polysaccharides	-3802
aun	-3803
ene	-3804
udi	-3805
aled	-3806
ison	-3807
▁FDI	-3808
▁dev	-3809
▁mel	-3810
▁won	-3811
ables	-3812
atore	-3813
habil	-3814
icted	-3815
ioend	-3816
▁acet	-3817
▁wall	-3818
ducing	-3819
oassay	-3820
▁Inter	-3821
▁paper	-3822
▁solid	-3823
▁until	-3824
▁women	-3825
ressive	-3826
▁assess	-3827
▁consum	-3828
▁integr	-3829
▁ligand	-3830
ensional	-3831
imbatore	-3832
rigation	-3833
▁linkage	-3834
▁officer	-3835
ioendothe	-3836
▁2009-10,	-3837
▁rotation	-3838
▁solutions	-3839
▁sequencing	-3840
habilitation	-3841
,2	-3842
gn	-3843
gu	-3844
arb	-3845
▁29	-3846
▁40	-3847
▁DE	-3848
gers	-3849
quot	-3850
utam	-3851
▁196	-3852
▁Inf	-3853
▁nom	-3854
▁Rail	-3855
▁aque	-3856
▁cust	-3857
▁diss	-3858
▁fair	-3859
▁hill	-3860
▁purs	-3861
▁util	-3862
ficult	-3863
gments	-3864
▁climb	-3865
▁cycle	-3866
▁older	-3867
▁pregn	-3868
▁Examin	-3869
▁appeal	-3870
▁neural	-3871
▁aqueous	-3872
▁dealing	-3873
▁commence	-3874
▁expected	-3875
▁opponent	-3876
▁subscrib	-3877
▁disulfide	-3878
▁principle	-3879
▁subsidiary	-3880
▁missionaries	-3881
▁registration	-3882
▁infrastructure	-3883
CO	-3884
las	-3885
ott	-3886
abil	-3887
cers	-3888
ergy	-3889
irth	-3890
ling	-3891
oura	-3892
▁Maj	-3893
▁Why	-3894
▁arm	-3895
▁eye	-3896
actic	-3897
ariat	-3898
eteen	-3899
ochem	-3900
▁From	-3901
▁axis	-3902
▁rand	-3903
esides	-3904
liomas	-3905
▁Civil	-3906
▁amylo	-3907
▁cross	-3908
▁inher	-3909
▁trave	-3910
▁watch	-3911
raction	-3912
▁Energy	-3913
▁experi	-3914
▁happen	-3915
▁middle	-3916
▁recept	-3917
▁secret	-3918
▁static	-3919
ruitment	-3920
▁attract	-3921
▁instead	-3922
▁portion	-3923
▁thereby	-3924
▁writing	-3925
▁Internal	-3926
▁creditor	-3927
▁immature	-3928
▁nineteen	-3929
▁difficult	-3930
▁execution	-3931
▁pediatric	-3932
▁reduction	-3933
▁Coimbatore	-3934
▁debentures	-3935
▁increasing	-3936
▁liquidator	-3937
▁understood	-3938
▁Certificate	-3939
▁improvement	-3940
▁neighbourhood	-3941
▁phospholipids	-3942
br	-3943
iy	-3944
ART	-3945
acy	-3946
ern	-3947
▁03	-3948
▁Mo	-3949
▁dy	-3950
mega	-3951
nadu	-3952
rink	-3953
▁HIV	-3954
▁Raj	-3955
agent	-3956
oglyc	-3957
olved	-3958
rathe	-3959
▁More	-3960
▁Thus	-3961
▁chat	-3962
▁dash	-3963
▁heat	-3964
▁impr	-3965
▁pain	-3966
▁pair	-3967
▁pine	-3968
▁seed	-3969
▁vers	-3970
▁went	-3971
adurai	-3972
▁Union	-3973
▁grain	-3974
▁range	-3975
▁rotor	-3976
▁terat	-3977
eration	-3978
▁buffer	-3979
▁random	-3980
▁status	-3981
rathecal	-3982
▁Teacher	-3983
▁categor	-3984
▁crystal	-3985
▁degrees	-3986
▁promote	-3987
▁secured	-3988
▁benefits	-3989
▁climbing	-3990
▁critical	-3991
▁measures	-3992
▁signific	-3993
▁Different	-3994
▁Tamilnadu	-3995
▁anaplastic	-3996
▁applicable	-3997
▁candidates	-3998
▁determined	-3999
▁liabilities	-4000
▁centrifugation	-4001
raniopharyngioma	-4002
amb	-4003
ict	-4004
jug	-4005
uty	-4006
vis	-4007
▁42	-4008
▁jo	-4009
-200	-4010
nces	-4011
▁500	-4012
▁Par	-4013
▁big	-4014
▁kil	-4015
▁tas	-4016
TRANS	-4017
afety	-4018
llate	-4019
▁Bone	-4020
▁Such	-4021
▁brom	-4022
▁plot	-4023
▁rise	-4024
▁self	-4025
illion	-4026
ruptcy	-4027
static	-4028
▁Diagn	-4029
▁Every	-4030
▁arrow	-4031
▁breat	-4032
▁leads	-4033
▁wants	-4034
▁words	-4035
▁world	-4036
ediment	-4037
▁glutam	-4038
▁impart	-4039
▁review	-4040
▁sevent	-4041
▁slowly	-4042
▁stabil	-4043
▁actions	-4044
▁charges	-4045
▁content	-4046
▁organic	-4047
▁reduced	-4048
▁regular	-4049
▁request	-4050
▁affinity	-4051
▁purchase	-4052
▁regional	-4053
▁classical	-4054
▁phosphate	-4055
▁guidelines	-4056
▁maintained	-4057
▁monoclonal	-4058
▁nucleotide	-4059
▁Secretariat	-4060
▁composition	-4061
▁dimensional	-4062
▁Examinations	-4063
▁stakeholders	-4064
▁carbohydrates	-4065
DR	-4066
wo	-4067
▁36	-4068
▁75	-4069
▁MO	-4070
anks	-4071
fare	-4072
fuse	-4073
ooth	-4074
rmal	-4075
tose	-4076
▁Bur	-4077
▁Dec	-4078
▁Emp	-4079
▁Ste	-4080
▁cav	-4081
▁fox	-4082
▁ket	-4083
aling	-4084
enced	-4085
ghter	-4086
idden	-4087
▁Also	-4088
▁Back	-4089
▁came	-4090
▁diff	-4091
▁face	-4092
▁hour	-4093
▁mand	-4094
▁oxid	-4095
▁prem	-4096
▁walk	-4097
aching	-4098
itable	-4099
▁Major	-4100
▁Neuro	-4101
▁Since	-4102
▁doesn	-4103
▁gamma	-4104
▁gland	-4105
▁heart	-4106
▁loops	-4107
▁nerve	-4108
▁omega	-4109
▁plant	-4110
▁posts	-4111
▁raise	-4112
▁simpl	-4113
▁Survey	-4114
▁bacter	-4115
▁benign	-4116
▁create	-4117
▁damage	-4118
▁exceed	-4119
▁hidden	-4120
▁images	-4121
▁learnt	-4122
▁Madurai	-4123
▁Private	-4124
▁Reforms	-4125
▁Welfare	-4126
▁chicken	-4127
▁mycosis	-4128
▁proport	-4129
ventional	-4130
▁Language	-4131
▁backbone	-4132
▁controls	-4133
▁resident	-4134
▁tyrosine	-4135
▁villages	-4136
▁Engineers	-4137
▁Secretary	-4138
▁advantage	-4139
▁efficient	-4140
▁particles	-4141
▁synthesis	-4142
▁associated	-4143
▁centrifuge	-4144
▁compulsory	-4145
▁hydrolysis	-4146
▁instrument	-4147
▁production	-4148
▁programmes	-4149
▁distributed	-4150
▁myelogenous	-4151
Ms	-4152
RT	-4153
ST	-4154
ex	-4155
ARD	-4156
bot	-4157
oly	-4158
pri	-4159
ylg	-4160
▁45	-4161
▁52	-4162
▁90	-4163
alli	-4164
iter	-4165
mers	-4166
▁Gaz	-4167
▁Red	-4168
▁syn	-4169
▁ups	-4170
aches	-4171
ellig	-4172
ining	-4173
uting	-4174
▁2005	-4175
▁NCLT	-4176
▁fine	-4177
▁stor	-4178
▁user	-4179
aments	-4180
ercial	-4181
▁fever	-4182
▁house	-4183
▁sense	-4184
▁subty	-4185
▁views	-4186
▁weeks	-4187
▁cavity	-4188
▁cities	-4189
▁debtor	-4190
▁dipole	-4191
▁gallon	-4192
▁habits	-4193
pecially	-4194
▁Inspect	-4195
▁consult	-4196
▁express	-4197
▁facilit	-4198
▁ordered	-4199
▁produce	-4200
▁reasons	-4201
▁remains	-4202
▁allotted	-4203
▁checking	-4204
▁consolid	-4205
▁inserted	-4206
▁substant	-4207
▁Pediatric	-4208
▁Personnel	-4209
▁buildings	-4210
▁currently	-4211
▁recognize	-4212
▁specialist	-4213
▁Educational	-4214
▁organisation	-4215
▁transactions	-4216
be	-4217
mb	-4218
ipt	-4219
met	-4220
sec	-4221
▁24	-4222
▁26	-4223
atio	-4224
iral	-4225
riev	-4226
uary	-4227
uled	-4228
yond	-4229
▁197	-4230
▁ATP	-4231
▁MDS	-4232
▁Who	-4233
▁cod	-4234
▁eff	-4235
force	-4236
iable	-4237
lioid	-4238
osing	-4239
osite	-4240
ucine	-4241
▁2000	-4242
▁Text	-4243
▁file	-4244
▁onto	-4245
▁shap	-4246
ginine	-4247
icular	-4248
▁avoid	-4249
▁brief	-4250
▁forty	-4251
▁fully	-4252
▁hairy	-4253
▁maxim	-4254
▁paths	-4255
▁stere	-4256
▁train	-4257
atories	-4258
heduled	-4259
otactic	-4260
▁beyond	-4261
▁deemed	-4262
▁enough	-4263
▁extend	-4264
▁extent	-4265
▁linear	-4266
▁unless	-4267
▁volume	-4268
ographic	-4269
▁Schemes	-4270
▁fibrous	-4271
▁finally	-4272
▁manager	-4273
▁muscles	-4274
▁nuclear	-4275
▁regions	-4276
ithelioid	-4277
▁Secondly	-4278
▁chloride	-4279
▁consists	-4280
▁glycogen	-4281
▁involves	-4282
▁mutation	-4283
▁revision	-4284
▁Malignant	-4285
▁authority	-4286
▁myoglobin	-4287
▁practices	-4288
▁sensitive	-4289
▁Insolvency	-4290
▁collection	-4291
▁pensioners	-4292
▁Association	-4293
▁immediately	-4294
▁personality	-4295
▁implementing	-4296
▁characteristics	-4297
CL	-4298
DU	-4299
IP	-4300
ING	-4301
ift	-4302
ocy	-4303
▁GA	-4304
▁TH	-4305
▁ge	-4306
▁tr	-4307
▁vs	-4308
ails	-4309
anol	-4310
hers	-4311
like	-4312
ocal	-4313
▁Bas	-4314
▁CML	-4315
▁Des	-4316
▁Ord	-4317
▁Sar	-4318
▁bul	-4319
▁hyp	-4320
▁unl	-4321
-2011	-4322
romat	-4323
▁Auth	-4324
▁Prov	-4325
▁true	-4326
ership	-4327
idence	-4328
ightly	-4329
rouble	-4330
urrent	-4331
▁assum	-4332
▁drawn	-4333
▁lines	-4334
▁medic	-4335
▁prior	-4336
▁ratio	-4337
▁staff	-4338
▁waves	-4339
section	-4340
udicial	-4341
▁Centre	-4342
▁blocks	-4343
▁criter	-4344
▁phenyl	-4345
▁raised	-4346
▁cancers	-4347
▁consist	-4348
▁fluores	-4349
▁killing	-4350
▁release	-4351
▁smaller	-4352
▁storage	-4353
rosarcoma	-4354
▁Ministry	-4355
▁announce	-4356
▁cellular	-4357
▁rhabdoid	-4358
▁sediment	-4359
▁2010-2011	-4360
▁Classical	-4361
▁cannibals	-4362
▁diagnosis	-4363
▁exploring	-4364
▁fundament	-4365
▁published	-4366
▁categories	-4367
▁compliance	-4368
▁especially	-4369
▁stationery	-4370
▁description	-4371
▁hemangiomas	-4372
▁unsaturated	-4373
▁distribution	-4374
▁institutional	-4375
▁monosaccharides	-4376
▁recommendations	-4377
,1	-4378
AG	-4379
AI	-4380
td	-4381
tes	-4382
▁32	-4383
▁33	-4384
▁Ob	-4385
▁ST	-4386
▁ce	-4387
hest	-4388
kitt	-4389
vest	-4390
▁Ant	-4391
▁Kan	-4392
▁Ltd	-4393
▁Mad	-4394
▁hom	-4395
▁occ	-4396
artic	-4397
udget	-4398
utory	-4399
▁Appe	-4400
▁book	-4401
▁kilo	-4402
▁salt	-4403
▁tour	-4404
nesses	-4405
reated	-4406
▁Being	-4407
▁Minor	-4408
▁alone	-4409
▁cathe	-4410
▁intra	-4411
▁ionic	-4412
▁party	-4413
▁ports	-4414
▁store	-4415
▁circum	-4416
▁legisl	-4417
▁letter	-4418
▁option	-4419
▁upgrad	-4420
▁Account	-4421
▁Burkitt	-4422
▁correct	-4423
▁exposed	-4424
▁nucleus	-4425
sequently	-4426
▁Economic	-4427
▁aldehyde	-4428
▁commonly	-4429
▁priority	-4430
▁sections	-4431
▁beginning	-4432
▁filaments	-4433
▁standards	-4434
▁percentage	-4435
▁stationary	-4436
▁undertaken	-4437
▁opportunity	-4438
▁preparation	-4439
▁contribution	-4440
PV	-4441
-11	-4442
arr	-4443
ech	-4444
men	-4445
osp	-4446
ror	-4447
▁41	-4448
▁44	-4449
▁Go	-4450
▁Gu	-4451
▁US	-4452
AMIL	-4453
alam	-4454
aren	-4455
aste	-4456
dule	-4457
iaph	-4458
oids	-4459
ragm	-4460
text	-4461
▁DNA	-4462
▁Div	-4463
▁IPO	-4464
▁bat	-4465
▁lys	-4466
▁sod	-4467
▁swe	-4468
allow	-4469
arily	-4470
fered	-4471
strom	-4472
▁Init	-4473
▁Magn	-4474
▁ants	-4475
▁sett	-4476
anding	-4477
hedule	-4478
requis	-4479
▁Emplo	-4480
▁Hence	-4481
▁autom	-4482
▁delay	-4483
▁depth	-4484
▁diaph	-4485
▁enzym	-4486
▁famil	-4487
▁fruct	-4488
▁pairs	-4489
▁scale	-4490
▁serve	-4491
▁sites	-4492
▁young	-4493
isional	-4494
▁allows	-4495
▁engine	-4496
▁filled	-4497
▁handed	-4498
▁highly	-4499
▁points	-4500
▁propos	-4501
▁Mycosis	-4502
▁Whereas	-4503
▁melting	-4504
▁samples	-4505
▁scripts	-4506
▁constant	-4507
▁describe	-4508
▁flexible	-4509
▁intellig	-4510
▁products	-4511
▁surround	-4512
▁diaphragm	-4513
▁explained	-4514
▁happening	-4515
▁inherited	-4516
▁retention	-4517
▁regulatory	-4518
▁immunoassay	-4519
▁conventional	-4520
▁consideration	-4521
▁hemangioendothe	-4522
ee	-4523
ban	-4524
iff	-4525
oll	-4526
son	-4527
the	-4528
▁Of	-4529
▁ur	-4530
full	-4531
ging	-4532
iled	-4533
inam	-4534
sive	-4535
acted	-4536
atern	-4537
inium	-4538
olesc	-4539
tical	-4540
tions	-4541
▁Dist	-4542
▁Late	-4543
▁Year	-4544
▁anus	-4545
▁cash	-4546
▁cyan	-4547
▁gram	-4548
▁half	-4549
▁plas	-4550
▁swit	-4551
▁thus	-4552
ources	-4553
▁Extra	-4554
▁Three	-4555
▁broad	-4556
▁joint	-4557
▁seeds	-4558
▁tract	-4559
attinam	-4560
nection	-4561
ossible	-4562
umption	-4563
▁Magnes	-4564
▁actual	-4565
▁breast	-4566
▁eighty	-4567
▁formal	-4568
▁inputs	-4569
▁models	-4570
▁origin	-4571
▁safety	-4572
▁Bridges	-4573
▁address	-4574
▁amyloid	-4575
▁costing	-4576
▁grounds	-4577
▁nothing	-4578
▁solving	-4579
▁waiting	-4580
ferential	-4581
▁arginine	-4582
▁carboxyl	-4583
▁equation	-4584
▁glycerol	-4585
▁hormones	-4586
▁observed	-4587
▁pressure	-4588
▁requires	-4589
▁scholars	-4590
▁alternate	-4591
▁illnesses	-4592
▁prerequis	-4593
▁saturated	-4594
▁Elementary	-4595
▁completion	-4596
▁arrangement	-4597
▁substantial	-4598
▁announcement	-4599
▁Administration	-4600
3,	-4601
fib	-4602
▁By	-4603
▁CH	-4604
▁Ef	-4605
▁PO	-4606
▁Qu	-4607
▁py	-4608
clic	-4609
gory	-4610
iece	-4611
kele	-4612
lies	-4613
rays	-4614
rick	-4615
ship	-4616
▁Inc	-4617
▁NAB	-4618
▁Obs	-4619
▁cat	-4620
▁ren	-4621
acylg	-4622
ender	-4623
lease	-4624
omach	-4625
orter	-4626
unals	-4627
▁Lear	-4628
▁Prof	-4629
▁anti	-4630
▁eigh	-4631
▁lays	-4632
ometry	-4633
ording	-4634
▁Impro	-4635
▁Ports	-4636
▁aware	-4637
▁birth	-4638
▁bodys	-4639
▁grows	-4640
▁hence	-4641
▁influ	-4642
▁looks	-4643
▁piece	-4644
▁remun	-4645
vention	-4646
▁Deputy	-4647
▁Invest	-4648
▁Middle	-4649
▁NABARD	-4650
▁acting	-4651
▁scient	-4652
▁vision	-4653
▁Freedom	-4654
▁Supreme	-4655
▁alanine	-4656
▁element	-4657
▁enzymes	-4658
▁maltose	-4659
▁mergers	-4660
▁needles	-4661
▁opening	-4662
▁parties	-4663
▁playing	-4664
▁precise	-4665
▁profits	-4666
▁proline	-4667
▁reading	-4668
▁receipt	-4669
▁respond	-4670
▁trading	-4671
▁weights	-4672
operative	-4673
▁Exchange	-4674
▁accorded	-4675
▁appropri	-4676
▁aspartic	-4677
▁criteria	-4678
▁designed	-4679
▁elements	-4680
▁globular	-4681
▁solvents	-4682
▁spectrom	-4683
▁supplied	-4684
▁teratoid	-4685
▁thinking	-4686
▁According	-4687
▁Decisions	-4688
▁installed	-4689
▁replacing	-4690
▁strengthen	-4691
▁translated	-4692
acylglycerol	-4693
▁fundamental	-4694
▁significant	-4695
▁Construction	-4696
▁Registration	-4697
▁commencement	-4698
▁lipoproteins	-4699
▁preferential	-4700
▁electrostatic	-4701
).	-4702
7,	-4703
OP	-4704
OV	-4705
ECT	-4706
ERN	-4707
add	-4708
coh	-4709
ier	-4710
iny	-4711
zed	-4712
▁43	-4713
▁49	-4714
▁IC	-4715
▁er	-4716
abus	-4717
eces	-4718
look	-4719
nger	-4720
olve	-4721
umab	-4722
▁50%	-4723
▁Add	-4724
▁Pur	-4725
▁hep	-4726
▁log	-4727
▁pop	-4728
▁tau	-4729
▁tet	-4730
alore	-4731
eters	-4732
fully	-4733
oster	-4734
romal	-4735
▁Hind	-4736
▁atyp	-4737
▁bund	-4738
▁furn	-4739
▁gave	-4740
▁hous	-4741
▁laun	-4742
▁mole	-4743
▁vide	-4744
inting	-4745
llabus	-4746
▁March	-4747
▁TAMIL	-4748
▁alcoh	-4749
▁antig	-4750
▁axial	-4751
▁event	-4752
▁glass	-4753
▁liter	-4754
▁pursu	-4755
▁silic	-4756
▁upper	-4757
emption	-4758
jection	-4759
riminal	-4760
ruption	-4761
▁centre	-4762
▁distin	-4763
▁faster	-4764
▁mature	-4765
▁modern	-4766
▁recent	-4767
▁stable	-4768
ordinary	-4769
▁2010-11	-4770
▁Medical	-4771
▁carries	-4772
▁closely	-4773
▁conclud	-4774
▁doctors	-4775
▁offices	-4776
▁serious	-4777
▁younger	-4778
apattinam	-4779
▁Astrocyt	-4780
▁Remember	-4781
▁Students	-4782
▁acquirer	-4783
▁although	-4784
▁atypical	-4785
▁brighter	-4786
▁communic	-4787
▁fructose	-4788
▁stopping	-4789
▁aggregate	-4790
▁destroyed	-4791
▁sequences	-4792
▁assessment	-4793
▁calculated	-4794
▁designated	-4795
▁travelling	-4796
▁corporation	-4797
▁applications	-4798
▁astrocytomas	-4799
▁subscription	-4800
▁sedimentation	-4801
▁responsibility	-4802
6,	-4803
BC	-4804
ik	-4805
III	-4806
ami	-4807
omp	-4808
opt	-4809
rog	-4810
udd	-4811
▁Ir	-4812
▁RE	-4813
adol	-4814
gies	-4815
inem	-4816
itud	-4817
know	-4818
qual	-4819
▁ara	-4820
▁dig	-4821
▁flo	-4822
▁mor	-4823
▁pel	-4824
▁ste	-4825
aking	-4826
arant	-4827
osome	-4828
ufact	-4829
▁Book	-4830
▁Exec	-4831
▁Germ	-4832
▁Like	-4833
▁host	-4834
▁kept	-4835
▁live	-4836
▁loop	-4837
▁neut	-4838
▁phys	-4839
▁rein	-4840
▁scen	-4841
▁soon	-4842
▁town	-4843
elling	-4844
encies	-4845
ensive	-4846
orable	-4847
ulture	-4848
▁Colle	-4849
▁induc	-4850
▁wires	-4851
atively	-4852
▁Office	-4853
▁differ	-4854
▁medium	-4855
▁orient	-4856
▁preced	-4857
▁radius	-4858
▁rarely	-4859
▁sealed	-4860
▁serves	-4861
▁triple	-4862
▁twelve	-4863
▁versus	-4864
cellular	-4865
uddalore	-4866
▁Finance	-4867
▁Manager	-4868
▁alcohol	-4869
▁bonding	-4870
▁cleaves	-4871
▁enforce	-4872
▁however	-4873
▁medical	-4874
▁offered	-4875
▁possess	-4876
▁reports	-4877
▁stomach	-4878
▁superco	-4879
▁traffic	-4880
olescents	-4881
rievances	-4882
romatosis	-4883
▁Learning	-4884
▁acquired	-4885
▁antigens	-4886
▁category	-4887
▁declared	-4888
▁opposite	-4889
▁phenomen	-4890
ochemistry	-4891
▁Collector	-4892
▁calculate	-4893
▁initiated	-4894
▁processes	-4895
▁promotion	-4896
▁summation	-4897
▁Industrial	-4898
▁Pensioners	-4899
▁algorithms	-4900
▁connecting	-4901
▁connection	-4902
▁controlled	-4903
▁developing	-4904
▁discussion	-4905
▁employment	-4906
▁industrial	-4907
▁interested	-4908
▁peripheral	-4909
▁subsection	-4910
▁Observation	-4911
▁appropriate	-4912
▁hydrophilic	-4913
▁lipoprotein	-4914
▁probability	-4915
▁amalgamation	-4916
▁confirmation	-4917
▁circumstances	-4918
50	-4919
▁"	-4920
akk	-4921
raz	-4922
rin	-4923
sun	-4924
▁09	-4925
▁47	-4926
▁Dr	-4927
▁Pe	-4928
▁TO	-4929
imer	-4930
ique	-4931
itiz	-4932
otal	-4933
otic	-4934
port	-4935
rops	-4936
rose	-4937
used	-4938
writ	-4939
▁CAR	-4940
▁Jay	-4941
▁cru	-4942
▁jud	-4943
▁psi	-4944
▁squ	-4945
fects	-4946
hemat	-4947
idine	-4948
oking	-4949
▁1000	-4950
▁GIST	-4951
▁Rhab	-4952
▁Sing	-4953
▁cart	-4954
▁feed	-4955
▁numb	-4956
▁rich	-4957
▁vari	-4958
▁vote	-4959
antile	-4960
sunami	-4961
▁Right	-4962
▁Secur	-4963
▁alloc	-4964
▁amend	-4965
▁bases	-4966
▁early	-4967
▁gadol	-4968
▁initi	-4969
▁motor	-4970
▁occup	-4971
▁recon	-4972
▁route	-4973
▁skull	-4974
▁tired	-4975
▁twist	-4976
▁width	-4977
irement	-4978
uration	-4979
uvallur	-4980
▁Forest	-4981
▁agency	-4982
▁behalf	-4983
▁compet	-4984
▁lysine	-4985
▁neuron	-4986
▁sodium	-4987
▁stream	-4988
▁termed	-4989
▁consequ	-4990
▁context	-4991
▁outlook	-4992
▁relieve	-4993
▁running	-4994
▁seventy	-4995
▁swallow	-4996
▁Chairman	-4997
▁bacteria	-4998
▁chairman	-4999
▁computed	-5000
▁manufact	-5001
▁particle	-5002
▁petition	-5003
▁somebody	-5004
▁catheters	-5005
▁operation	-5006
▁ownership	-5007
ertificates	-5008
▁bankruptcy	-5009
▁conversion	-5010
▁gadolinium	-5011
▁hemangioma	-5012
▁monitoring	-5013
▁adolescents	-5014
▁competition	-5015
▁Commissioner	-5016
▁institutions	-5017
▁intermediate	-5018
▁immunotherapy	-5019
▁administration	-5020
▁chromatographic	-5021
10	-5022
IF	-5023
PL	-5024
UT	-5025
ba	-5026
rs	-5027
aim	-5028
avy	-5029
nes	-5030
ula	-5031
ype	-5032
zen	-5033
▁02	-5034
▁38	-5035
▁Do	-5036
▁NM	-5037
▁VI	-5038
ares	-5039
enal	-5040
idne	-5041
lasm	-5042
ptid	-5043
▁Art	-5044
▁Jan	-5045
▁Num	-5046
▁SCH	-5047
▁Tal	-5048
▁air	-5049
▁box	-5050
▁lat	-5051
▁sim	-5052
▁viz	-5053
cture	-5054
ensus	-5055
ettes	-5056
ortic	-5057
sorpt	-5058
ulose	-5059
▁Free	-5060
▁Grou	-5061
▁Pain	-5062
▁acad	-5063
▁blue	-5064
▁milk	-5065
▁prim	-5066
▁rank	-5067
▁rect	-5068
▁sick	-5069
▁stre	-5070
ifying	-5071
steine	-5072
▁2010,	-5073
▁Solar	-5074
▁Super	-5075
▁deals	-5076
▁debts	-5077
▁never	-5078
▁plays	-5079
▁spent	-5080
erative	-5081
▁Fourth	-5082
▁bodies	-5083
▁compar	-5084
▁credit	-5085
▁cyclic	-5086
▁income	-5087
▁magnet	-5088
▁solute	-5089
▁solved	-5090
▁Changes	-5091
▁Welcome	-5092
▁believe	-5093
▁calcium	-5094
▁consent	-5095
▁diffuse	-5096
▁encoura	-5097
▁guarant	-5098
▁printed	-5099
▁researc	-5100
▁soluble	-5101
▁sources	-5102
▁Backward	-5103
▁Building	-5104
▁eighteen	-5105
▁investig	-5106
▁replaced	-5107
▁schedule	-5108
▁upgraded	-5109
▁Authority	-5110
▁developed	-5111
▁integrity	-5112
▁permitted	-5113
▁precisely	-5114
▁reference	-5115
▁satisfied	-5116
▁vacancies	-5117
▁Resolution	-5118
▁attraction	-5119
▁commercial	-5120
▁commission	-5121
▁expression	-5122
▁irrigation	-5123
▁reasonable	-5124
▁lymphocytic	-5125
▁restriction	-5126
▁Agricultural	-5127
▁Nagapattinam	-5128
▁representing	-5129
▁Rehabilitation	-5130
BI	-5131
CE	-5132
SS	-5133
oh	-5134
pl	-5135
uz	-5136
ATE	-5137
ani	-5138
eta	-5139
isd	-5140
rec	-5141
rut	-5142
ses	-5143
uct	-5144
yes	-5145
▁80	-5146
▁Tr	-5147
▁os	-5148
enic	-5149
long	-5150
tine	-5151
▁GOV	-5152
▁THE	-5153
▁dat	-5154
▁fro	-5155
▁her	-5156
▁hyd	-5157
▁jur	-5158
▁nit	-5159
▁pan	-5160
▁sup	-5161
annel	-5162
chrom	-5163
known	-5164
usted	-5165
▁Qual	-5166
▁anne	-5167
▁bene	-5168
▁capt	-5169
▁coef	-5170
▁econ	-5171
▁hope	-5172
▁huge	-5173
▁vent	-5174
apuram	-5175
arency	-5176
ighest	-5177
ounter	-5178
▁adopt	-5179
▁compr	-5180
▁draft	-5181
▁dynam	-5182
▁maybe	-5183
▁named	-5184
▁remed	-5185
▁spots	-5186
▁tried	-5187
oration	-5188
pective	-5189
ylation	-5190
▁GOVERN	-5191
▁Intern	-5192
▁Number	-5193
▁assume	-5194
▁conven	-5195
▁machin	-5196
▁nerves	-5197
▁overse	-5198
▁packed	-5199
▁plasma	-5200
▁propag	-5201
▁sweats	-5202
▁termin	-5203
▁unlike	-5204
aternary	-5205
lication	-5206
▁Foreign	-5207
▁Tsunami	-5208
▁Village	-5209
▁assumed	-5210
▁awarded	-5211
▁banking	-5212
▁channel	-5213
▁finding	-5214
▁located	-5215
▁minutes	-5216
▁neurons	-5217
▁neutral	-5218
▁passing	-5219
▁precond	-5220
▁testing	-5221
▁Engineer	-5222
▁academic	-5223
▁changing	-5224
▁fragment	-5225
▁launched	-5226
▁original	-5227
▁properly	-5228
▁reducing	-5229
▁relation	-5230
▁simplest	-5231
▁breathing	-5232
▁mutations	-5233
▁preceding	-5234
▁presented	-5235
odeficiency	-5236
▁Regulation	-5237
▁accordance	-5238
▁aggressive	-5239
▁aspiration	-5240
▁conducting	-5241
▁identified	-5242
▁impossible	-5243
▁permission	-5244
▁retirement	-5245
▁technology	-5246
▁constructed	-5247
▁differences	-5248
▁examination	-5249
▁performance	-5250
▁remuneration	-5251
▁shareholding	-5252
2,	-5253
Cl	-5254
esh	-5255
osa	-5256
ukk	-5257
▁70	-5258
▁Ma	-5259
▁Sm	-5260
airy	-5261
alse	-5262
anti	-5263
carb	-5264
ette	-5265
icle	-5266
land	-5267
pped	-5268
▁Det	-5269
▁Est	-5270
▁Ret	-5271
▁XII	-5272
▁abs	-5273
▁den	-5274
▁fet	-5275
▁lic	-5276
▁oil	-5277
iring	-5278
ocyte	-5279
organ	-5280
ostic	-5281
ource	-5282
ranch	-5283
ranul	-5284
ukudi	-5285
uvant	-5286
▁2014	-5287
▁Main	-5288
▁exch	-5289
▁exit	-5290
▁fees	-5291
▁libr	-5292
▁myel	-5293
▁nose	-5294
▁perp	-5295
▁resc	-5296
▁ship	-5297
▁trig	-5298
ayment	-5299
fected	-5300
ocytes	-5301
ounced	-5302
ranose	-5303
urgery	-5304
vement	-5305
▁Labor	-5306
▁Local	-5307
▁Organ	-5308
▁claim	-5309
▁datab	-5310
▁false	-5311
▁insol	-5312
▁kidne	-5313
▁names	-5314
▁night	-5315
▁outer	-5316
▁param	-5317
▁renew	-5318
aration	-5319
mitives	-5320
▁Branch	-5321
▁States	-5322
▁absorb	-5323
▁arises	-5324
▁belong	-5325
▁bonded	-5326
▁events	-5327
▁frozen	-5328
▁jurisd	-5329
▁ninety	-5330
▁shaped	-5331
▁stated	-5332
▁strate	-5333
resident	-5334
sorption	-5335
▁appears	-5336
▁aspirin	-5337
▁bromide	-5338
▁carboxy	-5339
▁chatbot	-5340
▁concern	-5341
▁conform	-5342
▁enhance	-5343
▁equival	-5344
▁extract	-5345
▁highest	-5346
▁himself	-5347
▁markers	-5348
▁reached	-5349
▁showing	-5350
▁steroid	-5351
▁trained	-5352
riculture	-5353
▁accepted	-5354
▁administ	-5355
▁combined	-5356
▁estimate	-5357
▁everyone	-5358
▁fraction	-5359
▁indirect	-5360
▁receptor	-5361
oblastomas	-5362
▁Cuddalore	-5363
▁Inspector	-5364
▁Magnesite	-5365
▁Registrar	-5366
▁allotment	-5367
▁annealing	-5368
▁branching	-5369
▁diffusion	-5370
▁disorders	-5371
▁fragments	-5372
▁positions	-5373
▁reactions	-5374
▁substrate	-5375
▁advantages	-5376
▁breastbone	-5377
▁containing	-5378
▁contribute	-5379
▁experience	-5380
▁primitives	-5381
▁quaternary	-5382
▁situations	-5383
▁Myelogenous	-5384
▁authorities	-5385
▁controlling	-5386
▁convertible	-5387
▁synthesized	-5388
▁undertaking	-5389
▁intelligence	-5390
▁introduction	-5391
▁respectively	-5392
▁establishment	-5393
ght	-5394
▁35	-5395
▁39	-5396
▁51	-5397
aces	-5398
akum	-5399
awed	-5400
clus	-5401
ingu	-5402
mber	-5403
moid	-5404
onse	-5405
ored	-5406
temp	-5407
uate	-5408
ytic	-5409
▁Emb	-5410
▁FOR	-5411
▁Low	-5412
▁May	-5413
▁bit	-5414
▁gel	-5415
▁pla	-5416
▁rib	-5417
ading	-5418
anche	-5419
books	-5420
ental	-5421
first	-5422
fused	-5423
inion	-5424
itime	-5425
ought	-5426
rical	-5427
rogen	-5428
rosso	-5429
stein	-5430
▁2016	-5431
▁Acqu	-5432
▁Mach	-5433
▁Meth	-5434
▁Mini	-5435
▁NMRI	-5436
▁Prom	-5437
▁Ster	-5438
▁clos	-5439
▁eyes	-5440
▁mess	-5441
▁mism	-5442
▁ones	-5443
▁pump	-5444
▁room	-5445
▁sulf	-5446
▁task	-5447
atinib	-5448
ylogen	-5449
▁2009,	-5450
▁Phase	-5451
▁Stere	-5452
▁Watch	-5453
▁Which	-5454
▁boost	-5455
▁catal	-5456
▁dealt	-5457
▁entit	-5458
▁green	-5459
▁hands	-5460
▁heavy	-5461
▁rural	-5462
▁users	-5463
▁worse	-5464
rasound	-5465
▁agents	-5466
▁checks	-5467
▁colour	-5468
▁commit	-5469
▁consec	-5470
▁humans	-5471
▁mostly	-5472
▁outlay	-5473
▁precur	-5474
▁punish	-5475
▁retain	-5476
▁skills	-5477
▁square	-5478
▁summar	-5479
▁thawed	-5480
▁toward	-5481
ordinate	-5482
rossover	-5483
▁Thermal	-5484
▁crucial	-5485
▁disqual	-5486
▁engaged	-5487
▁harming	-5488
▁holders	-5489
▁inflamm	-5490
▁leading	-5491
▁leucine	-5492
▁opinion	-5493
▁outcome	-5494
▁rotates	-5495
▁subtype	-5496
oothukudi	-5497
oproteins	-5498
▁Anything	-5499
▁Maritime	-5500
▁analytes	-5501
▁infected	-5502
▁phylogen	-5503
▁programs	-5504
▁response	-5505
▁cellulose	-5506
▁preferred	-5507
▁pregnancy	-5508
▁qualified	-5509
▁reinfused	-5510
▁resulting	-5511
▁somewhere	-5512
▁untreated	-5513
▁GOVERNMENT	-5514
▁Inspection	-5515
▁businesses	-5516
▁disclosure	-5517
▁processing	-5518
▁proteoglyc	-5519
▁coefficient	-5520
▁Astrocytomas	-5521
▁Stereotactic	-5522
▁polypeptides	-5523
▁environmental	-5524
▁triacylglycerol	-5525
,8	-5526
sy	-5527
ww	-5528
LIC	-5529
MML	-5530
Max	-5531
raw	-5532
rea	-5533
rix	-5534
▁(2	-5535
▁DI	-5536
▁DT	-5537
▁LP	-5538
▁Lo	-5539
▁Ur	-5540
aser	-5541
aved	-5542
bine	-5543
igil	-5544
leic	-5545
olit	-5546
pond	-5547
ques	-5548
rane	-5549
reas	-5550
riet	-5551
uvar	-5552
▁Ben	-5553
▁CAT	-5554
▁Dal	-5555
▁Lab	-5556
▁Net	-5557
▁Rel	-5558
▁fee	-5559
▁sig	-5560
▁und	-5561
▁web	-5562
agine	-5563
ariff	-5564
astal	-5565
cence	-5566
gency	-5567
itary	-5568
lfare	-5569
tches	-5570
ximab	-5571
ymmet	-5572
▁2001	-5573
▁Anal	-5574
▁ICDR	-5575
▁JMML	-5576
▁Just	-5577
▁MOOC	-5578
▁Risk	-5579
▁Wing	-5580
▁aims	-5581
▁angi	-5582
▁anim	-5583
▁biom	-5584
▁bulk	-5585
▁emer	-5586
▁fall	-5587
▁legs	-5588
▁sell	-5589
▁sole	-5590
▁tune	-5591
lation	-5592
oscopy	-5593
razine	-5594
▁Books	-5595
▁Cinem	-5596
▁Group	-5597
▁Hairy	-5598
▁Hydro	-5599
▁Salem	-5600
▁apart	-5601
▁arach	-5602
▁arter	-5603
▁cytos	-5604
▁fiber	-5605
▁happy	-5606
▁leave	-5607
▁river	-5608
istical	-5609
▁Kanche	-5610
▁Parkin	-5611
▁Report	-5612
▁Spinal	-5613
▁acetyl	-5614
▁barrel	-5615
▁behind	-5616
▁chiral	-5617
▁config	-5618
▁conjug	-5619
▁doesnt	-5620
▁fibers	-5621
▁lesser	-5622
▁misman	-5623
▁pieces	-5624
▁prohib	-5625
▁repeat	-5626
▁silica	-5627
▁sphing	-5628
▁string	-5629
ifically	-5630
inations	-5631
osurgery	-5632
▁Machine	-5633
▁MiniMax	-5634
▁Profess	-5635
▁Railway	-5636
▁affects	-5637
▁asymmet	-5638
▁besides	-5639
▁feeling	-5640
▁formula	-5641
▁hypothe	-5642
▁inspect	-5643
▁parents	-5644
▁plaques	-5645
▁procure	-5646
▁student	-5647
▁unknown	-5648
▁welfare	-5649
hematical	-5650
molecular	-5651
▁Watchful	-5652
▁advanced	-5653
▁anomeric	-5654
▁database	-5655
▁economic	-5656
▁glutamic	-5657
▁medicine	-5658
▁propriet	-5659
▁removing	-5660
▁Recurrent	-5661
▁commenced	-5662
▁crossover	-5663
▁introduce	-5664
▁submitted	-5665
▁swallowed	-5666
▁accounting	-5667
▁borrowings	-5668
▁derivative	-5669
▁efficiency	-5670
▁electronic	-5671
▁experiment	-5672
▁positively	-5673
▁Environment	-5674
▁Recruitment	-5675
▁Thoothukudi	-5676
▁consecutive	-5677
▁differently	-5678
▁educational	-5679
▁flexibility	-5680
▁instruments	-5681
▁continuously	-5682
▁organization	-5683
▁prerequisites	-5684
,6	-5685
,7	-5686
48	-5687
AP	-5688
EF	-5689
In	-5690
KI	-5691
UB	-5692
eg	-5693
ERV	-5694
IFR	-5695
aur	-5696
ork	-5697
oup	-5698
sil	-5699
▁Ed	-5700
▁PE	-5701
▁SH	-5702
▁Wa	-5703
PART	-5704
aram	-5705
ello	-5706
esis	-5707
oste	-5708
unit	-5709
vere	-5710
vert	-5711
ymus	-5712
▁Aud	-5713
▁Cap	-5714
▁Due	-5715
▁End	-5716
▁HPV	-5717
▁RBI	-5718
▁TKI	-5719
▁Two	-5720
▁Van	-5721
▁anc	-5722
▁bil	-5723
▁saw	-5724
-2009	-5725
alact	-5726
duces	-5727
ifies	-5728
inant	-5729
olice	-5730
oxide	-5731
prise	-5732
roach	-5733
silon	-5734
unity	-5735
▁BIFR	-5736
▁Each	-5737
▁Lakh	-5738
▁deli	-5739
▁film	-5740
▁gone	-5741
▁mode	-5742
▁seek	-5743
▁sold	-5744
elveli	-5745
epuram	-5746
idonic	-5747
lusion	-5748
oscope	-5749
urance	-5750
▁Apart	-5751
▁Initi	-5752
▁Liver	-5753
▁Newly	-5754
▁Total	-5755
▁Urban	-5756
▁arran	-5757
▁barri	-5758
▁chall	-5759
▁drink	-5760
▁equip	-5761
▁items	-5762
▁molar	-5763
▁rings	-5764
▁sound	-5765
akumari	-5766
ertiary	-5767
respond	-5768
▁Bridge	-5769
▁Dalton	-5770
▁Promot	-5771
▁Relief	-5772
▁Search	-5773
▁buying	-5774
▁granul	-5775
▁houses	-5776
▁impact	-5777
▁papers	-5778
▁please	-5779
▁precip	-5780
▁relief	-5781
▁shared	-5782
▁submit	-5783
▁widely	-5784
anguages	-5785
unelveli	-5786
▁Process	-5787
▁analyze	-5788
▁conflic	-5789
▁deposit	-5790
▁epsilon	-5791
▁issuing	-5792
▁payable	-5793
▁placing	-5794
▁prepare	-5795
▁records	-5796
▁replace	-5797
▁scanner	-5798
▁trouble	-5799
▁uniform	-5800
▁Moreover	-5801
▁approxim	-5802
▁conclude	-5803
▁creating	-5804
▁criminal	-5805
▁decrease	-5806
▁depicted	-5807
▁improved	-5808
▁intercal	-5809
▁national	-5810
▁networks	-5811
▁software	-5812
▁spectros	-5813
▁subjects	-5814
▁Financial	-5815
▁Scheduled	-5816
▁Technical	-5817
▁exception	-5818
▁hydrocarb	-5819
▁improving	-5820
▁initially	-5821
▁precursor	-5822
▁receiving	-5823
▁spreading	-5824
▁stability	-5825
▁statutory	-5826
▁stretches	-5827
▁unlimited	-5828
▁Assistance	-5829
▁Stationery	-5830
▁alteration	-5831
▁determines	-5832
▁heuristics	-5833
▁hypothesis	-5834
▁infections	-5835
▁negatively	-5836
▁respective	-5837
▁transition	-5838
▁consumption	-5839
▁declaration	-5840
▁individuals	-5841
▁intrathecal	-5842
▁investments	-5843
▁researchers	-5844
▁specialists	-5845
▁transferred	-5846
▁transparent	-5847
▁Kancheepuram	-5848
▁Extraordinary	-5849
▁mismanagement	-5850
20	-5851
ID	-5852
MM	-5853
oe	-5854
ali	-5855
awn	-5856
mon	-5857
ril	-5858
uck	-5859
ura	-5860
urs	-5861
yam	-5862
▁BA	-5863
▁RT	-5864
brid	-5865
cine	-5866
cket	-5867
lios	-5868
psin	-5869
rine	-5870
take	-5871
ungo	-5872
▁ADP	-5873
▁Day	-5874
▁Ear	-5875
▁Hem	-5876
▁Iss	-5877
▁Pan	-5878
▁Pud	-5879
▁San	-5880
▁Shi	-5881
▁TAN	-5882
▁Tax	-5883
▁Top	-5884
▁amp	-5885
▁hor	-5886
▁job	-5887
▁men	-5888
▁sem	-5889
▁tox	-5890
▁via	-5891
▁yes	-5892
arest	-5893
embly	-5894
eties	-5895
ilage	-5896
odend	-5897
onnes	-5898
ottai	-5899
rehen	-5900
▁100%	-5901
▁2003	-5902
▁Memb	-5903
▁Phil	-5904
▁Toll	-5905
▁arms	-5906
▁enqu	-5907
▁fulf	-5908
▁game	-5909
▁sort	-5910
▁tool	-5911
▁tors	-5912
▁wise	-5913
ficial	-5914
guided	-5915
illary	-5916
oplasm	-5917
ustain	-5918
▁Again	-5919
▁Aided	-5920
▁Alpha	-5921
▁Fungo	-5922
▁actor	-5923
▁banks	-5924
▁behav	-5925
▁black	-5926
▁optim	-5927
▁plane	-5928
▁posit	-5929
▁roles	-5930
▁sales	-5931
▁spine	-5932
▁stick	-5933
▁video	-5934
▁vital	-5935
anglios	-5936
▁DEPART	-5937
▁Moving	-5938
▁PTRANS	-5939
▁Proton	-5940
▁aldose	-5941
▁attrib	-5942
▁enable	-5943
▁enanti	-5944
▁enroll	-5945
▁enters	-5946
▁filing	-5947
▁hybrid	-5948
▁intens	-5949
▁latest	-5950
▁matrix	-5951
▁rescue	-5952
▁screen	-5953
▁serine	-5954
▁speech	-5955
▁trying	-5956
▁unable	-5957
fficient	-5958
isitions	-5959
ogenesis	-5960
ribution	-5961
▁January	-5962
▁Thirdly	-5963
▁capable	-5964
▁compens	-5965
▁enacted	-5966
▁failure	-5967
▁folding	-5968
▁funding	-5969
▁numbers	-5970
▁raising	-5971
▁reagent	-5972
▁routine	-5973
▁science	-5974
▁survive	-5975
▁walking	-5976
▁workmen	-5977
▁Neurolog	-5978
▁Superint	-5979
▁adjuvant	-5980
▁carbonyl	-5981
▁composed	-5982
▁connects	-5983
▁definite	-5984
▁emission	-5985
▁excision	-5986
▁executed	-5987
▁families	-5988
▁fourteen	-5989
▁ordinary	-5990
▁produced	-5991
▁recently	-5992
respective	-5993
▁Directors	-5994
▁Fungoides	-5995
▁customers	-5996
▁designing	-5997
▁detection	-5998
▁encourage	-5999
▁induction	-6000
▁mandatory	-6001
▁materials	-6002
▁partially	-6003
▁purchased	-6004
▁regulated	-6005
▁torsional	-6006
▁tribunals	-6007
orporations	-6008
▁DEPARTMENT	-6009
▁Statistics	-6010
▁acceptable	-6011
▁asymmetric	-6012
▁authorised	-6013
▁authorized	-6014
▁benefitted	-6015
▁correspond	-6016
▁missionary	-6017
▁previously	-6018
▁principles	-6019
▁Accordingly	-6020
▁Acquisition	-6021
▁arachidonic	-6022
▁epithelioid	-6023
▁agricultural	-6024
▁coordination	-6025
▁jurisdiction	-6026
▁specifically	-6027
▁configuration	-6028
▁conformational	-6029
▁recommendation	-6030
40	-6031
LA	-6032
ho	-6033
-09	-6034
ICA	-6035
ana	-6036
gid	-6037
ita	-6038
ois	-6039
ury	-6040
yan	-6041
yur	-6042
▁(1	-6043
▁04	-6044
▁48	-6045
▁Gl	-6046
▁Gs	-6047
ache	-6048
acks	-6049
amps	-6050
asts	-6051
chay	-6052
icos	-6053
ipal	-6054
orry	-6055
pass	-6056
rend	-6057
sych	-6058
ulin	-6059
▁Aff	-6060
▁Mem	-6061
▁Nos	-6062
▁PRO	-6063
▁Ran	-6064
▁bab	-6065
▁cis	-6066
▁dil	-6067
▁eat	-6068
▁ice	-6069
▁upd	-6070
▁veh	-6071
▁vom	-6072
ework	-6073
icals	-6074
rance	-6075
ravid	-6076
veloc	-6077
venth	-6078
▁Both	-6079
▁June	-6080
▁SICA	-6081
▁Sect	-6082
▁aged	-6083
▁conv	-6084
▁diet	-6085
▁entr	-6086
▁fats	-6087
▁load	-6088
▁note	-6089
▁took	-6090
idents	-6091
ittees	-6092
orship	-6093
person	-6094
▁Fight	-6095
▁Prote	-6096
▁SCHEM	-6097
▁Waals	-6098
▁agent	-6099
▁asset	-6100
▁empir	-6101
▁encod	-6102
▁exhib	-6103
▁fails	-6104
▁hours	-6105
▁refer	-6106
▁rigid	-6107
▁tetra	-6108
▁ultra	-6109
▁veloc	-6110
▁withd	-6111
▁worth	-6112
imately	-6113
itional	-6114
nership	-6115
ologies	-6116
ptember	-6117
▁Comple	-6118
▁Health	-6119
▁Method	-6120
▁Orders	-6121
▁Police	-6122
▁attend	-6123
▁exclus	-6124
▁impris	-6125
▁limits	-6126
▁manage	-6127
▁medull	-6128
▁reacts	-6129
▁severe	-6130
▁unique	-6131
ituximab	-6132
olecules	-6133
unicipal	-6134
▁2008-09	-6135
▁Effects	-6136
▁Offices	-6137
▁aldoses	-6138
▁bilayer	-6139
▁challen	-6140
▁induced	-6141
▁reverse	-6142
▁thought	-6143
▁undergo	-6144
▁viewing	-6145
▁whereby	-6146
▁Disaster	-6147
▁Gazettes	-6148
▁Projects	-6149
▁Scholars	-6150
▁biologic	-6151
▁circular	-6152
▁collects	-6153
▁covering	-6154
▁defenses	-6155
▁disclose	-6156
▁explains	-6157
▁filament	-6158
▁judicial	-6159
▁junction	-6160
▁lymphoid	-6161
▁suitable	-6162
▁swelling	-6163
▁Executive	-6164
▁appellate	-6165
▁borrowing	-6166
▁cartilage	-6167
▁consumers	-6168
▁expressed	-6169
▁influence	-6170
▁personnel	-6171
▁resection	-6172
▁selection	-6173
▁summaries	-6174
▁Tiruvallur	-6175
▁equivalent	-6176
▁facilitate	-6177
▁limitation	-6178
▁multiplied	-6179
▁operations	-6180
▁successful	-6181
▁Cholesterol	-6182
▁Initiatives	-6183
▁Partnership	-6184
▁epigenetics	-6185
▁participate	-6186
▁publication	-6187
▁specializes	-6188
▁Distribution	-6189
▁fluorescence	-6190
▁imprisonment	-6191
▁modification	-6192
▁phospholipid	-6193
▁radiosurgery	-6194
▁restrictions	-6195
▁spectroscopy	-6196
▁transparency	-6197
▁International	-6198
▁transcription	-6199
47	-6200
CR	-6201
DB	-6202
FI	-6203
KS	-6204
OL	-6205
VR	-6206
ek	-6207
▁%	-6208
ERS	-6209
amy	-6210
far	-6211
uri	-6212
▁62	-6213
▁85	-6214
▁88	-6215
▁OH	-6216
ISTR	-6217
aily	-6218
apor	-6219
arat	-6220
arse	-6221
eral	-6222
geon	-6223
hase	-6224
irls	-6225
lain	-6226
mark	-6227
ming	-6228
ofib	-6229
rete	-6230
urse	-6231
uven	-6232
▁139	-6233
▁600	-6234
▁BRA	-6235
▁Dem	-6236
▁Kar	-6237
▁Leg	-6238
▁Leu	-6239
▁Mod	-6240
▁Six	-6241
▁dup	-6242
▁mir	-6243
▁nan	-6244
▁rap	-6245
▁unw	-6246
acent	-6247
amine	-6248
cytic	-6249
faraz	-6250
icity	-6251
itude	-6252
ophan	-6253
ories	-6254
▁2015	-6255
▁Barr	-6256
▁Code	-6257
▁Loss	-6258
▁Town	-6259
▁baby	-6260
▁grad	-6261
▁pawn	-6262
▁rear	-6263
▁root	-6264
▁zone	-6265
advant	-6266
ecture	-6267
estern	-6268
idemic	-6269
upuram	-6270
▁Award	-6271
▁Hello	-6272
▁Joint	-6273
▁MOOCs	-6274
▁Rural	-6275
▁Study	-6276
▁chair	-6277
▁civil	-6278
▁crick	-6279
▁dense	-6280
▁drain	-6281
▁exemp	-6282
▁groin	-6283
▁hyper	-6284
▁incur	-6285
▁loans	-6286
▁marks	-6287
▁metal	-6288
▁motif	-6289
▁penal	-6290
▁prost	-6291
▁round	-6292
▁scrut	-6293
appoint	-6294
ptophan	-6295
▁Budget	-6296
▁Proced	-6297
▁Sector	-6298
▁centim	-6299
▁copied	-6300
▁copies	-6301
▁degrad	-6302
▁device	-6303
▁exists	-6304
▁intest	-6305
▁kidney	-6306
▁living	-6307
▁mental	-6308
▁mirror	-6309
▁partly	-6310
▁pelvis	-6311
▁repuls	-6312
▁resign	-6313
▁strand	-6314
▁tempor	-6315
▁tender	-6316
▁theory	-6317
▁toxins	-6318
▁valine	-6319
paragine	-6320
utaneous	-6321
▁Epstein	-6322
▁Reagent	-6323
▁barrier	-6324
▁courses	-6325
▁decides	-6326
▁efforts	-6327
▁evolved	-6328
▁feature	-6329
▁freedom	-6330
▁fulfill	-6331
▁hormone	-6332
▁learned	-6333
▁monthly	-6334
▁nearest	-6335
▁nucleic	-6336
▁shorter	-6337
▁suppose	-6338
▁vacancy	-6339
ettlement	-6340
▁Although	-6341
▁Fighters	-6342
▁Sarfaraz	-6343
▁achieved	-6344
▁branches	-6345
▁carrying	-6346
▁cyanogen	-6347
▁cysteine	-6348
▁disorder	-6349
▁employee	-6350
▁evidence	-6351
▁overseen	-6352
▁positron	-6353
▁powerful	-6354
▁practice	-6355
▁syllabus	-6356
▁tertiary	-6357
▁Diagnosed	-6358
▁Municipal	-6359
▁September	-6360
▁complexes	-6361
▁computers	-6362
▁continues	-6363
▁disadvant	-6364
▁histidine	-6365
▁languages	-6366
▁lymphomas	-6367
▁machinery	-6368
▁monomeric	-6369
▁organized	-6370
▁proposals	-6371
▁registers	-6372
▁underwrit	-6373
▁Collectors	-6374
▁Diagnostic	-6375
▁Monitoring	-6376
▁Substances	-6377
▁Villupuram	-6378
▁assignment	-6379
▁conference	-6380
▁consisting	-6381
▁grievances	-6382
▁nucleosome	-6383
▁oppression	-6384
▁proportion	-6385
▁recognized	-6386
▁redemption	-6387
▁settlement	-6388
▁Tirunelveli	-6389
▁propagation	-6390
▁requisition	-6391
▁Laboratories	-6392
▁constitution	-6393
▁differential	-6394
▁examinations	-6395
▁particularly	-6396
▁presentation	-6397
▁communication	-6398
▁determination	-6399
▁disaccharides	-6400
/2	-6401
45	-6402
CI	-6403
OT	-6404
UR	-6405
tt	-6406
wh	-6407
NRE	-6408
isc	-6409
ote	-6410
pes	-6411
uly	-6412
▁05	-6413
▁65	-6414
▁IM	-6415
▁Up	-6416
▁Us	-6417
anes	-6418
asis	-6419
atta	-6420
chem	-6421
ipar	-6422
izon	-6423
load	-6424
lock	-6425
memb	-6426
nore	-6427
oday	-6428
otyp	-6429
pons	-6430
prol	-6431
soon	-6432
ulty	-6433
xose	-6434
▁10%	-6435
▁BCL	-6436
▁DRT	-6437
▁Ele	-6438
▁Exp	-6439
▁HCl	-6440
▁Mer	-6441
▁Oct	-6442
▁Ren	-6443
▁Soc	-6444
▁fix	-6445
▁inn	-6446
▁mes	-6447
▁muc	-6448
▁ply	-6449
▁sun	-6450
NSION	-6451
ained	-6452
apter	-6453
atham	-6454
chase	-6455
ginal	-6456
isted	-6457
itals	-6458
licit	-6459
odysp	-6460
otype	-6461
rated	-6462
▁Data	-6463
▁Form	-6464
▁Milk	-6465
▁Only	-6466
▁SERV	-6467
▁Take	-6468
▁dues	-6469
▁endo	-6470
▁leaf	-6471
▁scre	-6472
▁stro	-6473
▁tiny	-6474
▁vest	-6475
formal	-6476
ionine	-6477
luding	-6478
osomes	-6479
peptid	-6480
spring	-6481
▁2006,	-6482
▁Allow	-6483
▁April	-6484
▁Depth	-6485
▁Found	-6486
▁Hindu	-6487
▁Human	-6488
▁Today	-6489
▁Tumor	-6490
▁abled	-6491
▁curve	-6492
▁firms	-6493
▁frequ	-6494
▁goods	-6495
▁heard	-6496
▁kerat	-6497
▁laser	-6498
▁mixed	-6499
▁rapid	-6500
▁rates	-6501
▁relax	-6502
▁scope	-6503
▁stops	-6504
▁throw	-6505
▁wound	-6506
arcomas	-6507
ignment	-6508
iteracy	-6509
izontal	-6510
lyceral	-6511
ractory	-6512
reation	-6513
resents	-6514
uvenile	-6515
▁Action	-6516
▁Ennore	-6517
▁acidic	-6518
▁adsorb	-6519
▁anemia	-6520
▁animal	-6521
▁blasts	-6522
▁contra	-6523
▁courts	-6524
▁dissoc	-6525
▁galact	-6526
▁handle	-6527
▁headed	-6528
▁hollow	-6529
▁marked	-6530
▁mening	-6531
▁namely	-6532
▁perman	-6533
▁pineal	-6534
▁plants	-6535
▁pocket	-6536
▁rating	-6537
▁rectum	-6538
▁resist	-6539
▁shrink	-6540
▁suffer	-6541
▁survey	-6542
▁switch	-6543
▁topics	-6544
▁wanted	-6545
etitions	-6546
izations	-6547
▁Besides	-6548
▁College	-6549
▁Natural	-6550
▁Respons	-6551
▁amended	-6552
▁antipar	-6553
▁contact	-6554
▁economy	-6555
▁enables	-6556
▁fifteen	-6557
▁glucopy	-6558
▁hearing	-6559
▁involve	-6560
▁keeping	-6561
▁million	-6562
▁pending	-6563
▁premium	-6564
▁returns	-6565
▁sustain	-6566
▁univers	-6567
hydrazine	-6568
iferative	-6569
olization	-6570
peptidase	-6571
rehensive	-6572
▁Official	-6573
▁Printing	-6574
▁adjacent	-6575
▁angstrom	-6576
▁arranged	-6577
▁assisted	-6578
▁cannibal	-6579
▁distinct	-6580
▁drinking	-6581
▁facility	-6582
▁ganglios	-6583
▁industry	-6584
▁investor	-6585
▁managing	-6586
▁measured	-6587
▁nitrogen	-6588
▁occupied	-6589
▁offering	-6590
▁pregnant	-6591
▁printing	-6592
▁register	-6593
▁regulate	-6594
▁relative	-6595
▁reserves	-6596
▁velocity	-6597
▁Appellate	-6598
▁Basically	-6599
▁Obviously	-6600
▁announced	-6601
▁associate	-6602
▁chromatin	-6603
▁exchanges	-6604
▁guarantee	-6605
▁operating	-6606
▁principal	-6607
▁promoting	-6608
▁subscribe	-6609
▁suggested	-6610
odysplastic	-6611
osaccharide	-6612
▁Assistants	-6613
▁Conference	-6614
▁Industries	-6615
▁Technology	-6616
▁asparagine	-6617
▁definitely	-6618
▁directions	-6619
▁electrical	-6620
▁horizontal	-6621
▁protection	-6622
▁represents	-6623
▁scientific	-6624
▁specialize	-6625
▁tryptophan	-6626
▁ultimately	-6627
▁ultrasound	-6628
▁Intrathecal	-6629
▁Lymphocytic	-6630
▁accordingly	-6631
▁aggregation	-6632
▁disclosures	-6633
▁hydrocarbon	-6634
▁liquidation	-6635
▁maintaining	-6636
▁recruitment	-6637
lyceraldehyde	-6638
▁acquisitions	-6639
▁carbohydrate	-6640
▁mathematical	-6641
▁supercoiling	-6642
▁Immunotherapy	-6643
▁approximately	-6644
▁conformations	-6645
▁glucopyranose	-6646
▁Responsibility	-6647
19	-6648
2.	-6649
Bs	-6650
LP	-6651
No	-6652
PR	-6653
va	-6654
ESS	-6655
anj	-6656
any	-6657
emy	-6658
equ	-6659
iar	-6660
ipl	-6661
ken	-6662
pec	-6663
rep	-6664
▁55	-6665
▁59	-6666
▁95	-6667
▁AD	-6668
▁BO	-6669
▁Ms	-6670
▁Op	-6671
▁Ty	-6672
▁km	-6673
alai	-6674
arth	-6675
avur	-6676
baxy	-6677
boke	-6678
cing	-6679
imus	-6680
itin	-6681
ocon	-6682
oram	-6683
reon	-6684
ried	-6685
rish	-6686
rode	-6687
ster	-6688
uing	-6689
uste	-6690
▁529	-6691
▁Cal	-6692
▁Gen	-6693
▁Kas	-6694
▁Lic	-6695
▁Lip	-6696
▁mid	-6697
▁tit	-6698
arter	-6699
atile	-6700
class	-6701
ellow	-6702
eries	-6703
immun	-6704
ogram	-6705
ollen	-6706
omics	-6707
opoly	-6708
polar	-6709
ulent	-6710
▁Cord	-6711
▁Hist	-6712
▁Side	-6713
▁Week	-6714
▁Well	-6715
▁band	-6716
▁cyst	-6717
▁echo	-6718
▁gift	-6719
▁hind	-6720
▁intr	-6721
▁lost	-6722
▁vary	-6723
ancing	-6724
arters	-6725
ctrine	-6726
enders	-6727
hedral	-6728
ieties	-6729
inated	-6730
▁GISTs	-6731
▁Issue	-6732
▁Polic	-6733
▁Singh	-6734
▁Small	-6735
▁Thanj	-6736
▁deleg	-6737
▁heter	-6738
▁palli	-6739
▁panel	-6740
▁queen	-6741
▁ships	-6742
▁thres	-6743
certain	-6744
hematic	-6745
keletal	-6746
licated	-6747
reonine	-6748
▁Before	-6749
▁Coming	-6750
▁Dravid	-6751
▁Family	-6752
▁Madras	-6753
▁Record	-6754
▁Supply	-6755
▁carcin	-6756
▁digest	-6757
▁elabor	-6758
▁esters	-6759
▁favour	-6760
▁guided	-6761
▁lessen	-6762
▁losses	-6763
▁nearly	-6764
▁predom	-6765
▁proton	-6766
▁salary	-6767
▁signed	-6768
▁sparse	-6769
▁starch	-6770
▁stores	-6771
▁stress	-6772
▁tariff	-6773
▁theore	-6774
igilance	-6775
membrane	-6776
▁Affairs	-6777
▁Centres	-6778
▁Gazette	-6779
▁PENSION	-6780
▁Panchay	-6781
▁Quality	-6782
▁Ranbaxy	-6783
▁Studies	-6784
▁Tension	-6785
▁animals	-6786
▁bundles	-6787
▁compare	-6788
▁cricket	-6789
▁deleted	-6790
▁entered	-6791
▁ethanol	-6792
▁farmers	-6793
▁hydroxy	-6794
▁mapping	-6795
▁monomer	-6796
▁optimal	-6797
▁protons	-6798
▁removes	-6799
▁reserve	-6800
▁stromal	-6801
▁subsidy	-6802
▁swollen	-6803
▁tightly	-6804
▁trypsin	-6805
▁variety	-6806
▁Business	-6807
▁Tyrosine	-6808
▁applying	-6809
▁assigned	-6810
▁constitu	-6811
▁included	-6812
▁instance	-6813
▁neurolog	-6814
▁oxidized	-6815
▁peptides	-6816
▁policies	-6817
▁recorded	-6818
▁vomiting	-6819
▁weakened	-6820
▁Parkinson	-6821
▁accidents	-6822
▁amendment	-6823
▁dependent	-6824
▁encounter	-6825
▁entrusted	-6826
▁indicated	-6827
▁insoluble	-6828
▁interacts	-6829
▁officials	-6830
▁reasoning	-6831
▁resources	-6832
▁secretary	-6833
▁similarly	-6834
▁threshold	-6835
▁Electrical	-6836
▁Employment	-6837
▁Evaluation	-6838
▁Peripheral	-6839
▁enterprise	-6840
▁eventually	-6841
▁exceptions	-6842
▁extraction	-6843
▁fraudulent	-6844
▁proceeding	-6845
▁Maintenance	-6846
▁derivatives	-6847
▁methylation	-6848
▁antiparallel	-6849
▁certificates	-6850
▁combinations	-6851
▁irrespective	-6852
▁laboratories	-6853
▁spectrometer	-6854
▁Institutional	-6855
▁consolidation	-6856
▁extracellular	-6857
▁participation	-6858
▁phospholipase	-6859
▁precipitation	-6860
▁transmembrane	-6861
▁classification	-6862
▁representative	-6863
▁phenylhydrazine	-6864
13	-6865
22	-6866
4.	-6867
49	-6868
FS	-6869
SP	-6870
ah	-6871
’.	-6872
AND	-6873
ERT	-6874
MAG	-6875
bit	-6876
bru	-6877
edd	-6878
inc	-6879
loc	-6880
med	-6881
olk	-6882
oud	-6883
rof	-6884
rum	-6885
tic	-6886
use	-6887
usp	-6888
zes	-6889
▁07	-6890
▁5%	-6891
▁66	-6892
▁AP	-6893
▁Gr	-6894
▁SC	-6895
▁SP	-6896
▁SS	-6897
▁WH	-6898
▁br	-6899
▁ly	-6900
▁ov	-6901
avis	-6902
enth	-6903
etry	-6904
oman	-6905
oton	-6906
plus	-6907
uity	-6908
uros	-6909
▁ACT	-6910
▁Car	-6911
▁Cyt	-6912
▁FPO	-6913
▁PVR	-6914
▁ROC	-6915
▁Rev	-6916
▁Typ	-6917
▁bru	-6918
▁dot	-6919
▁hip	-6920
▁map	-6921
▁row	-6922
angam	-6923
eling	-6924
enior	-6925
epass	-6926
ishes	-6927
olent	-6928
osaic	-6929
rishn	-6930
trans	-6931
ukary	-6932
▁2012	-6933
▁Area	-6934
▁Beta	-6935
▁Grad	-6936
▁IIIE	-6937
▁Pine	-6938
▁Post	-6939
▁VIII	-6940
▁arch	-6941
▁boat	-6942
▁dark	-6943
▁diag	-6944
▁fash	-6945
▁hair	-6946
▁isol	-6947
▁mood	-6948
▁stay	-6949
▁stra	-6950
▁tail	-6951
amycin	-6952
bruary	-6953
cember	-6954
inates	-6955
omencl	-6956
onduct	-6957
onsils	-6958
ronger	-6959
ropsin	-6960
uction	-6961
▁Erode	-6962
▁Gavis	-6963
▁Renew	-6964
▁Salai	-6965
▁asked	-6966
▁dimer	-6967
▁ester	-6968
▁ether	-6969
▁goals	-6970
▁multi	-6971
▁physi	-6972
▁prion	-6973
▁ready	-6974
▁recip	-6975
artered	-6976
atorial	-6977
ulating	-6978
▁Milkha	-6979
▁SERVIC	-6980
▁broken	-6981
▁echoes	-6982
▁eleven	-6983
▁height	-6984
▁learns	-6985
▁mother	-6986
▁nation	-6987
▁online	-6988
▁prefer	-6989
▁stroke	-6990
▁superv	-6991
▁threat	-6992
,000,000	-6993
oramboke	-6994
standing	-6995
ulations	-6996
▁Employe	-6997
▁Methods	-6998
▁Syndrom	-6999
▁captive	-7000
▁combine	-7001
▁dynamic	-7002
▁fashion	-7003
▁mediast	-7004
▁partner	-7005
▁pertain	-7006
▁reduces	-7007
▁resting	-7008
▁revenue	-7009
▁revised	-7010
▁segment	-7011
▁signals	-7012
▁simpler	-7013
▁species	-7014
operation	-7015
saturated	-7016
▁Complete	-7017
▁February	-7018
▁Sanction	-7019
▁agencies	-7020
▁anywhere	-7021
▁complain	-7022
▁complied	-7023
▁delivery	-7024
▁division	-7025
▁encroach	-7026
▁entities	-7027
▁entitled	-7028
▁feelings	-7029
▁governed	-7030
▁imparted	-7031
▁incision	-7032
▁polarity	-7033
▁situated	-7034
▁slightly	-7035
▁stronger	-7036
▁teaching	-7037
▁2008-2009	-7038
▁Allowance	-7039
▁Thanjavur	-7040
▁Vigilance	-7041
▁attention	-7042
▁awareness	-7043
▁empirical	-7044
▁framework	-7045
▁inserting	-7046
▁obtaining	-7047
▁offspring	-7048
▁phenomena	-7049
▁primitive	-7050
▁syndromes	-7051
omenclature	-7052
▁Institutes	-7053
▁biotherapy	-7054
▁comparison	-7055
▁conclusion	-7056
▁connective	-7057
▁constitute	-7058
▁literature	-7059
▁palliative	-7060
▁sufficient	-7061
▁Agriculture	-7062
▁Improvement	-7063
▁accountable	-7064
▁connections	-7065
▁legislation	-7066
▁arrangements	-7067
▁consultation	-7068
▁fibrosarcoma	-7069
▁phylogenetic	-7070
▁proportional	-7071
▁amalgamations	-7072
▁qualification	-7073
▁Infrastructure	-7074
▁rehabilitation	-7075
3.	-7076
34	-7077
4,	-7078
PS	-7079
St	-7080
jo	-7081
la	-7082
zy	-7083
VEL	-7084
adi	-7085
agi	-7086
ara	-7087
bal	-7088
eno	-7089
how	-7090
ina	-7091
iol	-7092
zhe	-7093
▁37	-7094
▁67	-7095
▁69	-7096
▁Id	-7097
▁Is	-7098
▁KE	-7099
▁LA	-7100
▁NF	-7101
▁NS	-7102
▁tn	-7103
CTOR	-7104
JECT	-7105
acet	-7106
adel	-7107
adre	-7108
alay	-7109
avan	-7110
ifts	-7111
itis	-7112
lled	-7113
miss	-7114
ober	-7115
odal	-7116
oked	-7117
omal	-7118
oneg	-7119
orum	-7120
osen	-7121
phia	-7122
upin	-7123
zero	-7124
▁25%	-7125
▁Can	-7126
▁Fac	-7127
▁POW	-7128
▁REG	-7129
▁Siv	-7130
▁Tra	-7131
▁bus	-7132
▁lie	-7133
▁tap	-7134
▁unf	-7135
▁unp	-7136
▁vul	-7137
▁wat	-7138
adder	-7139
anath	-7140
andhi	-7141
chant	-7142
elled	-7143
erous	-7144
estic	-7145
gical	-7146
iates	-7147
ipole	-7148
lings	-7149
ohist	-7150
oidal	-7151
oprol	-7152
▁1998	-7153
▁Acad	-7154
▁Anne	-7155
▁Bhar	-7156
▁Deep	-7157
▁Down	-7158
▁Medi	-7159
▁TKIs	-7160
▁Vell	-7161
▁Work	-7162
▁brow	-7163
▁card	-7164
▁cele	-7165
▁coil	-7166
▁coup	-7167
▁earn	-7168
▁enjo	-7169
▁fron	-7170
▁king	-7171
▁miss	-7172
▁obst	-7173
▁oils	-7174
▁pour	-7175
▁sand	-7176
▁scal	-7177
▁virt	-7178
alling	-7179
anoids	-7180
charge	-7181
itting	-7182
izumab	-7183
opolys	-7184
▁Alzhe	-7185
▁Amino	-7186
▁Basic	-7187
▁Gener	-7188
▁Lupin	-7189
▁Pharm	-7190
▁Thiru	-7191
▁acres	-7192
▁colon	-7193
▁daily	-7194
▁eicos	-7195
▁empty	-7196
▁entry	-7197
▁equil	-7198
▁frame	-7199
▁graph	-7200
▁inert	-7201
▁logic	-7202
▁minim	-7203
▁plans	-7204
▁rooms	-7205
▁sperm	-7206
▁stand	-7207
▁tells	-7208
▁trees	-7209
▁usual	-7210
▁yield	-7211
inoleic	-7212
itizens	-7213
oconjug	-7214
peptide	-7215
proline	-7216
rection	-7217
▁Hemang	-7218
▁Policy	-7219
▁attemp	-7220
▁bigger	-7221
▁budget	-7222
▁chosen	-7223
▁coiled	-7224
▁easier	-7225
▁eukary	-7226
▁gender	-7227
▁interp	-7228
▁joined	-7229
▁lowest	-7230
▁paying	-7231
▁plates	-7232
▁prices	-7233
▁retail	-7234
▁seeing	-7235
▁simply	-7236
▁stands	-7237
▁thymus	-7238
▁tonnes	-7239
▁truste	-7240
adelphia	-7241
gthening	-7242
isations	-7243
odendrog	-7244
ogenetic	-7245
▁Members	-7246
▁Mission	-7247
▁Topical	-7248
▁adverse	-7249
▁carrier	-7250
▁creates	-7251
▁extreme	-7252
▁friends	-7253
▁hipbone	-7254
▁largest	-7255
▁license	-7256
▁onwards	-7257
▁opposed	-7258
▁optical	-7259
▁perfect	-7260
▁setting	-7261
▁sixteen	-7262
▁valence	-7263
ignancies	-7264
lications	-7265
uvalluvar	-7266
▁Angstrom	-7267
▁Contract	-7268
▁December	-7269
▁Managing	-7270
▁Purchase	-7271
▁Security	-7272
▁Undertak	-7273
▁auditing	-7274
▁combines	-7275
▁conflict	-7276
▁detector	-7277
▁enrolled	-7278
▁feedback	-7279
▁indicate	-7280
▁literacy	-7281
▁modified	-7282
▁overview	-7283
▁premises	-7284
▁remedies	-7285
▁reported	-7286
▁speaking	-7287
▁straight	-7288
▁survival	-7289
▁underarm	-7290
ingolipids	-7291
structions	-7292
▁Embryonal	-7293
▁Transport	-7294
▁cutaneous	-7295
▁decreases	-7296
▁favorable	-7297
▁identical	-7298
▁infantile	-7299
▁measuring	-7300
▁naturally	-7301
▁oxidation	-7302
▁rearrange	-7303
▁repulsion	-7304
▁rituximab	-7305
▁simulated	-7306
▁testicles	-7307
▁transform	-7308
▁undertake	-7309
▁unwinding	-7310
▁variation	-7311
▁Irrigation	-7312
▁Memorandum	-7313
▁Settlement	-7314
▁allocation	-7315
▁attractive	-7316
▁electroneg	-7317
▁industries	-7318
▁initiative	-7319
▁lymphocyte	-7320
▁managerial	-7321
▁methionine	-7322
▁personally	-7323
▁population	-7324
fibromatosis	-7325
▁Engineering	-7326
▁Epithelioid	-7327
▁centimeters	-7328
▁degradation	-7329
▁determining	-7330
▁effectively	-7331
▁eligibility	-7332
▁enantiomers	-7333
▁fluorescent	-7334
▁Corporations	-7335
▁Institutions	-7336
▁Philadelphia	-7337
▁commissioned	-7338
▁consequences	-7339
▁maximization	-7340
▁nomenclature	-7341
▁proteoglycan	-7342
▁subsequently	-7343
oproliferative	-7344
▁Investigation	-7345
▁opportunities	-7346
ohistochemistry	-7347
▁proprietorship	-7348
▁qualifications	-7349
▁transformation	-7350
76	-7351
8,	-7352
AS	-7353
IG	-7354
NT	-7355
RO	-7356
VA	-7357
dd	-7358
lu	-7359
ya	-7360
▁”	-7361
ARY	-7362
DDB	-7363
IES	-7364
URE	-7365
eal	-7366
eni	-7367
hot	-7368
ien	-7369
ilg	-7370
ira	-7371
leg	-7372
och	-7373
oon	-7374
pel	-7375
tub	-7376
two	-7377
typ	-7378
yro	-7379
▁06	-7380
▁61	-7381
▁Lk	-7382
▁SM	-7383
00/-	-7384
alid	-7385
apar	-7386
ario	-7387
book	-7388
chym	-7389
erce	-7390
fall	-7391
fers	-7392
inee	-7393
irol	-7394
ksha	-7395
lear	-7396
orph	-7397
osal	-7398
resh	-7399
rils	-7400
umes	-7401
with	-7402
▁120	-7403
▁150	-7404
▁180	-7405
▁190	-7406
▁250	-7407
▁Adi	-7408
▁Cor	-7409
▁Fib	-7410
▁Fif	-7411
▁PUB	-7412
▁Pay	-7413
▁RES	-7414
▁Sat	-7415
▁Unt	-7416
▁WHO	-7417
▁WOR	-7418
▁Wid	-7419
▁cas	-7420
▁ded	-7421
▁dri	-7422
▁esc	-7423
▁sea	-7424
▁sil	-7425
VELOP	-7426
abled	-7427
agiri	-7428
akkam	-7429
apsed	-7430
celer	-7431
elles	-7432
going	-7433
inars	-7434
inent	-7435
ophen	-7436
ostel	-7437
osupp	-7438
putes	-7439
retch	-7440
umbar	-7441
veill	-7442
yroid	-7443
▁Core	-7444
▁Dear	-7445
▁Hous	-7446
▁LeuT	-7447
▁Look	-7448
▁Rule	-7449
▁Tour	-7450
▁adds	-7451
▁aden	-7452
▁clar	-7453
▁cycl	-7454
▁diam	-7455
▁ease	-7456
▁flat	-7457
▁home	-7458
▁lies	-7459
▁pent	-7460
▁rain	-7461
▁rede	-7462
▁rent	-7463
▁runs	-7464
▁stip	-7465
▁wing	-7466
aratus	-7467
equate	-7468
ground	-7469
inomas	-7470
omycin	-7471
overed	-7472
rapies	-7473
ritish	-7474
▁Annex	-7475
▁Chest	-7476
▁Fever	-7477
▁Field	-7478
▁Heads	-7479
▁Ident	-7480
▁Metro	-7481
▁Psych	-7482
▁Those	-7483
▁accur	-7484
▁aided	-7485
▁alien	-7486
▁annum	-7487
▁beams	-7488
▁cargo	-7489
▁clock	-7490
▁cloud	-7491
▁cured	-7492
▁fetus	-7493
▁marri	-7494
▁moved	-7495
▁oblig	-7496
▁owned	-7497
▁proxy	-7498
▁regim	-7499
▁suits	-7500
▁toile	-7501
▁trade	-7502
▁trust	-7503
▁waste	-7504
▁wheel	-7505
inguish	-7506
ivities	-7507
keleton	-7508
ourable	-7509
pecific	-7510
▁Agency	-7511
▁Benign	-7512
▁Design	-7513
▁Detail	-7514
▁Gandhi	-7515
▁Income	-7516
▁Legisl	-7517
▁PUBLIC	-7518
▁Peramb	-7519
▁Satyam	-7520
▁TANMAG	-7521
▁United	-7522
▁Weight	-7523
▁amphip	-7524
▁attain	-7525
▁bypass	-7526
▁cleave	-7527
▁embedd	-7528
▁inform	-7529
▁mosaic	-7530
▁mutual	-7531
▁offers	-7532
▁purple	-7533
▁reject	-7534
▁render	-7535
▁steric	-7536
▁worksh	-7537
irolimus	-7538
oisomers	-7539
▁Academy	-7540
▁Capital	-7541
▁Consult	-7542
▁DEVELOP	-7543
▁Justice	-7544
▁Records	-7545
▁SCHEMES	-7546
▁Steroid	-7547
▁Suppose	-7548
▁Uniform	-7549
▁approve	-7550
▁belongs	-7551
▁briefly	-7552
▁chapter	-7553
▁culture	-7554
▁damaged	-7555
▁defines	-7556
▁finance	-7557
▁gliomas	-7558
▁handled	-7559
▁handout	-7560
▁library	-7561
▁ligands	-7562
▁message	-7563
▁monitor	-7564
▁offence	-7565
▁perpend	-7566
▁polymer	-7567
▁popular	-7568
▁restaur	-7569
▁sectors	-7570
▁sharing	-7571
▁sigmoid	-7572
▁stretch	-7573
▁sulfate	-7574
▁surplus	-7575
▁thermal	-7576
ISTRATION	-7577
cutaneous	-7578
ficiaries	-7579
ibilities	-7580
overnance	-7581
▁Resource	-7582
▁Transfer	-7583
▁Unguided	-7584
▁breaking	-7585
▁bruising	-7586
▁chlorine	-7587
▁deposits	-7588
▁expenses	-7589
▁friendly	-7590
▁geometry	-7591
▁happened	-7592
▁labelled	-7593
▁linoleic	-7594
▁marginal	-7595
▁microtub	-7596
▁notified	-7597
▁phosphat	-7598
▁proposal	-7599
▁puncture	-7600
▁surgical	-7601
▁turnover	-7602
▁volatile	-7603
▁watching	-7604
▁Alzheimer	-7605
▁Buildings	-7606
▁Computers	-7607
▁Divisions	-7608
▁President	-7609
▁Textbooks	-7610
▁adsorbent	-7611
▁allowance	-7612
▁apparatus	-7613
▁applicant	-7614
▁dissolved	-7615
▁exercised	-7616
▁expensive	-7617
▁extremely	-7618
▁permanent	-7619
▁petitions	-7620
▁receptors	-7621
▁recursive	-7622
▁repayment	-7623
▁requested	-7624
▁scheduled	-7625
▁signature	-7626
▁therapies	-7627
▁threonine	-7628
▁triglycer	-7629
rengthening	-7630
▁Ependymoma	-7631
▁activation	-7632
▁committees	-7633
▁parameters	-7634
▁pertaining	-7635
▁prevention	-7636
▁profession	-7637
▁recognised	-7638
▁DEVELOPMENT	-7639
▁Publication	-7640
▁centrifugal	-7641
▁cooperative	-7642
▁electricity	-7643
▁exclusively	-7644
▁glycoconjug	-7645
▁institution	-7646
▁investigate	-7647
▁progression	-7648
▁recommended	-7649
▁Intermediate	-7650
▁Malignancies	-7651
▁Psychologist	-7652
▁administered	-7653
▁transporters	-7654
▁comprehensive	-7655
▁corresponding	-7656
▁manufacturing	-7657
▁modifications	-7658
▁perpendicular	-7659
▁physiological	-7660
▁preconditions	-7661
▁Superintending	-7662
▁accountability	-7663
▁characteristic	-7664
▁identification	-7665
▁intensification	-7666
79	-7667
PP	-7668
TH	-7669
lt	-7670
EAR	-7671
TOR	-7672
ape	-7673
aph	-7674
che	-7675
cop	-7676
elt	-7677
len	-7678
ped	-7679
udh	-7680
▁08	-7681
▁AS	-7682
▁Dh	-7683
▁IX	-7684
▁TA	-7685
ANCE	-7686
CIAL	-7687
cipl	-7688
ecun	-7689
iche	-7690
ichy	-7691
inib	-7692
iris	-7693
lial	-7694
olol	-7695
omon	-7696
onso	-7697
reek	-7698
umul	-7699
uvan	-7700
zing	-7701
▁101	-7702
▁110	-7703
▁20%	-7704
▁CBC	-7705
▁Cir	-7706
▁EDU	-7707
▁Equ	-7708
▁Kil	-7709
▁LLP	-7710
▁Mat	-7711
▁Tri	-7712
▁Vir	-7713
▁Vol	-7714
▁bow	-7715
▁dab	-7716
▁din	-7717
▁fer	-7718
▁lev	-7719
▁nor	-7720
▁vag	-7721
DDBFI	-7722
MENTS	-7723
Tamil	-7724
adium	-7725
after	-7726
allur	-7727
iolet	-7728
lexes	-7729
order	-7730
stead	-7731
uppur	-7732
ylate	-7733
▁BCLC	-7734
▁Calc	-7735
▁DIRE	-7736
▁Dept	-7737
▁Gram	-7738
▁NHAI	-7739
▁Nilg	-7740
▁Oper	-7741
▁Pass	-7742
▁Phot	-7743
▁Poly	-7744
▁Test	-7745
▁clot	-7746
▁cool	-7747
▁emph	-7748
▁eval	-7749
▁felt	-7750
▁foot	-7751
▁hect	-7752
▁lone	-7753
▁mTOR	-7754
▁pure	-7755
▁rend	-7756
▁silk	-7757
▁whom	-7758
▁wish	-7759
dipole	-7760
operat	-7761
overty	-7762
▁1956.	-7763
▁Anglo	-7764
▁Early	-7765
▁Nagar	-7766
▁POWER	-7767
▁Place	-7768
▁Ravan	-7769
▁acted	-7770
▁blast	-7771
▁cadre	-7772
▁calls	-7773
▁chief	-7774
▁empow	-7775
▁fibro	-7776
▁focal	-7777
▁habit	-7778
▁liber	-7779
▁manip	-7780
▁metab	-7781
▁mobil	-7782
▁moral	-7783
▁setup	-7784
▁sorry	-7785
▁speak	-7786
▁thick	-7787
▁vires	-7788
genital	-7789
onsored	-7790
▁Anyway	-7791
▁Glioma	-7792
▁Lumbar	-7793
▁MTRANS	-7794
▁Medium	-7795
▁Prepar	-7796
▁Sangam	-7797
▁anomer	-7798
▁artery	-7799
▁banker	-7800
▁breath	-7801
▁closer	-7802
▁comply	-7803
▁earned	-7804
▁failed	-7805
▁framed	-7806
▁inters	-7807
▁leaves	-7808
▁native	-7809
▁quorum	-7810
▁safely	-7811
▁senses	-7812
▁sheath	-7813
▁worker	-7814
ecuniary	-7815
ferences	-7816
idential	-7817
▁British	-7818
▁Cinemas	-7819
▁Classes	-7820
▁Constit	-7821
▁Instead	-7822
▁Monsoon	-7823
▁October	-7824
▁Princip	-7825
▁Regular	-7826
▁Reports	-7827
▁Stromal	-7828
▁Trouble	-7829
▁Website	-7830
▁bromine	-7831
▁carbons	-7832
▁centres	-7833
▁concess	-7834
▁designs	-7835
▁dipoles	-7836
▁equally	-7837
▁filling	-7838
▁invoked	-7839
▁isomers	-7840
▁lecture	-7841
▁operate	-7842
▁overall	-7843
▁patches	-7844
▁publish	-7845
▁quantit	-7846
▁redress	-7847
▁thyroid	-7848
▁village	-7849
ciplinary	-7850
veillance	-7851
▁DIRECTOR	-7852
▁Eleventh	-7853
▁Nilgiris	-7854
▁Syndrome	-7855
▁Systemic	-7856
▁Takeover	-7857
▁deletion	-7858
▁incurred	-7859
▁machines	-7860
▁mesylate	-7861
▁monomers	-7862
▁multiply	-7863
▁pointing	-7864
▁prevents	-7865
▁reserved	-7866
▁salesman	-7867
▁scenario	-7868
▁stranded	-7869
▁subtypes	-7870
▁supposed	-7871
▁switches	-7872
raskeletal	-7873
▁Conformal	-7874
▁Employees	-7875
▁Infantile	-7876
▁Promotion	-7877
▁Renewable	-7878
▁attracted	-7879
▁cancerous	-7880
▁catalytic	-7881
▁chemicals	-7882
▁comparing	-7883
▁comprises	-7884
▁conserved	-7885
▁countries	-7886
▁cytometry	-7887
▁debenture	-7888
▁exercises	-7889
▁president	-7890
▁prototype	-7891
▁recognise	-7892
▁summarize	-7893
▁temporary	-7894
▁universal	-7895
operativity	-7896
▁2009-2010,	-7897
▁Activities	-7898
▁Perambalur	-7899
▁Securities	-7900
▁adsorption	-7901
▁aggregates	-7902
▁hydrolyzed	-7903
▁indicating	-7904
▁phenomenon	-7905
▁punishable	-7906
▁restaurant	-7907
▁Cytogenetic	-7908
▁considering	-7909
▁eicosanoids	-7910
▁enforcement	-7911
▁experiments	-7912
▁integration	-7913
▁obligations	-7914
▁particulars	-7915
▁procurement	-7916
▁prospective	-7917
▁resignation	-7918
▁sanctioning	-7919
▁specialized	-7920
▁transported	-7921
▁Pediatrician	-7922
▁compensation	-7923
▁disaccharide	-7924
▁improvements	-7925
▁inflammatory	-7926
▁intersection	-7927
▁intervention	-7928
▁legislations	-7929
▁spectrometry	-7930
▁glycosylation	-7931
▁international	-7932
▁organisations	-7933
▁participating	-7934
▁rearrangement	-7935
▁hydroxyproline	-7936
▁electronegative	-7937
▁representations	-7938
30	-7939
31	-7940
5,	-7941
90	-7942
RU	-7943
oy	-7944
▁+	-7945
ARC	-7946
ITY	-7947
asi	-7948
ilt	-7949
irs	-7950
lim	-7951
uks	-7952
▁3.	-7953
▁46	-7954
▁54	-7955
▁58	-7956
▁76	-7957
▁AB	-7958
▁Cy	-7959
▁Fr	-7960
▁Ge	-7961
▁RO	-7962
▁SF	-7963
▁UV	-7964
▁xi	-7965
IONS	-7966
agar	-7967
amer	-7968
bots	-7969
elsi	-7970
iduc	-7971
ilot	-7972
irap	-7973
ogle	-7974
omat	-7975
orms	-7976
regn	-7977
rict	-7978
rium	-7979
ulam	-7980
vial	-7981
xoid	-7982
▁15%	-7983
▁300	-7984
▁ASS	-7985
▁Adv	-7986
▁Aug	-7987
▁Enc	-7988
▁Mut	-7989
▁PRI	-7990
▁SEF	-7991
▁Sch	-7992
▁Ser	-7993
▁Ult	-7994
▁enl	-7995
▁mac	-7996
▁mim	-7997
▁mit	-7998
▁sib	-7999
▁son	-8000
▁sue	-8001
▁suf	-8002
▁wel	-8003
000/-	-8004
agang	-8005
allic	-8006
azone	-8007
ellum	-8008
ensed	-8009
feree	-8010
ficit	-8011
inger	-8012
iofib	-8013
lasts	-8014
oform	-8015
oming	-8016
osine	-8017
osure	-8018
ronch	-8019
tered	-8020
umbai	-8021
units	-8022
using	-8023
ylose	-8024
▁1999	-8025
▁BRAF	-8026
▁Dani	-8027
▁Dipl	-8028
▁Fine	-8029
▁Glyc	-8030
▁IMRT	-8031
▁Kann	-8032
▁Kany	-8033
▁Mark	-8034
▁Meet	-8035
▁Phys	-8036
▁Wind	-8037
▁argu	-8038
▁ball	-8039
▁cult	-8040
▁cure	-8041
▁desc	-8042
▁drop	-8043
▁ends	-8044
▁ever	-8045
▁hear	-8046
▁lose	-8047
▁mill	-8048
▁mono	-8049
▁phot	-8050
▁pitu	-8051
▁reve	-8052
▁suit	-8053
▁susp	-8054
▁symb	-8055
▁void	-8056
agents	-8057
agland	-8058
astere	-8059
atuity	-8060
elsius	-8061
hesion	-8062
ighter	-8063
imeric	-8064
ogenic	-8065
olymer	-8066
otonin	-8067
struct	-8068
▁2016.	-8069
▁Agree	-8070
▁Asian	-8071
▁Cereb	-8072
▁Estim	-8073
▁Fifth	-8074
▁Greek	-8075
▁House	-8076
▁PRESS	-8077
▁SMARC	-8078
▁Sarva	-8079
▁Taluk	-8080
▁Theni	-8081
▁Women	-8082
▁abund	-8083
▁arise	-8084
▁array	-8085
▁elute	-8086
▁fiduc	-8087
▁fifth	-8088
▁fluor	-8089
▁judge	-8090
▁label	-8091
▁lease	-8092
▁modes	-8093
▁myelo	-8094
▁owner	-8095
▁proph	-8096
▁recru	-8097
▁resin	-8098
▁rigor	-8099
▁sanct	-8100
▁solar	-8101
▁solub	-8102
▁surpr	-8103
▁topic	-8104
▁woman	-8105
ception	-8106
ichever	-8107
ocortic	-8108
romatic	-8109
sequent	-8110
uchirap	-8111
vertise	-8112
▁Bodies	-8113
▁Census	-8114
▁Course	-8115
▁Google	-8116
▁Import	-8117
▁Krishn	-8118
▁Member	-8119
▁Mumbai	-8120
▁Networ	-8121
▁Normal	-8122
▁Parent	-8123
▁RDDBFI	-8124
▁advice	-8125
▁agreed	-8126
▁ancest	-8127
▁apprec	-8128
▁childs	-8129
▁coated	-8130
▁discip	-8131
▁effort	-8132
▁equals	-8133
▁evapor	-8134
▁excell	-8135
▁extens	-8136
▁folded	-8137
▁global	-8138
▁hyalur	-8139
▁killer	-8140
▁marker	-8141
▁obstac	-8142
▁picked	-8143
▁proved	-8144
▁pursue	-8145
▁relate	-8146
▁scenes	-8147
▁showed	-8148
▁spaces	-8149
▁subdom	-8150
▁temper	-8151
▁vested	-8152
▁visual	-8153
▁window	-8154
00,000/-	-8155
avorable	-8156
function	-8157
iofibrom	-8158
oprotein	-8159
ukkottai	-8160
▁Coastal	-8161
▁Control	-8162
▁Current	-8163
▁Develop	-8164
▁Diploma	-8165
▁Million	-8166
▁Shiksha	-8167
▁Staging	-8168
▁Subject	-8169
▁Vellore	-8170
▁Western	-8171
▁adjudic	-8172
▁batches	-8173
▁biology	-8174
▁blocked	-8175
▁blocker	-8176
▁deficit	-8177
▁devices	-8178
▁diagram	-8179
▁distant	-8180
▁fitness	-8181
▁grouped	-8182
▁hepatic	-8183
▁infants	-8184
▁ketoses	-8185
▁knowing	-8186
▁nominal	-8187
▁optimum	-8188
▁outputs	-8189
▁rapidly	-8190
▁reaches	-8191
▁realize	-8192
▁stadium	-8193
▁statute	-8194
▁targets	-8195
▁tenders	-8196
▁therein	-8197
▁trivial	-8198
asibility	-8199
gradation	-8200
yelocytic	-8201
▁Annexure	-8202
▁Assembly	-8203
▁Dearness	-8204
▁Detailed	-8205
▁Fourthly	-8206
▁Literacy	-8207
▁Register	-8208
▁Sivagang	-8209
▁accurate	-8210
▁behavior	-8211
▁biopsies	-8212
▁cerebrum	-8213
▁concepts	-8214
▁consumer	-8215
▁creation	-8216
▁crystals	-8217
▁detected	-8218
▁diameter	-8219
▁disputes	-8220
▁doctrine	-8221
▁enhanced	-8222
▁epidemic	-8223
▁handling	-8224
▁headache	-8225
▁indolent	-8226
▁linkages	-8227
▁offences	-8228
▁oriented	-8229
▁protects	-8230
▁pursuing	-8231
▁releases	-8232
▁sectoral	-8233
▁segments	-8234
▁smallest	-8235
▁subunits	-8236
▁transloc	-8237
▁utilized	-8238
▁variable	-8239
▁vertical	-8240
▁withdraw	-8241
▁yourself	-8242
▁Community	-8243
▁Implement	-8244
▁Improving	-8245
▁Resources	-8246
▁benefited	-8247
▁carcinoma	-8248
▁constrain	-8249
▁correctly	-8250
▁disclosed	-8251
▁estimates	-8252
▁extension	-8253
▁fiduciary	-8254
▁furnished	-8255
▁glutamine	-8256
▁immediate	-8257
▁insurance	-8258
▁intensity	-8259
▁optically	-8260
▁pecuniary	-8261
▁pituitary	-8262
▁presently	-8263
▁reappoint	-8264
▁regulator	-8265
▁repeating	-8266
▁resistant	-8267
▁serotonin	-8268
▁signifies	-8269
▁specially	-8270
▁takeovers	-8271
▁whichever	-8272
anathapuram	-8273
▁Accountant	-8274
▁Anaplastic	-8275
▁agreements	-8276
▁attributes	-8277
▁broadening	-8278
▁frequently	-8279
▁integrated	-8280
▁prohibited	-8281
▁rotational	-8282
▁stabilized	-8283
▁strategies	-8284
▁DIRECTORATE	-8285
▁Kanyakumari	-8286
▁Preparation	-8287
▁Statistical	-8288
▁alterations	-8289
▁alternative	-8290
▁calculation	-8291
▁compliances	-8292
▁complicated	-8293
▁distinction	-8294
▁ganglioside	-8295
▁manufacture	-8296
▁measurement	-8297
▁subscribers	-8298
▁theoretical	-8299
▁Chairmanship	-8300
▁REGISTRATION	-8301
▁availability	-8302
▁consolidated	-8303
▁continuation	-8304
▁dissociation	-8305
▁establishing	-8306
▁instructions	-8307
▁notification	-8308
▁optimization	-8309
▁precondition	-8310
▁stereotactic	-8311
▁subcutaneous	-8312
▁successfully	-8313
▁underwriting	-8314
▁beneficiaries	-8315
▁cooperativity	-8316
▁developmental	-8317
▁glycoproteins	-8318
▁pineoblastoma	-8319
▁polysaccharide	-8320
▁reconstruction	-8321
▁medulloblastoma	-8322
/0	-8323
/4	-8324
25	-8325
5.	-8326
72	-8327
BA	-8328
CM	-8329
Ch	-8330
KG	-8331
MW	-8332
NN	-8333
gg	-8334
gi	-8335
’,	-8336
▁@	-8337
ADU	-8338
FOR	-8339
Reg	-8340
The	-8341
ala	-8342
bed	-8343
gon	-8344
idy	-8345
ife	-8346
irl	-8347
lev	-8348
ohe	-8349
oor	-8350
run	-8351
vac	-8352
xts	-8353
▁34	-8354
▁5,	-8355
▁63	-8356
▁68	-8357
▁71	-8358
▁72	-8359
▁78	-8360
▁79	-8361
▁AG	-8362
▁Av	-8363
▁Bl	-8364
▁ES	-8365
▁EX	-8366
▁Ry	-8367
▁ec	-8368
▁ml	-8369
▁ow	-8370
▁tR	-8371
,5,0	-8372
FORM	-8373
adic	-8374
aper	-8375
axis	-8376
eers	-8377
elli	-8378
enib	-8379
etty	-8380
icip	-8381
iour	-8382
more	-8383
osts	-8384
path	-8385
role	-8386
ties	-8387
time	-8388
tson	-8389
ulph	-8390
umer	-8391
vile	-8392
▁141	-8393
▁Air	-8394
▁Ari	-8395
▁Att	-8396
▁Exc	-8397
▁Her	-8398
▁Lit	-8399
▁Mus	-8400
▁Sug	-8401
▁Vac	-8402
▁bee	-8403
▁cul	-8404
▁dys	-8405
▁hex	-8406
▁hot	-8407
▁mix	-8408
▁mol	-8409
▁mom	-8410
▁pKR	-8411
▁sex	-8412
aceut	-8413
aiyur	-8414
amide	-8415
aning	-8416
arged	-8417
asome	-8418
athic	-8419
comes	-8420
emale	-8421
eness	-8422
erest	-8423
feron	-8424
hiyan	-8425
hydro	-8426
ially	-8427
ignar	-8428
iotic	-8429
light	-8430
lobal	-8431
point	-8432
rease	-8433
rooms	-8434
unior	-8435
ursed	-8436
verts	-8437
yalur	-8438
▁1991	-8439
▁1997	-8440
▁Biom	-8441
▁City	-8442
▁EDUC	-8443
▁East	-8444
▁Hill	-8445
▁Katt	-8446
▁MNRE	-8447
▁Past	-8448
▁Prop	-8449
▁Sita	-8450
▁Upto	-8451
▁Weak	-8452
▁bend	-8453
▁bile	-8454
▁bott	-8455
▁camp	-8456
▁lack	-8457
▁lock	-8458
▁male	-8459
▁page	-8460
▁phil	-8461
▁poor	-8462
▁ribs	-8463
▁rice	-8464
▁save	-8465
▁sets	-8466
Sachin	-8467
abling	-8468
ansion	-8469
ervice	-8470
holder	-8471
ibrium	-8472
icated	-8473
itored	-8474
olenic	-8475
olitan	-8476
readth	-8477
rected	-8478
retion	-8479
usters	-8480
uzumab	-8481
ylaxis	-8482
▁1956,	-8483
▁2008,	-8484
▁2011.	-8485
▁3,5,0	-8486
▁Plant	-8487
▁Rober	-8488
▁South	-8489
▁Terat	-8490
▁Trust	-8491
▁bowel	-8492
▁colle	-8493
▁conce	-8494
▁elong	-8495
▁embry	-8496
▁facts	-8497
▁forum	-8498
▁fresh	-8499
▁gathe	-8500
▁girls	-8501
▁heads	-8502
▁kills	-8503
▁moles	-8504
▁motiv	-8505
▁opens	-8506
▁proof	-8507
▁sandw	-8508
▁shelf	-8509
▁shell	-8510
▁shift	-8511
▁sixth	-8512
▁tails	-8513
▁tasks	-8514
▁tends	-8515
atorium	-8516
licitly	-8517
namalai	-8518
otyping	-8519
ranolol	-8520
unities	-8521
▁August	-8522
▁Medull	-8523
▁Natham	-8524
▁People	-8525
▁Rights	-8526
▁Schank	-8527
▁Tollen	-8528
▁Trichy	-8529
▁atomic	-8530
▁border	-8531
▁butter	-8532
▁codons	-8533
▁covers	-8534
▁divers	-8535
▁eating	-8536
▁evolve	-8537
▁explan	-8538
▁glands	-8539
▁invent	-8540
▁lastly	-8541
▁lights	-8542
▁moment	-8543
▁opened	-8544
▁perpet	-8545
▁phased	-8546
▁polyun	-8547
▁repair	-8548
▁ribose	-8549
▁shapes	-8550
▁shifts	-8551
▁sought	-8552
▁update	-8553
▁weaker	-8554
▁yellow	-8555
atically	-8556
itecture	-8557
olitical	-8558
osterone	-8559
transfer	-8560
▁Abhiyan	-8561
▁Auditor	-8562
▁Celsius	-8563
▁Details	-8564
▁Diffuse	-8565
▁Electro	-8566
▁Firstly	-8567
▁Housing	-8568
▁PROJECT	-8569
▁Reserve	-8570
▁Several	-8571
▁Society	-8572
▁Support	-8573
▁Thirukk	-8574
▁Unusual	-8575
▁advance	-8576
▁amongst	-8577
▁authors	-8578
▁calling	-8579
▁causing	-8580
▁chooses	-8581
▁cleaved	-8582
▁coastal	-8583
▁columns	-8584
▁comprom	-8585
▁diverse	-8586
▁earning	-8587
▁enquiry	-8588
▁erected	-8589
▁exceeds	-8590
▁execute	-8591
▁figures	-8592
▁furnish	-8593
▁harmful	-8594
▁homogen	-8595
▁justice	-8596
▁keratin	-8597
▁nanomet	-8598
▁nominee	-8599
▁osazone	-8600
▁predict	-8601
▁screens	-8602
▁settled	-8603
▁toilets	-8604
▁tonsils	-8605
▁venture	-8606
▁workers	-8607
ropolitan	-8608
▁Activity	-8609
▁Danielli	-8610
▁Election	-8611
▁Function	-8612
▁Independ	-8613
▁Interest	-8614
▁Normally	-8615
▁Painless	-8616
▁Particip	-8617
▁Regional	-8618
▁SERVICES	-8619
▁Syllabus	-8620
▁Tiruppur	-8621
▁Weakness	-8622
▁accident	-8623
▁adequate	-8624
▁analyzed	-8625
▁comments	-8626
▁converts	-8627
▁damaging	-8628
▁directed	-8629
▁gathered	-8630
▁glycosph	-8631
▁imatinib	-8632
▁intended	-8633
▁merchant	-8634
▁prescrib	-8635
▁retained	-8636
▁sentence	-8637
▁siblings	-8638
▁strategy	-8639
▁strongly	-8640
▁thirteen	-8641
chromicity	-8642
omonocytic	-8643
▁Angstroms	-8644
▁EDUCATION	-8645
▁Economics	-8646
▁Panchayat	-8647
▁Placement	-8648
▁Professor	-8649
▁Robertson	-8650
▁achieving	-8651
▁advertise	-8652
▁automated	-8653
▁automatic	-8654
▁clearance	-8655
▁conferred	-8656
▁empowered	-8657
▁equipment	-8658
▁everybody	-8659
▁exceeding	-8660
▁executing	-8661
▁expertise	-8662
▁galactose	-8663
▁hindrance	-8664
▁intermedi	-8665
▁intestine	-8666
▁libraries	-8667
▁linolenic	-8668
▁liposomes	-8669
▁lymphatic	-8670
▁monitored	-8671
▁nominated	-8672
▁professor	-8673
▁routinely	-8674
▁sanctuary	-8675
▁sirolimus	-8676
▁societies	-8677
onstruction	-8678
uvannamalai	-8679
▁Additional	-8680
▁Bankruptcy	-8681
▁Foundation	-8682
▁Honourable	-8683
▁Immunophen	-8684
▁absorption	-8685
▁accessible	-8686
▁chloroform	-8687
▁coordinate	-8688
▁corruption	-8689
▁dependency	-8690
▁discovered	-8691
▁distamycin	-8692
▁eukaryotic	-8693
▁generating	-8694
▁mechanical	-8695
▁membership	-8696
▁microscopy	-8697
▁possession	-8698
▁protective	-8699
▁proteomics	-8700
▁regulating	-8701
▁relatively	-8702
▁structured	-8703
▁transferee	-8704
▁transferor	-8705
▁Legislative	-8706
▁Neurologist	-8707
▁Pudukkottai	-8708
▁amphipathic	-8709
▁chairperson	-8710
▁cooperation	-8711
▁distinguish	-8712
▁dysfunction	-8713
▁electrochem	-8714
▁equilibrium	-8715
▁exploration	-8716
▁extensively	-8717
▁interacting	-8718
▁observation	-8719
▁outstanding	-8720
▁possibility	-8721
▁predominant	-8722
▁prophylaxis	-8723
▁prostagland	-8724
▁subscribing	-8725
▁Certificates	-8726
▁Constitution	-8727
▁Subsequently	-8728
▁Transmission	-8729
▁biomolecules	-8730
▁contributing	-8731
▁oligodendrog	-8732
▁participated	-8733
▁periodically	-8734
▁Strengthening	-8735
▁contravention	-8736
▁craniopharyng	-8737
▁encroachments	-8738
▁fragmentation	-8739
▁hybridization	-8740
▁incorporating	-8741
▁organizations	-8742
▁professionals	-8743
▁supplementary	-8744
▁Implementation	-8745
▁Ramanathapuram	-8746
opolysaccharides	-8747
▁polyunsaturated	-8748
.,	-8749
75	-8750
94	-8751
Os	-8752
YE	-8753
fl	-8754
mn	-8755
oz	-8756
we	-8757
-07	-8758
-08	-8759
ALT	-8760
Cor	-8761
ISH	-8762
IVE	-8763
Ind	-8764
cil	-8765
iot	-8766
lut	-8767
nem	-8768
nge	-8769
ock	-8770
off	-8771
ori	-8772
rup	-8773
uts	-8774
vol	-8775
▁-1	-8776
▁53	-8777
▁93	-8778
▁EL	-8779
▁Hb	-8780
▁IT	-8781
▁Mr	-8782
▁PP	-8783
▁Pi	-8784
▁Py	-8785
▁Ri	-8786
▁SE	-8787
▁Sw	-8788
▁Tw	-8789
▁Ut	-8790
▁Ve	-8791
▁ok	-8792
▁pu	-8793
axes	-8794
econ	-8795
epar	-8796
ians	-8797
ibly	-8798
icyt	-8799
igul	-8800
ilty	-8801
inol	-8802
inus	-8803
leep	-8804
onst	-8805
opsy	-8806
reet	-8807
ucid	-8808
ulum	-8809
utic	-8810
uzzy	-8811
zene	-8812
▁447	-8813
▁75%	-8814
▁90%	-8815
▁CLL	-8816
▁Chi	-8817
▁Don	-8818
▁Eas	-8819
▁Its	-8820
▁Jap	-8821
▁Mur	-8822
▁Nam	-8823
▁Oil	-8824
▁Pal	-8825
▁PrP	-8826
▁QIP	-8827
▁Sha	-8828
▁Var	-8829
▁Web	-8830
▁alt	-8831
▁avo	-8832
▁egg	-8833
▁eve	-8834
▁hon	-8835
▁nar	-8836
▁osm	-8837
▁van	-8838
agist	-8839
akkal	-8840
anate	-8841
apuri	-8842
ausea	-8843
avson	-8844
enary	-8845
eract	-8846
etime	-8847
gener	-8848
indle	-8849
inoma	-8850
inted	-8851
itute	-8852
olism	-8853
olute	-8854
omide	-8855
onate	-8856
ovial	-8857
parov	-8858
senic	-8859
state	-8860
▁1980	-8861
▁2002	-8862
▁Acts	-8863
▁Angi	-8864
▁Anti	-8865
▁Atyp	-8866
▁COMM	-8867
▁CTLA	-8868
▁DIET	-8869
▁FISH	-8870
▁Hand	-8871
▁Hary	-8872
▁Hect	-8873
▁Home	-8874
▁Hosp	-8875
▁July	-8876
▁MALT	-8877
▁Myel	-8878
▁Open	-8879
▁Pack	-8880
▁Rank	-8881
▁SFIO	-8882
▁Thin	-8883
▁cast	-8884
▁doll	-8885
▁emot	-8886
▁fish	-8887
▁foll	-8888
▁iron	-8889
▁lens	-8890
▁love	-8891
▁mild	-8892
▁panc	-8893
▁pers	-8894
▁pill	-8895
▁poll	-8896
▁rash	-8897
▁redd	-8898
▁soil	-8899
▁tang	-8900
▁thro	-8901
▁tick	-8902
▁warr	-8903
Indian	-8904
arding	-8905
chymal	-8906
ectomy	-8907
ershed	-8908
iaries	-8909
inuing	-8910
ivered	-8911
marked	-8912
odynam	-8913
olipid	-8914
oresis	-8915
osomal	-8916
phobic	-8917
rendel	-8918
riched	-8919
throse	-8920
▁2013,	-8921
▁Birth	-8922
▁Cells	-8923
▁Cross	-8924
▁Equip	-8925
▁Final	-8926
▁Guide	-8927
▁Karur	-8928
▁Nodal	-8929
▁Nucle	-8930
▁Order	-8931
▁Plans	-8932
▁Prime	-8933
▁Prize	-8934
▁River	-8935
▁Think	-8936
▁accum	-8937
▁advis	-8938
▁brown	-8939
▁built	-8940
▁cleft	-8941
▁coils	-8942
▁demer	-8943
▁exams	-8944
▁favor	-8945
▁flows	-8946
▁fuzzy	-8947
▁grand	-8948
▁grown	-8949
▁hepat	-8950
▁inner	-8951
▁irreg	-8952
▁jetty	-8953
▁lever	-8954
▁lists	-8955
▁mills	-8956
▁misle	-8957
▁negot	-8958
▁norms	-8959
▁nurse	-8960
▁prone	-8961
▁pumps	-8962
▁purif	-8963
▁rehab	-8964
▁reimb	-8965
▁scler	-8966
▁serum	-8967
▁sides	-8968
▁slant	-8969
▁sleep	-8970
▁spend	-8971
▁steep	-8972
▁stone	-8973
▁texts	-8974
▁towns	-8975
▁track	-8976
▁trend	-8977
▁twice	-8978
General	-8979
alanine	-8980
ductive	-8981
essment	-8982
icytoma	-8983
indigul	-8984
ohexose	-8985
▁ASSIST	-8986
▁ATRANS	-8987
▁Common	-8988
▁Global	-8989
▁Gorter	-8990
▁Ground	-8991
▁Junior	-8992
▁Metric	-8993
▁Neural	-8994
▁Object	-8995
▁Scient	-8996
▁Stages	-8997
▁Strate	-8998
▁Virudh	-8999
▁Vision	-9000
▁anyway	-9001
▁apolip	-9002
▁bottom	-9003
▁casual	-9004
▁cation	-9005
▁celebr	-9006
▁divide	-9007
▁elucid	-9008
▁expand	-9009
▁funded	-9010
▁genome	-9011
▁guilty	-9012
▁linker	-9013
▁manual	-9014
▁mapped	-9015
▁merits	-9016
▁modify	-9017
▁myofib	-9018
▁narrow	-9019
▁postal	-9020
▁refers	-9021
▁rotate	-9022
▁saying	-9023
▁smooth	-9024
▁spider	-9025
▁spiral	-9026
▁vacant	-9027
▁varies	-9028
▁virtue	-9029
armapuri	-9030
economic	-9031
esseract	-9032
fication	-9033
phoresis	-9034
raviolet	-9035
ublished	-9036
udiciary	-9037
▁Appoint	-9038
▁Biomass	-9039
▁Conduct	-9040
▁Designs	-9041
▁Fibrous	-9042
▁Grendel	-9043
▁Haryana	-9044
▁Network	-9045
▁Package	-9046
▁Tenders	-9047
▁Usually	-9048
▁aldonic	-9049
▁amylose	-9050
▁avoided	-9051
▁bladder	-9052
▁century	-9053
▁chances	-9054
▁closure	-9055
▁display	-9056
▁dispute	-9057
▁emerged	-9058
▁ependym	-9059
▁fibrils	-9060
▁genomic	-9061
▁guanine	-9062
▁homolog	-9063
▁insider	-9064
▁interim	-9065
▁picking	-9066
▁privile	-9067
▁regards	-9068
▁relates	-9069
▁repeats	-9070
▁resumes	-9071
▁scrutin	-9072
▁somehow	-9073
▁specify	-9074
▁strands	-9075
▁streams	-9076
▁sucrose	-9077
▁surgeon	-9078
▁teacher	-9079
▁watched	-9080
▁welcome	-9081
▁widened	-9082
▁winning	-9083
alization	-9084
aunomycin	-9085
celerated	-9086
iyakumari	-9087
ocational	-9088
umulative	-9089
vacizumab	-9090
▁Articles	-9091
▁Atypical	-9092
▁Colleges	-9093
▁Graduate	-9094
▁Hectares	-9095
▁Kasparov	-9096
▁Overview	-9097
▁Servants	-9098
▁absolute	-9099
▁acquires	-9100
▁ancestor	-9101
▁aromatic	-9102
▁becoming	-9103
▁branched	-9104
▁collabor	-9105
▁crystall	-9106
▁denature	-9107
▁diastere	-9108
▁disposal	-9109
▁dissolve	-9110
▁dominant	-9111
▁drainage	-9112
▁effected	-9113
▁embedded	-9114
▁engineer	-9115
▁enlarged	-9116
▁enriched	-9117
▁exposure	-9118
▁hectares	-9119
▁intercon	-9120
▁judgment	-9121
▁juvenile	-9122
▁obstacle	-9123
▁occurred	-9124
▁pancreas	-9125
▁patterns	-9126
▁polymers	-9127
▁promoted	-9128
▁protease	-9129
▁reagents	-9130
▁reflexes	-9131
▁rendered	-9132
▁retiring	-9133
▁secondly	-9134
▁seminars	-9135
▁shortest	-9136
▁slanting	-9137
▁surfaces	-9138
▁synthase	-9139
Corruption	-9140
▁Agreement	-9141
▁Chemistry	-9142
▁Procedure	-9143
▁Transform	-9144
▁Tribunals	-9145
▁Untreated	-9146
▁admission	-9147
▁alignment	-9148
▁allocated	-9149
▁carefully	-9150
▁committed	-9151
▁community	-9152
▁contained	-9153
▁convicted	-9154
▁dedicated	-9155
▁delegated	-9156
▁delivered	-9157
▁deposited	-9158
▁distances	-9159
▁diversion	-9160
▁excellent	-9161
▁expansion	-9162
▁extending	-9163
▁extensive	-9164
▁forwarded	-9165
▁generator	-9166
▁incisions	-9167
▁interests	-9168
▁interpret	-9169
▁irregular	-9170
▁maintains	-9171
▁modulated	-9172
▁objection	-9173
▁occurring	-9174
▁perpetual	-9175
▁polarized	-9176
▁primarily	-9177
▁producing	-9178
▁recipient	-9179
▁releasing	-9180
▁responses	-9181
▁separates	-9182
▁suffering	-9183
▁surprised	-9184
▁travelled	-9185
▁variables	-9186
corporation	-9187
immunoassay	-9188
inoblastoma	-9189
opericytoma	-9190
resentation	-9191
▁Continuing	-9192
▁Divisional	-9193
▁Excisional	-9194
▁Grievances	-9195
▁Incisional	-9196
▁Investment	-9197
▁Sivagangai	-9198
▁Supportive	-9199
▁Tiruchirap	-9200
▁beneficial	-9201
▁cerebellum	-9202
▁complement	-9203
▁equatorial	-9204
▁equipments	-9205
▁neurologic	-9206
▁organelles	-9207
▁refractory	-9208
▁supplement	-9209
▁surrounded	-9210
▁translator	-9211
▁undertakes	-9212
▁Governments	-9213
▁Krishnagiri	-9214
▁Ministerial	-9215
▁Scholarship	-9216
▁computation	-9217
▁consequence	-9218
▁constituent	-9219
▁dissociates	-9220
▁essentially	-9221
▁formalities	-9222
▁necessarily	-9223
▁programming	-9224
▁superficial	-9225
▁Neurological	-9226
▁architecture	-9227
▁constructive	-9228
▁disqualified	-9229
▁experimental	-9230
▁inflammation	-9231
▁nationalized	-9232
▁neighbouring	-9233
▁temperatures	-9234
▁translations	-9235
▁transmission	-9236
▁Thiruvalluvar	-9237
▁disadvantages	-9238
▁promyelocytic	-9239
▁glyceraldehyde	-9240
▁hydrophobicity	-9241
▁phospholipases	-9242
▁differentiation	-9243
▁glycoconjugates	-9244
▁myelodysplastic	-9245
.’	-9246
35	-9247
44	-9248
46	-9249
86	-9250
AC	-9251
An	-9252
As	-9253
BM	-9254
CC	-9255
DH	-9256
FO	-9257
IZ	-9258
NH	-9259
RG	-9260
So	-9261
bu	-9262
hr	-9263
mu	-9264
oj	-9265
ABL	-9266
AID	-9267
ANG	-9268
DRP	-9269
EDA	-9270
MPL	-9271
OYE	-9272
RIC	-9273
ahs	-9274
aug	-9275
ees	-9276
fly	-9277
ika	-9278
lia	-9279
lis	-9280
lit	-9281
lus	-9282
mar	-9283
syl	-9284
uff	-9285
urb	-9286
urd	-9287
urt	-9288
▁2,	-9289
▁2.	-9290
▁56	-9291
▁81	-9292
▁91	-9293
▁92	-9294
▁BH	-9295
▁CP	-9296
▁Gh	-9297
▁fa	-9298
▁hi	-9299
▁il	-9300
▁wi	-9301
,0,0	-9302
/200	-9303
LICY	-9304
abha	-9305
ades	-9306
aray	-9307
ards	-9308
axic	-9309
comp	-9310
ding	-9311
erry	-9312
five	-9313
inic	-9314
iocy	-9315
isal	-9316
ixel	-9317
mosp	-9318
odes	-9319
oget	-9320
orin	-9321
osit	-9322
raft	-9323
rase	-9324
room	-9325
yyan	-9326
▁193	-9327
▁5,0	-9328
▁APL	-9329
▁CIT	-9330
▁DIP	-9331
▁FIN	-9332
▁GIS	-9333
▁GRA	-9334
▁His	-9335
▁MIN	-9336
▁Mor	-9337
▁Ref	-9338
▁Sel	-9339
▁Sri	-9340
▁Sun	-9341
▁Vis	-9342
▁Yes	-9343
▁alk	-9344
▁bea	-9345
▁inj	-9346
▁obl	-9347
▁ped	-9348
▁por	-9349
▁rat	-9350
▁sac	-9351
OYEES	-9352
Phase	-9353
amber	-9354
amous	-9355
anted	-9356
apore	-9357
astes	-9358
atect	-9359
athiy	-9360
atson	-9361
based	-9362
copic	-9363
enoic	-9364
esian	-9365
heast	-9366
ialic	-9367
iment	-9368
inter	-9369
iocyt	-9370
iries	-9371
ocrin	-9372
offic	-9373
olden	-9374
oline	-9375
ommod	-9376
ondon	-9377
power	-9378
rears	-9379
rosis	-9380
▁1500	-9381
▁ASBA	-9382
▁Cart	-9383
▁Coll	-9384
▁Copy	-9385
▁Coun	-9386
▁EMPL	-9387
▁Fact	-9388
▁Gene	-9389
▁Hend	-9390
▁Mand	-9391
▁Meas	-9392
▁Name	-9393
▁Nort	-9394
▁Park	-9395
▁Prad	-9396
▁Rest	-9397
▁Ring	-9398
▁Same	-9399
▁Scal	-9400
▁Tahs	-9401
▁Time	-9402
▁cert	-9403
▁cook	-9404
▁coun	-9405
▁defe	-9406
▁fork	-9407
▁grav	-9408
▁grid	-9409
▁hosp	-9410
▁join	-9411
▁limb	-9412
▁maps	-9413
▁mere	-9414
▁mist	-9415
▁pert	-9416
▁plat	-9417
▁rail	-9418
▁semi	-9419
▁sera	-9420
▁visc	-9421
asters	-9422
atomic	-9423
hydrin	-9424
ivided	-9425
izures	-9426
nemara	-9427
orphic	-9428
otaxic	-9429
pectin	-9430
terday	-9431
thanol	-9432
uclein	-9433
unagar	-9434
urgeon	-9435
vation	-9436
veolar	-9437
▁2009.	-9438
▁8,0,0	-9439
▁Antib	-9440
▁Block	-9441
▁Funds	-9442
▁Japan	-9443
▁Marri	-9444
▁NSAID	-9445
▁Offer	-9446
▁Plate	-9447
▁Share	-9448
▁Short	-9449
▁Staff	-9450
▁Units	-9451
▁WORKS	-9452
▁amine	-9453
▁ammon	-9454
▁bulky	-9455
▁chond	-9456
▁coval	-9457
▁deter	-9458
▁drast	-9459
▁exped	-9460
▁faith	-9461
▁fused	-9462
▁glial	-9463
▁heirs	-9464
▁illeg	-9465
▁inaug	-9466
▁innov	-9467
▁isole	-9468
▁lanes	-9469
▁loose	-9470
▁macro	-9471
▁merge	-9472
▁mimic	-9473
▁newsp	-9474
▁patta	-9475
▁pixel	-9476
▁plies	-9477
▁redox	-9478
▁resol	-9479
▁scans	-9480
▁scene	-9481
▁sigma	-9482
▁socio	-9483
▁steam	-9484
▁syner	-9485
▁tense	-9486
▁therm	-9487
▁throm	-9488
▁touch	-9489
▁usage	-9490
▁wages	-9491
▁walls	-9492
▁worry	-9493
astatic	-9494
ausible	-9495
ensions	-9496
ependym	-9497
etitive	-9498
ilation	-9499
inating	-9500
lements	-9501
liament	-9502
ogether	-9503
utation	-9504
▁10,000	-9505
▁50,000	-9506
▁Biopsy	-9507
▁Cinema	-9508
▁Davson	-9509
▁Demand	-9510
▁Govern	-9511
▁Labour	-9512
▁London	-9513
▁Mining	-9514
▁POLICY	-9515
▁Please	-9516
▁Retino	-9517
▁Spleen	-9518
▁Taluks	-9519
▁Though	-9520
▁Watson	-9521
▁agglut	-9522
▁analog	-9523
▁atmosp	-9524
▁bought	-9525
▁bronch	-9526
▁bullet	-9527
▁bundle	-9528
▁clever	-9529
▁colony	-9530
▁concur	-9531
▁correl	-9532
▁dabsyl	-9533
▁deeper	-9534
▁defect	-9535
▁dissem	-9536
▁donors	-9537
▁duplex	-9538
▁eluted	-9539
▁excess	-9540
▁exclud	-9541
▁expiry	-9542
▁female	-9543
▁finger	-9544
▁hostel	-9545
▁intram	-9546
▁ketose	-9547
▁lining	-9548
▁losing	-9549
▁magnes	-9550
▁maxima	-9551
▁passes	-9552
▁philos	-9553
▁portal	-9554
▁protru	-9555
▁server	-9556
▁settle	-9557
▁sialic	-9558
▁sickle	-9559
▁slides	-9560
▁symbol	-9561
▁throat	-9562
▁vector	-9563
▁worked	-9564
ammatory	-9565
asophary	-9566
astrocyt	-9567
atectomy	-9568
hematics	-9569
missible	-9570
▁Balance	-9571
▁Banking	-9572
▁Connect	-9573
▁Faculty	-9574
▁Fighter	-9575
▁Genetic	-9576
▁Highway	-9577
▁Perform	-9578
▁Pradesh	-9579
▁Presses	-9580
▁Related	-9581
▁Revised	-9582
▁Systems	-9583
▁Tahsild	-9584
▁Tollens	-9585
▁Vaccine	-9586
▁ancient	-9587
▁anomers	-9588
▁applies	-9589
▁article	-9590
▁biggest	-9591
▁billion	-9592
▁biochem	-9593
▁convers	-9594
▁counter	-9595
▁damages	-9596
▁demonst	-9597
▁descend	-9598
▁discrim	-9599
▁dispers	-9600
▁enabled	-9601
▁essence	-9602
▁faculty	-9603
▁generic	-9604
▁hostile	-9605
▁infrast	-9606
▁insulin	-9607
▁largely	-9608
▁lengths	-9609
▁neither	-9610
▁ovaries	-9611
▁packing	-9612
▁plotted	-9613
▁pointed	-9614
▁profile	-9615
▁readers	-9616
▁relaxed	-9617
▁renewed	-9618
▁selling	-9619
▁subunit	-9620
▁ventric	-9621
▁version	-9622
▁weather	-9623
▁willing	-9624
atologist	-9625
aturation	-9626
iocyanate	-9627
osarcomas	-9628
ptidoglyc	-9629
steroidal	-9630
ucleotide	-9631
▁Calcined	-9632
▁Endocrin	-9633
▁Hydrogen	-9634
▁Judicial	-9635
▁Personal	-9636
▁Teratoid	-9637
▁Vascular	-9638
▁Widening	-9639
▁absorbed	-9640
▁abundant	-9641
▁accommod	-9642
▁assembly	-9643
▁citizens	-9644
▁convened	-9645
▁deciding	-9646
▁defining	-9647
▁develops	-9648
▁enabling	-9649
▁ensuring	-9650
▁examined	-9651
▁exempted	-9652
▁familiar	-9653
▁fullness	-9654
▁genetics	-9655
▁initiate	-9656
▁learners	-9657
▁mediated	-9658
▁membered	-9659
▁methanol	-9660
▁misclass	-9661
▁nonpolar	-9662
▁outcomes	-9663
▁responds	-9664
▁scrutiny	-9665
▁suppress	-9666
▁tendency	-9667
▁trioxide	-9668
▁wherever	-9669
ordination	-9670
urosurgeon	-9671
▁Connemara	-9672
▁EMPLOYEES	-9673
▁Henderson	-9674
▁Northeast	-9675
▁Otherwise	-9676
▁Poramboke	-9677
▁Providing	-9678
▁Structure	-9679
▁Universal	-9680
▁addresses	-9681
▁aggrieved	-9682
▁belonging	-9683
▁conjugate	-9684
▁consensus	-9685
▁cytoplasm	-9686
▁discharge	-9687
▁earmarked	-9688
▁effecting	-9689
▁elsewhere	-9690
▁finalized	-9691
▁fulfilled	-9692
▁generates	-9693
▁governing	-9694
▁hepatitis	-9695
▁imparting	-9696
▁inability	-9697
▁injection	-9698
▁inspector	-9699
▁institute	-9700
▁investing	-9701
▁mediastin	-9702
▁necessity	-9703
▁netropsin	-9704
▁partition	-9705
▁performed	-9706
▁predicted	-9707
▁protected	-9708
▁recruited	-9709
▁reporting	-9710
▁sclerosis	-9711
▁strengths	-9712
▁subdomain	-9713
▁surrounds	-9714
▁synuclein	-9715
▁translate	-9716
▁workshops	-9717
astrocytoma	-9718
ocorticoids	-9719
▁Collection	-9720
▁Commercial	-9721
▁Dharmapuri	-9722
▁Inspectors	-9723
▁Literature	-9724
▁Procedures	-9725
▁Treatments	-9726
▁absorbance	-9727
▁amendments	-9728
▁appearance	-9729
▁approaches	-9730
▁attachment	-9731
▁carboxylic	-9732
▁confidence	-9733
▁consistent	-9734
▁converting	-9735
▁covalently	-9736
▁daunomycin	-9737
▁dimensions	-9738
▁follicular	-9739
▁immunosupp	-9740
▁indirectly	-9741
▁isoleucine	-9742
▁mechanisms	-9743
▁metabolism	-9744
▁performing	-9745
▁promotions	-9746
▁qualifying	-9747
▁signalling	-9748
▁solubility	-9749
▁subscribed	-9750
▁Cooperative	-9751
▁Hydrophobic	-9752
▁Lymphocytes	-9753
▁Secretaries	-9754
▁Undertaking	-9755
▁agriculture	-9756
▁amylopectin	-9757
▁coordinates	-9758
▁identifying	-9759
▁registering	-9760
▁replacement	-9761
▁replication	-9762
▁sphingosine	-9763
▁stabilizing	-9764
▁statistical	-9765
▁stereotaxic	-9766
Incorporation	-9767
ofibrosarcoma	-9768
▁Disciplinary	-9769
▁Embolization	-9770
▁Metropolitan	-9771
▁Notification	-9772
▁Organisation	-9773
▁Professional	-9774
▁cerebrosides	-9775
▁competitions	-9776
▁connectivity	-9777
▁disadvantage	-9778
▁evolutionary	-9779
▁implications	-9780
▁microtubules	-9781
▁pathological	-9782
▁prerequisite	-9783
▁significance	-9784
▁structurally	-9785
▁surveillance	-9786
▁Kanniyakumari	-9787
▁advertisement	-9788
▁automatically	-9789
▁comparatively	-9790
▁documentation	-9791
▁phenylalanine	-9792
▁proteoglycans	-9793
▁strengthening	-9794
▁translocation	-9795
▁monosaccharide	-9796
▁myelomonocytic	-9797
▁Endocrinologist	-9798
▁oligosaccharide	-9799
):	-9800
18	-9801
41	-9802
52	-9803
70	-9804
80	-9805
87	-9806
EG	-9807
HI	-9808
IM	-9809
LC	-9810
MP	-9811
RS	-9812
Th	-9813
ae	-9814
fo	-9815
ns	-9816
▁[	-9817
201	-9818
AST	-9819
EST	-9820
IGH	-9821
MIN	-9822
OTE	-9823
RAL	-9824
TER	-9825
ann	-9826
box	-9827
bre	-9828
des	-9829
ios	-9830
lly	-9831
lop	-9832
mia	-9833
nic	-9834
oep	-9835
oga	-9836
otw	-9837
set	-9838
tte	-9839
ttp	-9840
unj	-9841
www	-9842
yar	-9843
▁(3	-9844
▁0.	-9845
▁73	-9846
▁82	-9847
▁97	-9848
▁EC	-9849
▁GI	-9850
▁IE	-9851
▁NK	-9852
▁Sa	-9853
▁Sl	-9854
▁UG	-9855
▁Ud	-9856
▁et	-9857
▁ib	-9858
▁kn	-9859
OLAR	-9860
Rhab	-9861
abad	-9862
apse	-9863
arai	-9864
ason	-9865
aths	-9866
cast	-9867
down	-9868
eric	-9869
erus	-9870
feas	-9871
hesh	-9872
ione	-9873
muir	-9874
obil	-9875
▁	-9876
e	-9877
t	-9878
a	-9879
o	-9880
i	-9881
n	-9882
r	-9883
s	-9884
h	-9885
l	-9886
c	-9887
d	-9888
m	-9889
u	-9890
p	-9891
f	-9892
y	-9893
g	-9894
b	-9895
w	-9896
.	-9897
v	-9898
,	-9899
k	-9900
T	-9901
S	-9902
A	-9903
I	-9904
-	-9905
C	-9906
x	-9907
0	-9908
N	-9909
R	-9910
P	-9911
D	-9912
1	-9913
E	-9914
M	-9915
L	-9916
2	-9917
B	-9918
O	-9919
q	-9920
G	-9921
H	-9922
F	-9923
)	-9924
(	-9925
W	-9926
j	-9927
z	-9928
:	-9929
3	-9930
5	-9931
9	-9932
'	-9933
’	-9934
4	-9935
?	-9936
6	-9937
U	-9938
K	-9939
8	-9940
7	-9941
V	-9942
/	-9943
Y	-9944
J	-9945
%	-9946
X	-9947
;	-9948
–	-9949
Q	-9950
&	-9951
‘	-9952
“	-9953
”	-9954
Z	-9955
"	-9956
!	-9957
+	-9958
‟	-9959
@	-9960
[	-9961
>	-9962
]	-9963
⁄	-9964
ī	-9965
`	-9966
ί	-9967
α	-9968
η	-9969
μ	-9970
χ	-9971
—	-9972
#	-9973
$	-9974
*	-9975
ā	-9976
<	-9977
°	-9978
à	-9979
é	-9980
ε	-9981
ا	-9982
ی	-9983
=	-9984
×	-9985
ä	-9986
í	-9987
ï	-9988
Č	-9989
β	-9990
ء	-9991
ك	-9992
ل	-9993
م	-9994
„	-9995
−	-9996
